{
  "version": "1.0",
  "truncation": null,
  "padding": null,
  "added_tokens": [
    {
      "id": 0,
      "content": "<pad>",
      "single_word": false,
      "lstrip": false,
      "rstrip": false,
      "normalized": false,
      "special": true
    },
    {
      "id": 1,
      "content": "<bos>",
      "single_word": false,
      "lstrip": false,
      "rstrip": false,
      "normalized": false,
      "special": true
    },
    {
      "id": 2,
      "content": "<eos>",
      "single_word": false,
      "lstrip": false,
      "rstrip": false,
      "normalized": false,
      "special": true
    },
    {
      "id": 3,
      "content": "<unk>",
      "single_word": false,
      "lstrip": false,
      "rstrip": false,
      "normalized": false,
      "special": true
    }
  ],
  "normalizer": null,
  "pre_tokenizer": {
    "type": "ByteLevel",
    "add_prefix_space": true,
    "trim_offsets": true,
    "use_regex": true
  },
  "post_processor": null,
  "decoder": {
    "type": "ByteLevel",
    "add_prefix_space": true,
    "trim_offsets": true,
    "use_regex": true
  },
  "model": {
    "type": "BPE",
    "dropout": null,
    "unk_token": "<unk>",
    "continuing_subword_prefix": null,
    "end_of_word_suffix": null,
    "fuse_unk": false,
    "byte_fallback": false,
    "ignore_merges": false,
    "vocab": {
      "<pad>": 0,
      "<bos>": 1,
      "<eos>": 2,
      "<unk>": 3,
      "!": 4,
      "#": 5,
      "&": 6,
      "(": 7,
      ")": 8,
      "*": 9,
      "+": 10,
      ",": 11,
      "-": 12,
      ".": 13,
      "/": 14,
      "0": 15,
      "1": 16,
      "2": 17,
      "3": 18,
      "4": 19,
      "5": 20,
      "6": 21,
      "7": 22,
      "8": 23,
      "9": 24,
      ":": 25,
      ";": 26,
      "?": 27,
      "A": 28,
      "B": 29,
      "C": 30,
      "D": 31,
      "E": 32,
      "F": 33,
      "G": 34,
      "H": 35,
      "I": 36,
      "J": 37,
      "K": 38,
      "L": 39,
      "M": 40,
      "N": 41,
      "O": 42,
      "P": 43,
      "Q": 44,
      "R": 45,
      "S": 46,
      "T": 47,
      "U": 48,
      "V": 49,
      "W": 50,
      "X": 51,
      "Z": 52,
      "a": 53,
      "b": 54,
      "c": 55,
      "d": 56,
      "e": 57,
      "f": 58,
      "g": 59,
      "h": 60,
      "i": 61,
      "j": 62,
      "k": 63,
      "l": 64,
      "m": 65,
      "n": 66,
      "o": 67,
      "p": 68,
      "q": 69,
      "r": 70,
      "s": 71,
      "t": 72,
      "u": 73,
      "v": 74,
      "w": 75,
      "x": 76,
      "y": 77,
      "z": 78,
      "¡": 79,
      "¢": 80,
      "£": 81,
      "¤": 82,
      "¥": 83,
      "¦": 84,
      "§": 85,
      "¨": 86,
      "©": 87,
      "ª": 88,
      "«": 89,
      "¬": 90,
      "®": 91,
      "¯": 92,
      "°": 93,
      "±": 94,
      "²": 95,
      "³": 96,
      "´": 97,
      "µ": 98,
      "¶": 99,
      "·": 100,
      "¸": 101,
      "¹": 102,
      "º": 103,
      "»": 104,
      "¼": 105,
      "½": 106,
      "¾": 107,
      "¿": 108,
      "Â": 109,
      "Ã": 110,
      "Ð": 111,
      "Ñ": 112,
      "â": 113,
      "ĉ": 114,
      "Ċ": 115,
      "Ġ": 116,
      "Ģ": 117,
      "ģ": 118,
      "Ĥ": 119,
      "ĥ": 120,
      "Ħ": 121,
      "ħ": 122,
      "Ĩ": 123,
      "ĩ": 124,
      "Ī": 125,
      "ī": 126,
      "Ĭ": 127,
      "ĭ": 128,
      "Į": 129,
      "į": 130,
      "İ": 131,
      "ı": 132,
      "Ĳ": 133,
      "ĳ": 134,
      "Ĵ": 135,
      "ĵ": 136,
      "Ķ": 137,
      "ķ": 138,
      "ĸ": 139,
      "Ĺ": 140,
      "ĺ": 141,
      "Ļ": 142,
      "ļ": 143,
      "Ľ": 144,
      "ľ": 145,
      "Ŀ": 146,
      "ŀ": 147,
      "Ł": 148,
      "ł": 149,
      "Ń": 150,
      "ĠÐ": 151,
      "Ð¾": 152,
      "Ð°": 153,
      "Ðµ": 154,
      "ÑĤ": 155,
      "Ð¸": 156,
      "Ñģ": 157,
      "ÑĢ": 158,
      "Ð»": 159,
      "Ð½": 160,
      "Ð¾Ð": 161,
      "Ñĥ": 162,
      "Ð°Ð": 163,
      "ÑĮ": 164,
      "Ñı": 165,
      "ÐµÐ": 166,
      "Ñĭ": 167,
      "ĠÐ¿": 168,
      "ĠÑģ": 169,
      "Ñĩ": 170,
      "ĠÐ½": 171,
      "Ðº": 172,
      "ĠÐ²": 173,
      "Ð²": 174,
      "Ð´": 175,
      "ÑĤÐ¾": 176,
      "Ð¼": 177,
      "ĠÐ¾": 178,
      "ÑĪ": 179,
      "Ð°Ð»": 180,
      "ĠÐ¸": 181,
      "âĢ": 182,
      "ÑĢÐ¸": 183,
      "ĠÐº": 184,
      "ÑģÑĤ": 185,
      "ÐµÐ½": 186,
      "ĠÐ´": 187,
      "Ñħ": 188,
      "ÐµÑĢ": 189,
      "ÐµÑĤ": 190,
      "Ð¾Ð²": 191,
      "ĠÑĤ": 192,
      "Ð½Ð¾": 193,
      "ĠÐ¼": 194,
      "ÐµÐ»": 195,
      "³Ð¾": 196,
      "ĠÐ±": 197,
      "Ñİ": 198,
      "Ð°Ðº": 199,
      "Ð¿": 200,
      "ÑĤÑĮ": 201,
      "ÑĢÐ¾": 202,
      "Ð¸Ð»": 203,
      "ĠÑĥ": 204,
      "Ð¾Ð¼": 205,
      "ĠÑĩ": 206,
      "ĠÐ·": 207,
      "âĢĵ": 208,
      "Ð±": 209,
      "Ð¾Ð»": 210,
      "ÑģÑı": 211,
      "Ð°ÑĢ": 212,
      "Ð½Ð°": 213,
      "ĠÐ½Ðµ": 214,
      "Ð·": 215,
      "ĠÐµ": 216,
      "Ð½Ð¸": 217,
      "Ð¶": 218,
      "Ð°Ñģ": 219,
      "Ð»Ð¸": 220,
      "Ð¾Ð´": 221,
      "Ð¾Ð¹": 222,
      "ÐµÐ¼": 223,
      "ĠÑĢ": 224,
      "ĠĊ": 225,
      "ĠÐ¿Ð¾": 226,
      "ĠÐĵ": 227,
      "Ð¹": 228,
      "ĠÐ½Ð°": 229,
      "Ð°Ð¼": 230,
      "Ð°Ð·": 231,
      "Ð°Ð²": 232,
      "Ð¾Ð³": 233,
      "Ð³": 234,
      "Ñī": 235,
      "ĠÑĩÑĤÐ¾": 236,
      "ĠÑ": 237,
      "Ð¾ÑĤ": 238,
      "Ð½Ñĭ": 239,
      "Ð½Ñĥ": 240,
      "âĢĶ": 241,
      "Ð¾ÑĢ": 242,
      "ÐµÐ¹": 243,
      "Âł": 244,
      "Ð¸ÑĤ": 245,
      "Ð°ÑĤÑĮ": 246,
      "ÑĨ": 247,
      "Ð°ÑĢÑĢÐ¸": 248,
      "ÐµÐ´": 249,
      "ĠÐ»": 250,
      "Ð¾Ð¶": 251,
      "ĠÐ¾ÑĤ": 252,
      "Ð°Ð´": 253,
      "ĠÐ±Ñĭ": 254,
      "Ð¾Ðº": 255,
      "Ð¾Ð±": 256,
      "ĠÑį": 257,
      "ĠâĢĵ": 258,
      "ĠÐĵÐ°ÑĢÑĢÐ¸": 259,
      "ÐĶ": 260,
      "Ð½Ðµ": 261,
      "ĠÐ¿ÑĢÐ¾": 262,
      "ÑģÑĮ": 263,
      "ĠÑı": 264,
      "Ñĳ": 265,
      "ÐµÐ±": 266,
      "ÐºÐ¸": 267,
      "ĠÐĶ": 268,
      "ÐµÐ²": 269,
      "Ð´Ð°": 270,
      "ĠÐ³": 271,
      "ÐºÐ°": 272,
      "Ð¼Ð¸": 273,
      "Ð°ÑĤ": 274,
      "ĠÐ¿ÑĢ": 275,
      "Ð¾Ð³Ð¾": 276,
      "Ðļ": 277,
      "ÑĢÑĥ": 278,
      "ĠÐ¿ÑĢÐ¸": 279,
      "Ð°Ð½": 280,
      "Ð¸Ð²": 281,
      "Ð³Ð¾": 282,
      "ÐµÑģ": 283,
      "Ð¾Ð½": 284,
      "Ċĉ": 285,
      "ĠÐ²Ñģ": 286,
      "ĠÐ¶": 287,
      "ÑĪÑĮ": 288,
      "Ð°Ð»Ð°": 289,
      "Ð¢": 290,
      "ÐµÐ½Ð¸": 291,
      "Ġ-": 292,
      "ĠÐ¾Ð½": 293,
      "ÐĶÐ°": 294,
      "ĠÐŁ": 295,
      "Ð²Ð¾": 296,
      "ĠÑħ": 297,
      "ÑĦ": 298,
      "ÐŁ": 299,
      "ÐºÐ¾": 300,
      "ĠÐºÐ°Ðº": 301,
      "Ð»Ð°": 302,
      "ĠÐĿ": 303,
      "ĠÑģÑĤ": 304,
      "ĠÐ²Ñĭ": 305,
      "ĠÐ¡": 306,
      "Ð¸Ð½": 307,
      "Ð»Ð¾": 308,
      "ĠÑĤÐ¾": 309,
      "ĠÑĤÐ°Ðº": 310,
      "Ð»Ñı": 311,
      "ÐĲ": 312,
      "ĠÐ¿Ð¾Ð´": 313,
      "Ð°Ð¶": 314,
      "ĠÐ¾Ð±": 315,
      "Ð¸Ð´": 316,
      "ÑĢÐ°": 317,
      "Ð¸ÑĤÑĮ": 318,
      "ĠÐĲ": 319,
      "ÐĿ": 320,
      "ÐµÐ³Ð¾": 321,
      "ÐµÐ½ÑĮ": 322,
      "ÐºÑĥ": 323,
      "ĠÑįÑĤÐ¾": 324,
      "ĠÐ°": 325,
      "ÑģÑĤÐ²": 326,
      "ĠÐ·Ð°": 327,
      "Ð¾Ð»ÑĮ": 328,
      "Ðŀ": 329,
      "Ð°Ð±": 330,
      "ĠÑģÐ»": 331,
      "ÐµÐº": 332,
      "ĠÐµÐ³Ð¾": 333,
      "ÐµÑĩ": 334,
      "Ð°Ñı": 335,
      "ÑĥÐ´": 336,
      "ĠÐ³Ð¾": 337,
      "ĠÐ½Ð¸": 338,
      "ÑĤÐ¸": 339,
      "ĠÐļ": 340,
      "ÐµÐ»ÑĮ": 341,
      "Ð¡": 342,
      "ÐµÑĢÐ¼Ð¸": 343,
      "Ð½ÑĥÐ»": 344,
      "Ð¾Ð·": 345,
      "Ð²ÐµÑĤ": 346,
      "ÐµÐ·": 347,
      "ĠÐŀ": 348,
      "ĠÑģÐ¿": 349,
      "ĠÐĴ": 350,
      "ÐµÑĢÐ¼Ð¸Ð¾": 351,
      "ÐºÐ°Ð·": 352,
      "ĠÐ½Ð¾": 353,
      "ÐµÑĪÑĮ": 354,
      "Ð½Ñı": 355,
      "Ð¢Ñĭ": 356,
      "Ð¾Ð³Ð´Ð°": 357,
      "ÑģÑĤÑĮ": 358,
      "ÑĥÑĩ": 359,
      "ÐµÐ¿": 360,
      "Ð°ÐµÑĤ": 361,
      "ĠÐ¸Ð·": 362,
      "Ð¾ÑĢÐ¾": 363,
      "ÑĭÐ¹": 364,
      "ÑĥÐ¼": 365,
      "Ð°Ð¹": 366,
      "Ð°ÑģÑĮ": 367,
      "ĠÐĵÐµÑĢÐ¼Ð¸Ð¾": 368,
      "Ð½ÑĭÐ¹": 369,
      "Ð°Ñİ": 370,
      "ÑĥÑĪ": 371,
      "ÐļÐ°Ðº": 372,
      "Ð¾Ñĩ": 373,
      "Ð»ÑĮ": 374,
      "Ð¾Ð¿": 375,
      "ĠÐł": 376,
      "ÑĪÐ¸": 377,
      "ĠÐºÐ¾": 378,
      "ÐµÑģÑĤ": 379,
      "ĠÐľ": 380,
      "ÑģÐ»": 381,
      "ĠÐ²ÑģÐµ": 382,
      "ÑģÐ°": 383,
      "ĠÑĢÐ°Ð·": 384,
      "ĠÑĤÑĭ": 385,
      "Ð°Ð»Ð¸": 386,
      "Ð¼Ñĥ": 387,
      "ÑĭÐ²": 388,
      "Ð°Ð»ÑĮ": 389,
      "ĠÑĤÐµÐ±": 390,
      "Ð¸Ð»Ð°": 391,
      "ĠÑģÐ²Ð¾": 392,
      "Ð§": 393,
      "Ð°Ð¿": 394,
      "ĠÐ¾Ð½Ð°": 395,
      "ÐµÐ½Ñı": 396,
      "ĠÐ¿ÐµÑĢ": 397,
      "ÐµÐ³": 398,
      "Ð°Ð¼Ð¸": 399,
      "Ð°Ð³": 400,
      "ÑĢÑĥÐ³": 401,
      "ĠÐ¢": 402,
      "Ð¸Ð¼": 403,
      "ÐĴ": 404,
      "Ðĵ": 405,
      "ÑĢÐ¾Ñģ": 406,
      "ÑĥÐ¶": 407,
      "ÑĪÐµ": 408,
      "ÑĩÐµÐ½ÑĮ": 409,
      "ÑģÐ¿": 410,
      "ÐµÐ¶": 411,
      "ÑĥÑĤ": 412,
      "Ð½Ð¾Ð³Ð¾": 413,
      "ÑıÑĤ": 414,
      "ÐµÐ»Ð°": 415,
      "Ð½Ð¾Ð¹": 416,
      "ĠÐ¼ÐµÐ½Ñı": 417,
      "ĠÐĶÐ¶": 418,
      "ĠÐ¯": 419,
      "ÑģÐº": 420,
      "ÐµÐ½Ð½Ð¾": 421,
      "Ð½ÑĭÐµ": 422,
      "ĠÑģÐºÐ°Ð·": 423,
      "ÑģÑĤÐ¸": 424,
      "ÑģÐ»Ð¸": 425,
      "ĠÐĵÐµÑĢÐ¼Ð¸Ð¾Ð½Ð°": 426,
      "Ð¾Ð²Ð¾": 427,
      "ÑĢÐ°Ð²": 428,
      "ÐŁÑĢÐ¸": 429,
      "âĢ¦": 430,
      "Ð¸Ñħ": 431,
      "Ð¸Ð»Ð¸": 432,
      "ÑĤÐ¾ÑĢ": 433,
      "ÐµÐ¹Ð¼": 434,
      "Ðĺ": 435,
      "ÑĥÐ¿": 436,
      "ĠÐ¿Ð¾Ð»": 437,
      "ĠÑĥÐ¶": 438,
      "ÑĩÐ½Ð¾": 439,
      "Ð¼Ð¾ÑĤ": 440,
      "ĠÐºÑĢ": 441,
      "ÑĤÐ¾Ð¼": 442,
      "ĠÐĶÐ¶ÐµÐ¹Ð¼": 443,
      "ÑĥÑİ": 444,
      "ÐµÐ¼Ñĥ": 445,
      "Ð¸Ð·": 446,
      "Ð¸Ð»ÑģÑı": 447,
      "ĠÐ¶Ðµ": 448,
      "ÑİÐ±": 449,
      "ĠÑĪ": 450,
      "Ð°Ð»ÑģÑı": 451,
      "ĠÐ¼Ð½Ðµ": 452,
      "Ð½ÐµÐ¹": 453,
      "ĠÐ»Ð¸": 454,
      "Ð°Ð»Ð¾": 455,
      "Ð°Ð½Ð¸": 456,
      "ĠÐ´Ð¾": 457,
      "ĠÐ²Ð·": 458,
      "Ð½Ð¾Ðµ": 459,
      "Ð»Ð°Ñģ": 460,
      "ĠÐ±ÑĭÐ»Ð¾": 461,
      "ÑĤÐµÑĢ": 462,
      "ĠÐ¿Ð¾Ðº": 463,
      "ĠÑģÐµÐ±": 464,
      "Ð§ÑĤÐ¾": 465,
      "ĠÐ³Ð»": 466,
      "Ð¾Ð¶Ðµ": 467,
      "ĠÐĺ": 468,
      "Ð´Ð¾ÑĢ": 469,
      "Ð¸Ñģ": 470,
      "Ð»ÑĮÐºÐ¾": 471,
      "ĠÐ·Ð½Ð°": 472,
      "ÐŁÑĢÐ¸Ð²ÐµÑĤ": 473,
      "ÐµÐ½Ð¸Ðµ": 474,
      "ĠÐĳ": 475,
      "ÐµÑģÑģ": 476,
      "ÑĭÑĪ": 477,
      "Ð´Ðµ": 478,
      "Ð¼Ðµ": 479,
      "Â«": 480,
      "Â»": 481,
      "Ð»Ñİ": 482,
      "ĠÐµÑī": 483,
      "ĠÐ±ÑĥÐ´": 484,
      "Ð½Ð°Ñı": 485,
      "ÑĢÑı": 486,
      "ĠÐĽ": 487,
      "ĠÐ²Ð¾": 488,
      "ĠÑģÐ¾": 489,
      "ÑħÐ¾Ð´": 490,
      "ĠÐ²Ð¸Ð´": 491,
      "ÑīÐ¸": 492,
      "ĠÐ´ÑĢÑĥÐ³": 493,
      "ĠÑģÐ°Ð¼": 494,
      "ĠÑĤÐ¾Ð»ÑĮÐºÐ¾": 495,
      "Ð¾Ðµ": 496,
      "Ð¾Ð²Ð°": 497,
      "ĠÐĶÐ¶ÐµÐ¹Ð¼Ñģ": 498,
      "Ġ*": 499,
      "Ð½Ð¸Ðº": 500,
      "ĠÐ´ÐµÐ²": 501,
      "ĠÐ²Ð¾Ð·": 502,
      "ÑģÑĤÐ°Ð²": 503,
      "ĠÐĲÐ»Ð¸": 504,
      "ĠÐµÐ¼Ñĥ": 505,
      "ÐµÑĢÑĮ": 506,
      "ĠÐ±ÑĭÐ»": 507,
      "ĠÑĢÐ°Ñģ": 508,
      "ĠÑĢÑĥ": 509,
      "ĠÐ»ÑİÐ±": 510,
      "ĠÐ¼Ð¾Ð¶": 511,
      "ÐµÐ½Ð¸Ñı": 512,
      "ĠÐ¾Ð´": 513,
      "Ð»Ð°Ð´": 514,
      "ĠÐĿÐ¾": 515,
      "Ð¼Ð¾ÑĤÑĢ": 516,
      "Ð¾Ð²Ð¾ÑĢÐ¸": 517,
      "ĠÐŃ": 518,
      "ÐµÐ»Ð¸": 519,
      "ĠÐ¥": 520,
      "ĠÐ½Ð°Ð´": 521,
      "ÑĦÐµÑģÑģ": 522,
      "ÐĹ": 523,
      "ÑģÑĤÐ¾": 524,
      "ĠÐ¾ÑĩÐµÐ½ÑĮ": 525,
      "Ð¾ÑĢÐ¾ÑĪ": 526,
      "Ð»Ð¾Ð²": 527,
      "ÑģÑĤÑĢ": 528,
      "Ð°ÑĤÑĮÑģÑı": 529,
      "ĠÐłÐ¾Ð½": 530,
      "ĠÑĨ": 531,
      "Ð¸ÑĢ": 532,
      "ĠÐ´ÐµÐ»": 533,
      "ÑĩÐ¸": 534,
      "ĠÐºÐ¾Ð³Ð´Ð°": 535,
      "ĠÑĥÐ´": 536,
      "ĠÐ·Ð°Ðº": 537,
      "ĠÑįÑĤ": 538,
      "ÑĭÐµ": 539,
      "ĠÑģÑĤÐ¾": 540,
      "Ð½ÐµÐ¹Ð¿": 541,
      "Ðľ": 542,
      "ÐµÑĪ": 543,
      "ÑĩÐ¸ÑĤ": 544,
      "Ð°Ð¶Ðµ": 545,
      "ĠÑĤÐµÐ±Ñı": 546,
      "ĠÑĤÐµÐ±Ðµ": 547,
      "Ð¾Ð±Ñĭ": 548,
      "Ð¯": 549,
      "ĠÐ²Ð¾Ð»": 550,
      "ĠÐµÑģÐ»Ð¸": 551,
      "ĠÑĥÐ¶Ðµ": 552,
      "ÑĨÐ°": 553,
      "Ð¥": 554,
      "ĠÑģÐ²": 555,
      "Ð½Ð¸Ð¼": 556,
      "Ð³ÑĢ": 557,
      "Ð°Ð±Ð¾ÑĤ": 558,
      "Ð¸Ð»ÑĮ": 559,
      "ĠÐ¡Ð½ÐµÐ¹Ð¿": 560,
      "ĠÐ¿Ð¾Ð¼": 561,
      "ĠÐ¼Ñĭ": 562,
      "ĠÐµÑīÑĳ": 563,
      "Ð¸Ð»Ð¾": 564,
      "ĠÐ¿ÑĢÐ¾ÑĦÐµÑģÑģ": 565,
      "ĠÐŀÐ½": 566,
      "ĠÐ´Ð²": 567,
      "ĠÐ§": 568,
      "Ð´Ñĥ": 569,
      "ĠÐ±Ð¾Ð»ÑĮ": 570,
      "ĠâĢĶ": 571,
      "ÑĥÑģ": 572,
      "ĠÐµÑĳ": 573,
      "ÐµÐ»ÑĮÐ½Ð¾": 574,
      "ĠÐĲÐ»Ð¸ÑģÐ°": 575,
      "Ð´Ð¸": 576,
      "ĠÐ¾ÑĤÐ²ÐµÑĤ": 577,
      "ÑĢÐµÐ¼": 578,
      "ÐºÐµ": 579,
      "ÑĥÐ²": 580,
      "ĠÑģÐº": 581,
      "ĠÑĥÐ²": 582,
      "ÑĤÐ°": 583,
      "ĠÐ¿ÑĢÐµÐ´": 584,
      "ÑĥÑĢ": 585,
      "ĠÑĦ": 586,
      "ÑģÐµ": 587,
      "ĠÐ¼Ð¾": 588,
      "ĠÂ«": 589,
      "ÐĵÐ°ÑĢÑĢÐ¸": 590,
      "ĠÐ½ÐµÐ³Ð¾": 591,
      "Ð±Ð»": 592,
      "ĠÐ´Ð»Ñı": 593,
      "ĠÐ´Ð°Ð¶Ðµ": 594,
      "ÐµÑĤÑģÑı": 595,
      "ÑīÐµ": 596,
      "Ð½ÑĭÑħ": 597,
      "ĠÑĩÑĤ": 598,
      "ÑĢÑĭ": 599,
      "ĠÐ½Ð°Ñģ": 600,
      "ĠÐ¸Ð»Ð¸": 601,
      "ĠÐ¾Ð¿": 602,
      "ÐµÐ»Ð¾": 603,
      "ĠÐķ": 604,
      "ĠÐ¿Ð°ÑĢ": 605,
      "ĠÑģÐ¾Ð²": 606,
      "Ð°Ð»Ð°ÑģÑĮ": 607,
      "Ñį": 608,
      "ÑĭÑħ": 609,
      "ĠÐ³Ð»Ð°Ð·": 610,
      "ĠÐ½Ð¾Ð²": 611,
      "ĠÑħÐ¾ÑĤ": 612,
      "ĠÐ´ÐµÐ²ÑĥÑĪ": 613,
      "Ð¾ÑĢÐ¾ÑĪÐ¾": 614,
      "ĠÐ¿Ð¾ÑģÐ»": 615,
      "ĠÐ¿Ð¾Ñģ": 616,
      "ÑĢÐ¾Ðº": 617,
      "ĠÑģÐ¿ÑĢÐ¾Ñģ": 618,
      "ĠÑĢÐ°Ð±Ð¾ÑĤ": 619,
      "Ð°ÑĢÐ¸": 620,
      "ĠÐ´ÑĥÐ¼": 621,
      "Ð½ÑĭÐ¼": 622,
      "Ð¾Ñħ": 623,
      "Ð°Ð¼Ð±Ð»": 624,
      "ÑĥÐ²ÑģÑĤÐ²": 625,
      "ĠÑĩÑĤÐ¾Ð±Ñĭ": 626,
      "Ð°Ð¼Ð±Ð»Ð´Ð¾ÑĢ": 627,
      "ĠÐ£": 628,
      "ĠÐ¼Ð¾Ð³": 629,
      "ĠÑģÐºÐ°Ð·Ð°Ð»": 630,
      "Ð¸ÑĤÑĮÑģÑı": 631,
      "ĠÐ±Ð¾Ð»": 632,
      "ĠÑģÐµÐ±Ñı": 633,
      "ÐµÑĤÑĮ": 634,
      "Ð¾Ð¼Ñĥ": 635,
      "Ð°Ñħ": 636,
      "Ð¸Ñı": 637,
      "Ð»Ñĭ": 638,
      "ĠÐĶÐ°Ð¼Ð±Ð»Ð´Ð¾ÑĢ": 639,
      "ĠÐ³Ð¾Ð»Ð¾Ð²": 640,
      "ĠÐ¿Ð¾Ñĩ": 641,
      "Ð¸Ðµ": 642,
      "ÑĭÑĤ": 643,
      "ĠÑĥÑĩ": 644,
      "ĠÐ¿Ð¾Ð²": 645,
      "ÑģÑĤÑĢÐ¾": 646,
      "ĠÐºÐ¾ÑĤÐ¾ÑĢ": 647,
      "ĠÐ¸Ð½": 648,
      "Ð¸ÑĤÑģÑı": 649,
      "Ð°ÐµÑĪÑĮ": 650,
      "Ð½ÑĥÐ»Ð°": 651,
      "ÑĢÐµÐ´": 652,
      "Ð½ÑĥÐ»ÑģÑı": 653,
      "ĠÐ¸Ñħ": 654,
      "ĠÐ½Ð¸Ðº": 655,
      "ÐµÑĢÐ¸": 656,
      "Ð¾Ð»Ð¶": 657,
      "ÐºÐ¾Ð¹": 658,
      "Ð¾Ð±ÑĢ": 659,
      "Ð½ÐµÐ²": 660,
      "ĠÐ¿Ð¾Ð¿": 661,
      "ĠÐ·Ð°Ð¼": 662,
      "Ð½ÑĥÑİ": 663,
      "ĠÐºÐ¾Ð½": 664,
      "ĠÑĤÐ¾Ð¶Ðµ": 665,
      "ĠÐ¼Ð°Ð³": 666,
      "Ð¾ÑĢÐ¼": 667,
      "ÐµÑĢÐ¶": 668,
      "ĠÐ±Ð»": 669,
      "Ð½ÐµÐµ": 670,
      "ÑıÐ»": 671,
      "ĠÐºÐ¾Ð¼": 672,
      "Ð¸Ð»Ð°ÑģÑĮ": 673,
      "ÐĿÐµÑĤ": 674,
      "ÑĢÐ°Ñģ": 675,
      "ĠÐ¾Ð½Ð¸": 676,
      "ĠÐĹ": 677,
      "Ð´ÐµÐ»": 678,
      "ĠÐµÑģÑĤÑĮ": 679,
      "Ð¾Ð²Ð°ÑĤÑĮ": 680,
      "ĠÐ¿ÑĢÐ¾ÑĦÐµÑģÑģÐ¾ÑĢ": 681,
      "Ðĳ": 682,
      "ĠÐ¿ÑĢÐ¾ÑģÑĤÐ¾": 683,
      "Ð¾Ñģ": 684,
      "ÑĥÐ±": 685,
      "ÐºÐ¾Ð¼": 686,
      "ÐŀÑĩÐµÐ½ÑĮ": 687,
      "ĠÐ±ÑĢ": 688,
      "Ð¾Ð»ÑĮÐºÐ¾": 689,
      "Ð£": 690,
      "Ð»Ð°ÑģÑģ": 691,
      "ÑĤÐµ": 692,
      "ÑĤÐ¾Ð²": 693,
      "ÑıÐ´": 694,
      "ĠÐ¿Ð»": 695,
      "ĠÐ½Ð°Ð¿": 696,
      "ĠÐ²ÐµÑĢ": 697,
      "Ð²Ñĭ": 698,
      "Ð»Ð¸Ð·": 699,
      "ÐµÐ¿ÐµÑĢÑĮ": 700,
      "Ð¸Ð¸": 701,
      "Ð°Ð»Ð¾ÑģÑĮ": 702,
      "ĠÐ·Ð°Ð²": 703,
      "ÐºÐ¸Ð¹": 704,
      "ĠÐ±ÑĥÐ´ÐµÑĤ": 705,
      "ÑĩÐµÐ³Ð¾": 706,
      "Ð½ÐµÑĩÐ½Ð¾": 707,
      "ÑĤÐµÑĢÐµÑģ": 708,
      "ĠÐ¾Ñģ": 709,
      "ÑĪÐµÐ»": 710,
      "ĠÐ±ÐµÐ·": 711,
      "Ð½ÐµÑĨ": 712,
      "Ðł": 713,
      "Ð½ÑıÐ»": 714,
      "ĠÐµÐ¹": 715,
      "ĠÐĲÐ»Ð°Ð´": 716,
      "Ġ(": 717,
      "ÑıÑĤÑĮ": 718,
      "ĠÐ½ÐµÑĤ": 719,
      "Ð°ÑİÑĤ": 720,
      "ĠÐ¸ÑģÐ¿": 721,
      "ĠÐ³Ð¾Ð²Ð¾ÑĢÐ¸": 722,
      "ĠÑħÐ¾Ñĩ": 723,
      "ĠÑģÑĤÑĢ": 724,
      "ĊĊ": 725,
      "ĠÐ¿ÑĢÐ°Ð²": 726,
      "ÑĢÐ°Ð·": 727,
      "ĠÐ¿Ñĥ": 728,
      "ĠÐ½ÑĥÐ¶": 729,
      "Ð²Ð°ÑĤ": 730,
      "ĠÑĤÐ°ÐºÐ¾Ðµ": 731,
      "Ð°ÐµÑĤÑģÑı": 732,
      "ÑĤÐ¾Ð¼Ñĥ": 733,
      "ĠÑĥÐ²Ð¸Ð´": 734,
      "ĠÐºÑĤÐ¾": 735,
      "ÑĥÑħ": 736,
      "ĠÐ¼Ð¸": 737,
      "ĠÑģÐµÐ±Ðµ": 738,
      "Ð¸ÑĪÑĮ": 739,
      "ÑĢÐ¾Ð´": 740,
      "Ð½Ð¾Ð¼": 741,
      "ÐµÐ´ÑĮ": 742,
      "ĠÐ½ÐµÐ¼": 743,
      "ĠÐ¢Ñĭ": 744,
      "ÑĩÐ°": 745,
      "ĠÐ½Ð°Ñĩ": 746,
      "ĠÐ²ÑĢÐµÐ¼": 747,
      "Ð»Ðµ": 748,
      "ĠÐ·Ð½": 749,
      "Ð¾Ð¶Ð½Ð¾": 750,
      "ĠÐĶÐ°": 751,
      "ÑĪÐµÐ±": 752,
      "ĠÑĥÐ¼": 753,
      "ĠÑĩÐµÐ¼": 754,
      "Ð¾Ð³Ð»Ð°Ñģ": 755,
      "Ð»ÑıÐ´": 756,
      "ÐµÐµ": 757,
      "ĠÐ½ÐµÐ¿": 758,
      "Ð½ÐµÑģ": 759,
      "ÑĥÐ´Ð°": 760,
      "ĠÐ·Ð°Ð±": 761,
      "Ð±Ð¸": 762,
      "Ð½ÑĮ": 763,
      "ĠÐ¡Ð¸": 764,
      "ĠÐºÑĢÐ°Ñģ": 765,
      "ÑĥÐ¹": 766,
      "Ð²Ð°": 767,
      "ĠÑģÐºÐ°Ð·Ð°Ð»Ð°": 768,
      "ÐµÑĨ": 769,
      "Ð¾Ð²Ð°Ð»": 770,
      "ĠÑģÑĤÐ°ÑĢ": 771,
      "Ð´Ð¸Ð½": 772,
      "ĠÐ·Ð°Ð¿": 773,
      "Ð°Ð²Ð½Ð¾": 774,
      "ĠÐļÐ°Ðº": 775,
      "ĠP": 776,
      "ĠÐ¼Ð¾Ð¶Ð½Ð¾": 777,
      "ĠÐŃÑĤÐ¾": 778,
      "Ð¸Ð»Ð¾ÑģÑĮ": 779,
      "ĠÐ²ÐµÑĩ": 780,
      "ĠÐ¸Ð¼": 781,
      "ĠÐ½Ð¸Ð¼": 782,
      "ĠÐ¿Ð¾Ð»ÑĥÑĩ": 783,
      "ĠÐ²Ð¾Ð»ÑĪÐµÐ±": 784,
      "ĠÑĢÐ¾Ð´": 785,
      "ÐĽ": 786,
      "Ð¼Ð¾ÑĤÑĢÐµÐ»": 787,
      "ÑģÑĤÐ°": 788,
      "ĠÐµÐµ": 789,
      "ĠÐ¾Ñĩ": 790,
      "ĠÐ»ÑĥÑĩ": 791,
      "ĠÐŁÐ¾": 792,
      "ÐĿÐ°": 793,
      "ĠÑģÐ¾Ð±": 794,
      "Ð½ÑĥÑĤÑĮ": 795,
      "ÑĨÐµ": 796,
      "ÑĤÑĭ": 797,
      "Ð°Ð½Ð¸Ñı": 798,
      "ĠÐ¡Ð¸ÑĢÐ¸": 799,
      "ĠÑĥÑĢÐ¾Ðº": 800,
      "ÑĪÐ¸Ð¹": 801,
      "ĠÑģÑĤÑĢÐ°": 802,
      "ĠÐ§ÑĤÐ¾": 803,
      "ÑĤÑĢ": 804,
      "ĠÑĤÐ°Ð¼": 805,
      "ĠÐ¿ÑĢÐ¾Ð¸Ð·": 806,
      "ÑĢÐ¾Ð²": 807,
      "ÐµÐ½Ð°": 808,
      "ĠÐ²Ð¸Ð´ÐµÐ»": 809,
      "Ð°ÑĪ": 810,
      "ÐµÑħ": 811,
      "ĠÑĤÐµÐ¼": 812,
      "ĠÐ±ÑĭÐ»Ð°": 813,
      "ÑĩÐ°Ñģ": 814,
      "ĠÐ½ÐµÐ´": 815,
      "ĠÐ²ÑģÑĤÑĢ": 816,
      "ĠÐĿÐµ": 817,
      "ĠÐ¼Ð¾ÑĢ": 818,
      "ĠÑĥÑģÐ¿": 819,
      "ÑĨÑĭ": 820,
      "ĠÑģÐ»Ð¾Ð²": 821,
      "ÐŃ": 822,
      "ĠÐºÐ°Ð¶": 823,
      "ĠÑĤÑĢ": 824,
      "ĠÐ¿ÑĢÐ¾Ð´": 825,
      "ĠÐ½Ð¸ÑĩÐµÐ³Ð¾": 826,
      "ĠÑįÑĤÐ¾Ð³Ð¾": 827,
      "Ð»ÑĭÐ±": 828,
      "Ð¸Ð±": 829,
      "ĠÐ±ÑĭÑĤÑĮ": 830,
      "ĠÐŁÐ¾ÑĤ": 831,
      "ĠÑģÐ»ÑĭÑĪ": 832,
      "Ð°Ð½Ð¸Ðµ": 833,
      "ÑĬ": 834,
      "Ð°Ñĩ": 835,
      "ÑĤÑĥ": 836,
      "Ð¾Ð²Ð¾Ð»ÑĮ": 837,
      "ĠÑĥÐ»ÑĭÐ±": 838,
      "ĠÐ¾ÑĤÐ²": 839,
      "ĠÐ³Ð»Ð°Ð·Ð°": 840,
      "on": 841,
      "ÑĩÐµÑģ": 842,
      "ĠÑĥÐ±": 843,
      "Ð°Ð»Ð¸ÑģÑĮ": 844,
      "Â».": 845,
      "Ġ:": 846,
      "ÑıÐ·": 847,
      "ĠÐ²Ð¾ÑĤ": 848,
      "Ð°Ð»ÑĮÐ½Ð¾": 849,
      "ĠÑģÐ´ÐµÐ»": 850,
      "ĠÑĤÐµÐ¿ÐµÑĢÑĮ": 851,
      "Ġ:)": 852,
      "ĠÐ·Ð°Ð´": 853,
      "ĠÐ¿Ð¾Ð´ÑĥÐ¼": 854,
      "ĠÐ·Ð½Ð°ÐµÑĪÑĮ": 855,
      "ÑģÐµÐ¼": 856,
      "ÑĥÑī": 857,
      "ĠÐ¾ÑĤÐ²ÐµÑĤÐ¸Ð»": 858,
      "ÐºÐ¾Ð²": 859,
      "ĠÑĩÑĥÐ²ÑģÑĤÐ²": 860,
      "ĠÑĢÐ°ÑģÑģ": 861,
      "ÑĥÐ»": 862,
      "ĠÐ´Ð¾Ð¼": 863,
      "ĠÐ¿ÑĢÐ¾ÑĪ": 864,
      "ÑĤÑĢÐ°": 865,
      "Ð°ÐºÐ¾": 866,
      "ĠÑĩÐµÑĢ": 867,
      "ĠÐŀÐ½Ð°": 868,
      "ĠÐ¿Ð¾Ð·": 869,
      "ÐµÐ»Ð¾Ð²": 870,
      "ÑĢÐ¸ÑĦ": 871,
      "ĠÐ´Ð¾ÑĢ": 872,
      "Ð½Ð¸Ðµ": 873,
      "ĠÑģÐ½": 874,
      "ĠÐ½ÐµÐ¹": 875,
      "ĠÐ²Ð¿": 876,
      "ĠÑĤÐ²Ð¾": 877,
      "ÐµÐ¹ÑĩÐ°Ñģ": 878,
      "ĠÐ²ÐµÑĩÐµÑĢ": 879,
      "ĠÐ²ÑģÑĳ": 880,
      "ĠÐŁÐµÑĤ": 881,
      "ÑĭÐ¼": 882,
      "ĠÐ¿Ð¾Ð³": 883,
      "ĠÐ¿ÐµÑĢÐµÐ´": 884,
      "ĠÐ½Ð¾Ð²ÑĭÐ¹": 885,
      "ĠÐºÐ¾Ð»": 886,
      "ĠÐ½Ð°ÑĪ": 887,
      "Ð°Ð´Ð¾": 888,
      "Ð½ÐµÐ²Ð½Ð¸Ðº": 889,
      "ĠÑģÐ¼": 890,
      "ĠÐ´ÐµÐ»Ð°": 891,
      "ĠÐ¼Ð¾Ð¶ÐµÑĤ": 892,
      "Ð½Ð¾Ð²": 893,
      "ĠÑģÐ¼Ðµ": 894,
      "ĠÐµÐ´": 895,
      "ĠÐ¾ÑģÑĤ": 896,
      "ĠÐ»ÑĥÑĩÑĪÐµ": 897,
      "ĠÑģÐ¸Ð´": 898,
      "ĠĊĊ": 899,
      "ÑĥÐ³": 900,
      "ĠÐ½Ð°Ð²": 901,
      "ĠÐ¾Ñī": 902,
      "Ð¸ÑĤÐµÐ»ÑĮÐ½Ð¾": 903,
      "ÑģÑĤÐ²ÐµÐ½": 904,
      "ÑĢÐ°ÑĤ": 905,
      "ĠÐ½Ð°Ð¼": 906,
      "ÐºÐ½ÑĥÐ»": 907,
      "Ð²Ð°ÑĢ": 908,
      "ĠÐ¸Ñģ": 909,
      "ÑıÑĤÐ½Ð¾": 910,
      "ĠÐ±Ð¾Ð»ÑĮÑĪÐµ": 911,
      "ÑıÐ´Ð¾Ð¼": 912,
      "Ð¾Ð½Ð°": 913,
      "Ð´ÐµÐ¼": 914,
      "ĠÐºÐ½Ð¸": 915,
      "ÑİÑĤ": 916,
      "ÑİÐ¿": 917,
      "ĠÑįÑĤÐ¾Ð¼": 918,
      "ĠÐ¿Ð¸": 919,
      "ĠÐ½ÐµÐ²": 920,
      "ĠÐ´Ð°": 921,
      "ĠÐļÐ¾ÑĢÐ¾": 922,
      "ĠÑĥÐ´Ð¸Ð²": 923,
      "ÑĤÑı": 924,
      "ÑıÐ²": 925,
      "Ð¾Ð²Ð¾ÑĢ": 926,
      "ĠÐ¿Ð¾Ñħ": 927,
      "ĠÐ²Ðµ": 928,
      "Ð¼Ð¾": 929,
      "ĠÐ¼Ð¾Ð»": 930,
      "ĠÐºÐ¾Ð¼Ð½Ð°": 931,
      "ÐĿÐµ": 932,
      "ÐµÑģÑĤÐµ": 933,
      "ĠÐ½Ð°Ð´Ð¾": 934,
      "ĠÑģÐ¿ÑĢÐ¾ÑģÐ¸Ð»": 935,
      "Ðķ": 936,
      "ÑĥÑģÑĤ": 937,
      "ĠÐ´ÐµÐ½ÑĮ": 938,
      "Ð½Ð¸ÑĤ": 939,
      "ÐĿÑĥ": 940,
      "ĠÑįÑĤÐ¾ÑĤ": 941,
      "Ð°Ð»ÑĦ": 942,
      "ÑĨÐ¸": 943,
      "ĠÐ³ÑĢÑĥ": 944,
      "ĠÑħÐ¾ÑĢÐ¾ÑĪÐ¾": 945,
      "ĠÐĿÑĥ": 946,
      "ÑĥÐ´ÑĮ": 947,
      "ĠÑģÐ²Ð¾Ð¸": 948,
      "ĠÐ²Ð·Ð´": 949,
      "ĠÐ½Ð°Ð·": 950,
      "ÐŀÑĤ": 951,
      "ĠÑģÐ»ÑĥÑĩ": 952,
      "ÑĪÐ¸ÑģÑĮ": 953,
      "Ð¸Ð»Ð¸ÑģÑĮ": 954,
      "ĠÑĥÐ¶Ð°Ñģ": 955,
      "ĠÐ¿Ð¾ÐºÐ°": 956,
      "ĠÐ¡Ð¸ÑĢÐ¸ÑĥÑģ": 957,
      "ĠÐŁÐ¾ÑĤÑĤÐµÑĢ": 958,
      "ÑĤÐ¸Ð²": 959,
      "Ð¸ÑģÑĤ": 960,
      "ĠÐ¿Ð¾ÑĢ": 961,
      "ĠÑģÐ¾Ð²ÑģÐµÐ¼": 962,
      "ÐºÐ¾Ð»": 963,
      "Ð°Ð²Ð°Ð¹": 964,
      "ÑĳÐ»": 965,
      "ĠÐ¿Ð¾ÑģÐ»Ðµ": 966,
      "ĠÐ²ÑĢÐµÐ¼Ñı": 967,
      "Ð½Ð¸Ñı": 968,
      "ĠÐ³Ð¾Ð»Ð¾": 969,
      "ĠÑģÐ½Ð¾Ð²Ð°": 970,
      "ÑģÑĭ": 971,
      "ÐºÐ°Ð¼Ð¸": 972,
      "ĠÐ¼Ð¾Ð¹": 973,
      "ĠÐ¾ÑĤÐº": 974,
      "Ð½Ñİ": 975,
      "ĠÑĢÑıÐ´Ð¾Ð¼": 976,
      "Ð½ÑĥÐ»Ð°ÑģÑĮ": 977,
      "ĠÐ¥Ð¾Ð³": 978,
      "Ð°ÑĤÐ¾": 979,
      "Ð¸ÐºÐ°": 980,
      "ĠÑĤÐ¾Ð³Ð´Ð°": 981,
      "Ð³Ð»ÑıÐ´": 982,
      "ĠÐľÐ°Ð»ÑĦ": 983,
      "ĠÐ²Ð´": 984,
      "ĠÐ´ÑĢÑĥ": 985,
      "ÑĳÑĤ": 986,
      "ĠÐ³Ð´Ðµ": 987,
      "Ð»Ð¾Ñħ": 988,
      "Ð¸Ð½Ð°": 989,
      "ÑģÑĤÑĥÐ¿": 990,
      "ÐĿÐ¾": 991,
      "ĠÐĽÑİÐ¿": 992,
      "Ð¸ÑĤÐµ": 993,
      "Ð°ÑĤÐµÐ»ÑĮÐ½Ð¾": 994,
      "ĠÐ´ÐµÐ»Ð°ÑĤÑĮ": 995,
      "ĠÐĲÐ»Ð°Ð´Ð´Ð¸Ð½": 996,
      "Ð¾Ð³Ð»Ð°ÑģÐµÐ½": 997,
      "ĠÑĢÐ°": 998,
      "ÑĨÐ¾": 999,
      "Ð¾Ð¶Ð°Ð»": 1000,
      "ĠÑįÑĤÐ¸": 1001,
      "ÐŀÐ±": 1002,
      "ĠÑģÐ²Ð¾Ñİ": 1003,
      "ĠÐĶÐ¶ÐµÐ¹Ð¼ÑģÐ°": 1004,
      "ĠÐ·Ð½Ð°Ñİ": 1005,
      "ĠÐ²ÐµÐ´ÑĮ": 1006,
      "Ð¿Ð¾Ð¼": 1007,
      "Ð»Ð¸Ð²Ð¾": 1008,
      "ÐºÐ°Ñħ": 1009,
      "ĠÑģÐ»Ð¾Ð²Ð½Ð¾": 1010,
      "ÑĢÐ¸Ð²": 1011,
      "Ð·Ð°": 1012,
      "ĠÐĶÐ½ÐµÐ²Ð½Ð¸Ðº": 1013,
      "Ð¸Ð»ÑĮÐ½Ð¾": 1014,
      "ĠÐµÐ´Ð²Ð°": 1015,
      "Ð¸Ð¶": 1016,
      "ĠÐ´Ð¾Ð»Ð¶": 1017,
      "Ð½Ð°Ñĩ": 1018,
      "Ð»Ð¸ÑģÑĮ": 1019,
      "Ð¾ÐºÐ¾": 1020,
      "ĠÐ±Ð»Ð¾Ðº": 1021,
      "Ð¸ÑĤÐµÐ»ÑĮ": 1022,
      "ÑĢÐ°Ñī": 1023,
      "Ð»ÐµÑĤ": 1024,
      "ÐµÑĢÐ°": 1025,
      "ĠÑĤÐ¾Ð³Ð¾": 1026,
      "ĠÐ·ÐµÐ»ÑĮ": 1027,
      "Ð¾ÑĢÑĤ": 1028,
      "Ð¢Ð¾Ð¶Ðµ": 1029,
      "ÑīÐ¸Ð¹": 1030,
      "ĠÐ³Ð¾Ð»Ð¾Ð²Ñĥ": 1031,
      "ĠÐ¸Ð½ÑĤÐµÑĢÐµÑģ": 1032,
      "in": 1033,
      "Ð¶Ðµ": 1034,
      "ĠÑĢÐµÑĪ": 1035,
      "ĠÐ¿Ð¾ÑĤÐ¾Ð¼": 1036,
      "ÑĨÑĥ": 1037,
      "ĠÐĿÐ°": 1038,
      "ÐµÐ³Ð´Ð°": 1039,
      "ĠÐ½ÐµÐ¼Ð½Ð¾Ð³Ð¾": 1040,
      "Ð¸Ðº": 1041,
      "ÑĮÑİ": 1042,
      "ĠÐ¸Ð´": 1043,
      "Ð°ÐºÐ¾Ð¼": 1044,
      "ĠÑĥÑģ": 1045,
      "ÐļÐµÐ¼": 1046,
      "Ð°ÑıÑģÑĮ": 1047,
      "ĠÐĴÐ¾Ð»": 1048,
      "ÑĤÐ°Ðº": 1049,
      "Ð»Ð°Ð²": 1050,
      "ĠÐºÑĥÐ¿": 1051,
      "ĠÐ½ÐµÑĳ": 1052,
      "ĠÐ¶ÐµÐ½": 1053,
      "ĠÐ¶Ð¸Ð²": 1054,
      "ĠÐ¶Ð¸Ð·": 1055,
      "ĠÑģÐ»ÐµÐ´": 1056,
      "ÑģÑĤÑĮÑİ": 1057,
      "ÐĺÐ½": 1058,
      "ĠÐ½ÑĥÐ¶Ð½Ð¾": 1059,
      "Ð»ÐµÐº": 1060,
      "ÑĥÐ»Ñı": 1061,
      "ĠÑĢÑĭ": 1062,
      "ÐºÑĥÑģ": 1063,
      "ĠÐ¿Ð¾ÑĩÐµÐ¼Ñĥ": 1064,
      "ĠÐ¿ÑĢÐ¾Ð¸Ð·Ð½ÐµÑģ": 1065,
      "ÑĩÐµÐ¼": 1066,
      "ĠÐ¼Ð½Ð¾Ð³Ð¾": 1067,
      "Ð·ÑĮ": 1068,
      "ÐµÐ½Ð´": 1069,
      "ĠÐ±ÑĭÐ»Ð¸": 1070,
      "Ð°ÑĤÐ¸": 1071,
      "ĠÐ¿ÑĢÐ¸Ð²Ñĭ": 1072,
      "ĠÐºÐ¾ÑĤÐ¾": 1073,
      "ÑĢÑĭÐ»": 1074,
      "ĠÑģÐµÐ¹ÑĩÐ°Ñģ": 1075,
      "ĠÐ¼Ð°Ð»": 1076,
      "ĠÐĿÐµÑĤ": 1077,
      "ÑīÐµÐµ": 1078,
      "ĠÐ¿ÑĢÐ¾Ð´Ð¾Ð»Ð¶": 1079,
      "ĠÐ³Ð¾Ð»Ð¾Ñģ": 1080,
      "ÐµÑī": 1081,
      "ÑĥÐº": 1082,
      "ÑıÐ¶": 1083,
      "ĠÑĤÐµÐ»": 1084,
      "Ð¸Ð²Ð¾": 1085,
      "Ð¡Ð¾Ð³Ð»Ð°ÑģÐµÐ½": 1086,
      "ÐºÐ°Ð·ÑĭÐ²": 1087,
      "ÑĢÐ¾Ð¼": 1088,
      "ĠÐ½Ð¸Ñħ": 1089,
      "ÐµÐ³Ð¾Ð´": 1090,
      "ĠÐ¾ÑīÑĥÑī": 1091,
      "Ð²Ð°ÑĢÑĤ": 1092,
      "ĠÐºÐ»Ð°ÑģÑģ": 1093,
      "ĠÐ»ÐµÐ³": 1094,
      "ĠÐ¿ÑĢÐ¾Ð±": 1095,
      "ĠÑĤÐ°ÐºÐ¾Ð¹": 1096,
      "ĠÐ¿ÐµÑĢÐ²": 1097,
      "ĠÐ·Ð°Ð¼ÐµÑĤ": 1098,
      "ĠÐ²ÑģÑĤÑĢÐµÑĩ": 1099,
      "ĠÐ¥Ð¾Ð³Ð²Ð°ÑĢÑĤ": 1100,
      "ĠÐĴÐ¾Ð»Ð´ÐµÐ¼": 1101,
      "ÑıÑģ": 1102,
      "ÑĪÐ»Ð°": 1103,
      "ĠÐ±ÐµÑĢ": 1104,
      "Ð»Ð¸Ð²": 1105,
      "ÐĶÐ»Ñı": 1106,
      "ĠÐ¿ÑĢÐ¾Ð³": 1107,
      "ĠÐ²ÑģÐµÐ³Ð´Ð°": 1108,
      "ĠÐĵÐµÑĢÐ¼Ð¸Ð¾Ð½Ñĭ": 1109,
      "ĠÐ¤": 1110,
      "ÑĤÐ°Ð½": 1111,
      "ÑĢÐ¸ÑĤ": 1112,
      "ÐµÐ½Ð½ÑĭÐ¹": 1113,
      "ÑħÐ²Ð°ÑĤ": 1114,
      "Ð±ÑĥÐ´ÑĮ": 1115,
      "Ð½Ð¸Ð±ÑĥÐ´ÑĮ": 1116,
      "Ð¾Ð³Ð¸": 1117,
      "ÐŁÐ¾": 1118,
      "ĠÐłÐ¾Ð½Ð°": 1119,
      "ĠÑģÐ²Ð¾ÐµÐ¹": 1120,
      "ĠÐ´ÐµÐ²ÑĥÑĪÐºÐ°": 1121,
      "ĠÐ¿Ð¾ÑģÐ»ÐµÐ´": 1122,
      "Ð¾Ð½ÐµÑĩÐ½Ð¾": 1123,
      "ÑĢÑĭÐ²": 1124,
      "Ð»Ð¾Ð¶": 1125,
      "ÑĭÐ»": 1126,
      "Ð´ÑĢÐ°Ð²": 1127,
      "ĠÐºÐ¾ÑĤ": 1128,
      "ÐµÑĤÐµ": 1129,
      "ÐºÐ¸Ðµ": 1130,
      "Ð¥Ð¾ÑĢÐ¾ÑĪÐ¾": 1131,
      "ĠÐķÑģÐ»Ð¸": 1132,
      "ĠÑģÐ»ÑĭÑĪÐ°Ð»": 1133,
      "ÐµÑģÑı": 1134,
      "ĠÐ²Ð¼": 1135,
      "ÑĢÐ¸Ñĩ": 1136,
      "ĠÑĤÑĥÑĤ": 1137,
      "Ð¾Ð³Ð¾Ð¹": 1138,
      "Ð½ÑĥÑĤ": 1139,
      "ĠÐ»ÐµÑĤ": 1140,
      "ÐĵÐ»Ð°Ð²": 1141,
      "hon": 1142,
      "Ð½Ð¸Ð»": 1143,
      "ÑıÐ³": 1144,
      "ĠÑĤÑĢÑĥ": 1145,
      "ĠÐ±ÐµÐ´": 1146,
      "ĠÐ½ÐµÑģÐº": 1147,
      "ÑĳÐ·": 1148,
      "Ð°Ð½Ð½Ð¾": 1149,
      "ĠÑħÐ¾ÑĢÐ¾": 1150,
      "ÐµÐ³Ð¾Ð´Ð½Ñı": 1151,
      "Ð½Ð½Ð¾": 1152,
      "ĠÐ¿Ð°Ð»": 1153,
      "ĠÐ½Ð°Ð¹": 1154,
      "ĠÑĥÑģÐ»": 1155,
      "ĠÐ¡Ð½ÐµÐ¹Ð¿Ð°": 1156,
      "ÑĢÐ°Ð¼": 1157,
      "ÑĢÐ¾Ð±": 1158,
      "Ð²ÐµÑĢ": 1159,
      "ÑģÑĤÐ²Ð¾": 1160,
      "ĠÐ¼Ð°Ð¼": 1161,
      "Ð·Ð½": 1162,
      "Ð»Ð¸ÑĩÐ½Ð¾": 1163,
      "Ð½ÑĭÐ¼Ð¸": 1164,
      "ÐºÐ°Ñı": 1165,
      "ĠÐ·Ð°Ð²ÑĤÑĢÐ°": 1166,
      "Ġ1": 1167,
      "ĠÐ¿Ð¾ÑģÑĤ": 1168,
      "Ð¾ÐºÐ¾Ð¹": 1169,
      "Ð¸Ð½Ð¾Ð¹": 1170,
      "Ð°ÑİÑī": 1171,
      "ĠÐ²ÑģÐµÑħ": 1172,
      "ĠÐ¿Ð¾ÐºÐ°Ð·": 1173,
      "ÑĢÑıÐ´": 1174,
      "ĠÑħÐ¾ÑĤÑı": 1175,
      "ĠÐ¼Ð¾Ð³Ñĥ": 1176,
      "ĠÐ½Ð¾ÑĢÐ¼": 1177,
      "ĠÐ±Ð¾": 1178,
      "ÑİÑģÑĮ": 1179,
      "ĠÑĩÐ¸ÑĤ": 1180,
      "Ð¾Ð»Ð³Ð¾": 1181,
      "ĠÐĵÑĢÐ¸ÑĦ": 1182,
      "Ð²Ð¾ÑģÑĤ": 1183,
      "ÑģÑĤÐ²Ð°": 1184,
      "ĠÐµÑīÐµ": 1185,
      "ĠÐ±Ð¾Ð»ÐµÐ»": 1186,
      "ÐŃÑĤÐ¾": 1187,
      "ĠÐºÐ°Ð¶Ð´": 1188,
      "ĠÐ¾Ð±ÑĬ": 1189,
      "ÑĥÑĪÐºÐ°": 1190,
      "ĠÐ²Ð´ÑĢÑĥÐ³": 1191,
      "ĠÐ²Ð°Ñģ": 1192,
      "ÑĳÐ¼": 1193,
      "ĠÐ³Ð¾Ð´": 1194,
      "ĠÐºÐ¾Ð½ÐµÑĩÐ½Ð¾": 1195,
      "ĠÐ¼Ð°Ð³Ð³": 1196,
      "ĊĊĉ": 1197,
      "ĠÐºÐ½Ð¸Ð³": 1198,
      "ĠÐĽÑİÐ¿Ð¸Ð½": 1199,
      "ÑģÑĤÐµÑĢ": 1200,
      "Ð»Ð¸Ð½Ð°": 1201,
      "ÐŀÐ½": 1202,
      "Ð°Ð±ÐµÑĤ": 1203,
      "ÑģÑĤÐ°Ð²Ð»Ñı": 1204,
      "ĠÐ¿Ð¾ÑģÐ¼Ð¾ÑĤÑĢÐµÐ»": 1205,
      "..": 1206,
      "ĠÑī": 1207,
      "ĠÐ¿Ð¾Ð±": 1208,
      "ĠÐºÐ°ÑĢ": 1209,
      "ĠÐ¼Ð½Ð¾Ð¹": 1210,
      "ĠÐ±ÐµÑģ": 1211,
      "ĠÑĥÐ¿": 1212,
      "Ð½ÑĥÐ²": 1213,
      "Ð¾Ð¶Ð´": 1214,
      "Ð°Ð½ÑĤÐ¸": 1215,
      "Ð¸Ð¼Ð¾": 1216,
      "Ð³ÑĢÑİ": 1217,
      "ÑįÑĤÐ¾Ð¼Ñĥ": 1218,
      "ĠÐ±ÑĢÐµÐ½Ð´": 1219,
      "ĠÐ½ÐµÑģÐºÐ¾Ð»ÑĮÐºÐ¾": 1220,
      "ÑģÑĥ": 1221,
      "Ð»ÐµÐ²": 1222,
      "ĠÐ½ÑĢÐ°Ð²": 1223,
      "ĠÐ¸Ð³ÑĢ": 1224,
      "ĠÐ³Ð¾ÑĢ": 1225,
      "ĠÐ³Ð¾ÑĢÐ¾Ð´": 1226,
      "ÑĤÐ¸Ð³ÑĢÑİ": 1227,
      "ĠÑĢÑĥÐºÐ¸": 1228,
      "ĠÐ´ÑĥÐ¼Ð°ÐµÑĪÑĮ": 1229,
      "thon": 1230,
      "ython": 1231,
      "ÑĩÐµ": 1232,
      "Ð²Ð¸Ð´": 1233,
      "Ð´Ð¶": 1234,
      "ĠÐ´ÑĢ": 1235,
      "Ð¾Ð±Ð¾Ð¹": 1236,
      "ÐļÐ»Ð°ÑģÑģ": 1237,
      "Ð¡Ð»": 1238,
      "Ð¼ÑĥÑī": 1239,
      "ĠÑģÐ¿ÑĢÐ¾ÑģÐ¸Ð»Ð°": 1240,
      "ĠPython": 1241,
      "Ð¸Ð±Ð¾": 1242,
      "ĠÐŁÐµÑĤÑĤÐ¸Ð³ÑĢÑİ": 1243,
      "ĠÑģÐµÑĢ": 1244,
      "ĠÑģÐ¼Ð¾ÑĤÑĢ": 1245,
      "ÑĢÐ¾Ðµ": 1246,
      "Ð·Ñĭ": 1247,
      "ĠÐ¿ÑĢÐ¸Ð´": 1248,
      "Ð°Ð½Ð¾Ð²": 1249,
      "ĠÐĽÐ¸Ð»Ð¸": 1250,
      "ÑĩÐ¸Ðº": 1251,
      "ĠÐ½Ð¸ÐºÐ°Ðº": 1252,
      "ĠÐ¿Ð»ÐµÑĩ": 1253,
      "ĠÐĲÐ»Ð°Ð´Ð´Ð¸": 1254,
      "ĠÐ¿ÑĭÑĤ": 1255,
      "ĠÐ½Ð°Ðº": 1256,
      "ÑĢÐ¸Ð»": 1257,
      "ĠÐºÑĢÑĥ": 1258,
      "ÐµÐ½ÑĤ": 1259,
      "ĠÐ´Ð¾Ð³": 1260,
      "ĠÐ¼ÐµÑĩ": 1261,
      "Ð°ÑģÐ¸Ð±Ð¾": 1262,
      "ĠÐ²ÑģÐ¿Ð¾Ð¼": 1263,
      "ÐµÐ½Ð¸ÐµÐ¼": 1264,
      "ĠÐĵÐµÑĢÐ¼Ð¸Ð¾Ð½Ñĥ": 1265,
      "ĠÐľÑĭ": 1266,
      "ÑĥÑĤÐ±": 1267,
      "ĠÑģÑĥÐ»": 1268,
      "ĠÐºÐ°Ð¼": 1269,
      "ĠÐ´Ð¾Ð±": 1270,
      "ĠÑĤÐ¾Ð¼": 1271,
      "ÑĢÐ¾ÑģÑĤ": 1272,
      "Ð½Ð¸Ð¹": 1273,
      "ĠÐ¿Ð¾ÑıÐ²": 1274,
      "ĠÐ»Ð¸ÑĨÐ¾": 1275,
      "ĠÑħÐ¾ÑĤÐµÐ»": 1276,
      "ÑĢÐ°Ð¶": 1277,
      "ÑĪÐ»Ð¾": 1278,
      "ÑħÐ°": 1279,
      "ĠÑĤÐ¾Ð±Ð¾Ð¹": 1280,
      "ĠÐ¼Ð°ÑĤ": 1281,
      "ĠÑĢÐµ": 1282,
      "Ð°ÑĤÐµÐ»ÑĮ": 1283,
      "ĠÐ²ÑģÐµÐ³Ð¾": 1284,
      "ĠÐłÐµÐ¼Ñĥ": 1285,
      "ÑħÐ¾Ð´Ð¸ÑĤ": 1286,
      "ĠÑĢÑĥÐºÑĥ": 1287,
      "ĠÐ¿Ð¾Ð¼Ð¾Ð³": 1288,
      "ĠÑħÐ¾ÑĩÑĥ": 1289,
      "ĠÑĢÐ¾Ð´Ð¸ÑĤ": 1290,
      "ÑĩÐµÐ·": 1291,
      "ĠÐ½Ð°ÑģÑĤÑĢÐ¾": 1292,
      "ÐºÐ¸Ñħ": 1293,
      "ÑģÑĤÐ²ÑĥÐ¹": 1294,
      "ĠÑĢÐ°Ð·Ð²": 1295,
      "ÐĵÐµÑĢÐ¼Ð¸Ð¾": 1296,
      "ĠÐ½ÐµÐ¿ÑĢÐ¸": 1297,
      "Ð»Ð¾ÑħÐ¾": 1298,
      "ĠÐ½Ð°Ð¹ÑĤÐ¸": 1299,
      "ÑıÑī": 1300,
      "Ð²Ð°Ð½": 1301,
      "ĠÐ´ÐµÑĢÐ¶": 1302,
      "ÐµÑĢÐ°ÑĤ": 1303,
      "ÑĤÑĮÑģÑı": 1304,
      "ĠÐ·Ð°ÑĤ": 1305,
      "Ð»Ð¸Ðº": 1306,
      "ĠÐ³ÑĥÐ±": 1307,
      "ĠÐ¿ÑĢÐ¾Ð²": 1308,
      "ÑĦÐ¸Ð½": 1309,
      "ÑĢÐ°Ñı": 1310,
      "ĠÑĪÐºÐ¾Ð»": 1311,
      "Ð½Ð¸ÐºÐ¾Ð²": 1312,
      "ÐµÑĢÑĮÑĳÐ·": 1313,
      "Ð°ÐºÐ¾Ð½ÐµÑĨ": 1314,
      "ĠÐ¿ÑĢÐ¸Ð²ÑĭÑĩ": 1315,
      "ĠS": 1316,
      "ĠÑģÐµÐº": 1317,
      "ÐµÑĢÐ½Ð¾Ðµ": 1318,
      "Ð´ÑĢÐ°Ð²ÑģÑĤÐ²ÑĥÐ¹": 1319,
      "Ðĸ": 1320,
      "ĠÑĩÐµÐ³Ð¾": 1321,
      "Ð°Ð¼Ð¿": 1322,
      "ĠÑĢÐ°Ð·Ð³": 1323,
      "Ð¼Ð¾ÑĤÑĢÐ¸": 1324,
      "ĠÐ²Ð¾ÑģÐº": 1325,
      "ÐĹÐ´ÑĢÐ°Ð²ÑģÑĤÐ²ÑĥÐ¹": 1326,
      "ÐĵÐµÑĢÐ¼Ð¸Ð¾Ð½Ð°": 1327,
      "ÑĤÐ°Ð»": 1328,
      "Ð½ÐµÑĤ": 1329,
      "ĠÑģÑĩÐ°": 1330,
      "ĠÑģÐµÐ³Ð¾Ð´Ð½Ñı": 1331,
      "ÐµÑĢÑĪ": 1332,
      "ĠÑĤÐ¸Ñħ": 1333,
      "ĠÐ¾ÑĤÐ´": 1334,
      "ĠÐ±ÑĭÑģÑĤÑĢÐ¾": 1335,
      "ĠÐ°Ð²": 1336,
      "ĠÐºÑĢÐ¾Ð²": 1337,
      "ĠÐ·Ð°ÐºÐ»Ð¸Ð½Ð°": 1338,
      "ĠÐ¸ÑģÑĩÐµÐ·": 1339,
      "Ð¸Ð³": 1340,
      "ĠÐ·Ð°Ð½": 1341,
      "ĠÐ²ÑĭÑģ": 1342,
      "ĠÐ²ÑĭÐ¿": 1343,
      "ĠÐľÐ½Ðµ": 1344,
      "ĠÑĨÐ°ÑĢ": 1345,
      "ĠÐ´Ð²Ð¾ÑĢ": 1346,
      "ĠÐ·Ð½Ð°ÐºÐ¾Ð¼": 1347,
      "ĠÑģÑĤÑĢÐ°ÑĪ": 1348,
      "ĠÐ¿Ð¾Ð¹": 1349,
      "ĠÐ¿Ð¾ÑĤÐ¾Ð¼Ñĥ": 1350,
      "ĠÐºÐ°ÐºÐ¾Ð¹": 1351,
      "ĠÑĤÐ¾ÑĤ": 1352,
      "Â»,": 1353,
      "ĠÐ¸ÑģÐ¿ÑĥÐ³": 1354,
      "ĠÐľÐ°Ð»ÑĦÐ¾Ð¹": 1355,
      "ÑĥÑĢÐ°": 1356,
      "ĠÐ¿Ð»Ð°": 1357,
      "Ð¼Ð°": 1358,
      "ĠÐ´ÐµÑĤ": 1359,
      "ĠÐ¼ÑĥÐ¶": 1360,
      "ĠÑĩÐµÐ»Ð¾Ð²": 1361,
      "ĠÐ»ÐµÐ¶": 1362,
      "Ð¾Ð±Ð±Ð¸": 1363,
      "ÑģÑĤÐ²ÐµÐ½Ð½Ð¾": 1364,
      "ĠÐ¿Ð¾ÑģÐ¼Ð¾ÑĤÑĢ": 1365,
      "ÑıÐ»ÑģÑı": 1366,
      "ÑıÐ¶ÐµÐ»Ð¾": 1367,
      "ĠÐ½Ð°ÑģÑĤÑĢÐ¾ÐµÐ½Ð¸Ðµ": 1368,
      "ÑĤÐ²": 1369,
      "ÐµÑĢÐµÐ´": 1370,
      "ĠÑĥÑģÑĤ": 1371,
      "ĠÐ¿Ð¾Ð½": 1372,
      "ĠÐºÑĢÐ°ÑģÐ¸Ð²": 1373,
      "ĠÐ²ÐµÑĩÐµÑĢÐ¾Ð¼": 1374,
      "ĠÐ²ÐµÑģÑĮ": 1375,
      "ĠA": 1376,
      "Ð°ÐµÐ¼": 1377,
      "ÑĢÐ°Ð´": 1378,
      "ĠÐ¿Ð¾Ð¶Ð°Ð»": 1379,
      "ĠÑģÐ¸Ð»": 1380,
      "Ð¼ÐµÐ½": 1381,
      "ĠÐ¾Ðº": 1382,
      "ÑĪÐºÐ¾Ð¼": 1383,
      "ĠÐºÐ¸": 1384,
      "ÐµÑĤÑĭ": 1385,
      "ĠÑĩÐ°Ñģ": 1386,
      "ĠÑĢÐ°Ð²Ð½Ð¾": 1387,
      "ÐµÑģÑĤÐ¸": 1388,
      "ĠÐ²Ð¼ÐµÑģÑĤÐµ": 1389,
      "ĠÑĥÑģÐ»ÑĭÑĪ": 1390,
      "ÑĦÐ¸Ð½Ð´Ð¾ÑĢ": 1391,
      "),": 1392,
      "Ð»ÐµÐ½Ð½Ð¾": 1393,
      "ÑĩÑĥ": 1394,
      "ĠÐ±ÑĢÐ¾Ñģ": 1395,
      "ĠÐ·Ð°Ñģ": 1396,
      "Ð¾Ð±Ð½Ð¾": 1397,
      "ĠÐĴÑģÐµ": 1398,
      "ÑĪÐ¸Ðµ": 1399,
      "ÑģÐ»Ðµ": 1400,
      "ĠÐ¢Ð°Ðº": 1401,
      "ĠÑģÐ¾Ñģ": 1402,
      "ĠÐ½Ð¸ÐºÐ¾Ð³Ð´Ð°": 1403,
      "ĠÑĥÐ²Ð¸Ð´ÐµÐ»": 1404,
      "ÑģÐºÐ¸Ð¹": 1405,
      "ÑĭÑģ": 1406,
      "ĠÑģÐ²ÐµÑĤ": 1407,
      "ĠÐ½Ð¾Ð²Ð¾": 1408,
      "ĠÐºÑĢÐ¸": 1409,
      "ĠÐ¿Ð¾ÑĨ": 1410,
      "ĠÐ¿ÑĢÐ¾Ñģ": 1411,
      "ÐļÑĢÐ°Ñģ": 1412,
      "ĠÐŁÑĢÐ¸": 1413,
      "ĠÐ²ÑĭÐ±": 1414,
      "ĠÐļÐ¾Ð³Ð´Ð°": 1415,
      "ĠÐ²Ð·Ð³Ð»ÑıÐ´": 1416,
      "ĠÐ´ÑĢÑĥÐ³Ð°": 1417,
      "ĠÐ¥Ð²Ð¾ÑģÑĤ": 1418,
      "ĠÐ¼Ð°Ð³ÑĢÐ¸": 1419,
      "ĠÐ¾ÑģÐ¾Ð±": 1420,
      "Ð¸Ð´Ð°": 1421,
      "Ð»ÐµÐ½": 1422,
      "ĠÐ½ÐµÐ¼Ñĥ": 1423,
      "Ð¼Ð¾Ð¶Ð½Ð¾": 1424,
      "ĠÐ´ÑĥÑĪ": 1425,
      "ĠÐ¼Ð¸Ð»": 1426,
      "ĠÐ·ÐµÐ¼": 1427,
      "Ð½Ð¸ÑĤÑĮ": 1428,
      "ĠÐ¿Ð¾Ð½Ð¸Ð¼": 1429,
      "ĠÐ»ÐµÑĩ": 1430,
      "ĠÐ¾ÑĤÐ¿": 1431,
      "ĠÐĶÐ¾Ð±Ð±Ð¸": 1432,
      "ĠÐĴÐ¾ÑĤ": 1433,
      "ÐļÐ°ÐºÐ°Ñı": 1434,
      "ÑĪÐ¸Ñħ": 1435,
      "ÐµÐ¶Ð´Ñĥ": 1436,
      "Ð´ÐµÑģÑĮ": 1437,
      "Ð¥Ð¾Ñĩ": 1438,
      "ÑĥÐµÑĤ": 1439,
      "ĠÐ²Ð½Ð¸Ð¼": 1440,
      "ĠÑĤÑĢÐ¸": 1441,
      "ĠÑĤÐµÑĢ": 1442,
      "Ð¢Ð¾Ð³Ð´Ð°": 1443,
      "ĠÑģÐ²Ð¾Ð¸Ñħ": 1444,
      "ÐĴÑģÐµ": 1445,
      "ĠÑģÐºÐ°Ð·Ð°ÑĤÑĮ": 1446,
      "ĠÐ¾Ð´Ð¸Ð½": 1447,
      "ĠÐ§ÐµÑĢ": 1448,
      "ĠÐ¿Ð¾Ð²ÐµÑĢ": 1449,
      "ĠÐºÐ¾ÑĤÐ¾ÑĢÑĭÐ¹": 1450,
      "ĠÐ¾ÑĤÐ²ÐµÑĩ": 1451,
      "ĠÐ²Ð·Ð´Ð¾Ñħ": 1452,
      "ÐĵÐ»Ð°Ð²Ð°": 1453,
      "ĠT": 1454,
      "ĠÑģÐµÑģÑĤ": 1455,
      "ĠÐ²Ð°Ð¶": 1456,
      "Ð»Ð¸ÑĪÐºÐ¾Ð¼": 1457,
      "ĠÐ¾ÑĤÐ½Ð¾": 1458,
      "ĠÐ¿ÑĢÐ¸Ð²": 1459,
      "ÐµÐºÐ¾": 1460,
      "Ð¡Ð¿": 1461,
      "Ð¾ÑĩÐµÐ¼Ñĥ": 1462,
      "ĠÑģÐ²Ð¾ÐµÐ³Ð¾": 1463,
      "Ð¾Ð²Ð¾Ð»ÑĮÐ½Ð¾": 1464,
      "ĠÐļÐ¾ÑĢÐ¾Ð»ÐµÐ²": 1465,
      "ĠÐ²ÑģÑı": 1466,
      "ĠÐ²Ð¾Ð´": 1467,
      "Ð´Ñĭ": 1468,
      "ÑĪÑĳÐ»": 1469,
      "ĠÑĥÐ³": 1470,
      "ĠÐ·Ð²": 1471,
      "Ð¾Ð»Ð¾ÑĤ": 1472,
      "ÐµÐ¹ÑģÑĤÐ²": 1473,
      "Ð¾Ð¶ÐµÑĤ": 1474,
      "ÑĢÑĥÑİ": 1475,
      "Ð¾ÑĢÐ¾ÑĤ": 1476,
      "ĠÐºÐ¾ÑĪ": 1477,
      "Ð°Ð»ÑĮÑĪÐµ": 1478,
      "ĠÐ±Ð¾Ð»ÐµÐµ": 1479,
      "ĠÐ¿Ð¾ÑĩÑĤÐ¸": 1480,
      "Ð»Ð¸Ð·Ð°Ð±ÐµÑĤ": 1481,
      "ĠÐ¼Ð¸Ð½Ñĥ": 1482,
      "Ð¾Ð²Ð¾Ð»ÑĮÑģÑĤÐ²": 1483,
      "ĠÐ¼Ð°Ð»ÐµÐ½ÑĮ": 1484,
      "ĠÐĲÐ»Ð°Ð´Ð´Ð¸Ð½Ð°": 1485,
      "ĠÐ²ÐµÑģ": 1486,
      "ĠÐ²ÑĢÐ°": 1487,
      "ÑģÑĤÐ½Ð¾": 1488,
      "ĠÐ´Ð°Ð»": 1489,
      "ĠÑĤÐµÑĤ": 1490,
      "Ð½Ð¸ÐºÐ¸": 1491,
      "Ð°Ð·Ð¸": 1492,
      "ĠÐ»Ð°Ð¼Ð¿": 1493,
      "ĠÐ¾Ð±Ñģ": 1494,
      "ĠÐ°Ð¿": 1495,
      "ĠÑĢÐ°Ð·Ð±": 1496,
      "ĠÑĥÐ´Ð¾Ð²Ð¾Ð»ÑĮÑģÑĤÐ²": 1497,
      "ĠÑįÑĤÑĥ": 1498,
      "ĠÐ¿Ð¾Ð¿ÑĢÐ¾Ð±": 1499,
      "ĠÐ¿ÑĢÐ¾ÑĦÐµÑģÑģÐ¾ÑĢÐ°": 1500,
      "ĠÑģÐ´ÐµÐ»Ð°ÑĤÑĮ": 1501,
      "ĠÐ¿Ð¾Ð´ÑĥÐ¼Ð°Ð»Ð°": 1502,
      "ĠÐ´Ð¾ÑĢÐ¾Ð³Ð¾Ð¹": 1503,
      "ĠÐ¼Ð°Ð³Ð³Ð»Ð¾Ð²": 1504,
      "ĠÑİ": 1505,
      "ÑıÑģÑĮ": 1506,
      "ĠÐ¿Ð°Ð»ÑĮ": 1507,
      "ĠÑģÐ¾Ð³Ð»Ð°Ñģ": 1508,
      "ĠÑģÐ¼ÑĥÑī": 1509,
      "ÑĪÐ»Ð¸": 1510,
      "ÑĪÐ°Ñı": 1511,
      "ĠÐºÑĥÐ´Ð°": 1512,
      "ÐµÑģÑĤÐ¾": 1513,
      "ĠÐŁÑĢÐ¾": 1514,
      "Ð½ÑıÑĤÑĮ": 1515,
      "ĠÐ»ÑİÐ±Ð»Ñİ": 1516,
      "ĠÐŃÐ»Ð¸Ð·Ð°Ð±ÐµÑĤ": 1517,
      "ĠÐ¿ÑĢÐ¾ÑĦÐµÑģÑģÐ¸Ñı": 1518,
      "ĠÑģÐ¾Ð²ÐµÑĢÑĪ": 1519,
      "ĠÑĥÑĩÐ¸Ð»": 1520,
      "ĠÑĢÐ°ÑģÑģÐºÐ°Ð·": 1521,
      "ĠÐºÑĥÐ¿Ð¸Ð»": 1522,
      "ĠÑģÐ»ÐµÐ´ÑĥÑİ": 1523,
      ").": 1524,
      "Ð¾ÑĤÑĮ": 1525,
      "ÑģÐ¸": 1526,
      "ÑĩÑĮ": 1527,
      "ĠÐ½ÐµÐ½": 1528,
      "ÑĪÑĥ": 1529,
      "ĠÐ¼Ð°Ð½ÑĤÐ¸": 1530,
      "ÐµÐ½Ð¸Ñİ": 1531,
      "ÐĲÐ»Ð¸": 1532,
      "Ð¾Ð»ÑĮÐ·": 1533,
      "ĠÐĴÑĭ": 1534,
      "ĠÐ»Ð¸ÑĪÑĮ": 1535,
      "Ð¸ÑģÑģ": 1536,
      "Ð´ÐµÑı": 1537,
      "ĠÐ²Ð¾Ð·Ð»Ðµ": 1538,
      "ĠÑģÑĤÐ¾ÑĢÐ¾": 1539,
      "ĠÐ¾ÑĤÐ²ÐµÑĤÐ¸Ð»Ð°": 1540,
      "ĠÑĢÐ°Ð±Ð¾ÑĤÐ°ÐµÑĤ": 1541,
      "ĠÑĩÐµÐ»Ð¾Ð²ÐµÐº": 1542,
      "Ð¤": 1543,
      "Ð»ÐµÐ³": 1544,
      "Ð»ÐµÐ½Ð¸Ñı": 1545,
      "Ð½ÐµÑĢ": 1546,
      "ĠÐºÐ°Ð±": 1547,
      "Ð¾Ð²Ð°Ð»Ð°": 1548,
      "ĠÑĥÑĤ": 1549,
      "ĠÐ½ÐµÐµ": 1550,
      "Ð·Ð½Ð°": 1551,
      "ĠÐĶÐ°Ð²Ð°Ð¹": 1552,
      "Ð¾Ð½Ñĩ": 1553,
      "ÐºÐ¾Ðµ": 1554,
      "ĠÐ³Ð¾ÑģÑĤÐ¸": 1555,
      "ĠÐ³Ð¾ÑĤÐ¾Ð²": 1556,
      "ĠÑģÐ¿Ð°Ð»ÑĮ": 1557,
      "ĠÐ±ÑĥÐ´Ñĥ": 1558,
      "ĠÑģÐ²Ð¾Ð¹": 1559,
      "ĠÐ¿Ð°ÑĢÑĥ": 1560,
      "ĠÐ¿ÑĥÑģÑĤ": 1561,
      "ÐŀÑĤÐ»Ð¸ÑĩÐ½Ð¾": 1562,
      "ĠÐºÐ°Ð±Ð¸Ð½": 1563,
      "ÑıÐ¼Ð¸": 1564,
      "ĠÑģÐ»Ð¸ÑĪÐºÐ¾Ð¼": 1565,
      "ĠÐ²Ð»": 1566,
      "ĠÐºÐ°Ð·": 1567,
      "ĠÐ·Ð´ÐµÑģÑĮ": 1568,
      "Ð³Ð¸": 1569,
      "ĠÐ¿ÑĢÐ¾ÑģÑĤ": 1570,
      "ĠÐ¿ÑĢÐ¸Ð½ÑıÐ»": 1571,
      "ĠÐ°Ð½": 1572,
      "ĠÑģÐ»Ð¾Ð²Ð°": 1573,
      "ĠÐŀÐ½Ð¸": 1574,
      "ĠÐĳÐ¾Ð»": 1575,
      "Ð¥Ð¾ÑĢÐ¾": 1576,
      "ĠÑģÐ¸Ð»ÑĮ": 1577,
      "ĠÑģÐ¼Ð¾ÑĤÑĢÐµÐ»": 1578,
      "Ð²Ð°Ð»": 1579,
      "Ð´ÐµÑĢÐ¶": 1580,
      "ĠÐ¾ÑģÑĤÐ°Ð²": 1581,
      "ĠÐºÐ¾ÑĢ": 1582,
      "ĠÐ´Ð¾Ð»Ð³Ð¾": 1583,
      "ĠÑĤÑĥÐ´Ð°": 1584,
      "ĠÐ¿Ð¾ÑĤ": 1585,
      "ĠÐ¿Ð¾Ð½ÑıÐ»": 1586,
      "Ð°Ð´Ð»Ð¸": 1587,
      "ĠÑįÐº": 1588,
      "ĠÐ¿ÑĢÐ¾Ð¸Ñģ": 1589,
      "ĠÐ¿ÑĢÐ¾Ð¿": 1590,
      "ÐļÐ¾Ð½ÐµÑĩÐ½Ð¾": 1591,
      "Ð°Ð½ÑĮ": 1592,
      "ĠÑĤÐ¾ÑĩÐ½Ð¾": 1593,
      "ÐĿÐ¾ÑĢÐ¼": 1594,
      "ĠÐ·Ð°Ñī": 1595,
      "ĠÐŀÑĤ": 1596,
      "ĠÑĢÐ°Ð·Ð´": 1597,
      "ĠÐ¿Ð¾ÑĩÑĥÐ²ÑģÑĤÐ²": 1598,
      "ĠÑĥÑĩÐµÐ±": 1599,
      "Ð±Ð¸Ð½ÐµÑĨ": 1600,
      "ĠÐºÐ°Ð¶ÐµÑĤÑģÑı": 1601,
      "ÑĥÐ»ÑıÑĢ": 1602,
      "ĠÑĤÑĢÑĥÐ´": 1603,
      "ĠÐ¿Ð°Ð»Ð¾Ñĩ": 1604,
      "ĠÐłÐµÐ¼ÑĥÑģ": 1605,
      "ĠÑģÑĭ": 1606,
      "ĠÑģÐµÐ¼": 1607,
      "ÑĢÐ¸Ð¼": 1608,
      "ĠÐ´Ð¾Ð²": 1609,
      "ĠÐ¼ÐµÑĤ": 1610,
      "ĠÐ·Ð°Ð³": 1611,
      "Ð¾Ð»Ð¾Ð´": 1612,
      "ĠÑĢÐ°Ð´Ð¾": 1613,
      "ĠÐ¿ÑĢÐ¾ÑĤÐ¸Ð²": 1614,
      "ĠÑħÐ²Ð°ÑĤ": 1615,
      "Ð¸Ð½Ñı": 1616,
      "ÐµÑģÑĤÐ½Ð¾": 1617,
      "ÑĭÐ²Ð°ÑĤÑĮ": 1618,
      "ÑĭÐ²Ð°ÐµÑĤ": 1619,
      "ÑīÐ¸Ðº": 1620,
      "ĠÐ´ÑĢÑĥÐ³Ð¾Ð¹": 1621,
      "ĠÐ´ÐµÐ»Ð¾": 1622,
      "ĠÐ·Ð½Ð°Ð»": 1623,
      "?!": 1624,
      "ÑĢÐ¾Ð³": 1625,
      "ĠÐ¿Ð¸Ñģ": 1626,
      "ĠÐ¾Ð³ÑĢ": 1627,
      "ĠÐ´Ð°Ð»ÑĮÑĪÐµ": 1628,
      "Ð°Ð´Ð½Ð¾": 1629,
      "ĠÐ¿ÑĢÐµÐº": 1630,
      "ÐµÐ½Ð¸Ð¹": 1631,
      "ĠÐ¿Ð¾Ð´Ð¾": 1632,
      "ĠÐ·Ð°Ñħ": 1633,
      "ÐŀÐ½Ð°": 1634,
      "ÐµÑĩÐ°ÑĤ": 1635,
      "Ð¾Ð·ÑĮ": 1636,
      "Ð°ÑİÑģÑĮ": 1637,
      "ĠÐ³Ð»ÑĥÐ¿": 1638,
      "ĠÑĨÐµÐ»": 1639,
      "ĠÐ³Ð¾Ð»Ð¾Ð²Ð¾Ð¹": 1640,
      "ÑĤÐµÑĢÐµÑģÐ½Ð¾": 1641,
      "ÑĢÐ°Ð·Ñĥ": 1642,
      "ÑĩÐµÑģÐºÐ¸": 1643,
      "ĠÐ¼Ð¾Ð»Ð¾Ð´": 1644,
      "ĠÐĴÐ¾Ð»Ð´ÐµÐ¼Ð¾ÑĢÑĤ": 1645,
      "ĠÐ´Ð¾Ð³Ð°Ð´": 1646,
      "HP": 1647,
      "ĠM": 1648,
      "ĠR": 1649,
      "ÑĥÑģÐ°": 1650,
      "ĠÑģÑĩÐ¸ÑĤ": 1651,
      "ĠÑģÐµÑĢÑĮÑĳÐ·": 1652,
      "ĠÐºÐ¸Ð²": 1653,
      "Ð½Ð¸ÐºÐ°": 1654,
      "ĠÑĢÐµÐ±": 1655,
      "ÑĨÐ¸Ñı": 1656,
      "ÐµÐ·Ð´": 1657,
      "ÐļÐ°ÐºÐ¾Ð¹": 1658,
      "ĠÐ·Ð½Ð°ÑĩÐ¸ÑĤ": 1659,
      "ĠÐ»ÑİÐ±Ð¸ÑĪÑĮ": 1660,
      "ĠÑģÑĤÐ¾Ð»": 1661,
      "ĠÐ²Ð¾Ð»Ð¾Ñģ": 1662,
      "ÑĢÐµÐ´ÐµÐ»": 1663,
      "Ð¾Ð±ÑĢÑĭÐ¹": 1664,
      "ĠÑħÐ¾ÑĩÐµÑĪÑĮ": 1665,
      "ÐĲÐ»Ð¸ÑģÐ°": 1666,
      "ÑıÑħ": 1667,
      "ĠÑģÐ°Ð´": 1668,
      "ĠÑģÑį": 1669,
      "ĠÐ½Ð°ÐºÐ¾Ð½ÐµÑĨ": 1670,
      "Ð¾Ð²ÑĢÐµÐ¼": 1671,
      "ĠÐ±Ð»Ð¸Ð·": 1672,
      "ĠÑĩÐ°": 1673,
      "Ð½Ð¸Ñĩ": 1674,
      "ĠÐ¿ÑĢÑı": 1675,
      "ĠÑģÐ»ÑĥÑĪ": 1676,
      "ĠÐĵÐµÑĢÐ¼Ð¸Ð¾Ð½Ðµ": 1677,
      "Ð¾Ð¿Ð¾Ð»": 1678,
      "ĠÐ¿ÐµÑĢÐµÐ¶": 1679,
      "ĠÑĢÐ°ÑģÐ¿": 1680,
      "Ð¸ÑĢÐ¾Ð²": 1681,
      "ĠÑģÑĤÐ¾Ð¸ÑĤ": 1682,
      "ĠÑĢÐ°Ð±Ð¾ÑĤÐ°ÐµÑĪÑĮ": 1683,
      "ĠÑĥÑĢÐ¾ÐºÐ¸": 1684,
      "ÑĤÐ°ÐºÐ¸": 1685,
      "ĠÑĢÐ¾Ð´Ð¸ÑĤÐµÐ»": 1686,
      "Ð¥Ð¾ÑĩÑĥ": 1687,
      "cr": 1688,
      "ĠJ": 1689,
      "ĠÐ´ÐµÐ¹ÑģÑĤÐ²": 1690,
      "ĠÑĤÐµÑħ": 1691,
      "ĠĊĊĊ": 1692,
      "Ð³Ð»Ñı": 1693,
      "ĠÐ±ÑĭÑģÑĤÑĢ": 1694,
      "ÑĳÑĪÑĮ": 1695,
      "ĠÐĶÐ°Ð´Ð»Ð¸": 1696,
      "ĠÑģÐ¿Ð¾ÐºÐ¾Ð¹": 1697,
      "Ð§ÐµÐ¼": 1698,
      "ĠÑĨÐµÐ½Ð°": 1699,
      "ĠÑģÐºÐ°Ð¶": 1700,
      "ĠÐ½Ð°ÑģÑĤÐ¾": 1701,
      "ĠÐ¾Ð¿ÑıÑĤÑĮ": 1702,
      "ĠÑĤÐµÐ»Ðµ": 1703,
      "ĠÑģÐ¾Ð²ÐµÑĢÑĪÐµÐ½Ð½Ð¾": 1704,
      "ĠÐĳÐ¾Ð»Ð²Ð°Ð½": 1705,
      "la": 1706,
      "ĠÑĪÐµ": 1707,
      "Ð»Ð¾Ð³": 1708,
      "Ð½ÐµÐ¼": 1709,
      "ÑĥÐ½": 1710,
      "ĠÑģÐ¶": 1711,
      "ÐºÐ¾Ð³Ð¾": 1712,
      "Ð²Ð¸": 1713,
      "Ð´Ð¾": 1714,
      "Ð¼Ñĭ": 1715,
      "ÑĪÐµÐ³Ð¾": 1716,
      "ĠÐ´ÐµÑĢ": 1717,
      "ĠÐ¼Ð°Ð»ÑĮ": 1718,
      "ĠÑĥÐ¼Ðµ": 1719,
      "Ð±Ð°": 1720,
      "Ð»Ð¸Ð½": 1721,
      "Ð³Ð°": 1722,
      "ĠÑıÐ·Ñĭ": 1723,
      "ĠÐ¶Ð´": 1724,
      "ĠÑĤÐ¾Ð»": 1725,
      "ÐŀÐº": 1726,
      "Ð½ÑıÐ»Ð°": 1727,
      "Ð¼ÑĥÑĤ": 1728,
      "ĠÐ¢Ð¾Ð»ÑĮÐºÐ¾": 1729,
      "ÑĥÐ¶Ð´": 1730,
      "ĠÐĽÑĥ": 1731,
      "ÐĹÐ°ÑĤÐ¾": 1732,
      "ĠÐ¼Ð¾Ð¸": 1733,
      "ÐµÐ»Ð¾ÑģÑĮ": 1734,
      "ĠÐ¿Ð¾Ð¿ÑĭÑĤ": 1735,
      "ĠÐļÐ¾ÑĢÐ¾Ð»ÑĮ": 1736,
      "ĠÐ¾Ð±ÑĬÑıÑģ": 1737,
      "av": 1738,
      "ta": 1739,
      "ÑĩÐ°Ñı": 1740,
      "ÑĩÐµÑĢÐ°": 1741,
      "ĠÐ½Ð°Ð±": 1742,
      "ĠÐ²Ð¸Ð½": 1743,
      "Ð²Ð°Ð·Ð¸": 1744,
      "ĠÐºÐ¾Ð³Ð¾": 1745,
      "ÐµÑĢÐ½Ð¾": 1746,
      "ĠÐ¼ÐµÐ´": 1747,
      "ĠÐ¼ÐµÑģÑĤÐµ": 1748,
      "ĠÑĩÑĥÐ´": 1749,
      "Ð¾ÐºÐ°": 1750,
      "ĠÐ¿ÑĢÐ¾ÑĤÑı": 1751,
      "ÐµÐ²ÑĥÑĪÐºÐ°": 1752,
      "ĠÑħÐ¾ÑĤÑĮ": 1753,
      "ĠÑĤÐ¾ÑĢ": 1754,
      "ÐºÑĥÑİ": 1755,
      "ĠÐ³Ð¾Ð»": 1756,
      "ĠÐļÑĢÐ°Ñģ": 1757,
      "ÐµÑģÑĤÐ²Ð¾": 1758,
      "ÑĥÐ¿ÐµÑĢ": 1759,
      "ĠÐĳÐ»ÐµÐº": 1760,
      "ĠÐĶÐ¶ÐµÐ¹Ð¼ÑģÐ¾Ð¼": 1761,
      "ĠÐ´ÐµÐ²ÑĥÑĪÐºÐ¸": 1762,
      "ĠÐ³Ð¾Ð²Ð¾ÑĢÐ¸ÑĤÑĮ": 1763,
      "ĠPHP": 1764,
      "ĠÑĩÐµÑĢÐµÐ·": 1765,
      "ĠÐŁÐµÑĤÑĥ": 1766,
      "ĠÑģÑĥÐ»ÑĤÐ°Ð½": 1767,
      "ĠÐ¿Ð¾Ð½ÑĢÐ°Ð²": 1768,
      "ĠÐ¿Ð¾ÑĨÐµÐ»": 1769,
      "ĠÐ¼Ð°Ð³ÑĢÐ¸Ð±Ð¸Ð½ÐµÑĨ": 1770,
      "ĠC": 1771,
      "ÐµÑģÑĤÑĮ": 1772,
      "ĠÑģÑĢÐ°Ð·Ñĥ": 1773,
      "ĠÐ½Ñĥ": 1774,
      "ĠÐ½ÐµÑģ": 1775,
      "ĠÐ±ÑĭÐ²": 1776,
      "Ð¾Ð±ÑīÐµ": 1777,
      "Ð¸Ð²Ð°Ð»": 1778,
      "ĠÑħÐ¾ÑĢÐ¾ÑĪ": 1779,
      "Ð°Ð¶ÐµÑĤÑģÑı": 1780,
      "ĠÐļÐ²Ð°Ð·Ð¸": 1781,
      "ÑĭÐ²Ð°Ð»": 1782,
      "ÐµÐ³ÑĥÐ»ÑıÑĢ": 1783,
      "ĠÐ²Ð¾Ð·Ð´Ñĥ": 1784,
      "ĠÐ·Ð°ÐºÑĢÐ¸Ñĩ": 1785,
      "ĠÐĶÐ°Ð¼Ð±Ð»Ð´Ð¾ÑĢÐ°": 1786,
      "ĠÐ½Ð¸ÐºÑĤÐ¾": 1787,
      "ĠÐ±ÑĢÐ°ÑĤ": 1788,
      "ĠÐ²Ð¿ÐµÑĩÐ°ÑĤ": 1789,
      "ĠÐ¶Ð¸Ð·Ð½ÑĮ": 1790,
      "ĠÐ²Ð¾ÑģÐºÐ»Ð¸": 1791,
      "ĠJav": 1792,
      "ĠJava": 1793,
      "ÑĢÐµÐ¹": 1794,
      "ĠÑģÑĢÐ¾Ðº": 1795,
      "ĠÐ²Ð¾Ðº": 1796,
      "ĠÐºÑĥÑĢ": 1797,
      "ÐµÐ½Ñĭ": 1798,
      "ĠÐ¼Ð¸ÑĢ": 1799,
      "ÑĢÐ¾ÑĩÐµÐ¼": 1800,
      "ĠÐ·Ð¾Ð»Ð¾ÑĤ": 1801,
      "ĠÐ¿ÑĢÐ¸ÑıÑĤÐ½Ð¾": 1802,
      "ĠÐ²ÑģÐµÐ¼": 1803,
      "ÑĦÑĢÐ¸": 1804,
      "ĠÑģÑĤÐ°Ð»Ð¾": 1805,
      "ĠÐ³Ð¾ÑĢÑı": 1806,
      "ĠÐ´Ð²Ð°": 1807,
      "ĠÐ´Ð²ÐµÑĢÑĮ": 1808,
      "ĠÐ¾Ð¿ÑĢÐµÐ´ÐµÐ»": 1809,
      "ĠÐ´ÐµÐ²ÑĥÑĪÐºÑĥ": 1810,
      "ĠÐ·ÐµÐ»ÑĮÐµ": 1811,
      "ĠÐ¿ÑĢÐ¸Ð²ÑĭÑĩÐºÐ°": 1812,
      "ÐĿÐ¾ÑĢÐ¼Ð°Ð»ÑĮÐ½Ð¾": 1813,
      "id": 1814,
      "pt": 1815,
      "Ð»Ð°Ð³": 1816,
      "ÑĥÐ»ÑĮ": 1817,
      "ÑıÑĤÐ¸": 1818,
      "ĠÐ¸ÑģÐº": 1819,
      "ÐµÑĤÐ°": 1820,
      "ĠÐ·Ð»": 1821,
      "ĠÑĢÐ°Ð´": 1822,
      "ĠÐ»Ð°Ñģ": 1823,
      "Ð¾Ð±Ð¾Ð´": 1824,
      "ĠÐ¿ÑĢÐ¸Ðº": 1825,
      "Ð¾Ð½Ð¾Ð¹": 1826,
      "ÐĴÐ¾ÑĤ": 1827,
      "ĠÐ²Ð¾ÑģÐ¿": 1828,
      "ĠÐ¼Ð¾Ñı": 1829,
      "ĠÐ¶Ð¸Ð·Ð½Ð¸": 1830,
      "ĠÐ±ÐµÑģÐ¿": 1831,
      "ĠÐ½ÑĢÐ°Ð²Ð¸ÑĤÑģÑı": 1832,
      "!Â»": 1833,
      "Scr": 1834,
      "ipt": 1835,
      "Ð¸Ð¹": 1836,
      "ÑıÐ½": 1837,
      "ĠÐ¿Ð»Ð¾ÑħÐ¾": 1838,
      "ĠÑģÐ¸Ñħ": 1839,
      "ĠÐ²ÐµÐ»": 1840,
      "ĠÐ²Ð°Ð¼": 1841,
      "ĠÐ²ÑĩÐµÑĢÐ°": 1842,
      "Ð²Ð¾Ð¹": 1843,
      "Ð½Ð¾ÑģÑĤÐ¸": 1844,
      "Ð±Ð¾": 1845,
      "Ð¾Ð»Ð¾Ð³": 1846,
      "ĠÐĵÐµÑĢÐ¼Ð¸": 1847,
      "ĠÐ»Ñİ": 1848,
      "ĠÐ¿ÑĢÐµÐ²": 1849,
      "ĠÐŁÐ¾Ð¼": 1850,
      "ĠÐ²ÑĭÐ´": 1851,
      "ĠÐ²ÑĭÐ·": 1852,
      "ĠÐ²ÑĭÑħÐ¾Ð´": 1853,
      "Ð¸Ð´Ð½Ð¾": 1854,
      "ĠÐłÐ°Ð·": 1855,
      "ĠÑģÐ²Ð¾Ð¸Ð¼": 1856,
      "ÑīÐ¸Ðµ": 1857,
      "ĠÐ¼ÑĭÑģÐ»Ð¸": 1858,
      "ĠÑĥÑĩÐµÐ½Ð¸": 1859,
      "ĠÑģÐ¾Ð±Ð¾Ð¹": 1860,
      "ĠÐ²ÑģÑĤÑĢÐµÑĤ": 1861,
      "ĠÐ´ÑĢÑĥÐ·ÑĮ": 1862,
      "ĠÐ´Ð¾Ð±Ð°Ð²": 1863,
      "ĠÐ½Ð¾Ð²Ð¾ÑģÑĤÐ¸": 1864,
      "ĠÐ¾Ð³ÑĢÐ¾Ð¼": 1865,
      "ĠÐļÑĢÐ°ÑģÐ¾ÑĤ": 1866,
      "Script": 1867,
      "ĠÐĵÐµÑĢÐ¼Ð¸Ð¾Ð½Ð¾Ð¹": 1868,
      "ÑĢÐµÐ¶": 1869,
      "Ð°Ð³Ð¾": 1870,
      "ÐµÐ½Ð¾": 1871,
      "ĠÐ´Ð¾Ð²Ð¾Ð»ÑĮÐ½Ð¾": 1872,
      "ÐµÑĢÐ²": 1873,
      "ĠÑĤÐ¾Ð¼Ñĥ": 1874,
      "ĠÐ¼Ð¸ÑģÑģ": 1875,
      "ĠÐ·Ð°ÑĢ": 1876,
      "Ð»Ð¸ÑģÑĤ": 1877,
      "Ð¾Ð´Ð°": 1878,
      "Ð°Ð´Ð°Ð¼": 1879,
      "ÐļÑĤÐ¾": 1880,
      "ĠÐŁÐ¾Ð´": 1881,
      "Ð½ÑıÐ·ÑĮ": 1882,
      "ÐµÐ¶Ð°Ð»": 1883,
      "ÑģÐºÐ°Ð¶": 1884,
      "ĠÑįÑĤÐ¾Ð¹": 1885,
      "ĠÐ±Ð¾Ð»ÑĮÑĪ": 1886,
      "ĠÐ¿ÑĢÐ°Ð²Ð´Ð°": 1887,
      "ĠÐ½Ð°ÑĩÐ°Ð»": 1888,
      "ĠÑĥÑģÐ¿Ð¾ÐºÐ¾": 1889,
      "ĠÐ½Ð°Ð·Ð½Ð°Ñĩ": 1890,
      "ĠÑģÐµÑĢÐ´": 1891,
      "ĠÐļÐ¾ÑĢÐ¾Ð»ÐµÐ²Ð°": 1892,
      "ĠÐ²Ð¾ÐºÑĢÑĥÐ³": 1893,
      "ĠÑĢÐ¾": 1894,
      "ÑĢÐµ": 1895,
      "ĠÐ½Ð¾Ð³": 1896,
      "ĠÐ²ÐºÑĥÑģ": 1897,
      "ĠÐ¾ÐºÐ°Ð·": 1898,
      "ĠÐ¸Ð¼Ðµ": 1899,
      "ĠÐ±Ð¾Ð³": 1900,
      "Ð»Ð¸Ñĩ": 1901,
      "ÑĨÐµÐ¹": 1902,
      "ÑĨÐµÐ²": 1903,
      "ÐµÐ´Ð¸": 1904,
      "ÐµÐ²ÐµÑĢ": 1905,
      "ĠÐ³Ð¾Ð²Ð¾ÑĢ": 1906,
      "ĠÐ¿ÑĢÐ¸Ð±": 1907,
      "Ð¸Ð²Ð°ÑĤÑĮ": 1908,
      "ĠÑĤÐ°ÐºÐ¸Ðµ": 1909,
      "ĠÐ·Ð°Ð½Ð¸Ð¼": 1910,
      "ÑĪÐ¸Ð¼": 1911,
      "Ð¾Ð²Ð°ÑĢÐ¸Ð²": 1912,
      "ĠÐ¿ÑĢÐµÐ´ÑģÑĤÐ°Ð²": 1913,
      "ĠÐ¼Ð¾Ð³Ð»Ð°": 1914,
      "ĠÐ·Ð°Ð¼ÐµÑĩ": 1915,
      "ĊĊĊĊĉ": 1916,
      "ĠÐºÐ¾Ð¼Ð½Ð°ÑĤÑĥ": 1917,
      "ĠÐ¶Ð¸Ð²Ð¾ÑĤ": 1918,
      "ĠÑħÐ¾ÑĢÐ¾ÑĪÐ¸Ð¹": 1919,
      "ĠÐ²Ð·Ð´Ð¾ÑħÐ½ÑĥÐ»": 1920,
      "ĠÐ²Ð»ÑİÐ±": 1921,
      "ÑĢÐµÐ¹Ð½": 1922,
      "ÑĭÐ¼Ð¸": 1923,
      "ÑĩÐ°Ð»": 1924,
      "ĠÐ´ÑıÐ´": 1925,
      "ĠÐ¼Ð½": 1926,
      "ĠÐ¼ÐµÑĢ": 1927,
      "Ð¸Ð»Ð¾ÑĤ": 1928,
      "ĠÑĥÑĤÑĢ": 1929,
      "ĠÐ¿Ð¾ÑįÑĤÐ¾Ð¼Ñĥ": 1930,
      "ĠÐĵÑĢÐµÐ¹Ð½": 1931,
      "Ð½ÑĥÐ»Ð¸": 1932,
      "Ð¸Ð²Ð°Ñİ": 1933,
      "ĠÑģÑĤÐ°Ð»": 1934,
      "ĠÐ¾Ð±Ñĭ": 1935,
      "ĠÐ³Ð¾ÑģÑĤ": 1936,
      "ĠÐ¢ÐµÐ¿ÐµÑĢÑĮ": 1937,
      "ĠÐ²Ð¾Ð¾Ð±ÑīÐµ": 1938,
      "ĠÐ»ÑİÐ±Ð¾Ð²": 1939,
      "ĠÐ¿ÑĢÐµÐ´Ð¿": 1940,
      "ĠÐ²ÐµÑĢÐ½ÑĥÐ»ÑģÑı": 1941,
      "ÐłÐµÐ³ÑĥÐ»ÑıÑĢ": 1942,
      "ĠÐ³Ð¾Ð²Ð¾ÑĢÐ¸Ð»": 1943,
      "ĠÐ½Ð°Ð²ÐµÑĢÐ½Ð¾Ðµ": 1944,
      "Ð´Ð¶ÐµÑĢ": 1945,
      "ĠÐ½ÐµÐ¿ÑĢÐ¸ÑıÑĤÐ½Ð¾": 1946,
      "Ð¡Ð¿Ð°ÑģÐ¸Ð±Ð¾": 1947,
      "ÑģÐ¾Ð²": 1948,
      "Ð½Ð¾Ð¼Ñĥ": 1949,
      "ĠÑģÐ¼Ð¾ÑĤÑĢÐ¸": 1950,
      "ĠÐ²Ð¾Ð¿": 1951,
      "Ð°Ð»Ðµ": 1952,
      "Ð½Ð¾ÑģÑĤÑĮ": 1953,
      "ĠÐ¼ÐµÑĪ": 1954,
      "ĠÐ¼ÐµÐ¶Ð´Ñĥ": 1955,
      "ĠÐ·Ð´Ð¾ÑĢ": 1956,
      "ĠÐ¿Ð¾ÑĢÑıÐ´": 1957,
      "Ð¾ÑĢÐµ": 1958,
      "Ð¾Ð¶Ð¸Ð´Ð°": 1959,
      "ĠÐ¶ÐµÐ»": 1960,
      "ÐŁÐ¾ÑĩÐµÐ¼Ñĥ": 1961,
      "ÐºÐ¾Ñĩ": 1962,
      "ÐºÑĥÐ´Ð°": 1963,
      "ÐµÐºÑĤÐ¾ÑĢ": 1964,
      "ĠÐŀÐ´": 1965,
      "ĠÐ½Ð¾Ñģ": 1966,
      "ÑĪÐµÐµ": 1967,
      "ÑģÐºÐ¾Ð¹": 1968,
      "ĠÐ¿Ð¾Ð»ÐµÐ·": 1969,
      "ĠÐ´Ð¾ÑģÑĤ": 1970,
      "ĠÑģÐ°Ð¼Ð¾Ðµ": 1971,
      "ĠÑģÐ²ÑıÐ·": 1972,
      "ĠÐ´ÑĥÐ¼Ð°Ñİ": 1973,
      "Ð°ÑİÑĤÑģÑı": 1974,
      "ĠÐ½Ð°ÑĩÐ°Ð»Ð°": 1975,
      "ĠÐ¼Ð¾ÑĢÐµ": 1976,
      "Ð¸Ð¶Ñĥ": 1977,
      "ĠÐ¶ÐµÐ½ÑīÐ¸": 1978,
      "ĠÐĵÑĢÐ¸ÑĦÐ¾Ð½": 1979,
      "ĠÐ²ÑĢÐ°Ñĩ": 1980,
      "ĠÐĳÐ¾Ð»Ð²Ð°Ð½ÑīÐ¸Ðº": 1981,
      "ĠÐĵÑĢÐµÐ¹Ð½Ð´Ð¶ÐµÑĢ": 1982,
      "do": 1983,
      "Ġ5": 1984,
      "ĠÑĪÐ¸": 1985,
      "Ð°Ñī": 1986,
      "Ð»Ð¾Ð½": 1987,
      "ĠÐ½Ð°ÑĢ": 1988,
      "Ð²Ð¾Ð»": 1989,
      "ÑĤÐ¾Ñĩ": 1990,
      "ĠÐºÐµÐ¼": 1991,
      "ÐµÐ½Ð½Ð¾Ð¹": 1992,
      "ĠÐ´Ð¸": 1993,
      "ĠÐ´Ð°Ð²Ð½Ð¾": 1994,
      "Ð½Ð°ÑĩÐ¸ÑĤ": 1995,
      "Ð·Ð´": 1996,
      "Ð½Ð¸ÑĨÐ°": 1997,
      "Ð¾Ð¹Ð´": 1998,
      "ÐºÐ¸Ð¼": 1999,
      "ĠÐ¿ÑĢÐ¸Ñģ": 2000,
      "ĠÐ¿ÑĢÐ¸Ð¶": 2001,
      "ÑģÑĤÐ²Ðµ": 2002,
      "ÑĥÑĪÐºÐ¸": 2003,
      "ÑĥÑĪÐ°Ð¹": 2004,
      "Ð¾ÑĩÑĮ": 2005,
      "Ð°Ð³Ð°Ð»": 2006,
      "ĠÐ²Ð·ÑıÐ»": 2007,
      "ĠÑģÐ°Ð¼Ð°": 2008,
      "ĠÐ¥Ð¾ÑĤ": 2009,
      "ĠÑģÐ¿ÑĢÐ¾ÑģÐ¸ÑĤÑĮ": 2010,
      "ĠÐ´ÑĥÐ¼Ð°Ð»": 2011,
      "ĠÐ¿Ð¾ÑħÐ¾Ð¶": 2012,
      "ĠÐľÐ°Ð»ÑĦÐ¾": 2013,
      "ĠÐ´Ð¾Ð»Ð¶ÐµÐ½": 2014,
      "ĠÑīÐµÐº": 2015,
      "ĠÐ·Ð°ÑīÐ¸ÑĤ": 2016,
      "ĠRu": 2017,
      "Win": 2018,
      "es": 2019,
      "ws": 2020,
      "ÑĢÐ°ÑĤÑĮ": 2021,
      "ÑĢÐ°Ð½": 2022,
      "Ð»Ð¾Ð¼": 2023,
      "ĠÐ²Ð¸Ð·": 2024,
      "ÑĪÐµÐ¹": 2025,
      "ĠÐ¸Ð´ÐµÑı": 2026,
      "ÐµÐ½Ð½ÑĭÐµ": 2027,
      "ÐµÑĢÑĨ": 2028,
      "Ð½Ð¸Ð·": 2029,
      "ÑĳÐ¶": 2030,
      "ÐŁÑĢÐ¾": 2031,
      "ĠÑĤÐ°ÐºÐ¾Ð³Ð¾": 2032,
      "ĠÐļÑĢÐ¾": 2033,
      "ĠÐ½Ð¾ÑĥÑĤÐ±": 2034,
      "ÑĢÑıÑģ": 2035,
      "ĠÑĢÑĥÐºÐ°Ñħ": 2036,
      "ÑģÑĤÐ¾ÑĢÐ¸": 2037,
      "ÑĩÐ¸Ð½Ð°": 2038,
      "ĠÐ¼ÑĭÑģ": 2039,
      "ĠÑĥÐ²ÐµÑĢ": 2040,
      "ĠÐ¼Ð¾ÐµÐ¹": 2041,
      "ĠÐ³Ð»Ð°Ð·Ð°Ð¼Ð¸": 2042,
      "Ð»Ð¸Ð·ÐµÑĢÐ¸": 2043,
      "ĠÑĢÑĭÐ±": 2044,
      "ĠÐŁÐ¾Ð¼ÑĦÑĢÐ¸": 2045,
      "dows": 2046,
      "Windows": 2047,
      "ĠÐĸ": 2048,
      "ÑģÐ½Ð¾": 2049,
      "ÑĥÑģÐº": 2050,
      "ĠÐºÐ²Ð¸Ð´": 2051,
      "ĠÑĥÑħ": 2052,
      "ÑĨÐ¸Ð¸": 2053,
      "ĠÐĶÐµÐ²ÑĥÑĪÐºÐ°": 2054,
      "Ð³Ð¾Ð½": 2055,
      "ĠÐ²ÑģÐº": 2056,
      "ĠÑħÐ¾Ð´": 2057,
      "ÐµÐ¿Ð°Ñħ": 2058,
      "ĠÐ·Ð½Ð°ÐµÑĤ": 2059,
      "Ð»ÑİÑĩ": 2060,
      "Ð¸Ð»ÑĮÐ¼": 2061,
      "ĠÐķÐ³Ð¾": 2062,
      "ĠÐ³Ð¾Ð»Ð¾Ð²Ðµ": 2063,
      "ĠÐºÐ¾ÑĤÐ¾ÑĢÑĭÐµ": 2064,
      "ĠÐ±Ð»Ð°Ð³": 2065,
      "ĠÑģÑĤÑĢÐ°Ð´": 2066,
      "ĠÐºÐ½Ð¸Ð¶": 2067,
      "ĠÑģÐ»ÑĥÑĩÐ°": 2068,
      "ĠÑĥÐ¶Ð°ÑģÐ½Ð¾": 2069,
      "ĠÑĢÐ°ÑģÑĤ": 2070,
      "ĠÐ¸Ð½ÑĤÐµÑĢÐµÑģÐ½Ð¾": 2071,
      "ĠÐĴÐ¾Ð»Ð´ÐµÐ¼Ð¾ÑĢ": 2072,
      "ÐļÐ»Ð°ÑģÑģÐ¸ÐºÐ°": 2073,
      "ĠÑĤÐ¸ÑħÐ¾": 2074,
      "ĠÐºÐ°Ð·Ð°Ð»Ð¾ÑģÑĮ": 2075,
      "ac": 2076,
      "Ð¦": 2077,
      "ĠL": 2078,
      "Ð¾Ñī": 2079,
      "Ð¸ÐµÐ¼": 2080,
      "Ð½Ð¸Ð»Ð°": 2081,
      "ÑĭÐ»Ð°": 2082,
      "ĠÑģÐ¾Ð½": 2083,
      "ĠÑģÑĢÐµÐ´": 2084,
      "ĠÑģÐ¸Ð»ÑĮÐ½Ð¾": 2085,
      "ÐºÐ¾Ð»ÑĮ": 2086,
      "ĠÐ²ÑģÑĤ": 2087,
      "Ð¼Ð°ÑĢ": 2088,
      "ĠÐ¾Ñħ": 2089,
      "ĠÐ¼Ð°Ð´Ð°Ð¼": 2090,
      "ÑİÑī": 2091,
      "ÑĢÐ¾ÑģÐ»": 2092,
      "ĠÑĥÑĩÐ¸ÑĤ": 2093,
      "ĠÑĥÐ·Ð½": 2094,
      "Ð·Ñı": 2095,
      "ĠÐµÐ·Ð´": 2096,
      "ĠÐ³ÑĢÑı": 2097,
      "ĠÐ³ÑĢÐ¸ÑĦ": 2098,
      "ÐļÑĢÑĥ": 2099,
      "Ð°Ð½Ð½ÑĭÐµ": 2100,
      "Ð¢Ð°Ðº": 2101,
      "ÑĦÐ¾ÑĢÐ¼": 2102,
      "ÐºÐ¾ÑĢÐ¾": 2103,
      "ĠÐ¡Ð¿": 2104,
      "ĠÐ¾Ð±Ñī": 2105,
      "ĠÑģÐ»Ð°Ð±": 2106,
      "ÐĴÑĭ": 2107,
      "ĠÐ¿Ð¾ÐºÑĥÐ¿": 2108,
      "Ð¾Ð²Ð¾ÑĢÐ¸ÑĤÑĮ": 2109,
      "ÑĦÐµÑģÑģÐ¾ÑĢ": 2110,
      "ÑĥÑĢÐ½": 2111,
      "ĠÐ¸Ð¼ÐµÐ½Ð½Ð¾": 2112,
      "ÑıÐ·Ð°ÑĤÐµÐ»ÑĮÐ½Ð¾": 2113,
      "ĠÐºÐ¾Ð¼Ð½Ð°ÑĤÐµ": 2114,
      "Ð½Ð¸ÑĤÐµÐ»ÑĮ": 2115,
      "ÑĢÐ°Ð¼Ð¼Ð¸": 2116,
      "ĠÐ´ÑĢÐ¾Ð¶": 2117,
      "ĠÐ½Ð°ÐºÐ°Ð·": 2118,
      "ĠÐ·Ð°ÐºÐ»Ð¸Ð½Ð°Ð½Ð¸Ðµ": 2119,
      "ĠÐ¾ÑģÐ¾Ð±ÐµÐ½Ð½Ð¾": 2120,
      "ĠÐ¾ÑĤÐ½Ð¾ÑĪ": 2121,
      "ĠÐ¿ÑĢÐµÐºÑĢÐ°Ñģ": 2122,
      "ĠÑĢÐ¾Ð´Ð¸ÑĤÐµÐ»ÐµÐ¹": 2123,
      "ĠÐºÐ²Ð¸Ð´Ð´Ð¸": 2124,
      "Ð¸Ð¼Ð¸": 2125,
      "ÑĢÐµÐ±": 2126,
      "ÑıÐ»Ð°": 2127,
      "ĠÐ¿ÑıÑĤ": 2128,
      "ÑĩÐ¾Ð½": 2129,
      "ĠÐ½ÐµÐ±": 2130,
      "Ð²Ð¾Ð·ÑĮ": 2131,
      "Ð´ÐµÐ¹": 2132,
      "Ð¼Ð¸ÑĤ": 2133,
      "Ð¾Ð²Ð¸": 2134,
      "Ð¿ÑĢÐ¾ÑĩÐµÐ¼": 2135,
      "ĠÑĩÐµÐº": 2136,
      "ĠÐ·Ð°Ð¶": 2137,
      "Ð±Ñĥ": 2138,
      "Ð¾Ð¹ÑĤÐ¸": 2139,
      "ĠÑĢÐµÐ·": 2140,
      "ĠÐ¿Ð¾ÑĤÐµÑĢ": 2141,
      "ĠÐĵÐµÑĢÑĨ": 2142,
      "Ð°Ð¼Ð°": 2143,
      "ÐĶÐ¾Ð±ÑĢÑĭÐ¹": 2144,
      "ĠÐ³ÑĢÐ¾Ð¼": 2145,
      "ÑĦÐµ": 2146,
      "ĠÑģÑĤÐ°ÑĢÐ¸": 2147,
      "ĠÐ¡Ð¼Ð¸ÑĤ": 2148,
      "ĠÑĤÐ°ÐºÐ°Ñı": 2149,
      "Ð°Ð¹ÑĤÐµ": 2150,
      "ÑĥÐ¶ÐµÐ»Ð¸": 2151,
      "ĠÐ´Ð¾ÑĢÐ¾Ð³Ð¾": 2152,
      "ĠÑģÐ¸Ð´ÐµÐ»": 2153,
      "ĠÐ¾ÑĤÐºÑĢÑĭÐ»": 2154,
      "ĠÐºÐ°Ð¶Ð´Ð¾Ð³Ð¾": 2155,
      "ĠÐ½ÐµÐ½Ð°Ð²": 2156,
      "ĠÑģÐµÑĢÑĮÑĳÐ·Ð½Ð¾": 2157,
      "ĠÐ²Ð¾Ð·Ð´ÑĥÑħ": 2158,
      "ĠÑģÐ¼Ð¾ÑĤÑĢÐ¸ÑĪÑĮ": 2159,
      "ĠG": 2160,
      "Ð¾ÑĢÐ¸": 2161,
      "ÑĥÑĤÑĮ": 2162,
      "ĠÐ¿Ð°": 2163,
      "ĠÑģÑĥ": 2164,
      "ÐµÐ½Ñĩ": 2165,
      "Ð¾Ð²ÐµÑĤ": 2166,
      "ĠÑĩÐµÑģÑĤÐ½Ð¾": 2167,
      "Ð½Ð¸Ð²": 2168,
      "ĠÐ¾ÑĤÑĨÐ°": 2169,
      "ĠÐĶÑĥÑĢ": 2170,
      "Ð°ÑĤÑĭ": 2171,
      "ÑĢÐ°ÑĦ": 2172,
      "ĠÑģÐ¿Ð°Ñģ": 2173,
      "Ð°Ð¿Ð°": 2174,
      "ĠÑĪÑĥÑĤ": 2175,
      "ĠÐ²Ð¾Ñģ": 2176,
      "ĠÐ´ÐµÐ²Ð¾Ñĩ": 2177,
      "ĠÐ¾Ð´Ð½Ð¾Ð¹": 2178,
      "Ð¾Ð²Ð¾ÑĢÐ¸Ð»": 2179,
      "ĠÑįÑĤÐ°": 2180,
      "ĠÐ¾Ð¿Ð°Ñģ": 2181,
      "ĠÐºÐ¾ÑĤÐ¾ÑĢÐ¾Ð¹": 2182,
      "ÑıÐ»Ð°ÑģÑĮ": 2183,
      "ĠÐ²ÐµÑĢÐ½Ð¾": 2184,
      "ĠÑĥÐ²Ð¸Ð´ÐµÐ»Ð°": 2185,
      "ĠÐ¡Ð¸ÑĢÐ¸ÑĥÑģÐ°": 2186,
      "ĠÐ·Ð°Ð¼ÐµÑĤÐ¸Ð»": 2187,
      "ĠÐ¿Ð¾ÐºÐ°Ð·Ð°Ð»Ð¾ÑģÑĮ": 2188,
      "ÑĥÑĤÐ±Ð¾Ð»": 2189,
      "ĠÐ¼Ð¸Ð»ÑĭÐ¹": 2190,
      "ĠÐ²Ð¾ÑģÐºÐ»Ð¸ÐºÐ½ÑĥÐ»": 2191,
      "ĠÐ½Ð¾ÑĥÑĤÐ±ÑĥÐº": 2192,
      "ĠÑģÐ»ÑĥÑĩÐ°Ðµ": 2193,
      "!?": 2194,
      "Ð°Ð½Ð°": 2195,
      "ĠÐ¿Ð¾Ð¶": 2196,
      "ĠÑģÑħÐ²Ð°ÑĤ": 2197,
      "ĠÐ½Ð°Ð³": 2198,
      "ĠÐ²Ð°ÑĢÐ¸": 2199,
      "ÑĪÐ½Ð¾": 2200,
      "ĠÐºÐ¾Ð»ÑĮ": 2201,
      "Ð¾Ð²Ð°Ð»ÑģÑı": 2202,
      "Ð½Ð¸Ð¸": 2203,
      "Ð½Ð¸ÑĨÑĭ": 2204,
      "Ð¶Ð¸Ð½": 2205,
      "ĠÐ¿Ð¾ÐµÐ·Ð´": 2206,
      "Ð³Ð°ÑĢ": 2207,
      "ĠÑįÐ½ÐµÑĢ": 2208,
      "Ð¸Ð²Ð°Ñı": 2209,
      "ÐµÐ½Ð¸Ð¸": 2210,
      "ĠÑģÑĤÐ°Ð»Ð°": 2211,
      "ÐŀÐ¿": 2212,
      "ÐµÐ»ÑĮÐ·Ñı": 2213,
      "Ð¾Ð¿ÑĭÑĤ": 2214,
      "ĠÐºÐ¾Ñģ": 2215,
      "ĠÐľÐ°Ðº": 2216,
      "Ð»ÑİÐ´": 2217,
      "ĠÐ¾Ð´Ð½Ð¾": 2218,
      "ĠÑħÐ¾ÑĤÐµÐ»Ð¾ÑģÑĮ": 2219,
      "ĠÐ¸Ð½Ð¾Ð³Ð´Ð°": 2220,
      "ĠÐºÐ¾Ð½ÑĨ": 2221,
      "ÐĳÑĥÐ´": 2222,
      "ĠÐ¿Ð¾ÑħÐ¾Ð¶Ðµ": 2223,
      "ĠÑģÐ»ÑĥÑĩÐ¸Ð»Ð¾ÑģÑĮ": 2224,
      "ĠÐ¼Ð°Ð¼Ð°": 2225,
      "ĠÐ¸Ð³ÑĢÐ°Ð»": 2226,
      "ÑĪÐ»Ð¾ÑģÑĮ": 2227,
      "ĠÑĢÐ°Ð·Ð³Ð¾Ð²Ð¾ÑĢ": 2228,
      "ĠÐºÑĢÐ¾Ð²Ð°ÑĤÐ¸": 2229,
      "ĠÐŁÑĢÐ¾ÑĦÐµÑģÑģÐ¾ÑĢ": 2230,
      "Ð°Ð½ÑĮÑĪÐµ": 2231,
      "ĠÑıÐ·ÑĭÐº": 2232,
      "ÑĥÐ»ÑĮÑĤ": 2233,
      "ĠK": 2234,
      "ĠN": 2235,
      "ÑģÑĳ": 2236,
      "Ð½Ð°Ð¶": 2237,
      "ĠÑģÑİ": 2238,
      "ĠÐ´Ð¸ÑĢ": 2239,
      "ĠÑĤÐ¾Ð¿": 2240,
      "ĠÑĤÐµÐ»Ð¾": 2241,
      "ĠÑĤÑıÐ¶ÐµÐ»Ð¾": 2242,
      "ĠÑĤÐ²Ð¾Ð¹": 2243,
      "Ð¿ÐµÑĢÐ°ÑĤ": 2244,
      "ĠÑĥÐº": 2245,
      "ĠÑĥÐ·Ð½Ð°": 2246,
      "Ð¾Ð»Ð½": 2247,
      "ĠÐ½Ð°ÑĥÑĩ": 2248,
      "ĠÐ¿ÑĢÐ¾ÑĩÐ¸ÑĤ": 2249,
      "ÑĢÑĥÐ¶": 2250,
      "Ð°Ð½ÑĤ": 2251,
      "Ð¸Ð²Ð°ÐµÑĤ": 2252,
      "ĠÐ¶Ð°Ð»": 2253,
      "ĠÐ¶ÑĥÑĢÐ½": 2254,
      "Ð¢ÑĥÑĤ": 2255,
      "ÑĦÐ¾Ð½": 2256,
      "ĠÐ¿Ð¾Ð´Ð·": 2257,
      "ĠÐ·Ð°ÑĤÐ¾": 2258,
      "ĠÐļÐ¾Ð½ÐµÑĩÐ½Ð¾": 2259,
      "ĠÑģÐ¿Ð¾Ñģ": 2260,
      "Ð°Ð¹ÑģÑı": 2261,
      "ÑĥÐ¶Ð½Ð¾": 2262,
      "ĠÐ´ÐµÐ²ÑĩÐ¾Ð½": 2263,
      "ĠÑĢÑĥÐºÐ¾Ð¹": 2264,
      "ĠÐ¥Ð¾ÑĢÐ¾ÑĪÐ¾": 2265,
      "ĠÐ´ÐµÐ»Ð°ÐµÑĤ": 2266,
      "ĠÐ·Ð°ÐºÐ¾Ð½Ñĩ": 2267,
      "Ð¥Ð°": 2268,
      "ĠÑģÐºÐ¾ÑĢ": 2269,
      "ĠÑħÐ¾ÑĩÐµÑĤ": 2270,
      "Ð½ÑĥÑĤÑĮÑģÑı": 2271,
      "ĠÐ´Ð¾Ð¼Ð°ÑĪ": 2272,
      "ĠÐ²Ð·Ð´ÑĢÐ¾Ð³": 2273,
      "ĠÐºÐ¾ÑĤÐ¾ÑĢÐ°Ñı": 2274,
      "ĠÐ¥Ð¾Ð³Ð²Ð°ÑĢÑĤÑģÐµ": 2275,
      "ĠÐ¤Ð¸Ð»": 2276,
      "ĠÐĵÑĢÐ¸ÑĦÑĦÐ¸Ð½Ð´Ð¾ÑĢ": 2277,
      "ĠÐºÐ½Ð¸Ð³Ñĥ": 2278,
      "ĠÐ²ÑģÐ¿Ð¾Ð¼Ð½Ð¸Ð»": 2279,
      "ĠÑģÐµÑģÑĤÑĢÐ°": 2280,
      "ĠÑĥÑĤÑĢÐ¾Ð¼": 2281,
      "Ð¾Ð¶Ð¸Ð´Ð°Ð½Ð½Ð¾": 2282,
      "Ð³Ð¾Ð½Ð°Ð³Ð°Ð»": 2283,
      "ro": 2284,
      "st": 2285,
      "Ġ2": 2286,
      "ÑĢÐµÑĪ": 2287,
      "Ð½Ð°ÐºÐ¾": 2288,
      "ĠÑģÐ±": 2289,
      "ÑĩÐµÑĤ": 2290,
      "Ð´Ð¾Ð³": 2291,
      "ÑĤÐ¾ÑĩÐ½Ð¾": 2292,
      "Ð¼ÐµÑĤ": 2293,
      "ĠÐ´Ð¾Ð±ÑĢ": 2294,
      "ĠÑĩÐ¸ÑģÑĤ": 2295,
      "ĠÐ»ÐµÑģÑĤ": 2296,
      "Ð¾ÐºÑĢÐ¾Ð²": 2297,
      "ÐµÑģÐ¿": 2298,
      "ĠÐŁÐ°ÑĢ": 2299,
      "ĠÐ¡Ð°Ð»": 2300,
      "ĠÐ¿Ð¾Ð´Ð°ÑĢ": 2301,
      "ĠÐ¾Ð±ÑĢÐ°ÑĤ": 2302,
      "ĠÐļÑį": 2303,
      "ĠÐĴÐµÐ´ÑĮ": 2304,
      "ĠÐĴÐ¿ÑĢÐ¾ÑĩÐµÐ¼": 2305,
      "Ð»ÑĮÑĦ": 2306,
      "ÑıÑĤÑģÑı": 2307,
      "ĠÐĳÑĥÐ´": 2308,
      "Ð¼ÐµÑħ": 2309,
      "ĠÐ»ÑİÐ±Ð¸ÑĤ": 2310,
      "ĠÐ»ÑİÐ±Ð¸Ð¼": 2311,
      "ĠÐ½Ð°Ð´Ðµ": 2312,
      "ĠÑģÐ²Ð¾Ð±Ð¾Ð´": 2313,
      "ĠÑģÐºÐ¾Ð»ÑĮÐºÐ¾": 2314,
      "ĠÐ¿ÑĢÐµÐ´Ð»Ð¾Ð¶": 2315,
      "ĠÐ¿ÑĢÐµÐ´Ð»Ð°Ð³": 2316,
      "ĠÐºÐ¾ÑĤÐ¾ÑĢÐ¾Ð³Ð¾": 2317,
      "ĠÐŁÐ¾ÑįÑĤÐ¾Ð¼Ñĥ": 2318,
      "ĠÐ½ÐµÐ´Ð°Ð²Ð½Ð¾": 2319,
      "ĠÐ´Ð¾Ð¼Ð°": 2320,
      "ĠÐ¿ÑĢÐ¾ÑĪÐµÐ¿": 2321,
      "ĠÐ¿Ð¸ÑģÑĮ": 2322,
      "ÑĨÐ¸Ñİ": 2323,
      "ÐŀÐ±Ðµ": 2324,
      "ĠÐ¸Ð´ÑĳÑĪÑĮ": 2325,
      "ÐĺÐ½Ð¾Ð³Ð´Ð°": 2326,
      "ĠÐ»ÐµÐ³ÐºÐ¾": 2327,
      "ĠÑĢÐµÑĦ": 2328,
      "ĠÑģÑĩÐ°ÑģÑĤ": 2329,
      "ĠÐ·Ð°Ð½ÑıÑĤ": 2330,
      "ĠÐ¼Ð¸Ð½ÑĥÑĤÑĥ": 2331,
      "ĠÐ¿ÑĢÐ¾Ð¸ÑģÑħÐ¾Ð´Ð¸ÑĤ": 2332,
      "ĠÐµÐ·Ð´Ð¸Ð»": 2333,
      "Ġi": 2334,
      "Ð¸Ð³ÑĢ": 2335,
      "Ð»ÐµÐ½Ð¸Ðµ": 2336,
      "ÑıÐ¼": 2337,
      "ĠÐ¿ÐµÑģ": 2338,
      "ÑĩÑĤÐ¾": 2339,
      "ÐºÐ½ÑĥÐ»Ð°": 2340,
      "ĠÐ²ÐµÐ»Ð¸": 2341,
      "ĠÐ¾ÑģÑĤÑĢ": 2342,
      "ĠÐ¸ÑģÑĤÐ¾ÑĢÐ¸": 2343,
      "ÑĢÐ¸Ð¿": 2344,
      "ĠÐ´Ð¶Ð¸Ð½": 2345,
      "ÐµÑĢÐ¾": 2346,
      "Ð½Ð¾Ñģ": 2347,
      "ÐµÐ»Ñİ": 2348,
      "Ð¾Ð¼Ð¸Ð½Ð°": 2349,
      "Ð°ÑĢÑĮ": 2350,
      "ÐĶÐ¾Ð±": 2351,
      "ĠÐ³Ð»ÑıÐ´": 2352,
      "ĠÐ¿ÑĢÐ¸Ð³": 2353,
      "ĠÐ¶ÐµÐ»Ð°": 2354,
      "ĠÐĿÐ°Ð²": 2355,
      "ĠÐ½Ð¸Ð¼Ð¸": 2356,
      "ĠÐŀÐ±": 2357,
      "ĠÐľÐ°ÑĢ": 2358,
      "ĠÑģÐ²Ð¾Ðµ": 2359,
      "ĠÐ¢Ð¾Ð³Ð´Ð°": 2360,
      "ÑĢÐ°Ð²Ð»Ñı": 2361,
      "ĠÑĪÐµÐ¿": 2362,
      "ĠÐ²Ð¾Ð·ÑĢÐ°Ð·": 2363,
      "ĠÐ¼Ð¾Ð¶ÐµÑĪÑĮ": 2364,
      "ÐĹÐ°": 2365,
      "ĠÐ¼ÑĭÑģÐ»": 2366,
      "ĠÐºÐ¾Ð½ÑĨÐµ": 2367,
      "ĠÐ¸ÑģÐ¿ÑĭÑĤ": 2368,
      "ĠÑĥÐ»ÑĭÐ±Ð½ÑĥÐ»ÑģÑı": 2369,
      "ĠÑģÐ¼ÐµÑħÐ°": 2370,
      "ĠÐ¿Ð¸ÑĪ": 2371,
      "ĠÐ¸Ð´ÑĤÐ¸": 2372,
      "ĠÐ¾ÑīÑĥÑīÐµÐ½Ð¸Ñı": 2373,
      "ĠÑģÐ¼Ð¾ÑĤÑĢÐµÐ»Ð°": 2374,
      "ĠÐ³ÑĥÐ±Ñĭ": 2375,
      "ĠÑĪÐºÐ¾Ð»Ðµ": 2376,
      "ÐļÑĢÐ°ÑģÐ¸Ð²": 2377,
      "ĠÑĤÐµÑĢÐ¿": 2378,
      "ĠÐ§ÐµÑĢÐµÐ¿Ð°Ñħ": 2379,
      "ĠÑģÐ»ÐµÐ´ÑĥÑİÑīÐ¸Ð¹": 2380,
      "ĠÑģÐµÐ¼ÑĮ": 2381,
      "ÐŀÐºÐµÐ¹": 2382,
      "ĠÐĽÑĥÐ½Ð°": 2383,
      "ĠÐĵÐµÑĢÑĨÐ¾Ð³": 2384,
      "ĠÑĢÐµÑĦÐµÑĢÐ°ÑĤ": 2385,
      "Ð¾ÑģÑĤÐ¸": 2386,
      "Ð¸ÑģÐº": 2387,
      "ĠÐ¿Ð»Ñİ": 2388,
      "ĠÑģÐ´": 2389,
      "Ð²Ðµ": 2390,
      "ĠÐºÐ»Ð°Ñģ": 2391,
      "ÑģÑĤÐ°ÑĤÐ¸": 2392,
      "ĠÐ´Ð°Ð²": 2393,
      "Ð½Ð¸ÑĨÐµ": 2394,
      "Ð½ÑĥÐ»Ð¸ÑģÑĮ": 2395,
      "ÑĨÐµÐ½": 2396,
      "ÐĶÐ°Ð²Ð°Ð¹": 2397,
      "ĠÐĶÐ°Ð¶Ðµ": 2398,
      "Ð°ÑĤÑĭÐ¹": 2399,
      "ĠÐ¿ÑĢÐ¾Ðº": 2400,
      "ÐļÐ¾Ð³Ð´Ð°": 2401,
      "Ð°Ð½Ð½ÑĭÐ¹": 2402,
      "ÐŁÐ¾ÑĤ": 2403,
      "ĠÑĤÐ°ÐºÐ¸Ð¼": 2404,
      "ĠÐ¿Ð¾Ð´Ð½ÑıÐ»": 2405,
      "ĠÑģÐ»Ð¾Ð¶": 2406,
      "ĠÐ³Ð¾ÑģÐ¿": 2407,
      "Ð¾Ð·Ð¼Ð¾Ð¶Ð½Ð¾": 2408,
      "Ð°Ð¿Ñĭ": 2409,
      "ĠÐ¿ÐµÑĢÐµÑģÑĤ": 2410,
      "ÑĢÐ°Ð²Ð´Ð°": 2411,
      "ĠÐºÑĢÐµÐ¿": 2412,
      "Ð¸Ð·Ð°Ð¹": 2413,
      "ĠÐ²Ð·ÑĢÐ¾ÑģÐ»": 2414,
      "ĠÑĦÐ¸Ð»ÑĮÐ¼": 2415,
      "Ð¾ÑħÐ¾ÑĤ": 2416,
      "Ð¾ÑħÐ¾Ð¶Ðµ": 2417,
      "ÐłÐ¾Ð½": 2418,
      "ĠÐ·Ð°Ð´ÑĥÐ¼": 2419,
      "ĠÐ³ÑĢÑĥÐ´": 2420,
      "ĠÐ³ÑĢÑĥÐ´Ð¸": 2421,
      "Ð½ÑĥÐ²ÑĪÐ¸ÑģÑĮ": 2422,
      "Ð¡Ð»Ð¾Ð¶Ð½Ð¾": 2423,
      "ĠMac": 2424,
      "ĠÐºÐ¸Ð²Ð½ÑĥÐ»": 2425,
      "ĠÐ³Ð¾ÑģÑĤÐ¸Ð½Ð¾Ð¹": 2426,
      "ĠÐľÐ°ÐºÐ³Ð¾Ð½Ð°Ð³Ð°Ð»": 2427,
      "nd": 2428,
      "ĠÑĢÐ¸": 2429,
      "ÑĤÐ¾Ð¹": 2430,
      "ÑĢÐ¾Ð²Ð°ÑĤÑĮ": 2431,
      "ÑĥÐ½Ð¸": 2432,
      "ĠÑģÐºÐ¸": 2433,
      "ĠÐ½ÐµÐ»ÑĮÐ·Ñı": 2434,
      "ĠÐ²ÑĤÐ¾ÑĢ": 2435,
      "ĠÐ¾Ð³": 2436,
      "ĠÐ´Ð¾Ð¿Ð¾Ð»": 2437,
      "ĠÐ¼ÑĥÑĩ": 2438,
      "ĠÐ¼ÐµÑģÑĤ": 2439,
      "ÐµÐ»ÐµÐ¼": 2440,
      "ĠÐ±ÐµÐ»": 2441,
      "Ð¾Ð¼Ðµ": 2442,
      "ÐµÐ¼Ð½Ð¾Ð³Ð¾": 2443,
      "ÐĶÐ¾ÑĢ": 2444,
      "ĠÐ¿ÑĢÐ¸ÑħÐ¾Ð´": 2445,
      "Ð¸Ð²ÑĪÐ¸ÑģÑĮ": 2446,
      "ĠÐ¶Ð¸ÑĤÑĮ": 2447,
      "Ð¢ÑıÐ¶ÐµÐ»Ð¾": 2448,
      "ĠÑģÑĤÐ°": 2449,
      "ĠÐ¡Ð¾Ð½": 2450,
      "ĠÐ¡Ð¾Ñħ": 2451,
      "ĠÐ¿Ð¾Ð´Ð±": 2452,
      "ĠÐ°Ðº": 2453,
      "ĠÐ½Ð¾Ñĩ": 2454,
      "Ð½ÑıÐºÐ°": 2455,
      "Ð¾ÑĩÑĥÐ²ÑģÑĤÐ²": 2456,
      "ĠÐºÑĢÑĭ": 2457,
      "ĠÑĪÑĥÐ¼": 2458,
      "ĠÐĺÐ·": 2459,
      "ĠÐĶÐ¶ÐµÐ¹Ð¼ÑģÑĥ": 2460,
      "ÑģÑĤÐ¾Ñı": 2461,
      "ĠÐ·Ð°ÐºÑĢÑĭÐ»": 2462,
      "ĠÑģÐºÐ²Ð¾Ð·ÑĮ": 2463,
      "ĠÐ¿ÑĢÐµÐ´ÑģÑĤÐ°Ð²Ð»Ñı": 2464,
      "ĠÐºÐ¾Ð¼Ð°Ð½": 2465,
      "ĠÐ¾ÑģÑĤÐ¾ÑĢ": 2466,
      "ĠÐ³Ð¾Ð²Ð¾ÑĢÐ¸ÑĤ": 2467,
      "ÑģÑĤÐ°ÑĤÐ¾ÑĩÐ½Ð¾": 2468,
      "ĠÑģÐ´ÐµÐ»Ð°Ð»": 2469,
      "ĠÐºÐ¾Ð»Ð»ÐµÐ³": 2470,
      "ĠÑģÐ²Ð¾Ð¸Ð¼Ð¸": 2471,
      "Ð½Ð°ÑĩÐ°Ð»Ð°": 2472,
      "ĠÐºÐ¾ÑĤÐ¾ÑĢÐ¾Ðµ": 2473,
      "ĠÑĨÐ°ÑĢÐµÐ²": 2474,
      "ĠÑİÑĢÐ¸": 2475,
      "ĠÑģÑįÑĢ": 2476,
      "ĠÐ¿ÑĢÑıÐ¼Ð¾": 2477,
      "ĠÐļÑĢÐ¾Ð»Ð¸Ðº": 2478,
      "ĠÐļÑįÐ´Ð¾Ð³": 2479,
      "ft": 2480,
      "Ġ3": 2481,
      "Ð°ÑĪÐ¸": 2482,
      "ÑĢÐµÑĤ": 2483,
      "ĠÑģÐµÑĢÐ¸": 2484,
      "ĠÑģÑĬ": 2485,
      "ĠÑģÐºÐ¾ÑĢÐ¾": 2486,
      "Ð²ÑĢÐ°Ñī": 2487,
      "ĠÐ¸Ð³": 2488,
      "ĠÐ´Ð¸Ð²": 2489,
      "ĠÐ´ÑĭÑĪ": 2490,
      "ĠÑĤÐµÐ¿": 2491,
      "ÐµÐ»Ñı": 2492,
      "ĠÐ·Ð°Ð»": 2493,
      "ĠÐ¾ÑĤÐµÑĨ": 2494,
      "ĠÐ¿ÑĢÐ¾ÐµÐº": 2495,
      "ĠÑıÑģÐ½Ð¾": 2496,
      "ĠÐ³ÑĥÐ»Ñı": 2497,
      "Ð°Ð½Ð½Ð¾Ð¹": 2498,
      "ĠÐĿÑĥÐ¶Ð½Ð¾": 2499,
      "ĠÐ²ÑĭÐ³": 2500,
      "ĠÐ²ÑĭÑĪÐµÐ»": 2501,
      "ĠÐ¡Ð»": 2502,
      "Ð¸Ð½Ð½Ð¸": 2503,
      "ĠÐ¾Ð±Ð²": 2504,
      "ĠÐ¾Ð±ÐµÐ´": 2505,
      "ÑĢÐ°ÑģÑĤ": 2506,
      "ĠÐĶÐ¶Ð¸Ð½Ð½Ð¸": 2507,
      "ÐµÐ½Ð½Ð¾Ðµ": 2508,
      "ĠÑĪÐºÐ¾Ð»ÑĮ": 2509,
      "ĠÐ²Ð¾Ð·Ð¼Ð¾Ð¶Ð½Ð¾": 2510,
      "ĠÐ¿ÑĢÐ¾ÑĦÐµÑģÑģÐ¸Ð¸": 2511,
      "ĠÐ½Ð¾Ð²ÑĥÑİ": 2512,
      "ĠÐ±Ð¾Ð»ÐµÐ·": 2513,
      "ÑıÑĤÑĮÑģÑı": 2514,
      "ĠÑģÑĤÑĢÐ°Ð½Ð½Ð¾": 2515,
      "ĠÐ¿ÑĥÑģÑĤÑĮ": 2516,
      "ĠÐ¾ÑĩÐºÐ¾Ð²": 2517,
      "ÐŀÐ±Ð°": 2518,
      "ĠÐºÐ¾ÑĤÐ¾ÑĢÑĥÑİ": 2519,
      "ĠÐ¿ÐµÑĢÐ²ÑĭÐ¹": 2520,
      "ĠÑģÐµÐºÑĥÐ½": 2521,
      "ĠÑģÐ¾ÑģÐµÐ´": 2522,
      "ĠÐ²ÐµÑģÐµÐ»Ð¾": 2523,
      "ĠÐ¾Ð±ÑģÑĥÐ¶Ð´": 2524,
      "ĠÐ¿Ð¸ÑģÐ°Ð»": 2525,
      "ĠÐ¼Ð°Ð»ÑĮÑĩÐ¸": 2526,
      "esla": 2527,
      "ÐĻ": 2528,
      "ÑģÐºÐ¸Ðµ": 2529,
      "ÑĥÑģÑĮ": 2530,
      "ĠÑģÐ¾Ð·": 2531,
      "ĠÐ½Ð°Ð»": 2532,
      "Ð´Ð³Ð°ÑĢ": 2533,
      "ĠÐ¾Ð³Ð¾": 2534,
      "ÑĢÐ¸ÐºÐ¸": 2535,
      "ĠÐ´Ð½Ñı": 2536,
      "ÐµÑĢÐ½ÑıÐºÐ°": 2537,
      "ĠÑĤÑĥ": 2538,
      "Ð½Ð¾ÑģÑĤÑĮÑİ": 2539,
      "ĠÐ¼ÑıÐ³": 2540,
      "Ð¾Ð»ÐµÐ½": 2541,
      "ĠÑĢÐ°Ð½ÑĮÑĪÐµ": 2542,
      "ĠÐ¾ÑĤÑģ": 2543,
      "ĠÐŁÐ¸ÑĤ": 2544,
      "ĠÑħÐ¾Ð»Ð¾Ð´": 2545,
      "ÐŁÐ¾Ð»": 2546,
      "ĠÐ¡ÐµÐ²ÐµÑĢ": 2547,
      "ĠÑĤÐ°ÐºÐ¶Ðµ": 2548,
      "ÐŀÐ³Ð¾": 2549,
      "ÑĥÐ´Ð¸": 2550,
      "ĠÐļÐ¾ÑĤ": 2551,
      "ĠÐĴÐµÑĢÐ½Ð¾": 2552,
      "ĠÑĢÐ°Ð·Ð¼": 2553,
      "ĠÑģÐ²Ð¾ÐµÐ¼": 2554,
      "ĠÑģÐ²Ð¾Ñĳ": 2555,
      "ĠÐ¢ÐµÐ±": 2556,
      "ĠÐºÑĢÐ¾Ð¼Ðµ": 2557,
      "ÑīÐ¸ÐºÐ°": 2558,
      "Ð¾Ð²Ð°ÑĤÐ¾": 2559,
      "ĠÐ»ÑİÐ±Ð¾Ð¿ÑĭÑĤ": 2560,
      "ĠÐ´ÐµÐ»Ð°Ð»": 2561,
      "ĠÐ´Ð²ÐµÑĢÐ¸": 2562,
      "ĠÑĦÑĥÑĤÐ±Ð¾Ð»": 2563,
      "ĠÑģÐ¾Ð²ÐµÑĤ": 2564,
      "ĠÐ³Ð¾Ð»Ð¾Ð²Ñĭ": 2565,
      "ĠÐ¸ÑģÐ¿Ð¾Ð»ÑĮÐ·": 2566,
      "ĠÑģÑĤÑĢÐ¾Ð³Ð¾": 2567,
      "ÑĥÐ¹ÑģÑĤÐ°": 2568,
      "ĠÑģÑĤÐ°ÑĢÑĥÑħ": 2569,
      "ÐĽÑİÐ±": 2570,
      "ĠÑģÐ¾Ð±ÑģÑĤÐ²ÐµÐ½": 2571,
      "ĠÑĢÐ°ÑģÑģÐºÐ°Ð·ÑĭÐ²": 2572,
      "ÐķÑģÐ»Ð¸": 2573,
      "ÑĥÑģÑĤÐ¸Ð»": 2574,
      "Ð°ÑĤÐ¾Ð½": 2575,
      "ĠÑįÑĤÐ¸Ð¼": 2576,
      "ĠÑĢÐµÑĪÐ¸Ð»": 2577,
      "ÐĺÐ½ÑĤÐµÑĢÐµÑģÐ½Ð¾": 2578,
      "ĠÐ¿ÑĢÐ¾Ð¸Ð·Ð½ÐµÑģÐ»Ð°": 2579,
      "ĠÐ·Ð°Ð¼ÐµÑĤÐ¸Ð»Ð°": 2580,
      "ĠÐ²ÑģÑĤÑĢÐµÑĩÐ°ÑĤÑĮÑģÑı": 2581,
      "ĠÐ¿ÑĢÐ¾Ð³ÑĢÐ°Ð¼Ð¼Ð¸": 2582,
      "Ð°ÑİÑīÐµÐ³Ð¾": 2583,
      "ĠÐ´Ð²Ð¾ÑĢÐµÑĨ": 2584,
      "ĠÑģÑĤÑĢÐ°ÑĪÐ½Ð¾": 2585,
      "ĠÑĥÑģÐ»ÑĭÑĪÐ°Ð»": 2586,
      "ĠÐ°Ð¿Ð¿": 2587,
      "ĠÐ²Ð¾Ð»Ð¾ÑģÑĭ": 2588,
      "ĠÐ¿Ð¾ÑĨÐµÐ»Ñĥ": 2589,
      "ĠÐ²Ð¿ÐµÑĩÐ°ÑĤÐ»ÐµÐ½Ð¸Ñı": 2590,
      "ĠÐ²Ð¾Ð¿ÑĢÐ¾Ñģ": 2591,
      "ĠÐĴÐ¾Ð»Ð´ÐµÐ¼Ð¾ÑĢÑĤÐ°": 2592,
      "ĠÐ³ÑĢÐ¸ÑĦÑĦÐ¸Ð½Ð´Ð¾ÑĢ": 2593,
      "ĠGo": 2594,
      "!!": 2595,
      "ÑĤÑģÑı": 2596,
      "Ð¸ÑĢÐ°": 2597,
      "ÑĢÐµÐ½": 2598,
      "ÑĢÑıÑĤ": 2599,
      "Ð»Ñĥ": 2600,
      "ÑĩÐ¸Ñħ": 2601,
      "ÑĩÑĳÑĤ": 2602,
      "ĠÐ²Ð°ÑĪ": 2603,
      "Ð²ÑĥÑĩ": 2604,
      "ÑĪÐºÐ°": 2605,
      "ĠÐºÑĢÑĥÐ³": 2606,
      "ĠÐºÑĥÑħ": 2607,
      "ĠÐ´Ð½ÐµÐ¹": 2608,
      "ĠÑĤÐµÑģÑĤ": 2609,
      "ĠÐ±ÐµÐ³": 2610,
      "ĠÐ±Ð°ÑĤÐ¾Ð½": 2611,
      "ĠÑĥÐ´Ð°": 2612,
      "ĠÑĥÑģÑĤÑĢÐ¾": 2613,
      "Ð»Ð¸Ð¿": 2614,
      "Ð¾Ð´Ñĥ": 2615,
      "ĠÐ»Ð¾Ð²": 2616,
      "ĠÑįÐ»ÑĮÑĦ": 2617,
      "ÑĳÐ½": 2618,
      "ÐµÐ²Ð¸Ð´Ð½Ð¾": 2619,
      "ĠÐ¿ÑĢÐ¸Ð¼": 2620,
      "Ð³Ð¾ÑĤÐ¾Ð²": 2621,
      "ĠÐ²ÑģÑİ": 2622,
      "ÐŁÐ¾Ð´": 2623,
      "ĠÑģÑĤÐ°ÑĤÑĮ": 2624,
      "ĠÐ¾Ð±ÑĢÐ°Ð·": 2625,
      "ĠÐ¾Ð±ÑĢÐ°Ñī": 2626,
      "Ð¸Ð´Ð¸Ð¼": 2627,
      "ĠÑģÐ»Ð°Ð´": 2628,
      "ĠÑģÐ¿Ð°ÑĤÑĮ": 2629,
      "ĠÐ¸Ð·ÑĥÑĩ": 2630,
      "ÑĥÐ¼Ð°Ñİ": 2631,
      "Ð°Ð»ÑĮÐ½ÑĭÐ¹": 2632,
      "ÑĢÐ¾ÑģÑĤÐ¾": 2633,
      "ĠÐ³Ð»ÑĥÐ±": 2634,
      "ĠÐ±ÑĥÐ´ÐµÑĪÑĮ": 2635,
      "ĠÐ²Ð¾Ð»Ð½": 2636,
      "ĠÐ¿Ð¾Ð¼Ð¾ÑĩÑĮ": 2637,
      "ĠÐ¼Ð¾ÐµÐ³Ð¾": 2638,
      "ĠÑħÐ¾ÑĤÐµÐ»Ð°": 2639,
      "ĠÑĢÐ°Ð±Ð¾ÑĤÑĭ": 2640,
      "ĠÐ²ÑĢÐµÐ¼ÐµÐ½Ð¸": 2641,
      "ĠÑĥÐ¼Ð°": 2642,
      "ĠÐ·Ð°Ð±ÑĭÐ»": 2643,
      "ĠÑĤÐ²Ð¾ÐµÐ¹": 2644,
      "ĠÑĥÑģÐ¼ÐµÑħ": 2645,
      "ĠÑĢÐ°Ð·Ð³Ð¾Ð²Ð°ÑĢÐ¸Ð²": 2646,
      "ĠÐ¾ÑĤÐ²ÐµÑĩÐ°Ð»Ð°": 2647,
      "ĠTesla": 2648,
      "ĠÐ»Ð°Ð¼Ð¿Ñĥ": 2649,
      "Ð¥Ð¾ÑĢÐ¾ÑĪÐ¸Ð¹": 2650,
      "ĠÑįÐºÐ·": 2651,
      "ĠÐ¼Ð½Ð¾Ð³": 2652,
      "ĠÐľÐ°Ð»ÑĦÐ¾Ñı": 2653,
      "Ð»Ð¸Ð·ÐµÑĢÐ¸Ð½": 2654,
      "ĠÐĳÑĥÐ´ÑĥÑĢ": 2655,
      "ÐĶÐ¾Ð±ÑĢÐ¾Ðµ": 2656,
      "ĠÐĵÐµÑĢÑĨÐ¾Ð³Ð¸Ð½Ñı": 2657,
      "?Â»": 2658,
      "ik": 2659,
      "Ð»Ð°Ð·": 2660,
      "Ð»Ð¾Ð¿": 2661,
      "Ð½ÐµÐ¼Ñĥ": 2662,
      "ĠÐ¿Ñĩ": 2663,
      "Ð²Ð°ÑĤÑĮ": 2664,
      "ÑĪÐºÐ¸": 2665,
      "ĠÐºÐ°Ð¿": 2666,
      "ÐµÐ½Ð½Ð°Ñı": 2667,
      "ÐµÐ½Ð½ÑĭÐ¼": 2668,
      "ĠÐ´ÐµÐ´": 2669,
      "ĠÐ´Ð¾Ðº": 2670,
      "ĠÐ´Ð¸Ð·Ð°Ð¹": 2671,
      "ÐµÑĢÐ¾Ð¼": 2672,
      "ÐµÐ»ÑĭÐ¹": 2673,
      "ĠÑĩÑĥÐ¶": 2674,
      "ĠÐ·Ð»Ð¾": 2675,
      "Ð¾ÑĢÐ¼Ð¾ÑĤ": 2676,
      "ĠÐ¾ÑĤÑĩÐ°Ñı": 2677,
      "ĠÐ¾ÑĤÐ»Ð¸Ñĩ": 2678,
      "ĠÑįÑĤÐ¾Ð¼Ñĥ": 2679,
      "ĠÐ¿ÑĢÐ¸ÐºÐ°Ð·": 2680,
      "ĠÐŁÐ¾ÑħÐ¾Ð¶Ðµ": 2681,
      "ÐŁÐ¸Ð»Ð¾ÑĤ": 2682,
      "ĠÑĤÐ°ÐºÐ¸Ñħ": 2683,
      "ÑĢÐ°ÑĪ": 2684,
      "ĠÐĴÐ¸Ð´": 2685,
      "Ð½ÑıÑı": 2686,
      "ĠÐľÑĥÐ½Ð¸": 2687,
      "ĠÐ»Ð¸ÑĪ": 2688,
      "ĠÐ³Ð»Ð°Ð²": 2689,
      "ĠÐ±ÑĥÐ´ÑĤÐ¾": 2690,
      "ĠÑĥÐ´Ð¾Ð±": 2691,
      "ĠÐ±Ð¾Ð»ÑĮÐ½Ð¾": 2692,
      "ĠÐ¿Ð°ÑĢÐµÐ½ÑĮ": 2693,
      "ĠÐ´ÑĥÐ¼Ð°Ð»Ð°": 2694,
      "ĠÐºÐ¾Ð½ÑĤÐ°Ðº": 2695,
      "ĠÐ·Ð½Ð°Ð»Ð°": 2696,
      "ĠÐ·Ð°Ð¿Ð¸Ñģ": 2697,
      "ĠÐ¿Ð¾Ð»ÑĥÑĩÐ¸Ð»": 2698,
      "ĠÑĤÐ²Ð¾Ñı": 2699,
      "ĠÐ¿Ð¾Ð³Ð¾Ð²Ð¾ÑĢÐ¸ÑĤÑĮ": 2700,
      "ĠÑģÐ¼Ð¾Ð³": 2701,
      "ĠÐ´ÐµÐ»Ð°ÐµÑĪÑĮ": 2702,
      "ĠÐ´ÑĢÑĥÐ¶": 2703,
      "ĠÐ¥Ð¾Ð³Ð²Ð°ÑĢÑĤÑģÐ°": 2704,
      "ĠÐ±ÐµÑĢÐµÐ³": 2705,
      "ĠÐ¿Ð¾ÑģÑĤÐµÐ»Ð¸": 2706,
      "...": 2707,
      "ĠÐºÑĢÑĥÑĤÐ¾": 2708,
      "ĠÐ¾ÑĤÐ´ÑĭÑħ": 2709,
      "ĠÐ°Ð²ÑĤÐ¾": 2710,
      "ĠÑĩÐ°ÑģÑĤÐ¾": 2711,
      "ĠÑģÐ¿Ð°Ð»ÑĮÐ½Ñİ": 2712,
      "ĠÐ°Ð½Ð³": 2713,
      "ĠÐ¿Ð¾ÑĤÑĢÑıÑģ": 2714,
      "ĠÑĢÐµÐ±ÐµÐ½": 2715,
      "ĠÐ±Ð»Ð¸Ð·Ð½ÐµÑĨ": 2716,
      "ĠÐ·Ð°ÐºÑĢÐ¸ÑĩÐ°Ð»": 2717,
      "ĠÐ±Ð¾Ð»ÑĮÑĪÐ¾Ð¹": 2718,
      "ĠÐ¿Ð¾ÐµÐ·Ð´ÐºÐ°": 2719,
      "Ð¿ÐµÑĢÐ°ÑĤÑĥÑĢÐ°": 2720,
      "roid": 2721,
      "ndroid": 2722,
      "ĠÐ¡ÐµÐ²ÐµÑĢÑĥÑģ": 2723,
      "ux": 2724,
      "ĠâĢ¦": 2725,
      "Ð¸Ð¿": 2726,
      "ÑĢÐµÐ·": 2727,
      "Ð»ÐµÑĩ": 2728,
      "ĠÑģÑĥÐ´": 2729,
      "ĠÑģÐ¾Ð¿": 2730,
      "ĠÐºÐ°Ñĩ": 2731,
      "Ð¾Ð²Ð¾Ð¹": 2732,
      "ĠÐ¼Ð°ÑĢ": 2733,
      "ĠÐ¼ÐµÑģÑĤÐ¾": 2734,
      "ÐµÐ»ÑģÑı": 2735,
      "ĠÐ±Ð°Ð½": 2736,
      "Ð°ÐºÑĤÐ¸": 2737,
      "ĠÑĩÑĳÐ¼": 2738,
      "ĠÑĢÐµÐ²": 2739,
      "Ð¹ÑĤÐ¸": 2740,
      "Ð°Ð¼ÐµÐ½": 2741,
      "ĠÐĶÑĢ": 2742,
      "ĠÐ¡ÑĤ": 2743,
      "ĠÐ¾Ð±Ð¸Ð´": 2744,
      "Ð°ÑıÑĨ": 2745,
      "ÑģÐ»ÐµÐ´": 2746,
      "ÑĭÐ²Ð°Ð»Ð°": 2747,
      "ÐĵÐ´Ðµ": 2748,
      "ĠÐ²Ð·Ð³Ð»Ñı": 2749,
      "ÑħÐ¾Ð´Ð¸ÑĤÑĮ": 2750,
      "ĠÐ¾Ð´Ð½Ð¾Ð³Ð¾": 2751,
      "ÑĥÑģÐµÐ½Ð¸": 2752,
      "ĠÐ¼Ð¾Ñī": 2753,
      "ĠÑĢÐ°Ð±Ð¾ÑĤÑĥ": 2754,
      "ĠÐĹÐ°ÑıÑĨ": 2755,
      "ĠÐ¼Ð¸Ð½ÑĥÑĤ": 2756,
      "ĠÐ²Ð¾Ð»ÑĪÐµÐ±Ð½Ð¸ÐºÐ¾Ð²": 2757,
      "ĠÐ¿Ð¾Ð´ÑĥÐ¼Ð°Ð»": 2758,
      "ĠÐ¿Ð¾Ð´ÑĥÐ¼Ð°ÑĤÑĮ": 2759,
      "inux": 2760,
      "ÐĵÐ»Ð°Ð²Ð½Ð¾Ðµ": 2761,
      "ĠÑĩÐ¸ÑĤÐ°ÑĤÑĮ": 2762,
      "ĠÐ¿ÑĢÐ¸Ð´ÑĥÐ¼": 2763,
      "ÑĢÐ¸Ð»ÑģÑı": 2764,
      "ĠÑģÑĥÐ»ÑĤÐ°": 2765,
      "ĠAndroid": 2766,
      "ĠÐ¿Ð¾Ð¿ÑĢÐ¾Ð±Ð¾Ð²Ð°ÑĤÑĮ": 2767,
      "ĠÐ¿Ð¾ÑĩÑĥÐ²ÑģÑĤÐ²Ð¾Ð²Ð°Ð»": 2768,
      "ĠÑģÐ¿Ð¾ÐºÐ¾Ð¹Ð½Ð¾": 2769,
      "Ð¾Ð»Ð¾Ð³Ð¸Ð¸": 2770,
      "ĠÑĢÐ¾ÑĤ": 2771,
      "ĠKo": 2772,
      "ĠÑĤÐµÑģÑĤÐ¸ÑĢÐ¾Ð²": 2773,
      "wi": 2774,
      "Ð¸Ñī": 2775,
      "Ð¸Ð½Ñĥ": 2776,
      "Ð»ÐµÐ¼": 2777,
      "Ð»ÐµÐ´": 2778,
      "ĠÐ¿ÑĥÑĤ": 2779,
      "ĠÑģÐµÐ»": 2780,
      "ĠÑģÑĥÐ¿ÐµÑĢ": 2781,
      "ÑĩÐºÐ¸": 2782,
      "ĠÐ½ÐµÐ·": 2783,
      "ĠÐ²Ð¾Ð²ÑĢÐµÐ¼": 2784,
      "ÑĪÑĥÑİ": 2785,
      "ÐµÐ½Ð½ÑĭÑħ": 2786,
      "ÑĢÐ¾Ð»ÑĮ": 2787,
      "ĠÑĥÐ³Ð¾": 2788,
      "ĠÑĩÑĥÑĤÑĮ": 2789,
      "ÑģÑıÐ¶": 2790,
      "Ð½Ð¸ÑĨÑĥ": 2791,
      "ĠÐ¿Ð¾ÑĪÐµÐ»": 2792,
      "Ð³Ð½Ð¾Ð²": 2793,
      "ÑīÐ¸Ð»": 2794,
      "Ð°Ð´Ð¸": 2795,
      "ĠÐ¿ÑĢÐµÐ¶": 2796,
      "ĠÐ²ÑģÐºÐ¾Ñĩ": 2797,
      "ĠÐŁÑĥ": 2798,
      "ĠÑģÑĤÐµÐ½": 2799,
      "ĠÑģÑĤÐ°Ð½": 2800,
      "ÑģÑĤÐ²Ð¾Ð¼": 2801,
      "ĠÑģÐ»Ð°Ð²": 2802,
      "Ð¡Ð¾Ð²ÑĢÐµÐ¼": 2803,
      "Ð½ÑıÑĤÐ¾": 2804,
      "ĠÐºÐ¾Ðµ": 2805,
      "Ð°Ð³ÑĢÐ¸": 2806,
      "ÑĥÐ¶Ðµ": 2807,
      "ĠÐ¿Ð¾Ð»Ð¾Ð¶": 2808,
      "ĠÐºÑĢÐ°Ð¹": 2809,
      "ĠÐ´ÑĢÑĥÐ³Ñĥ": 2810,
      "ĠÐ²Ð¾Ð·Ð²ÑĢÐ°Ñī": 2811,
      "ĠÐŃÐ´Ð³Ð°ÑĢ": 2812,
      "ĠÐ¿Ð°ÑĢÐ½Ð¸": 2813,
      "ĠÐ¿Ð°ÑĢÐ½Ñı": 2814,
      "ĠÐ½Ð¾Ð²ÑĭÐµ": 2815,
      "ĠÐ£Ð¸Ð·": 2816,
      "ĠÐºÐ¾Ð¼Ð¿": 2817,
      "ÑĢÐ¾Ð´Ðµ": 2818,
      "ĠÐºÑĢÐ°ÑģÐ°Ð²": 2819,
      "ĠÐ½ÐµÐ´Ð¾": 2820,
      "ĠÑĩÑĥÐ²ÑģÑĤÐ²Ð¾Ð²Ð°Ð»": 2821,
      "ĠÐ¿ÑĢÐ¾ÑĪÐ»Ð¾": 2822,
      "ĠÐ¾ÑīÑĥÑĤ": 2823,
      "ĠÐ¸ÑģÐºÑĥÑģ": 2824,
      "ĠÐ¾ÑĤÐºÑĢÑĭ": 2825,
      "Ð¾Ð³Ð¸Ð¹": 2826,
      "ĠÐºÐ°Ð¶Ð´ÑĭÐ¹": 2827,
      "ĠSwi": 2828,
      "ĠÐ²Ð½Ð¸Ð¼Ð°Ð½Ð¸Ñı": 2829,
      "ĠÑĥÐ´Ð¾Ð²Ð¾Ð»ÑĮÑģÑĤÐ²Ð¸ÐµÐ¼": 2830,
      "ĠÑģÑĤÐ¾ÑĢÐ¾Ð½Ñĭ": 2831,
      "ĠÐ´Ð¾Ð²Ð¾Ð»ÐµÐ½": 2832,
      "ĠÑĢÐ°Ð´Ð¾ÑģÑĤÐ½Ð¾": 2833,
      "ĠÐ±ÑĭÑģÑĤÑĢÐµÐµ": 2834,
      "ĠÐ¿ÑĢÐ¾ÑĤÑıÐ½ÑĥÐ»": 2835,
      "ĠÐŁÐµÑĤÑĥÐ½ÑĮ": 2836,
      "ĠJavaScript": 2837,
      "ÐłÐµÐ³ÑĥÐ»ÑıÑĢÐ½Ð¾Ðµ": 2838,
      "ĠRust": 2839,
      "ĠÐ±Ð»Ð°Ð³Ð¾Ð´": 2840,
      "ĠÐ´Ð¸ÑĢÐµÐºÑĤÐ¾ÑĢ": 2841,
      "ĠÐ²Ð·Ð´ÑĢÐ¾Ð³Ð½ÑĥÐ»": 2842,
      "ĠÐľÐ°ÑĢÑĤÐ¾Ð²": 2843,
      "ÐļÑĢÐ°ÑģÐ¸Ð²ÑĭÐ¹": 2844,
      "ĠÐ¾Ð±ÑģÑĥÐ¶Ð´ÐµÐ½Ð¸Ðµ": 2845,
      "ĠÐºÐ¾Ð½ÑĤÐ°ÐºÑĤ": 2846,
      "ĠÐ²Ð¾Ð²ÑĢÐµÐ¼Ñı": 2847,
      "er": 2848,
      "lin": 2849,
      "ĠÐ¨": 2850,
      "Ð¾Ð½Ñĥ": 2851,
      "Ð¸Ð½Ðµ": 2852,
      "ÑģÐºÐ°Ð·ÑĭÐ²": 2853,
      "ÑĢÐ°Ð»": 2854,
      "Ð½Ð¾Ðº": 2855,
      "ĠÐºÑĥ": 2856,
      "ĠÐ´Ð¾Ð»": 2857,
      "ÐµÑĢÑĭ": 2858,
      "ĠÐ¼Ñĥ": 2859,
      "ĠÐ¼Ð¾Ð¼": 2860,
      "ĠÐ¼Ð¾Ð·": 2861,
      "ĠÐ¼Ð³Ð½Ð¾Ð²": 2862,
      "Ð¿Ð¾Ð´": 2863,
      "ĠÐ½ÐµÐ¾Ð¶Ð¸Ð´Ð°Ð½Ð½Ð¾": 2864,
      "ĠÐµÐ»Ðµ": 2865,
      "ĠÑĢÐ¾Ð±": 2866,
      "ĠÐ½Ð°ÑģÑĤ": 2867,
      "ĠÐ»ÑĮ": 2868,
      "Ð°Ð´Ðµ": 2869,
      "ÐĶÑĥÐ¼Ð°Ñİ": 2870,
      "ĠÐ¿ÑĢÐ¸ÑĪÐ»Ð¾ÑģÑĮ": 2871,
      "Ð¾Ð½ÑĮ": 2872,
      "ĠÐºÐ°ÐºÐ¾Ðµ": 2873,
      "ĠÑģÑĤÐ°Ð²": 2874,
      "ĠÑģÑĤÑĥÐ¿": 2875,
      "ĠÐ¡Ðº": 2876,
      "ĠÐ¡Ð°Ð¼": 2877,
      "Ð»Ð¾Ñī": 2878,
      "ĠÑĤÐ°ÐºÐ¾Ð¼": 2879,
      "Ð°Ð¶Ð´": 2880,
      "ĠÐ¾Ð±Ð¾ÑĢÐ¾ÑĤ": 2881,
      "Ð¾Ð»ÑĮÐ½Ð¾": 2882,
      "ĠÐļÐ°Ð¶ÐµÑĤÑģÑı": 2883,
      "Ð¡ÐºÐ¸": 2884,
      "ĠÑģÐ¿Ð¾ÑĢÑĤ": 2885,
      "ĠÐ½Ð¾ÑĩÑĮ": 2886,
      "ÐµÑĪÑĮÑģÑı": 2887,
      "Ð½ÑıÐ²": 2888,
      "Ð°Ð¹Ð½Ñĭ": 2889,
      "ĠÐľÐ¾Ð¶ÐµÑĤ": 2890,
      "ĠÐľÑĥÐ´Ð¸": 2891,
      "ÑĭÐ²Ð°Ñı": 2892,
      "ÑĥÑĤÑģÑĤÐ²": 2893,
      "ÑģÐºÐ¾Ð»ÑĮ": 2894,
      "ĠÐºÑĢÐµÑģ": 2895,
      "ĠÐ²Ð¸Ð´Ð½Ð¾": 2896,
      "ĠÐ²Ð¾Ð·Ð¼ÑĥÑĤ": 2897,
      "ĠÐĲÐ»Ð¸ÑģÐµ": 2898,
      "Ð¾Ð²Ð¾ÑĢÐ¸Ð»Ð¸ÑģÑĮ": 2899,
      "Ð¸ÑĢÑĮ": 2900,
      "ĠÐķÐ¼Ñĥ": 2901,
      "ĠÐºÐ¾Ð½Ñĩ": 2902,
      "ĠÐ¿ÑĢÐ°Ð²Ð¸Ð»ÑĮÐ½Ð¾": 2903,
      "ĠÐ¾ÑĩÐµÑĢÐµÐ´": 2904,
      "ĠÐ´Ð¾ÑĢÐ¾Ð³": 2905,
      "ĠÐ¿Ð¾Ð³Ð¸Ð±": 2906,
      "ÑģÑĤÐ²ÐµÐ½Ð½ÑĭÑħ": 2907,
      "ĠÑĢÐ°ÑģÑĤÐµÑĢ": 2908,
      "ĠÐ´Ð¾Ð»Ð¶Ð½Ð¾": 2909,
      "ĠÐ½Ð¾ÑĢÐ¼Ð°Ð»ÑĮÐ½Ð¾": 2910,
      "ÑĢÐ¸Ð»Ð°ÑģÑĮ": 2911,
      "ĠÐ¼ÐµÑĩÑĤÐ°Ð»": 2912,
      "ĠÐľÑĭÑĪÑĮ": 2913,
      "ĠÐ¼Ð°ÑĤÐµÑĢÐ¸": 2914,
      "ĠÐºÑĢÐ°ÑģÐ¸Ð²ÑĭÐ¹": 2915,
      "ĠÐ¿Ð°Ð»ÑĮÑĨÑĭ": 2916,
      "ĠÐ¿ÑĢÐ¸Ð½ÑıÐ»ÑģÑı": 2917,
      "ĠÐ³Ð¾Ð²Ð¾ÑĢÑı": 2918,
      "ĠÐ¥Ð¾ÑĤÑı": 2919,
      "ĠÐ¼ÑĭÑģÐ»ÑĮ": 2920,
      "ĠÑįÐ½ÐµÑĢÐ³": 2921,
      "ĠÐ¿Ð¾Ð´Ð·ÐµÐ¼": 2922,
      "ĠÐ§ÐµÑĢÐµÐ¿Ð°ÑħÐ°": 2923,
      "ĠÑģÐºÐ¸Ð½ÑĥÑĤÑĮ": 2924,
      "ĠÐ´Ð¾Ð¿Ð¾Ð»Ð½Ð¸ÑĤÐµÐ»ÑĮ": 2925,
      "ÐĽÑİÐ±Ð»Ñİ": 2926,
      "ĠÑĥÑģÐ¼ÐµÑħÐ½ÑĥÐ»ÑģÑı": 2927,
      "ĠÐĶÑĢÐ°ÐºÐ¾": 2928,
      "ĠSwift": 2929,
      "OS": 2930,
      "tlin": 2931,
      "ÑĢÐµÑģ": 2932,
      "Ð½ÐµÐ³Ð¾": 2933,
      "ĠÐ¿ÐµÑĩ": 2934,
      "ĠÐ²Ð¸Ð¶Ñĥ": 2935,
      "ĠÐ²Ð½Ð¸Ð·": 2936,
      "ĠÐºÑĥÑģ": 2937,
      "ÑģÑĤÐµÐ¹": 2938,
      "ĠÐµÐ´Ð¸Ð½": 2939,
      "ĠÐ¿Ð¾Ð¸ÑģÐº": 2940,
      "ĠÐĵÑĥÑģÐµÐ½Ð¸": 2941,
      "Ð¼Ð¸Ð³": 2942,
      "ĠÐ¿ÑĢÐ¾Ð¼": 2943,
      "ĠÐ¿ÑĢÐ¸Ð½ÐµÑģ": 2944,
      "Ð¢ÐµÐ¼": 2945,
      "ĠÐºÐ°ÐºÐ°Ñı": 2946,
      "ĠÐĿÐµÐ²": 2947,
      "ĠÐ°Ð´": 2948,
      "ĠÑģÐ»ÐµÐ³": 2949,
      "Ð¡ÑĤ": 2950,
      "ĠÑģÐ¿ÑĢÑıÑĤ": 2951,
      "ĠÐ¸Ð·Ð±": 2952,
      "ĠÐ¸Ð·Ð¼ÐµÐ½": 2953,
      "ÑĪÐ¸Ð±": 2954,
      "ÑģÐ»ÑĥÑĪ": 2955,
      "ÑĭÐ²Ð°ÑİÑĤ": 2956,
      "ĠÐ´Ð¾ÑģÑĤÐ°ÑĤÐ¾ÑĩÐ½Ð¾": 2957,
      "ĠÐĺÐ½": 2958,
      "Ð¸ÑģÐºÐ¸": 2959,
      "ĠÐĳÑĢÐ¾Ð´": 2960,
      "ĠÐ¾Ð´Ð½Ñĥ": 2961,
      "ĠÐ½Ð°Ð´ÐµÐ¶": 2962,
      "ĠÑĨÐ°ÑĢÐ¸": 2963,
      "ĠÑģÐ²ÐµÑĢ": 2964,
      "ÑįÐ½": 2965,
      "ĠÐ¿Ð¾Ð¿ÑĢÐ¾Ñģ": 2966,
      "ĠÐ¿Ð»Ð°Ð½": 2967,
      "ĠÐ¾ÑģÐ²": 2968,
      "ÑĪÐ¸Ð¹ÑģÑı": 2969,
      "ĠÑĤÑĢÐµÐ½Ð¸": 2970,
      "ĠÑĩÑĥÐ²ÑģÑĤÐ²Ð¸ÑĤÐµÐ»ÑĮÐ½Ð¾": 2971,
      "ĠÐ´Ð¾Ð¼Ð¾Ð¹": 2972,
      "ĠÐ½Ð°ÑĪÐµÐ¹": 2973,
      "ĠÐ½Ð°Ð·Ð°Ð´": 2974,
      "ĠÐ¿ÑĢÐ¾Ð´Ð¾Ð»Ð¶Ð°Ð»": 2975,
      "ĠÐ¾ÑīÑĥÑīÐµÐ½Ð¸Ðµ": 2976,
      "ĠÐ¿ÑĢÐ¾Ð±Ð¾ÑĢÐ¼Ð¾ÑĤ": 2977,
      "ĠÐ¥Ð¾Ð³Ð²Ð°ÑĢÑĤÑģ": 2978,
      "ÐŁÐ¾ÑģÐ»Ðµ": 2979,
      "ĠÑģÐ¼Ð¾ÑĤÑĢÐµÑĤÑĮ": 2980,
      "ĠÐ¿Ð»ÐµÑĩÐ¸": 2981,
      "ĠÑĢÐ°Ð·Ð²Ðµ": 2982,
      "ĠÐ¸ÑģÑĩÐµÐ·Ð»Ð°": 2983,
      "ĠÐ²ÑĭÑģÐ¾Ðº": 2984,
      "ĠÐ·Ð½Ð°ÐºÐ¾Ð¼ÑĭÑħ": 2985,
      "ĠÐ¿Ð¾ÑģÐ¼Ð¾ÑĤÑĢÐµÐ»Ð°": 2986,
      "ĠÑģÐ¾ÑģÑĢÐµÐ´": 2987,
      "ĠÐ·ÐµÐ¼Ð»Ñİ": 2988,
      "ĠÐ´Ð°Ð»ÐµÐºÐ¾": 2989,
      "ĠÐ¿ÑĢÐ¸Ð½ÑıÐ»Ð°ÑģÑĮ": 2990,
      "ĠÐ¿Ð°Ð»Ð¾ÑĩÐºÐ¸": 2991,
      "ĠÐ³Ð¾Ð»Ð¾Ð²Ð°": 2992,
      "ĠÐ»Ð°ÑģÐº": 2993,
      "ĠÐ²Ð¾ÑģÐ¿Ð¾Ð¼Ð¸Ð½Ð°": 2994,
      "ÐļÑĢÑĥÑĤÐ¾": 2995,
      "ĠÐ¿ÑĢÐµÐ´Ð»Ð°Ð³Ð°Ñİ": 2996,
      "ĠiOS": 2997,
      "ĠÐ³Ð»ÑıÐ´Ñı": 2998,
      "ĠÐ¿Ð¸ÑĪÐµÑĪÑĮ": 2999,
      "ĠÐºÑĢÐµÐ¿ÐºÐ¾": 3000,
      "ĠÐ¾ÑģÑĤÐ¾ÑĢÐ¾Ð¶Ð½Ð¾": 3001,
      "ĠÐ¢ÐµÐ±Ðµ": 3002,
      "ĠKotlin": 3003,
      "ÑģÐºÐ¾Ð»ÑĮÐºÑĥ": 3004,
      "ĠÑģÐ»ÐµÐ³ÐºÐ°": 3005,
      "ĠÐĳÑĢÐ¾Ð´ÑıÐ³": 3006,
      "as": 3007,
      "Ð¸ÑĩÐµÐ³Ð¾": 3008,
      "ÑĢÐµÐ²": 3009,
      "ÑĥÐºÐ°": 3010,
      "ÑıÐ»Ð¸": 3011,
      "ÑĭÑĢ": 3012,
      "ĠÐ¿Ð¸ÑĤ": 3013,
      "ĠÐ¿Ð»Ð¾Ñħ": 3014,
      "ĠÑģÐ¸Ð¼": 3015,
      "ÑĩÐ¸Ð²": 3016,
      "ĠÐ½Ð°Ð¼Ð¸": 3017,
      "ĠÐ½ÐµÐ»Ð¾Ð²": 3018,
      "ĠÐ¾Ð½Ð¾": 3019,
      "ĠÐºÐ°Ð¼Ð¸": 3020,
      "ĠÐºÐ½ÑıÐ·ÑĮ": 3021,
      "ĠÐ´Ð½ÐµÐ²Ð½Ð¸Ðº": 3022,
      "ĠÐ´ÑĥÑĢÐ°": 3023,
      "ĠÐ¼ÐµÐ½ÑĮ": 3024,
      "ĠÐ±ÑĥÑĢ": 3025,
      "ĠÐ·ÑĥÐ±": 3026,
      "Ð°ÑĢÑĭ": 3027,
      "Ð½Ð¸ÑģÑĤÐµÑĢ": 3028,
      "Ð¶ÐµÐ½": 3029,
      "ĠÑĢÐ°Ð±": 3030,
      "ĠÐĵÐ¾Ð¹": 3031,
      "ĠÐĵÐ²Ð¸Ð´": 3032,
      "ĠÐ½Ð°ÑħÐ¾Ð´": 3033,
      "Ð³Ñĥ": 3034,
      "Ð³Ð°Ð»": 3035,
      "Ð°ÑĤÐ°": 3036,
      "ÑĢÑĥÐ±": 3037,
      "ĠÐ¿ÑĢÐ¸Ð³Ð¾ÑĤÐ¾Ð²": 3038,
      "ĠÐŁÑĢÐ°Ð²Ð´Ð°": 3039,
      "ĠÑħÑĥÐ´": 3040,
      "ĠÐºÐ°ÐºÐ¸Ðµ": 3041,
      "ĠÑģÑĤÐµÐº": 3042,
      "ĠÑģÑĤÐ°Ð»Ð¸": 3043,
      "Ð¸Ð½Ð³": 3044,
      "Ð»Ð¾ÑģÑĮ": 3045,
      "ĠÐ¾Ð±ÑĢÐ°Ð´": 3046,
      "ÐĿÐ°Ð±": 3047,
      "Ð¡ÐµÐ¹ÑĩÐ°Ñģ": 3048,
      "Ð°ÐµÑĤÐµ": 3049,
      "ĠÐ¸Ð·Ð¼Ðµ": 3050,
      "ĠÐ¿ÐµÑĢÐµÐ±": 3051,
      "ĠÐ¢Ð¾": 3052,
      "ÑģÐ¿ÐµÑĪ": 3053,
      "ĠÐºÑĢÐ¾Ð²Ð°ÑĤÑĮ": 3054,
      "ĠÐ±ÑĥÐ´ÑĥÑĤ": 3055,
      "ĠÐ²Ð¸Ð´ÐµÐ»Ð°": 3056,
      "ĠÐ²Ð¾Ð·ÑĮ": 3057,
      "ÑģÑĤÐ°Ð²Ð¸Ð»": 3058,
      "ĠÐ¼Ð¾Ð¶ÐµÐ¼": 3059,
      "ÐĹÐ°Ð²": 3060,
      "ĠÑĨÐ²ÐµÑĤ": 3061,
      "ĠÑģÑĤÐ¾ÑıÐ»": 3062,
      "ĠÑĢÐ°Ð±Ð¾ÑĤÐ°": 3063,
      "ĠÐ¸Ð½ÑĤÐµÑĢ": 3064,
      "ĠÐ½Ð°Ð¿Ð¾Ð¼": 3065,
      "Ð²ÑĭÐ¼": 3066,
      "ĠÑĥÐ²Ð¸Ð´ÐµÑĤÑĮ": 3067,
      "ĠÐ·Ð°Ð¿Ð°Ñħ": 3068,
      "ĠÐŁÐ¾ÑģÐ»Ðµ": 3069,
      "ĠÑĥÑĢÐ¾ÐºÐ¾Ð²": 3070,
      "ĠÐĿÐµÑĥÐ¶ÐµÐ»Ð¸": 3071,
      "ĠÐ¾ÑģÑĤÐ°Ð½Ð¾Ð²": 3072,
      "ĠÐ¾ÑĤÐºÑĢÑĭÐ²": 3073,
      "ĠÐĽÑİÐ¿Ð¸Ð½Ð°": 3074,
      "ĠÐºÐ»Ð°ÑģÑģÐ¸ÐºÐ°": 3075,
      "ĠÐ²Ð¼ÐµÑģÑĤÐ¾": 3076,
      "ĠÐ¼Ð°Ð¼Ñĭ": 3077,
      "ĠÐ¿Ð¾ÑģÑĤÐ°ÑĢ": 3078,
      "Ð°ÑİÑīÐ¸Ñħ": 3079,
      "ĠÑĪÐºÐ¾Ð»Ñĭ": 3080,
      "ĠÐ¸ÑģÐ¿ÑĥÐ³Ð°Ð½Ð½Ð¾": 3081,
      "ĠÐ¿Ð»Ð°Ð½Ð¸": 3082,
      "ĠÐ¿Ð¾ÑģÐ¼Ð¾ÑĤÑĢÐµÑĤÑĮ": 3083,
      "ĠÑģÐ²ÐµÑĤÐµ": 3084,
      "ĠÑĥÑĤÑĢÐ¾": 3085,
      "ÑĢÐ¸Ð¼ÑĭÐµ": 3086,
      "ĠÐ¼ÐµÑĤÑĢÐ¸ÐºÐ¸": 3087,
      "ĠÑĩÐ°ÑģÑĤÑĮ": 3088,
      "ĠÐ¾Ð±ÑĬÑıÑģÐ½Ð¸ÑĤÑĮ": 3089,
      "ĠÐ¾Ð¿ÑĢÐµÐ´ÐµÐ»Ð¸Ð¼": 3090,
      "ĠÐłÐ°Ð·Ð²Ðµ": 3091,
      "ÑģÐºÐ°Ð¶Ð¸": 3092,
      "ĠÐ½Ð°Ð·Ð½Ð°ÑĩÐ¸ÑĤÑĮ": 3093,
      "ĠÐ´ÑıÐ´Ñı": 3094,
      "ĠÐ·Ð´Ð¾ÑĢÐ¾Ð²Ð¾": 3095,
      "ĠÐŀÐ´Ð½Ð°ÐºÐ¾": 3096,
      "ÑĦÐ¾ÑĢÐ¼Ð°": 3097,
      "ĠÐ¿Ð¾ÐºÑĥÐ¿ÐºÐ°": 3098,
      "ĠÑĢÐµÐ·ÑĥÐ»ÑĮÑĤ": 3099,
      "ĠÑģÐ²Ð¾Ð±Ð¾Ð´ÐµÐ½": 3100,
      "ĠÐĿÐ°Ð²ÐµÑĢÐ½Ð¾Ðµ": 3101,
      "ĠÑĤÐµÑģÑĤÐ¸ÑĢÐ¾Ð²ÑīÐ¸ÐºÐ°": 3102,
      "ĠÐĵÑĥÑģÐµÐ½Ð¸ÑĨÐ°": 3103,
      "ĠÑģÐ¾ÑģÑĢÐµÐ´Ð¾": 3104,
      "ĠÐ¸Ð·Ð¼ÐµÑĢÐ¸Ð¼ÑĭÐµ": 3105,
      "Ð°ÑģÑĤ": 3106,
      "Ð¸Ñĩ": 3107,
      "ÑģÐºÑĥÑİ": 3108,
      "Ð»Ð°Ðº": 3109,
      "Ð½Ð°ÐºÐ¾Ð¼": 3110,
      "ĠÑģÐ»Ð¸Ð·ÐµÑĢÐ¸Ð½": 3111,
      "ÑĩÐ°ÑĤ": 3112,
      "ĠÐ½ÐµÐ¶": 3113,
      "ĠÐ½ÐµÐºÐ¾": 3114,
      "ĠÐ²ÐµÐ´": 3115,
      "Ð²Ð¾ÑĢ": 3116,
      "ĠÐ¾ÑĢ": 3117,
      "ĠÐºÑĢÐ¾Ñģ": 3118,
      "ÑħÐ¾Ð¹": 3119,
      "ÑħÐ¸ÑĤ": 3120,
      "ĠÑĤÐ¾Ð¹": 3121,
      "ĠÐ¼Ð°ÑĤÑĮ": 3122,
      "ĠÐ¼Ð°Ð»Ð¾": 3123,
      "ĠÐ¼ÑĭÑĪ": 3124,
      "ĠÐ±ÑĥÑĤ": 3125,
      "Ð¿ÑĢÐ¸": 3126,
      "Ð¿ÐµÐ»": 3127,
      "Ð¿ÑĢÐµÐ¶": 3128,
      "Ð»Ð¸Ð¶": 3129,
      "Ð°Ð²ÑĪÐ¸ÑģÑĮ": 3130,
      "Ð°Ð½Ð½Ð¾Ðµ": 3131,
      "ĠÐ²ÑģÐ¿": 3132,
      "ĠÐºÐ°ÐºÐ¸Ð¼": 3133,
      "ĠÐ²ÑĭÐ³Ð»ÑıÐ´": 3134,
      "ĠÑĤÐ¾Ð½": 3135,
      "ĠÐ¿Ð¾Ð´ÑĥÑĪ": 3136,
      "ĠÑģÐ»Ð¾Ð²Ð¾": 3137,
      "ÐµÐºÑĤÐ¸Ð²": 3138,
      "Ð¡Ðº": 3139,
      "Ð¡ÑĥÐ¿ÐµÑĢ": 3140,
      "ĠÐŀÑĩÐµÐ½ÑĮ": 3141,
      "ÑĥÑĩÑĪÐµ": 3142,
      "ĠÐ¸Ð·Ð¼": 3143,
      "Ð°ÑİÑīÐµÐµ": 3144,
      "ÑĭÐ²Ð°Ð»Ð¸": 3145,
      "Ð°Ð»ÑĮÐ½Ð¾Ðµ": 3146,
      "ÑĢÐ¾ÑģÐ°Ð»Ð°": 3147,
      "ÑģÐºÐ¾Ð³Ð¾": 3148,
      "ÐŁÑĢÐ¸Ð½ÑıÑĤÐ¾": 3149,
      "ÑĥÑİÑī": 3150,
      "Ð°Ð½Ð¸Ð¸": 3151,
      "ĠÐĳÐ¾Ð»ÑĮ": 3152,
      "Ð¼ÐµÑıÐ»ÑģÑı": 3153,
      "ĠÐĽÐ¾ÑĢ": 3154,
      "ĠÐĲÐ»Ð¸ÑģÑĥ": 3155,
      "ÐĹÐ½Ð°ÑĩÐ¸ÑĤ": 3156,
      "ĠÑĥÐ´Ð°Ð»Ð¾ÑģÑĮ": 3157,
      "ĠÑįÑĤÐ°Ð¿Ñĭ": 3158,
      "ĠÐ¾ÑĤÐ²ÐµÑĤÑģÑĤÐ²ÐµÐ½Ð½ÑĭÑħ": 3159,
      "ĠÐ½Ð°ÑģÑĩÑĳÑĤ": 3160,
      "ĠÐ±Ð¾Ð»Ð¸": 3161,
      "Ð¾Ð±ÑĢÐ°Ð·": 3162,
      "Ð¾Ð±ÑĢÐ°Ð¶": 3163,
      "ĠÐ¼Ð°Ð³Ð¸Ð¸": 3164,
      "ĠÐ³Ð¾Ð²Ð¾ÑĢÐ¸Ð»Ð°": 3165,
      "ĠÐ¾ÑĩÐµÐ²Ð¸Ð´Ð½Ð¾": 3166,
      "ĠÐ¿ÑĢÐ¾Ð¸Ð·Ð¾": 3167,
      "ĠÑĥÑģÐ¿ÐµÐ»": 3168,
      "ĠÑįÑĤÐ¸Ñħ": 3169,
      "ĠÐ¿ÑĢÐ¾Ð±Ð¾Ð²Ð°Ð»": 3170,
      "ĠÐ±ÐµÑĢÐµÐ¼": 3171,
      "ĠÐ¼ÐµÑĩÑĤ": 3172,
      "ĠÐ½ÐµÐ¿ÑĢÐ¸ÑıÑĤ": 3173,
      "ĠÐ·Ð°ÐºÐ»Ð¸Ð½Ð°Ð½Ð¸Ñı": 3174,
      "ĠÑĥÑģÑĤÐ°Ð»": 3175,
      "ĠÐ°Ð¿Ð´ÐµÐ¹": 3176,
      "ĠÑĢÐ°Ð·Ð±Ð¸ÑĤÑĮ": 3177,
      "ĠÐºÐ°Ð±Ð¸Ð½ÐµÑĤ": 3178,
      "ĠÐ¿ÑĢÐ¾ÑģÑĤÑĥÐ´": 3179,
      "ĠÑģÐ¸Ð»ÑĮÐ½ÐµÐµ": 3180,
      "ĠÐ»ÑİÐ´Ð¸": 3181,
      "ĠÐ¿ÑĢÐµÐ²ÑĢÐ°ÑĤ": 3182,
      "ĠÐ¿Ð¾ÑĢÑıÐ´ÐºÐµ": 3183,
      "ĠÐ²Ð¸Ð·Ð¸ÑĢÑĮ": 3184,
      "Ð¦Ð°ÑĢÑĮ": 3185,
      "ĠLinux": 3186,
      "ĠÑģÑĢÐµÐ´Ð¸": 3187,
      "ĠÑĥÐ·Ð½Ð°Ð»": 3188,
      "ĠÐ¾ÑĤÐ½Ð¾ÑĪÐµÐ½Ð¸Ñı": 3189,
      "ĠÐºÐ¾Ð½ÑĨÐ¾Ð²": 3190,
      "ĠÐ¿Ð»ÑİÑģÑĭ": 3191,
      "ĠÐ³ÑĢÑĥÐ´ÑĮ": 3192,
      "ĠÐ¡Ð¾ÑħÐ°ÑĤÑĭÐ¹": 3193,
      "ĠÐļÑįÐ´Ð¾Ð³Ð°Ð½": 3194,
      "ĠÐ°Ð¿Ð¿Ð°ÑĢÐ¸": 3195,
      "ĠÐľÐ°ÑĢÑĤÐ¾Ð²ÑģÐºÐ¸Ð¹": 3196,
      "ĠÐ¿Ð¾Ð´Ð·ÐµÐ¼ÐµÐ»ÑĮ": 3197,
      "ÐĿÐ°Ð±ÑĢÐ¾ÑģÐ°Ð»Ð°": 3198,
      "ĠÑģÐ¾ÑģÑĢÐµÐ´Ð¾ÑĤÐ¾Ñĩ": 3199,
      "Ð¿ÑĢÐµÐ¶Ð½ÐµÐ¼Ñĥ": 3200,
      "ĠÐ°Ð¿Ð´ÐµÐ¹ÑĤ": 3201,
      ".)": 3202,
      "pe": 3203,
      "Ð¾ÑĢÐ¸ÑĤ": 3204,
      "Ð°ÑģÑĤÐ¸": 3205,
      "Ð¸ÑģÐ°": 3206,
      "Ð¸ÑĩÐµÑģ": 3207,
      "Ð»Ð¾Ð´": 3208,
      "ÑĮÑı": 3209,
      "ÑıÐµÑĤ": 3210,
      "ĠÑģÐ¾Ð¼": 3211,
      "ĠÐ½Ð¾Ð³Ð¸": 3212,
      "ÑĪÐµÐº": 3213,
      "ĠÐºÐ»Ð¸": 3214,
      "ÑģÑĤÐ°Ð½Ð¾Ð²": 3215,
      "ĠÐ´Ð»Ð¸Ð½": 3216,
      "ÐµÑĢÐ¾Ð²": 3217,
      "ĠÑĤÐ°": 3218,
      "ĠÐ¼ÐµÑģÑı": 3219,
      "Ð°ÐºÐ°": 3220,
      "Ð½Ð¸ÐµÐ¼": 3221,
      "Ð°ÑģÐºÐ¸": 3222,
      "ĠÐ¿Ð¾Ð¾Ð±": 3223,
      "ĠÐ¿Ð¾Ð½ÑıÐ»Ð°": 3224,
      "Ð¾Ð³Ð¾Ð²Ð¾ÑĢÐ¸Ð»Ð¸ÑģÑĮ": 3225,
      "ÑīÑĳ": 3226,
      "ÑĨÐ¾Ð¼": 3227,
      "ÑĨÐ°ÑĤÑĮ": 3228,
      "ĠÐ»ÐµÐº": 3229,
      "Ð¾ÐºÐ¸": 3230,
      "ÐĶÐ¾Ð³Ð¾Ð²Ð¾ÑĢÐ¸Ð»Ð¸ÑģÑĮ": 3231,
      "ĠÑıÐ²": 3232,
      "ÐµÐ²Ð¸Ð·": 3233,
      "ĠÐ¿ÑĢÐµÐ¿": 3234,
      "ÐļÐ½ÑıÐ·ÑĮ": 3235,
      "ĠÐ¿ÑĢÐ¸ÑıÑĤ": 3236,
      "ĠÐ¿ÑĢÐ¸ÑģÑıÐ¶": 3237,
      "ĠÐ²ÑģÑħ": 3238,
      "ĠÐ¶Ð°ÑĢ": 3239,
      "ĠÑģÑĤÐ¸Ð»ÑĮ": 3240,
      "ÐĿÐµÐ¼Ð½Ð¾Ð³Ð¾": 3241,
      "ĠÐ°ÑĢ": 3242,
      "ĠÐ·Ð°ÑĩÐµÐ¼": 3243,
      "ĠÐļÑĤÐ¾": 3244,
      "Ð½ÑıÑĤ": 3245,
      "ÑģÑĤÑĮÑı": 3246,
      "Ð°ÑİÑīÐ¸Ð¹": 3247,
      "Ð¾ÑĩÐ¸ÑĤ": 3248,
      "ĠÑĢÐ°Ð·ÑĢÐµÑĪ": 3249,
      "Ð§ÐµÑĢ": 3250,
      "ĠÐ¿ÐµÑĢÐµÐº": 3251,
      "ĠÐ¿ÐµÑĢÐµÐ¿": 3252,
      "ÐĴÐ¾": 3253,
      "ÐĴÑģÑĳ": 3254,
      "ĠÐĶÐ¶Ð¾ÑĢ": 3255,
      "ĠÑĪÐµÐ»": 3256,
      "ĠÐ¿Ð¾ÐºÑĢÐ°Ñģ": 3257,
      "ĠÐ¿Ð¾ÐºÐ°Ñĩ": 3258,
      "ĠÐ³Ð»Ð°Ð´": 3259,
      "ĠÐĳÐµÑĢ": 3260,
      "ĠÐ²Ð¸Ð´ÐµÑĤÑĮ": 3261,
      "ĠÐ²Ð¾Ð·Ð½Ð¸Ðº": 3262,
      "ĠÑĢÐ°ÑģÐº": 3263,
      "ĠÑĢÑĥÐºÐ°Ð¼Ð¸": 3264,
      "ĠÐ·Ð°ÐºÐ°Ð·": 3265,
      "ÐľÑĭ": 3266,
      "ÐľÐ½Ðµ": 3267,
      "ĠÐ¼Ð¾Ñİ": 3268,
      "ÑĢÑĭÐ·": 3269,
      "ĠÐ´ÐµÐ²ÑĥÑĪÐºÐ¾Ð¹": 3270,
      "ĠÐ¿Ð¾ÑģÐ»ÑĥÑĪ": 3271,
      "Ð£Ð´": 3272,
      "ĠÐ½ÐµÐ¿Ð»Ð¾ÑħÐ¾": 3273,
      "ĠÐ¿Ð¾Ð»ÑĥÑĩÐ¸Ð»Ð¾ÑģÑĮ": 3274,
      "ĠÐ²Ð¾Ð»ÑĪÐµÐ±Ð½Ð¾Ð¹": 3275,
      "ĠÑĢÐ¾Ð´Ð°": 3276,
      "ĠÑĥÑģÐ¿ÐµÑħ": 3277,
      "ĠÑĥÐ»ÑĭÐ±Ð½ÑĥÐ»Ð°ÑģÑĮ": 3278,
      "ĠÑĥÐ±ÑĢÐ°ÑĤÑĮ": 3279,
      "ĠÐ½ÐµÐ²ÐµÑĢÐ¾": 3280,
      "ĠÑĥÐ´Ð¸Ð²Ð»": 3281,
      "ĠÑĥÐ´Ð¸Ð²Ð¸Ð»ÑģÑı": 3282,
      "ĠÐ²ÐµÑī": 3283,
      "ÑĳÑĤÑģÑı": 3284,
      "ĠÐ·ÐµÐ»ÑĮÑı": 3285,
      "ĠÐ¿ÑĢÐ¸Ð²ÑĭÐº": 3286,
      "ĠÑħÐ¾ÑĢÐ¾ÑĪÐ¸Ðµ": 3287,
      "ĠÐºÐ½Ð¸Ð³Ð¸": 3288,
      "ĠÐ¿Ð¾Ð±ÐµÐ´": 3289,
      "Ð°ÑĤÐµÐ»ÑĮÐ½ÑĭÐ¹": 3290,
      "ĠÑĢÐ¾Ð´Ð¸ÑĤÐµÐ»Ð¸": 3291,
      "ĠÐ·Ð°ÑĤÐµÐ¼": 3292,
      "ĠÐºÑĢÐ¸ÐºÐ½ÑĥÐ»": 3293,
      "ÐļÑĢÐ°ÑģÐ¸Ð²Ð¾": 3294,
      "ĠÐ¾ÑĤÐ¿ÑĢÐ°Ð²": 3295,
      "ĠÐ¿Ð¾Ð²ÐµÑĢÐ½ÑĥÐ»ÑģÑı": 3296,
      "ĠÐ²Ð°Ð¶Ð½Ð¾": 3297,
      "ĠÐ¼Ð°Ð½ÑĤÐ¸Ð¸": 3298,
      "ĠÐ¼Ð°Ð½ÑĤÐ¸Ñİ": 3299,
      "ĠÑĤÑĢÑĥÐ´Ð¾Ð¼": 3300,
      "ĠÑĪÐµÑİ": 3301,
      "ĠÐ´ÐµÑĢÐµÐ²": 3302,
      "ĠÐ¼Ð¸ÑĢÐµ": 3303,
      "ĠÐ¾Ð±ÑĭÑĩÐ½Ð¾": 3304,
      "ĠÑĪÐ¸ÑĢÐ¾Ðº": 3305,
      "ĠNik": 3306,
      "ĠÐ´Ð¶Ð¸Ð½Ð½": 3307,
      "ĠÐ¸ÑģÐ¿Ð¾Ð»ÑĮÐ·Ð¾Ð²Ð°ÑĤÑĮ": 3308,
      "ÑĢÐµÐ½Ð½Ðµ": 3309,
      "ĠÐ½ÐµÐ»Ð¾Ð²ÐºÐ¾": 3310,
      "ĠÐ¸Ð½ÑĤÐµÑĢÐ½ÐµÑĤ": 3311,
      "ÐµÐ²Ð¸Ð·Ð¾ÑĢ": 3312,
      "Ġ4": 3313,
      "Ð¾Ð½Ñĭ": 3314,
      "ÐµÑģÑĤÐ²ÐµÐ½Ð½Ð¾": 3315,
      "Ð¸ÑģÑĮ": 3316,
      "ÑĢÐ¾Ð·": 3317,
      "ÑĩÐ¸Ð²Ð¾": 3318,
      "Ð´Ð½Ð¾": 3319,
      "ĠÐ¾Ð¶": 3320,
      "ÑģÑĤÐºÐ¾": 3321,
      "ĠÐ´ÑĥÑĢ": 3322,
      "ÐµÑĤÐ°Ð¼Ð¸": 3323,
      "Ð¾Ð²Ð°Ð»Ð¸": 3324,
      "ĠÐ¼Ð¾Ðµ": 3325,
      "ÐµÐ»ÐµÐ½": 3326,
      "ĠÐ±Ð°ÑĢ": 3327,
      "ĠÐ±Ð¾Ðº": 3328,
      "ĠÐ±Ð°Ð±": 3329,
      "ĠÐ±Ð»Ñİ": 3330,
      "Ð½Ð¸Ñİ": 3331,
      "ĠÐ¿Ð¾ÑıÑģ": 3332,
      "ÑĨÐµÐ¼": 3333,
      "ĠÐ¾ÑĤÐ±": 3334,
      "Ð½ÐµÑĪÑĮ": 3335,
      "Ð½ÐµÑģÑĤÐ¸": 3336,
      "ĠÑıÑĢ": 3337,
      "ÑĳÑģÑĤÐºÐ¾": 3338,
      "ÐµÐ²ÐµÐ´": 3339,
      "ĠÐ³Ð°ÑĢ": 3340,
      "ĠÐ¿ÑĢÐµÐ·": 3341,
      "ĠÐ¿ÑĢÐµÑģÑĤ": 3342,
      "ĠÐ¿ÑĢÐ°ÐºÑĤÐ¸": 3343,
      "ÑĢÑĥÑĩ": 3344,
      "ĠÐ¿ÑĢÐ¸ÑģÑĤ": 3345,
      "ĠÐ¿ÑĢÐ¸Ð¾ÑĢÐ¸ÑĤ": 3346,
      "Ð°Ð½ÑĢ": 3347,
      "Ð°Ð½ÑĤÑĭ": 3348,
      "Ð³Ð¾Ðµ": 3349,
      "Ð¾Ð½Ð´": 3350,
      "ĠÑħÐ¸Ñħ": 3351,
      "Ð»Ð°ÑĪ": 3352,
      "ĠÑģÑĤÑĢÐ¾": 3353,
      "ĠÐ¿Ð¾Ð´Ð´ÐµÑĢÐ¶": 3354,
      "ĠÐ·Ð°ÑģÑĤ": 3355,
      "ĠÐļÑĢÐµÐ±": 3356,
      "Ð¾Ð·Ñı": 3357,
      "ÐµÐ·Ð»Ð¾": 3358,
      "ĠÐ¸Ð·Ð²": 3359,
      "ĠÐ¸Ð·ÑĥÐ¼": 3360,
      "Ð¾ÑĩÐºÑĥ": 3361,
      "ĠÐłÐ¾Ð½Ñĥ": 3362,
      "ĠÑģÐ²Ð¾ÐµÐ¼Ñĥ": 3363,
      "Ð°Ð½Ð¸ÐµÐ¼": 3364,
      "ĠÐ´Ð¾ÑģÑĤÑĥÐ¿": 3365,
      "ĠÐ´ÑĢÑĥÐ³Ð¾Ð¼": 3366,
      "ĠÑģÐ°Ð¼Ð¾Ð¼": 3367,
      "Ð½Ð¸ÐºÐµ": 3368,
      "Ð½Ð¸ÐºÐ¾Ð¼": 3369,
      "ĠÑĨÐµÐ»Ð¾Ð²": 3370,
      "ĠÐ´ÐµÐ»Ðµ": 3371,
      "ĠÐ¾Ð¿Ð¸Ñģ": 3372,
      "ĠÐ¿Ð°ÑĢÐ°": 3373,
      "ĠÐ½Ð¾Ð²Ð¾Ð³Ð¾": 3374,
      "ĠÐ´ÑĥÐ¼Ð°ÑĤÑĮ": 3375,
      "ĠÐĹÐ°": 3376,
      "ĠÐ·Ð°Ð²ÑĤÑĢ": 3377,
      "ĠÑĥÐ²Ð¸Ð´ÐµÐ²": 3378,
      "ĠÐ½Ð°ÑĩÐ°ÑĤÑĮ": 3379,
      "ĠÑģÑĤÐ°ÑĢÑĭÐ¹": 3380,
      "ĠÐ¾ÑĩÐºÐ¸": 3381,
      "ĠÐ½ÐµÐ´ÐµÐ»Ñİ": 3382,
      "Ð°ÑĩÐµÐ¼": 3383,
      "ĠÑĥÐ±Ð¸ÑĤÑĮ": 3384,
      "ĠÐ²ÐµÑĩÐµÑĢÐ°": 3385,
      "ĠÑģÐ¼ÐµÑĢ": 3386,
      "ĠÑģÐ¼ÐµÑĪ": 3387,
      "ĠÐ¼Ð¾Ð»Ñĩ": 3388,
      "ÐŀÐ±ÑıÐ·Ð°ÑĤÐµÐ»ÑĮÐ½Ð¾": 3389,
      "ĠÐ´Ð¾Ð»Ð¶Ð½Ð°": 3390,
      "ĠÐ±Ð»Ð¾ÐºÐ¾Ð»Ð¾Ð³Ð¸Ð¸": 3391,
      "ĠÐ·ÐµÐ»ÑĮÐµÐ²ÐµÐ´": 3392,
      "ÐĺÐ½ÑĤÐµÑĢÐµÑģ": 3393,
      "ĠÐ¤ÑĢÐµÐ´": 3394,
      "ĠÐºÐ¾ÑĤÐ°": 3395,
      "ĠÐ¿Ð¾Ð¹Ð¼": 3396,
      "ĠÐ¾ÑĤÐ½Ð¾Ñģ": 3397,
      "ĠÑĥÐ´Ð¾Ð²Ð¾Ð»ÑĮÑģÑĤÐ²Ð¸Ðµ": 3398,
      "ĠÑģÑĤÐ¾ÑĢÐ¾Ð½Ñĥ": 3399,
      "ĠÐ³Ð¾ÑģÑĤÐ¸Ð½ÑĥÑİ": 3400,
      "ĠÐ¿Ð¾Ð´Ð¾ÑĪÐµÐ»": 3401,
      "ĠÐ¿ÐµÑĢÐµÐ¶Ð¸Ð²": 3402,
      "ĠÑĤÐµÐ»ÐµÑĦÐ¾Ð½": 3403,
      "ĠÐ¿Ð¾Ð¿ÑĭÑĤÐ°Ð»ÑģÑı": 3404,
      "ĠÐ´ÑĢÑĥÐ·ÑĮÑıÐ¼Ð¸": 3405,
      "ĠÐļÑĢÐ°ÑģÐ¾ÑĤÐºÐ°": 3406,
      "ĠÐ´Ð¸Ð°Ð±ÐµÑĤ": 3407,
      "ĠÐ·Ð°Ð¶Ð¼Ñĥ": 3408,
      "ĠÐºÐ¾Ð»ÑĮÑĨÐ¾": 3409,
      "ĠÐ¶ÑĥÑĢÐ½Ð°Ð»": 3410,
      "ĠÐºÐ»Ð°ÑģÑģÐµ": 3411,
      "ĠÐ¡Ð¾Ð½Ñı": 3412,
      "ĠÐ½Ð¾ÑĩÑĮÑİ": 3413,
      "ĠÑģÐµÑĢÐ¸Ð°Ð»": 3414,
      "ÐĻÐ¾": 3415,
      "ĠÐ¿ÑĢÐ¾Ð³ÑĢÐ°Ð¼Ð¼Ð¸ÑģÑĤ": 3416,
      "ĠÐ¿ÑĩÐµÐ»": 3417,
      "ĠÐ°Ð½Ð³Ð¸Ð½Ð¾Ð¹": 3418,
      "ĠÐ±Ð»Ð°Ð³Ð¾Ð´Ð°ÑĢ": 3419,
      "Ð°Ð´ÐµÑİÑģÑĮ": 3420,
      "ĠÐĺÐ½ÑĤÐµÑĢÐµÑģÐ½Ð¾": 3421,
      "ĠÐĵÐ²Ð¸Ð´Ð¾Ð½": 3422,
      "ĠÐĶÐ¶Ð¾ÑĢÐ´Ð¶": 3423,
      "ype": 3424,
      "ÐµÑĤÐ¾": 3425,
      "Ð½Ð¾Ð¶": 3426,
      "ĠÐ¿Ð¸ÑĤÑĮ": 3427,
      "ĠÑģÐ¸": 3428,
      "ĠÑģÐ¾Ð»": 3429,
      "ĠÑģÐµÐ»Ð°": 3430,
      "ĠÑģÑĢÐ°Ð²": 3431,
      "ĠÑģÐ´ÐµÑĢÐ¶": 3432,
      "ÑĩÐºÐ°": 3433,
      "ÐºÐ°Ð¼": 3434,
      "ĠÐ²Ð»Ð°Ð´": 3435,
      "Ð¼Ð¾Ð¼": 3436,
      "ĠÐ¾Ð·": 3437,
      "ĠÐ¾ÑĪÐ¸Ð±": 3438,
      "ĠÐºÑĢÐ¸Ñĩ": 3439,
      "ĠÑĤÐºÐ°": 3440,
      "ĠÐ¼Ð°Ñħ": 3441,
      "ĠÐ±Ð¸Ð»": 3442,
      "ÑĢÐ¾ÑĤÐ¸": 3443,
      "ĠÑĥÐ»Ð¸": 3444,
      "ĠÑĥÐ»Ð¾Ð¶": 3445,
      "Ð¶ÐµÐ¹Ð¼": 3446,
      "ĠÑĢÐ¾Ð¼": 3447,
      "ĠÐ¿Ð¾ÑĤÑĢ": 3448,
      "Ð¾Ð³ÑĢÐ°ÑĦ": 3449,
      "Ð¾ÑĤÐ¾Ð¼": 3450,
      "Ð½ÑĥÐ¶": 3451,
      "ÑĨÐ°Ð¼Ð¸": 3452,
      "ĠÐ¾ÑĤÐ³Ð¾": 3453,
      "ĠÑįÐ¼Ð¾": 3454,
      "ÐĶÐ¶ÐµÐ¹Ð¼": 3455,
      "ĠÐ¿ÑĢÐ¾ÑĪÐµÐ»": 3456,
      "ÑĢÑĥÐµÑĪÑĮ": 3457,
      "Ð°Ð½Ð½Ð°Ñı": 3458,
      "Ð°Ð½Ð½ÑĥÑİ": 3459,
      "Ð¸Ð²Ð°ÑĤÑĮÑģÑı": 3460,
      "ĠÐ¶ÐµÑģÑĤ": 3461,
      "ĠÐŁÐ¾ÑĩÐµÐ¼Ñĥ": 3462,
      "ÑĦÑĦ": 3463,
      "ĠÑģÑĤÐ°Ð½Ð¾Ð²": 3464,
      "ĠÐ²ÑĭÑĥÑĩ": 3465,
      "ÐĲÐ³Ð°": 3466,
      "ĠÐ¿Ð¾Ð´ÑħÐ¾Ð´": 3467,
      "ĠÐ¾Ð±Ð»ÐµÐ³": 3468,
      "ÐĿÐ°Ð´Ð¾": 3469,
      "ĠÑģÐ¿Ð¾ÑĢ": 3470,
      "ĠÐ¸Ð·Ð´": 3471,
      "ĠÐłÐ°Ñģ": 3472,
      "ĠÐºÐ¾ÑĦÐµ": 3473,
      "ĠÐ¿Ð¾Ð»Ñĥ": 3474,
      "ĠÐ»Ð¸ÑĨÐ°": 3475,
      "ĠÐ²Ð·ÑıÑĤÑĮ": 3476,
      "Ð¾Ð²Ð¾ÑĢÐ¸Ð»Ð°": 3477,
      "ĠÑĥÐ´Ð¾Ð±Ð½Ð¾": 3478,
      "ÐľÐµÐ½Ñı": 3479,
      "ÑĥÑģÐºÐ°": 3480,
      "ĠÐ¿Ð°ÑĢÐ½ÐµÐ¹": 3481,
      "ĠÐ¿Ð¾Ð²ÑĤÐ¾": 3482,
      "ĠÐ¿Ð¾Ð²Ð¾Ð´Ñĥ": 3483,
      "ĠÐĹÐ°Ð²": 3484,
      "ĠÐ½Ð°Ð¿Ð¸Ñģ": 3485,
      "ĠÐ³Ð¾Ð²Ð¾ÑĢÐ¸Ð»Ð¸": 3486,
      "ĠÐ¿ÑĥÑĤÑĮ": 3487,
      "ĠÑĥÐ¼ÐµÑĢ": 3488,
      "ĠÑĤÐµÐ¼Ð½Ð¾": 3489,
      "ĠÐ½Ð°Ð²ÐµÑĢÐ½ÑıÐºÐ°": 3490,
      "Ð½Ð°ÑĩÐµ": 3491,
      "ÑĢÐ¸ÑĤÐµÐ»ÑĮÐ½Ð¾": 3492,
      "Ġ17": 3493,
      "ĠÐ³Ð¾Ð´Ð°": 3494,
      "ĠÐ³Ð¾Ð´Ñĥ": 3495,
      "ÐĸÐ°Ð»ÑĮ": 3496,
      "ĠÐ¾ÑĤÐ´Ð°Ð»": 3497,
      "ĠÐ°Ð²ÑĢÐ¾": 3498,
      "ĠÐ·Ð°Ð½ÑıÑĤÐ¸": 3499,
      "ĠÐ´ÐµÑĤÑģÑĤÐ²Ðµ": 3500,
      "ĠÑĥÑģÑĤÐ°Ð»Ð¾": 3501,
      "ĠÐ¿Ð¾Ð¶Ð°Ð»ÑĥÐ¹ÑģÑĤÐ°": 3502,
      "ĠÐºÐ¸Ð½Ð¾": 3503,
      "ĠÐ´ÑĥÑĪÐµ": 3504,
      "ĠÐ¿Ð¾Ð½Ð¸Ð¼Ð°Ñİ": 3505,
      "ĠType": 3506,
      "ĠÑģÐ¼ÑĥÑīÐµÐ½Ð½Ð¾": 3507,
      "ĠÐ´ÐµÐ¹ÑģÑĤÐ²Ð¸ÑĤÐµÐ»ÑĮÐ½Ð¾": 3508,
      "ĠÐ¼Ð°Ð»ÑĮÑĩÐ¸Ðº": 3509,
      "ĠÐ¿Ð¾Ð½ÑĢÐ°Ð²Ð¸Ð»Ð¾ÑģÑĮ": 3510,
      "ĠÐ±ÑĭÐ²Ð°ÐµÑĤ": 3511,
      "ĠÑģÑĢÐ¾ÐºÐ°Ð¼Ð¸": 3512,
      "ĠÐ¾Ð¿ÑĢÐµÐ´ÐµÐ»Ð¸ÑĤÑĮÑģÑı": 3513,
      "ĠÐ¸ÑģÐºÑĢÐµÐ½Ð½Ðµ": 3514,
      "ĠÐ²ÑĭÐ´Ð¾Ñħ": 3515,
      "ĠÐ¿ÑĢÐµÐ´ÑģÑĤÐ°Ð²Ð¸ÑĤÑĮ": 3516,
      "ĠÑĥÑħÐ¾": 3517,
      "ĠÐºÐ½Ð¸Ð¶ÐµÑĩ": 3518,
      "ĠÐ³ÑĢÐ¾Ð¼ÐºÐ¾": 3519,
      "ĠÐ²Ð°ÑĢÐ¸Ð°Ð½ÑĤÑĭ": 3520,
      "ĠÑģÑİÐ´Ð°": 3521,
      "ĠÐ¡Ð°Ð»ÑĤÐ°Ð½": 3522,
      "ĠÐ¿ÑĢÐ¾ÑĪÐµÐ¿ÑĤÐ°Ð»": 3523,
      "ĠÐºÐ¾Ð»Ð»ÐµÐ³Ð°": 3524,
      "ĠÑİÑĢÐ¸ÑģÑĤÐ°": 3525,
      "ĠÐĴÐµÑĢÐ½Ð¾Ð½": 3526,
      "ĠÑįÐºÐ·Ð°Ð¼ÐµÐ½": 3527,
      "ĠÐ¾ÑīÑĥÑĤÐ¸Ð»": 3528,
      "ĠÐ½Ð°ÑģÑĤÐ¾Ð¹": 3529,
      "Ð¢ÐµÐ¼Ð¿ÐµÑĢÐ°ÑĤÑĥÑĢÐ°": 3530,
      "ÑįÐ½ÑģÐ¸": 3531,
      "ĠÑĤÑĢÐµÐ½Ð¸ÑĢÐ¾Ð²": 3532,
      "ĠÐ²ÑģÑħÐ»Ð¸Ð¿": 3533,
      "ĠÐ¿ÑĢÐ¸Ð¾ÑĢÐ¸ÑĤÐµÑĤÐ°Ð¼Ð¸": 3534,
      "ĠÐ¾Ð±Ð»ÐµÐ³Ñĩ": 3535,
      "ĠTypeScript": 3536,
      "did": 3537,
      "en": 3538,
      "ti": 3539,
      "ÑĤÐ°Ð»Ð°": 3540,
      "ÑĢÐµÐ¿": 3541,
      "Ð½Ð°ÑĢ": 3542,
      "Ð½Ð°Ð´": 3543,
      "ÑĥÑı": 3544,
      "ÑĮÐµ": 3545,
      "ĠÑģÐ¾Ð´": 3546,
      "ĠÑģÐ¾ÑĢ": 3547,
      "ĠÑģÑĥÐ¼": 3548,
      "ĠÑģÐ½Ð¸ÑĤ": 3549,
      "ĠÑģÑĩÐµÑĤ": 3550,
      "ĠÐ²ÐµÑĢÐ¸": 3551,
      "ĠÐ²ÑĢÐ¾Ð´Ðµ": 3552,
      "Ð²Ð°Ð»ÑģÑı": 3553,
      "ÑĢÐ¸Ðº": 3554,
      "ÐµÐ½Ð½ÑĥÑİ": 3555,
      "ĠÐ´Ð°Ð¼": 3556,
      "ÑĢÐ¾ÑĪ": 3557,
      "Ð°ÑĢÐ°Ðº": 3558,
      "ĠÐ½ÐµÐ¸Ð·": 3559,
      "Ð·ÐµÐ¹": 3560,
      "ĠÐ½Ð°ÑĩÐ¸Ð½Ð°": 3561,
      "ÑīÑĥ": 3562,
      "Ð¾ÑĤÐ¸": 3563,
      "Ð°Ð´ÑĮ": 3564,
      "ÑĳÑģ": 3565,
      "ÐºÐ°ÑĤ": 3566,
      "ĠÐ¿ÑĢÐ¸ÑģÑĤÑĥÐ¿": 3567,
      "Ð°Ð½ÑĤÐ°": 3568,
      "Ð°Ð½Ð½ÑĭÑħ": 3569,
      "Ð¸Ð²Ð°ÑıÑģÑĮ": 3570,
      "ÐĶÐ°ÑĪÑĮ": 3571,
      "ĠÐŁÑįÐ½ÑģÐ¸": 3572,
      "ÐŁÑĢÐ¾ÑģÑĤ": 3573,
      "ĠÑģÑĤÑĭ": 3574,
      "ĠÑģÑĤÐµÑģ": 3575,
      "ÐĲÐ»Ð°Ð´": 3576,
      "ĠÐ¿Ð¾Ð´ÑĢÐ¾ÑģÑĤ": 3577,
      "ÑĢÐ°Ñİ": 3578,
      "ÐĿÑĥÐ¶": 3579,
      "ÐµÐ½ÑĮÐºÐ¸Ð¹": 3580,
      "ĠÑģÐ»ÐµÐ·": 3581,
      "ÐµÑĩÑĮ": 3582,
      "ĠÐļÑĢÑĥ": 3583,
      "Ð¡Ð½ÐµÐ¹Ð¿": 3584,
      "ÐµÐ·Ð½Ð¾": 3585,
      "ĠÑģÐ¿ÑĥÑģÑĤ": 3586,
      "ĠÐºÐ¾ÑĢÐ¸": 3587,
      "Ð°Ð»ÑĮÐ½ÑĭÐµ": 3588,
      "Ð¸Ð¼ÑģÑı": 3589,
      "ÑĥÐ¶Ð´Ð°": 3590,
      "Ð¼Ð¾ÑĤÑĢÑı": 3591,
      "ĠÐ²Ð·ÑıÐ»Ð°": 3592,
      "ĠÐ¿Ð¾ÐºÐ»Ð¾Ð½": 3593,
      "ĠÐĳÐ°ÑĢ": 3594,
      "ĠÑģÐ¾ÑģÑĤÐ¾Ñı": 3595,
      "ĠÐ²Ð¸Ð´Ñĥ": 3596,
      "ĠÑĢÐ°ÑģÑģÑĤ": 3597,
      "ĠÐ¾Ð´ÐµÐ¶": 3598,
      "ĠÐ½Ð°Ð´ÑĳÐ¶": 3599,
      "ÐľÐ¾Ð»Ð¾Ð´": 3600,
      "ĠÐ¿Ð¾Ð¼Ð½Ñİ": 3601,
      "ĠÑĥÑĩÐ¸ÑĤÑĮ": 3602,
      "ĠÐ½Ð¸ÐºÐ¾Ð³Ð¾": 3603,
      "Ð¾Ð±ÑĢÐ°Ð»": 3604,
      "Ð¾Ð±ÑĢÐµÑĤ": 3605,
      "Ð½ÐµÐ²Ð¸Ð´Ð¸Ð¼": 3606,
      "ĠÐºÐ¾Ð½ÑĨÐ°": 3607,
      "ÐłÐ°Ð·": 3608,
      "ĠÑħÐ¾ÑĩÐµÑĤÑģÑı": 3609,
      "ĠÐ¿ÑĥÐ½": 3610,
      "ĠÐ¼Ð¸ÑģÑĤÐµÑĢ": 3611,
      "Ð¸ÑĪÑĮÑģÑı": 3612,
      "ĠÑģÑĤÑĢÐ°Ñħ": 3613,
      "ĠÑĤÐµÐ¼Ð½ÑĭÑħ": 3614,
      "ĠÐ¾ÑĤÐ²ÑĢÐ°Ñī": 3615,
      "ĠÐ¿Ð¾Ð·Ð²Ð¾Ð»": 3616,
      "ĠÑĥÐ´Ð¸Ð²Ð»ÐµÐ½Ð½Ð¾": 3617,
      "ĠÐºÐ¾Ð¼Ð½Ð°ÑĤÑĭ": 3618,
      "ĠÐ´ÐµÐ½ÑĮÐ³Ð¸": 3619,
      "ĠÐ¸Ð´ÐµÑĤ": 3620,
      "ĠÐ¿ÑĢÐ¾Ð´Ð¾Ð»Ð¶Ð°Ð»Ð°": 3621,
      "ĠÐ±ÐµÑĢÑĥ": 3622,
      "ĠÐ±Ð¾ÑİÑģÑĮ": 3623,
      "ÑĤÐ²Ð¾ÑĢ": 3624,
      "ĠAdid": 3625,
      "ĠÐ»ÐµÑĩÐ¸ÑĤÑĮ": 3626,
      "ĠÐ¼Ð¸Ð½ÑĥÑģÑĭ": 3627,
      "ĠÐ¾Ð±ÑģÑĥÐ´": 3628,
      "ĠÐºÐ°Ð±Ð¸Ð½ÐµÑĤÐ°": 3629,
      "ĠÐ¿Ð¾Ð´Ð¾ÑĪÐ»Ð°": 3630,
      "ĠÑĤÐµÑħÐ½Ð¾": 3631,
      "ĠÐ´ÑĢÑĥÐ·ÑĮÑı": 3632,
      "ĠÑģÐµÑĢÐ´ÑĨÐµ": 3633,
      "ÐŀÐ¿ÑıÑĤÑĮ": 3634,
      "ÐĳÑĥÐ´Ñĥ": 3635,
      "Ð½Ð°Ð¶Ð´Ñĭ": 3636,
      "ĠÑģÐºÐ¾ÑĢÐµÐµ": 3637,
      "ĠÐ»ÐµÑģÑĤÐ½Ð¸ÑĨÐµ": 3638,
      "ĠÐ²Ð¾Ð·ÑĢÐ°Ð·Ð¸Ð»": 3639,
      "ĠÐ¼ÑĭÑģÐ»ÐµÐ½Ð½Ð¾": 3640,
      "ĠÑģÑĤÐ°ÑĢÑĥÑħÐ°": 3641,
      "ĠÐ¼Ð¾Ð¼ÐµÐ½ÑĤ": 3642,
      "ĠÑįÐ½ÐµÑĢÐ³ÐµÑĤ": 3643,
      "ĠÐ¿ÑĢÐ¾ÑģÑĤÑĥÐ´Ð¾Ð¹": 3644,
      "ĠAdidas": 3645,
      "oy": 3646,
      "ota": 3647,
      "Ð¨": 3648,
      "ĠB": 3649,
      "ĠD": 3650,
      "ĠWindows": 3651,
      "Ð¾ÑģÑĤÑĮ": 3652,
      "ÑģÐ¼Ð¸": 3653,
      "ÑģÐºÐ¸Ð¼": 3654,
      "ÑĢÐ°Ð³": 3655,
      "Ð»ÑģÑı": 3656,
      "Ð»ÐµÐ¹": 3657,
      "Ð½ÐµÐ»": 3658,
      "Ð½ÐµÑĤÑģÑı": 3659,
      "ÑĥÐµÑĪÑĮ": 3660,
      "ÑıÑİ": 3661,
      "ĠÑģÐºÑĥ": 3662,
      "ĠÐ½ÐµÐº": 3663,
      "ĠÐ²Ð¾Ð²": 3664,
      "ĠÐ²Ð¾ÑĢÐ¾": 3665,
      "ĠÐ²Ð°Ð¼Ð¸": 3666,
      "Ð´ÐµÐ½": 3667,
      "Ð´Ð¾Ð¹": 3668,
      "ĠÐ¸Ð½Ð°ÑĩÐµ": 3669,
      "ĠÐºÐ°ÑĤ": 3670,
      "ÐµÐ½ÐµÐ¼": 3671,
      "ÐµÐ½Ð½Ð¾Ð³Ð¾": 3672,
      "ĠÐ´Ð°Ð²Ð°Ð¹": 3673,
      "ĠÐ´ÐµÑģÑı": 3674,
      "Ð¾Ð²ÑĭÐµ": 3675,
      "ĠÑĤÐµ": 3676,
      "ĠÐ¼Ð¸Ð¼Ð¾": 3677,
      "ĠÐ±Ð°ÑĪ": 3678,
      "ĠÐ±ÑĥÐº": 3679,
      "Ð°ÐºÐ¸": 3680,
      "Ð¿Ð»": 3681,
      "Ð¾Ð¼Ð¾Ð³": 3682,
      "Ð±Ð¸Ð½": 3683,
      "Ð½Ð¸ÑĨÐµÐ¹": 3684,
      "Ð¾Ð´Ð¸ÑĤ": 3685,
      "ĠÐ½Ð°ÑĪÐµÐ»": 3686,
      "Ð°Ð²Ð°ÑĤÑĮ": 3687,
      "Ð¾ÑĤÐ¾Ð²": 3688,
      "Ð¾ÑĤÐ¾Ð³ÑĢÐ°ÑĦ": 3689,
      "Ð¾ÑĢÐ¾Ð´": 3690,
      "Ð¸ÑĤÑı": 3691,
      "Ð¾Ð¶Ð°": 3692,
      "ĠÐ¾ÑĤÐ»Ð¸ÑĩÐ½Ð¾": 3693,
      "ÑĳÐ³": 3694,
      "ĠÐ¿ÑĢÑĭÑģ": 3695,
      "ĠÐ¿ÑĢÐ¸Ð·Ð½": 3696,
      "ĠÐ¶Ð°Ð»ÑĮ": 3697,
      "ĠÐŁÐ¾Ð¿": 3698,
      "ĠÑħÐ²Ð¾ÑģÑĤ": 3699,
      "ĠÑħÑĥÐ¶Ðµ": 3700,
      "ĠÑħÐ¾Ð·Ñı": 3701,
      "ÐŁÐ¾Ð²": 3702,
      "ĠÐºÐ°ÐºÑĥÑİ": 3703,
      "ĠÐĿÐ¸Ðº": 3704,
      "ĠÐ²ÑĭÑĢÐ¾Ñģ": 3705,
      "ĠÐ²ÑĭÐ½ÑĥÐ¶": 3706,
      "ĠÐ¿Ð¾Ð´Ñģ": 3707,
      "ĠÐ¿Ð¾Ð´Ð¿": 3708,
      "ĠÐ¿Ð¾Ð´Ð°ÑĢÐ¸": 3709,
      "ĠÐ¿Ð¾Ð´ÑģÐºÐ°Ð¶Ð¸": 3710,
      "ĠÐ¾Ð±ÑĢÑıÐ´": 3711,
      "ÑĢÐ°Ð½Ð¸ÑĤ": 3712,
      "ÐĿÐ°Ð´": 3713,
      "Ð¾ÑĩÐºÐ¸": 3714,
      "Ð¾ÑĩÐµÐº": 3715,
      "ÐĴÐµÑĩ": 3716,
      "ÐµÐ¶Ð°Ð»Ð°": 3717,
      "ĠÐ¿Ð¾Ð»Ð°Ð³": 3718,
      "ĠÐ¿Ð¾Ð»Ð½Ð¾ÑģÑĤÑĮÑİ": 3719,
      "ÑĩÐ½Ð¾Ðµ": 3720,
      "ĠÐĽÐ°Ð´Ð½Ð¾": 3721,
      "ĠÐ´ÑĢÑĥÐ³Ð¸Ñħ": 3722,
      "ĠÑģÐ°Ð¼ÑĭÐ¹": 3723,
      "ĠÐ²Ð¾Ð·Ð±": 3724,
      "ĠÑĢÐ°ÑģÑģÑĤÐ°Ð²": 3725,
      "ĠÐ¥Ð°Ð³ÑĢÐ¸": 3726,
      "ĠÐ½Ð°Ð´ÐµÐ»": 3727,
      "ÐĹÐ°Ð¿": 3728,
      "ÐľÐ¾Ð¶ÐµÑĤ": 3729,
      "ÐľÐ°Ð¼Ð°": 3730,
      "ĠÐ´Ð²Ðµ": 3731,
      "ĠÐķÑĳ": 3732,
      "ĠÐ´ÐµÐ²ÑĥÑĪÐµÐº": 3733,
      "ĠÐ´ÐµÐ²ÑĥÑĪÐºÐµ": 3734,
      "ĠÐºÐ¾ÑĤÐ¾ÑĢÐ¾Ð¼": 3735,
      "ĠÐ¸Ð½ÑĦÐ¾ÑĢÐ¼Ð°": 3736,
      "ĠÐ½Ð°Ð¿ÑĢÑı": 3737,
      "ĠÐ½ÑĥÐ¶Ð½Ð¾Ð¼": 3738,
      "ĠÐ¿Ð¾Ð»ÑĥÑĩÐ¸ÑĤÑģÑı": 3739,
      "ĠÐ¾ÑĩÐµÑĢ": 3740,
      "ĠÑĤÑĢÐµÐ±": 3741,
      "ĠÑģÐ»ÑĭÑĪÐ°Ð»Ð°": 3742,
      "ĠÑĥÐ»ÑĭÐ±ÐºÐµ": 3743,
      "ĠÑĤÐ²Ð¾ÐµÐ³Ð¾": 3744,
      "ĠÐ¿Ð¾Ð³Ð»Ð°Ð´": 3745,
      "ĠÑģÐ¼ÐµÑħ": 3746,
      "ĠÑģÐ¸Ð´ÐµÐ»Ð°": 3747,
      "ÑģÑĤÐ²ÐµÐ½Ð½ÑĭÐ¹": 3748,
      "ÑİÑĤÑģÑı": 3749,
      "ĠÐ³ÑĢÑĥÑģÑĤÐ½Ð¾": 3750,
      "ĠÑģÐ»ÑĥÑĩÐ°Ð¹": 3751,
      "ĠÐŁÐ¾ÑĤÑĤÐµÑĢÐ°": 3752,
      "ĠÐ¥Ð¾Ð³ÑģÐ¼Ð¸": 3753,
      "ĠÐ´ÑĢÑĥÐ³Ð¾Ðµ": 3754,
      "ĠÐ´ÑĢÑĥÐ·ÐµÐ¹": 3755,
      "ĠÑĤÐµÐ»ÐµÐ²Ð¸Ð·Ð¾ÑĢ": 3756,
      "ĠÐ»ÐµÐ³ÑĩÐµ": 3757,
      "ĠÐ¿ÐµÑĢÐ²Ð¾Ð¹": 3758,
      "ĠÐ¿ÑĢÐ¾Ð³Ð¾Ð²Ð¾ÑĢÐ¸Ð»": 3759,
      "ĠÐ¿Ð¾ÑģÐ»ÐµÐ´Ð½Ð¸Ð¹": 3760,
      "ĠÐ¿ÑĭÑĤÐ°Ð»ÑģÑı": 3761,
      "ĠÐºÑĢÑĥÑĤ": 3762,
      "ĠÐ¿Ð¾ÑıÐ²Ð¸Ð»ÑģÑı": 3763,
      "Ð»Ð¸ÐºÐ½ÑĥÐ»Ð°": 3764,
      "ĠÑĤÐ¸ÑħÐ¾Ð½ÑĮ": 3765,
      "ĠÑģÐ¸Ð»Ñĭ": 3766,
      "ĠÐºÐ¾ÑĪÐ¼Ð°ÑĢ": 3767,
      "ĠÑģÐ¾Ð³Ð»Ð°ÑģÐ¸Ð»Ð°ÑģÑĮ": 3768,
      "ĠÑģÐ¼ÑĥÑīÐ°ÐµÑĤ": 3769,
      "ĠÑĤÑĢÑĥÐ´Ð½Ð¾": 3770,
      "ĠÑģÑĭÐ½": 3771,
      "ĠÐ²Ð¸Ð½Ð¾Ð²": 3772,
      "ĠÐ²Ð¸Ð½Ð¾Ð²Ð°ÑĤÐ¾": 3773,
      "ĠÑĤÐ¾ÑĢÐ¾Ð¿": 3774,
      "ĠÐ½ÐµÑģÑĩÐ°": 3775,
      "ĠÐ´Ð¾Ð±Ð°Ð²Ð»Ñİ": 3776,
      "ĠÐ¼ÐµÑĢÐµ": 3777,
      "ĠÐ¾Ð±ÑĭÑĩ": 3778,
      "ĠÐ»ÑİÐ±Ð¾Ð²ÑĮ": 3779,
      "ĠÑģÐ²ÑıÐ·Ð¸": 3780,
      "ĠÐ²ÑģÐºÐ¾ÑĢÐµ": 3781,
      "ĠÐ¾ÑħÐ¾ÑĤ": 3782,
      "ĠÐ²Ð¾Ð·Ð´ÑĥÑħÐµ": 3783,
      "ĠÐ²Ð¾ÑģÑĤÐ¾ÑĢ": 3784,
      "ĠÐ³Ð¾ÑģÐ¿Ð¾Ð´": 3785,
      "ĠÐ¾Ð±Ð²ÐµÐ½Ñĩ": 3786,
      "ĠÐ½Ð°Ð»Ð¾Ð¶": 3787,
      "Ð²ÑĥÑĩÐ¸ÑĤ": 3788,
      "ĠÐºÐ°Ð¿Ð¸ÑĤ": 3789,
      "ĠÑģÑĤÐ°Ð½ÐµÑĤ": 3790,
      "ĠÑĢÐ¾Ð±ÐºÐ¾": 3791,
      "ĠÐ¿Ð¾Ð¸ÑģÐºÐ°ÑĤÑĮ": 3792,
      "ĠÐºÑĢÐ¾ÑģÑģÐ¾Ð²": 3793,
      "Ð£Ð´Ð¾Ð±": 3794,
      "Ð°Ð½ÑĤÐ°ÑģÑĤÐ¸": 3795,
      "ĠÐºÐ¾ÑĢÐ¸Ð´Ð¾ÑĢ": 3796,
      "ĠÑĤÐ¸ÑħÐ¾Ð½ÑĮÐºÐ¾": 3797,
      "Ð»Ð°Ð¼": 3798,
      "ÑĭÑĤÑĮ": 3799,
      "ĠÐ¿Ð°Ð¼": 3800,
      "ĠÐ¿Ð°Ð´": 3801,
      "ĠÐ¿Ð°Ð¿Ð°": 3802,
      "ÐºÑĤ": 3803,
      "ĠÐ²ÐµÐ½Ñĩ": 3804,
      "ÑĤÐ¾ÑĢÐ°": 3805,
      "ĠÐ¾ÑĤÐ¾ÑĢ": 3806,
      "ĠÐºÐ¾Ð´": 3807,
      "ĠÐºÐ¾Ð¼Ñĥ": 3808,
      "ĠÐºÐ¾ÑĢÐ¾ÑĤ": 3809,
      "ĠÐ´Ð¾Ð¿": 3810,
      "ĠÐ´ÑĥÑħ": 3811,
      "ĠÐ´Ð¸ÑĤÑı": 3812,
      "ÐµÑĢÐ´": 3813,
      "ĠÑĤÐ°Ð¹": 3814,
      "ĠÐ¼Ð°ÑĪÐ¸": 3815,
      "ĠÑĥÑħÐ¾Ð´": 3816,
      "Ð°ÑĢÐ°": 3817,
      "ĠÐ½ÐµÐ¾Ð±": 3818,
      "ĠÐ½ÐµÑĩÐµÐ³Ð¾": 3819,
      "ĠÐ¿Ð¾ÑĤÐ°": 3820,
      "ĠÐ¿Ð¾ÑģÐ¿ÐµÑĪ": 3821,
      "ĠÐĵÐ´Ðµ": 3822,
      "Ð°Ð²Ð»Ð¸Ð²": 3823,
      "Ð¾ÑĢÑī": 3824,
      "ĠÐ»Ð°Ð´Ð½Ð¾": 3825,
      "ĠÐ¾ÑĤÐºÑĥÐ´Ð°": 3826,
      "ĠÐ¿ÑĢÐ¾ÑĨ": 3827,
      "ĠÐ³ÑĢÐ¸Ð¿": 3828,
      "ÐļÐ°Ð¶ÐµÑĤÑģÑı": 3829,
      "Ð¾Ð½Ð¾Ð¼": 3830,
      "ĠÐ¶ÑĳÑģÑĤÐºÐ¾": 3831,
      "ĠÐŁÐ¾ÐºÐ°": 3832,
      "Ð»Ð°Ñı": 3833,
      "ĠÐ²ÑĭÑĢÐ°Ð¶": 3834,
      "ĠÐ¿Ð¾Ð´Ð¾Ð¶Ð´": 3835,
      "ĠÐ¾Ð±Ð¼": 3836,
      "ĠÐ¾Ð±ÐµÑĢ": 3837,
      "ĠÐ¾Ð±ÐµÑī": 3838,
      "ÐºÑĥÑĢ": 3839,
      "ĠÐ°Ð»": 3840,
      "ÑģÑĤÐ²Ð¸Ñı": 3841,
      "Ð¡ÑĤÐ¾": 3842,
      "ĠÐŀÑģ": 3843,
      "ĠÑģÐ¿ÑĢÐ°Ð²": 3844,
      "ĠÑģÐ¿Ð°ÑģÐ¸Ð±Ð¾": 3845,
      "ÑģÐ»Ð°Ð±": 3846,
      "ÑĭÐ²Ð°Ð»ÑģÑı": 3847,
      "ÑĭÐ²Ð°ÐµÑĤÑģÑı": 3848,
      "ĠÐ¿ÐµÑĢÐµ": 3849,
      "ĠÑĪÑĢÐ°Ð¼": 3850,
      "Ð°Ð½Ð¸Ð¹": 3851,
      "ĠÐ´Ð¾Ñģ": 3852,
      "ĠÐ¿Ð¾ÐºÐ¾Ñģ": 3853,
      "ĠÐ·Ð½Ð°ÑĤÑĮ": 3854,
      "ĠÐ²Ð¸Ð´Ðµ": 3855,
      "ĠÑģÐ°Ð¼Ð¾Ð³Ð¾": 3856,
      "Ð¾Ð²Ð°ÑĢÐ¸": 3857,
      "ĠÑĢÑĥÐºÐ°": 3858,
      "Ð¾Ð²Ð¾ÑĢÐ¸ÑĤ": 3859,
      "ÐĹÐ²ÑĥÑĩÐ¸ÑĤ": 3860,
      "ĠÑĨÐµÐ½": 3861,
      "ĠÑĥÐ´ÐµÑĢÐ¶": 3862,
      "ĠÐ·Ð°ÐºÐ°ÑĤ": 3863,
      "ÐľÐ¾Ð¶Ð½Ð¾": 3864,
      "Ð½Ð¸Ð¼Ð°ÐµÑĤ": 3865,
      "ĠÐ¿Ð¾Ð¼Ð¾Ñī": 3866,
      "ĠÐºÐ¾ÑĤÐ¾ÑĢÑĭÐ¼": 3867,
      "Ð°ÐµÑĪÑĮÑģÑı": 3868,
      "ÐĳÐ¾Ð»": 3869,
      "ĠÐ¼Ð¸Ð³ÑĢ": 3870,
      "ĠÐºÑĢÐ°ÑģÐ¾ÑĤ": 3871,
      "ĠÐºÑĢÐ°ÑģÐ¸Ð²Ð¾": 3872,
      "ĠÑģÐ¾Ð±Ð¸ÑĢÐ°": 3873,
      "ĠÑĥÑĢÐ¾ÐºÐ°": 3874,
      "ĠÐ¼Ð¾ÑĢÑİ": 3875,
      "ony": 3876,
      "ĠÐ¿ÑĢÐ¾ÑĪÐ»": 3877,
      "Ð½Ð¾Ð²ÑĮ": 3878,
      "Ð²Ð°ÑĢÑĤÐ¸": 3879,
      "ÑĤÑıÐ³": 3880,
      "ĠÑĢÐµÑĪÐ¸Ð»Ð°": 3881,
      "ĠÐ³Ð¾Ð»Ð¾ÑģÐ¾Ð¼": 3882,
      "ĠÐ¿ÑĢÐ¾Ð±Ð»ÐµÐ¼": 3883,
      "ĠÐ±ÐµÐ´Ð½Ñı": 3884,
      "ĠÐºÐ°ÑĢÑĤÐ¸": 3885,
      "ĠÐ¿Ð»ÐµÑĩÐ°Ð¼Ð¸": 3886,
      "ĠÐĲÐ»Ð°Ð´Ð´Ð¸Ð½Ñĥ": 3887,
      "ĠÐ¼ÐµÑĩÑĤÑĭ": 3888,
      "ĠÑĢÐµÐ°Ð»ÑĮÐ½Ð¾": 3889,
      "ĠÐ²Ð¾ÑģÐºÐ»Ð¸ÐºÐ½ÑĥÐ»Ð°": 3890,
      "ĠÑĥÑģÐ»ÑĭÑĪÐ°Ð»Ð°": 3891,
      "ĠÑĢÐ°ÑģÑģÐºÐ°Ð·Ð°ÑĤÑĮ": 3892,
      "ĠÑģÐ»ÐµÐ´ÑĥÑİÑī": 3893,
      "Ð¥Ð¾ÑĢÐ¾ÑĪÐµÐµ": 3894,
      "Ð»Ð¾Ð³Ð¸Ð¸": 3895,
      "ĠÑĥÐ¼ÐµÐµÑĤ": 3896,
      "ĠÐ½Ð°Ð±Ð»ÑİÐ´": 3897,
      "ĠÐ¼ÐµÐ´Ð»ÐµÐ½Ð½Ð¾": 3898,
      "ĠÑĩÑĥÐ´Ð¾": 3899,
      "ĠÑģÑĢÐ¾ÐºÐ°Ð¼": 3900,
      "ĠÐ²ÐµÐ»ÐµÐ»": 3901,
      "ĠÑĥÑĩÐµÐ½Ð¸ÐºÐ¾Ð²": 3902,
      "ÐµÑĢÐ²ÑĭÐµ": 3903,
      "ĠÐ²Ð»ÑİÐ±Ð»ÐµÐ½": 3904,
      "ĠÐ·Ð´Ð¾ÑĢÐ¾Ð²": 3905,
      "ĠÐ¶ÐµÐ½ÑīÐ¸Ð½Ð°": 3906,
      "ĠÑĢÑĭÐ±ÐºÐ°": 3907,
      "ĠÑĢÐ°ÑģÑĤÑı": 3908,
      "ĠÐ³ÑĢÑıÐ·": 3909,
      "ĠÐ¿ÑıÑĤÐ½Ð¸ÑĨÑĭ": 3910,
      "ĠÑģÑĥÑīÐµ": 3911,
      "ĠÑģÐ¿Ð¾ÑģÐ¾Ð±": 3912,
      "ĠÐĵÑĢÐ¸ÑĦÑĦÐ¸Ð½Ð´Ð¾ÑĢÐ°": 3913,
      "ÐµÑģÐ¿Ð¾ÐºÐ¾": 3914,
      "ĠÑģÑĩÐ°ÑģÑĤÐ»Ð¸Ð²": 3915,
      "ĠÐ¼ÐµÑģÑĤÐ°": 3916,
      "ĠÐ±Ð¾Ð»ÐµÐ·Ð½ÑĮ": 3917,
      "ĠÐ»Ð¸ÑĪÐ½ÐµÐµ": 3918,
      "ĠÐ¿ÑĢÐµÐ¶Ð´Ðµ": 3919,
      "ĠÐĿÐµÐ²Ð¸Ð»": 3920,
      "ĠÐ¿ÑĢÐ¾Ð±Ð¾ÑĢÐ¼Ð¾ÑĤÐ°Ð»": 3921,
      "ĠÐ¼ÐµÐ½ÑĮÑĪÐµ": 3922,
      "ĠÐ½ÐµÐºÐ¾ÑĤÐ¾ÑĢ": 3923,
      "ĠÐ¿ÑĢÐ¾Ð¸Ð·Ð¾ÑĪÐ»Ð¾": 3924,
      "ĠÐ¿Ð¾Ð´Ð·ÐµÐ¼ÐµÐ»ÑĮÐµ": 3925,
      "ĠÐ¿Ð¾Ð¾Ð±ÐµÑī": 3926,
      "ĠÐ»ÐµÐºÐ°ÑĢ": 3927,
      "Ð§ÐµÑĢÐµÐ·": 3928,
      "ĠNike": 3929,
      "ĠÐ¿ÑĢÐµÑģÑĤÐ¸Ð¶": 3930,
      "ĠÑĥÐ»Ð¾Ð¶Ð¸ÑĤÑĮÑģÑı": 3931,
      "ĠÐ²Ð¾Ð²ÑģÐµ": 3932,
      "!).": 3933,
      "ma": 3934,
      "ÑĤÐ¾Ð±Ñĭ": 3935,
      "Ð¸Ñİ": 3936,
      "ÑģÐºÐ¸Ñħ": 3937,
      "Ð»Ð¾ÑĤ": 3938,
      "Ð»Ð°ÑģÑĮ": 3939,
      "Ð½Ñģ": 3940,
      "ÑĮÐµÑĤ": 3941,
      "ÑıÐ½Ð½Ð¾": 3942,
      "ÑĭÐ¿": 3943,
      "ĠÑģÑĥÑħ": 3944,
      "ĠÑģÐ¼ÑĥÑĤ": 3945,
      "ĠÑģÐ½Ð°ÑĩÐ°Ð»Ð°": 3946,
      "ĠÐ²Ð½Ð¾Ð²ÑĮ": 3947,
      "Ð´ÐµÑĤ": 3948,
      "ĠÐ¾ÑģÑĤÑĢÐ¾": 3949,
      "ĠÐºÐ°": 3950,
      "ĠÐºÐ°Ñģ": 3951,
      "ĠÐºÐ¾ÑĢÐ¾": 3952,
      "ÑģÑĤÐµÑģÑĤÐ²ÐµÐ½Ð½Ð¾": 3953,
      "ÐµÐ½Ð¾Ðº": 3954,
      "ĠÐ¼Ð»Ð°Ð´": 3955,
      "ĠÐ±ÐµÑģÑģ": 3956,
      "ĠÑĥÑģÑĤÐ°Ð²": 3957,
      "ĠÑĩÐµÑĤÑĭ": 3958,
      "Ð±Ñĭ": 3959,
      "Ð±Ð¾Ð¼": 3960,
      "Ð°ÑĢÐ¾Ð²": 3961,
      "ĠÐµÐ»": 3962,
      "Ð¾Ð´Ð½Ð¾": 3963,
      "ĠÐĵÐ¾ÑĤÐ¾Ð²": 3964,
      "ĠÐ½Ð°ÑĪÐ¸": 3965,
      "ĠÐ»ÐµÐ½": 3966,
      "ĠÐ»Ð°Ð¿": 3967,
      "ĠÐ»ÑĳÐ³": 3968,
      "Ð¾Ð¶Ñĥ": 3969,
      "ĠÐ¾ÑĤÐ´ÐµÐ»": 3970,
      "ÐµÐ±ÐµÐ´ÑĮ": 3971,
      "ÐºÐ¸Ð¼Ð¸": 3972,
      "ÐºÐ°Ð½": 3973,
      "ÑĢÑĥÑĤ": 3974,
      "Ð°Ð½Ð½Ð¾Ð³Ð¾": 3975,
      "Ð¸Ð²Ð°Ð»ÑģÑı": 3976,
      "ÐµÑģÐº": 3977,
      "ĠÐ¶Ð¸Ð»": 3978,
      "ÐµÐ½Ð¸ÑĤÑĮ": 3979,
      "ĠÑħÐ°ÑĢÐ°Ðº": 3980,
      "ÑĦÐ¾Ð½Ñĭ": 3981,
      "ÐŁÐ°Ð¿Ð°": 3982,
      "Ð»ÑıÑİ": 3983,
      "ĠÐ¿Ð¾Ð´Ð¾Ð±": 3984,
      "ĠÐ¾Ð±Ð¾": 3985,
      "ĠÐ¾Ð±ÑıÐ·Ð°ÑĤÐµÐ»ÑĮÐ½Ð¾": 3986,
      "Ð¸Ð´Ð¸ÑĤ": 3987,
      "ÐºÑĥÑĢÐ°ÑĤ": 3988,
      "ÑģÑĤÐ²Ñĥ": 3989,
      "ĠÐ·Ð°ÑģÑĤÐ°Ð²Ð»Ñı": 3990,
      "ĠÑģÐ»Ð¾Ð¶Ð½Ð¾": 3991,
      "Ð¡Ð°Ð»": 3992,
      "ĠÑģÐ¿ÑĢÐ°ÑĪ": 3993,
      "ĠÐĴÐ¾": 3994,
      "ĠÐ¸Ð·Ð¾": 3995,
      "ÑĥÐ¼ÐµÐ½ÑĤ": 3996,
      "Ð¾Ð¿Ð°Ñģ": 3997,
      "ĠÐ¿ÐµÑĢÑĩÐ°ÑĤ": 3998,
      "ĠÐ¢ÐµÐ¼": 3999,
      "ĠÐ¢Ð°Ð¼": 4000,
      "ÐĴÐºÑĥÑģ": 4001,
      "ÐµÐ¶Ð°ÑĤÑĮ": 4002,
      "ÑĤÐ¾ÑĢÐ¾Ð¶": 4003,
      "ĠÑĪÐ°Ð³": 4004,
      "ĠÐ³Ð»Ð¾ÑĤ": 4005,
      "ĠÐĺÐ»Ð¸": 4006,
      "ĠÐĳÐµÐ´": 4007,
      "ĠÐ±ÑĥÐ´ÐµÐ¼": 4008,
      "ĠÐ±ÑĥÐ´ÑĥÑī": 4009,
      "ÑģÑĤÐ°Ð²Ð¸ÑĤÑĮ": 4010,
      "ĠÑĢÐ°ÑģÑģÐºÐ°Ð¶": 4011,
      "ĠÐ²Ð¾Ð»Ð½Ð°": 4012,
      "ÑĢÐµÐ¼ÐµÐ½Ð½Ð¾": 4013,
      "ĠÑĥÐ²Ð°Ð¶": 4014,
      "ĠÑĦÐ¾ÑĤÐ¾Ð³ÑĢÐ°ÑĦ": 4015,
      "ĠÐ¾Ð¿ÑĥÑģÑĤ": 4016,
      "ĠÐķÑīÑĳ": 4017,
      "ĠÑĢÐ°Ð±Ð¾ÑĤÐ°Ñİ": 4018,
      "ĠÐ¼Ð¾Ð³Ð»Ð¸": 4019,
      "ĠÐ¼Ð°Ð³Ð°Ð·": 4020,
      "ĠÐ±Ð»ÐµÐ´": 4021,
      "Ð£ÑĩÐ¸ÑĤ": 4022,
      "ĠÑģÑĤÑĢÐ¾Ð³Ð¸Ð¹": 4023,
      "ĠÐ½ÑĥÐ¶Ð½Ñĭ": 4024,
      "ĠÐ²ÑĢÐµÐ¼ÐµÐ½ÐµÐ¼": 4025,
      "ĠÑģÑĤÑĢÐ°ÑħÐ°": 4026,
      "ĠÑĩÑĥÐ²ÑģÑĤÐ²Ð¾Ð²Ð°ÑĤÑĮ": 4027,
      "ĠÐ¿Ð¾Ð·Ð½Ð°ÐºÐ¾Ð¼": 4028,
      "ĠÐºÐ¾Ð»ÐµÐ½Ð¸": 4029,
      "ĠÐ¾ÑģÑĤÐ°Ð»Ð¾ÑģÑĮ": 4030,
      "ĠÑģÐ¸Ð´Ð¸ÑĤ": 4031,
      "ĠÑģÐ¸Ð´ÐµÑĤÑĮ": 4032,
      "ĠÐ¼Ð°Ð»ÑĭÑĪ": 4033,
      "ÐºÐ°Ð·ÑĭÐ²Ð°ÐµÑĤÑģÑı": 4034,
      "Ð·Ð½Ð¾ÐºÑĢÐ¾Ð²": 4035,
      "ĠÐ´ÑĢÐ°Ð³Ð¾": 4036,
      "ĠÐ½Ð¸ÐºÐ°ÐºÐ¾Ð³Ð¾": 4037,
      "ĠÐ½Ð¸ÐºÐ°ÐºÐ¸Ñħ": 4038,
      "ĠÑģÑĩÐ°ÑģÑĤÑĮÑİ": 4039,
      "ĠÐ¼ÑĥÐ¶Ð°": 4040,
      "ÑĤÐ²ÐµÑĢÐ¶": 4041,
      "ĠÐ¾ÐºÐ¾Ð½Ñĩ": 4042,
      "ĠÐ²ÑĭÐ±Ð¾ÑĢ": 4043,
      "ĠÐ·Ð²ÑĥÑĩ": 4044,
      "ĠÐ¿Ð°Ð»Ð¾ÑĩÐºÑĥ": 4045,
      "ĠÑĢÐ°Ð´Ð¾ÑģÑĤÐ¸": 4046,
      "ĠÐ·Ð°ÑħÐ¾ÑĤ": 4047,
      "ĠÐ´Ð¾Ð³Ð°Ð´Ð°Ð»Ð°ÑģÑĮ": 4048,
      "ĠÑĤÐ¾Ð»Ð¿": 4049,
      "ĠÑĩÑĥÐ´ÐµÑģ": 4050,
      "ĠÐĳÐ»ÐµÐºÐ°": 4051,
      "ĠÐ·Ð°ÐºÑĢÐ¸ÑĩÐ°Ð»Ð°": 4052,
      "ĠÐ¿ÑĢÐµÐ²ÑĢÐ°Ñī": 4053,
      "ĠÐ¾ÐºÐ°Ð·Ð°Ð»Ð°ÑģÑĮ": 4054,
      "ĠÐ¸Ð¼ÐµÑİ": 4055,
      "ĠÐ¿ÑĢÐµÐ´Ð¿Ð¾Ð»": 4056,
      "ĠÐ¡Ð¿Ð°ÑģÐ¸Ð±Ð¾": 4057,
      "Ð¾Ð²ÐµÑĤÑĥÑİ": 4058,
      "ĠÐ´ÐµÐ²Ð¾ÑĩÐºÐ°": 4059,
      "ĠÑģÑħÐ²Ð°ÑĤÐ¸Ð»": 4060,
      "ĠÑĥÐ·Ð½Ð°ÑĤÑĮ": 4061,
      "ĠÐ¤Ð¸Ð»Ñĩ": 4062,
      "ĠÐ¿Ð¾Ð´Ð°ÑĢÐ¾Ðº": 4063,
      "ÐŁÐ¾ÑĤÐ¾Ð¼Ñĥ": 4064,
      "ĠÑĢÐ¸ÑģÐº": 4065,
      "ÐĶÐ¾ÑĢÐ¾Ð³Ð¾Ð¹": 4066,
      "ĠÐ°ÐºÐºÑĥÑĢÐ°ÑĤ": 4067,
      "ĠÐ¸Ð³ÑĢÐ°": 4068,
      "ĠÐ¿ÑĢÐ¾ÐµÐºÑĤ": 4069,
      "ĠÐ³ÑĥÐ»ÑıÑĤÑĮ": 4070,
      "ĠÐ¡Ð»ÑĥÑĪÐ°Ð¹": 4071,
      "ĠÐŁÐµÑĤÑĥÐ½ÑĮÑı": 4072,
      "ÑģÐºÐ°Ð·ÑĭÐ²Ð°Ð¹": 4073,
      "ĠÐ¼Ð¾Ð·Ð³": 4074,
      "Ð¡ÐºÐ¸Ð½ÑĮ": 4075,
      "ĠÑģÐ¿Ð¾ÑĢÑĤÐ·": 4076,
      "ĠÐ²Ð¾Ð·Ð¼ÑĥÑĤÐ¸Ð»ÑģÑı": 4077,
      "ĠÐ²Ð¾ÑģÐ¿Ð¾Ð¼Ð¸Ð½Ð°Ð½Ð¸Ñı": 4078,
      "ĠÐĳÑĢÐ¾Ð´ÑıÐ³Ð°": 4079,
      "ĠÐºÐ°Ð¼Ð¸Ð½Ð°": 4080,
      "ĠÐĵÐ¾Ð¹Ð»": 4081,
      "ĠÐ¿Ð»Ð°Ð½Ð¸ÑĢÑĥÐµÑĪÑĮ": 4082,
      "ĠÑĢÐµÐ·ÑĥÐ»ÑĮÑĤÐ°ÑĤ": 4083,
      "ĠÐ±ÑĥÑĤÑĭÐ»": 4084,
      "ĠÐ½ÐµÐ²ÐµÑĢÐ¾ÑıÑĤÐ½Ð¾": 4085,
      "ÐĶÐ¶ÐµÐ¹Ð¼Ñģ": 4086,
      "ĠÑģÐ¾Ð´ÐµÑĢÐ¶": 4087,
      "ÐĲÐ»Ð°Ð´Ð´Ð¸Ð½": 4088,
      "ĠÐ¿ÑĥÐ½Ðº": 4089,
      "ĠÐ¾ÑĩÐµÑĢÐµÐ´ÑĮ": 4090,
      "ĠÐ¼Ð¸Ð³ÑĢÐµÐ½ÑĮ": 4091,
      "by": 4092,
      "uma": 4093,
      "ĠH": 4094,
      "Ð°ÑģÑĤÑĮ": 4095,
      "Ð¸Ð½Ñĭ": 4096,
      "ÑĢÐµÐº": 4097,
      "ÑĢÐ¾Ð²Ð°Ð»": 4098,
      "Ð»ÑĥÐ¿": 4099,
      "Ð»Ð°Ð¹Ð½Ñĭ": 4100,
      "ĠÑģÐ¸Ð½": 4101,
      "ÑĩÐ½Ð°Ñı": 4102,
      "ĠÐ²Ðº": 4103,
      "ĠÐ²ÐµÑĤ": 4104,
      "ĠÐ²ÑĢÐµÐ´": 4105,
      "Ð´ÑĢÑĥÐ³": 4106,
      "ĠÐ¾ÑĦÐ¾ÑĢÐ¼": 4107,
      "Ð°Ð»ÐµÑĤ": 4108,
      "ĠÐºÐ¾Ð²": 4109,
      "ĠÐºÐ°Ð½Ð¸": 4110,
      "ÐµÐ½ÐºÐ°": 4111,
      "ĠÐ´ÑĭÑħ": 4112,
      "ÐµÑĢÑĥ": 4113,
      "ÐµÑĢÐº": 4114,
      "ÑĢÐ¾ÑĩÐ½Ð¾": 4115,
      "ĠÑĥÑĪÐ¸": 4116,
      "ĠÑĥÑĪÐµÐ»": 4117,
      "ĠÑĩÐ°Ð¹": 4118,
      "ĠÑĩÐ¸Ñħ": 4119,
      "ĠÐ·Ð¼Ðµ": 4120,
      "Ð¾Ð»Ð²": 4121,
      "Ð½Ð°ÐµÑĪÑĮ": 4122,
      "ĠÐµÑħ": 4123,
      "ĠÐµÐ¶": 4124,
      "Ð½Ð¸ÑĨ": 4125,
      "ĠÑĢÐ°Ð²": 4126,
      "ĠÑĢÐ°Ð½": 4127,
      "ĠÑĢÐ¾Ð¶Ð´": 4128,
      "ĠÐ¿Ð¾ÑĪ": 4129,
      "ĠÐ¿Ð¾ÑĢÐ°": 4130,
      "ĠÐ¿Ð¾ÑģÐºÐ¾Ð»ÑĮÐºÑĥ": 4131,
      "Ð°Ð·Ð´": 4132,
      "ÐĶÐ¾": 4133,
      "ĠÐ¿ÑĢÐ¾Ñħ": 4134,
      "ÑĳÑĢ": 4135,
      "ĠÐĶÐ¾": 4136,
      "ĠÐ³ÑĢÐ¾Ð·": 4137,
      "ÐļÐ¾ÑĢ": 4138,
      "ĠÐ¿ÑĢÐ¸Ð²ÐµÑĤ": 4139,
      "ĠÐ¿ÑĢÐ¸ÑĪÑĳÐ»": 4140,
      "Ð°Ð½Ñģ": 4141,
      "ĠÐŁÐ¸Ð²": 4142,
      "ĠÐŁÐ°ÑĢÐ¸": 4143,
      "ĠÐŁÐ¾Ñģ": 4144,
      "ĠÐŁÑĢÐ¾ÑģÑĤÐ¾": 4145,
      "Ð²Ð¾ÑģÑĤÐ°": 4146,
      "ÐŁÐ¾Ð·": 4147,
      "ÐŁÐ¾ÐºÐ°": 4148,
      "ÐŁÐ¾Ð¼Ð¾Ð³": 4149,
      "ĠÐĿÐ°Ð´Ð¾": 4150,
      "ĠÐĿÐ°Ð´ÐµÑİÑģÑĮ": 4151,
      "ĠÐ²ÑĭÐ¶": 4152,
      "ĠÐ²ÑĭÑĪÐ»Ð°": 4153,
      "ĠÑĤÐ¾ÑĪÐ½Ð¾": 4154,
      "ĠÐ¿Ð¾Ð´ÐµÐ»": 4155,
      "Ð°Ð¶Ð½Ð¾": 4156,
      "ĠÐ¾Ð±Ð½Ð°Ð¶": 4157,
      "ĠÐ¾Ð±Ð½Ð°ÑĢ": 4158,
      "ĠÐĲÑħ": 4159,
      "ĠÐ³Ð¾ÑĢÐ°Ð·": 4160,
      "ĠÐļÑģÑĤÐ°ÑĤÐ¸": 4161,
      "ĠÐŀÑĢ": 4162,
      "ĠÐ½Ð¾ÑĩÐ¸": 4163,
      "ĠÐ¸Ð·Ð¾Ð±ÑĢÐµÑĤ": 4164,
      "Ð¾ÑĩÐºÐ°": 4165,
      "ĠÐľÐ¸Ð½": 4166,
      "ÑģÐ»Ð¾Ð²": 4167,
      "ĠÐ¿ÐµÑĢÐµÑģ": 4168,
      "ÐĴÑĭÑģ": 4169,
      "ÐĵÐ¾Ð²Ð¾ÑĢÐ¸ÑĤ": 4170,
      "ÑģÐºÐ¾Ð¼": 4171,
      "âĢ¦Â»": 4172,
      "ÐĺÐ·": 4173,
      "Ð¼Ð¾ÑĤÑĢÐ¸ÑĤ": 4174,
      "ĠÐ»Ð¸ÑĨÐµ": 4175,
      "ĠÐĳÐ¸Ð»": 4176,
      "ĠÑģÐ¾Ð¾Ð±": 4177,
      "ĠÐ²Ð¾Ð·Ð¼ÑĥÑī": 4178,
      "ĠÐ¾Ð´Ð½Ð°": 4179,
      "ÐµÐ»Ð¸ÑģÑĮ": 4180,
      "Ð¸ÑĢÐ°ÑĤÑĮ": 4181,
      "ĠÑģÑĤÐ¾Ð»ÑĮÐºÐ¾": 4182,
      "ĠÑģÑĤÐ¾Ð»Ðµ": 4183,
      "ĠÐ´Ð²ÑĥÑħ": 4184,
      "ĠÐ¿ÑĢÐµÐ´ÑĥÐ¿": 4185,
      "ĠÐķÑģÑĤÑĮ": 4186,
      "ÐĳÑĭ": 4187,
      "ÐĳÐµÐ·": 4188,
      "ĠÐ¿Ð»Ð°Ðº": 4189,
      "ĠÐ¼Ð¸Ð½Ð¸ÑģÑĤÐµÑĢ": 4190,
      "ĠÐ·Ð°Ð±ÑĭÐ»Ð°": 4191,
      "ĠÐ¿Ð¾Ð»ÑĥÑĩÐ°ÐµÑĤÑģÑı": 4192,
      "ĠÐ²Ð¾Ð»ÑĪÐµÐ±Ð½Ð¸Ðº": 4193,
      "ÐĽÑĥÑĩÑĪÐµ": 4194,
      "ĠÐŁÐ¾ÑģÐ»": 4195,
      "ĠÐ¼Ð¾ÑĢÑı": 4196,
      "ĠÐ¾ÑĤÐ²ÑĢÐ°ÑĤ": 4197,
      "ĠÐ¿ÑĢÐ¾ÑĪÐ»Ð¾Ð¼": 4198,
      "ĠÐ²Ð¿ÐµÑĢÐ²ÑĭÐµ": 4199,
      "ĠÐ¿Ð¾Ð³Ð¾Ð´Ð°": 4200,
      "ĠÐ¿Ð¸ÑĪÑĥ": 4201,
      "ĠÐ½ÐµÐ²Ð¾Ð·Ð¼Ð¾Ð¶Ð½Ð¾": 4202,
      "ÑĨÐ¸Ð¾": 4203,
      "ÐŀÑĤÐ´": 4204,
      "ÐºÐ¾Ð»Ð¾": 4205,
      "ĠÑĢÐ°Ð½Ð¾": 4206,
      "ĠÐ¿Ð¾ÑģÑĤÐµÐ»ÑĮ": 4207,
      "ĠÑĩÐ¸ÑĤÐ°Ð»": 4208,
      "ĠÑĩÐ¸ÑĤÐ°ÐµÑĪÑĮ": 4209,
      "ĠÐłÐµÐ¼ÑĥÑģÐ°": 4210,
      "ĠÐ´ÐµÑĢÐ¶Ð°ÑĤÑĮ": 4211,
      "ÐĸÐ°Ð½ÑĢ": 4212,
      "ĠÐ¸ÑģÐ¿ÑĥÐ³Ð°Ð»Ð°ÑģÑĮ": 4213,
      "ĠÐ»ÐµÐ¶Ð°Ð»": 4214,
      "ĠÐ¼Ð°Ð³ÑĢÐ¸Ð±Ð¸Ð½": 4215,
      "ĠÐ»ÐµÑĩÐ¸Ð»ÑģÑı": 4216,
      "ĠÐ¼Ð°Ð»ÐµÐ½ÑĮÐºÐ¾Ð³Ð¾": 4217,
      "ĠÑĥÑĤÐµÑĪ": 4218,
      "ĠÐ¿ÑĥÑģÑĤÐ¾Ð¹": 4219,
      "ÑĢÐ¸Ð¼ÐµÑĢ": 4220,
      "ĠÐ´Ð¾Ð²ÐµÑĢ": 4221,
      "ĠÐ·Ð°Ð³Ð»Ñı": 4222,
      "ĠÑħÐ²Ð°ÑĤÐ¸ÑĤ": 4223,
      "Ð¾Ð·ÑĮÐ¼Ð¸": 4224,
      "ĠÑģÐºÐ°Ð¶Ñĥ": 4225,
      "ĠÐ½Ð°ÑģÑĤÐ¾ÑıÑī": 4226,
      "ĠÐ¶Ð´Ð°ÑĤÑĮ": 4227,
      "ĠÑħÐ¾ÑĢÐ¾ÑĪÐµÐ³Ð¾": 4228,
      "ĠÐ¸Ð¼ÐµÐµÑĤ": 4229,
      "ĠÐ±Ð¾Ð³Ð°ÑĤ": 4230,
      "ĠÐ¿ÑĢÐµÐ´Ð¿Ð¾ÑĩÐ¸ÑĤ": 4231,
      "Ġ50": 4232,
      "ĠÐ¥Ð¾ÑĤÐµÐ»Ð°": 4233,
      "ĠRuby": 4234,
      "ĠÐ¼ÑĭÑģÐ»Ñı": 4235,
      "ĠÑĥÑĩÐ¸ÑĤÐµÐ»ÑĮ": 4236,
      "ĠÐ³ÑĢÑıÐ·Ð½Ð¾ÐºÑĢÐ¾Ð²": 4237,
      "ĠÐ½Ð°ÐºÐ°Ð·Ð°Ð½Ð¸Ðµ": 4238,
      "ĠÑģÑĤÐ°ÑĢÐ¸Ðº": 4239,
      "ĠÑģÐµÐºÑĥÐ½Ð´": 4240,
      "ĠÐ±Ð°ÑĤÐ¾Ð½ÑĩÐ¸Ðº": 4241,
      "ĠÐ´ÐµÐ´Ð»Ð°Ð¹Ð½Ñĭ": 4242,
      "ĠÐ´Ð¸Ð·Ð°Ð¹Ð½": 4243,
      "ĠÐ£Ð¸Ð·Ð»Ð¸": 4244,
      "ĠÑĩÑĥÐ²ÑģÑĤÐ²Ð¸ÑĤÐµÐ»ÑĮÐ½Ð¾ÑģÑĤÑĮ": 4245,
      "ĠÐ¿Ð¾ÐºÐ°ÑĩÐ°Ð»": 4246,
      "ĠÑĤÐºÐ°ÑĩÐ¸Ñħ": 4247,
      "ĠÐ±Ð¸Ð»ÐµÑĤÑĭ": 4248,
      "ÑĢÐ¾ÑĤÐ¸ÑĩÐµÑģ": 4249,
      "ĠÐ²ÑĭÐ´Ð¾ÑħÐ½ÑĥÐ»": 4250,
      "ĠÑģÐ½Ð¸ÑĤÑĩ": 4251,
      "ĠÑĤÐµÑħÐ½Ð¾Ð»Ð¾Ð³Ð¸Ð¸": 4252,
      "oyota": 4253,
      "ĠÐºÐ°Ð¿Ð¸ÑĤÐ°Ð½": 4254,
      "ĠÐ¿ÑĢÐµÑģÑĤÐ¸Ð¶Ð½Ð°Ñı": 4255,
      "ĠÐºÐ°Ð½Ð¸ÐºÑĥ": 4256,
      "ĠÐ¾Ð±Ð½Ð°ÑĢÑĥÐ¶": 4257,
      "ĠÐ³Ð¾ÑĢÐ°Ð·Ð´Ð¾": 4258,
      "MW": 4259,
      "Ð¸ÑĢÑĥ": 4260,
      "Ð¸ÑĪÐ¸": 4261,
      "Ð¸ÑĨÐ°": 4262,
      "Ð¸ÑĪÑĥ": 4263,
      "ÑģÐ¸Ñħ": 4264,
      "ÑĢÐµÑī": 4265,
      "Ð»Ð°ÑĤ": 4266,
      "Ð»Ð°Ð¶": 4267,
      "Ð»ÑĥÐ±": 4268,
      "ĠÐ¿Ð¸ÑĢ": 4269,
      "ĠÐ¿Ð¸Ð»Ð¾ÑĤ": 4270,
      "ĠÑģÐ°Ð¼Ð¸": 4271,
      "ÑĩÐºÑĥ": 4272,
      "ĠÐ½Ð¾Ð¶": 4273,
      "ĠÐ²Ð¾Ð¹": 4274,
      "ĠÐ²ÐµÑģÑĤÐ¸": 4275,
      "Ð´ÐµÐ½Ð°": 4276,
      "ÑĤÐ¾Ð»": 4277,
      "Ð¼ÐµÐ»": 4278,
      "Ð¼Ð°Ñħ": 4279,
      "Ð°Ð»Ð¸Ð»ÑģÑı": 4280,
      "ÑĢÐ¸Ð»Ð°": 4281,
      "ĠÐºÑĥÑĩ": 4282,
      "ĠÐºÐ¸Ñģ": 4283,
      "ĠÐºÑģÑĤÐ°ÑĤÐ¸": 4284,
      "ĠÐºÐ²Ð°ÑĢÑĤÐ¸": 4285,
      "ÑģÑĤÐ°ÑĢ": 4286,
      "ÑģÑĤÐ½ÑĭÐ¹": 4287,
      "ĠÐ´Ð¾Ð±ÑĢÑĭÐ¹": 4288,
      "Ð¾Ð²Ð°Ð²": 4289,
      "Ð¾Ð²Ð°Ð»Ð¾": 4290,
      "Ð¾Ð²Ð°ÑĤÑĮÑģÑı": 4291,
      "ĠÑĤÑı": 4292,
      "ĠÑĤÑĢÐ¾": 4293,
      "ĠÑĤÐµÑģ": 4294,
      "ĠÑĤÐ°ÑģÐºÐ¸": 4295,
      "ÑĢÐ¾ÑĤÐ¸Ð²": 4296,
      "ĠÑĥÐ¼Ð¸": 4297,
      "ĠÑĩÐ¾Ðº": 4298,
      "ĠÑĩÐµÑģÑĤ": 4299,
      "Ð¾Ð»Ñĩ": 4300,
      "Ð¾Ð»Ð¾Ð³Ð¸": 4301,
      "Ð½Ð¸Ð²ÐµÑĢ": 4302,
      "Ð¾Ð´ÑĥÑĪ": 4303,
      "ĠÑĢÐµÐ´": 4304,
      "ĠÐ¿Ð¾ÑĪÐ»Ð°": 4305,
      "ĠÐĵÐ¾ÑĢ": 4306,
      "Ð°Ð¼ÐµÐ½ÑĤ": 4307,
      "Ð³Ð½ÑĥÐ»": 4308,
      "Ð¾ÑĤÐµÐº": 4309,
      "Ð½ÑĥÐ»Ð¾": 4310,
      "ĠÐ»ÐµÑĤÐ¾": 4311,
      "ĠÐ¾ÑĤÑĢÑĥÐ±": 4312,
      "ÐĶÐ¾Ð»Ð³Ð¾": 4313,
      "ĠÐ¿ÑĢÐ¾Ñĩ": 4314,
      "ĠÐ¿ÑĢÐ¾Ñī": 4315,
      "ĠÐ¿ÑĢÐ¾ÑħÐ¾Ð´": 4316,
      "ÐµÐ±Ð°": 4317,
      "ÑĢÑĥÑĪ": 4318,
      "ĠÐ¶ÐµÐ½Ð¸": 4319,
      "ĠÑħÐ»Ð¾Ð¿": 4320,
      "ĠÐ²ÑĭÐ¸Ð³ÑĢ": 4321,
      "Ð»ÑıÐ½": 4322,
      "ĠÐ¾Ð±Ð¸Ð¶": 4323,
      "ÐĿÐ¸ÑĩÐµÐ³Ð¾": 4324,
      "ĠÑģÐ»Ñİ": 4325,
      "Ð¡ÑĢÐµÐ´": 4326,
      "Ð¡ÑĤÑĢ": 4327,
      "Ð¡Ð¾Ð²ÐµÑĤÑĥÑİ": 4328,
      "ĠÑģÐ¿Ð°Ð»": 4329,
      "ĠÐľÐ°Ð¼Ð°": 4330,
      "ĠÑĢÐ°Ð·Ð½ÑĭÐµ": 4331,
      "ÑĭÐ²Ð°ÑĤÑĮÑģÑı": 4332,
      "Ð¸Ð¼Ð¾Ð¹": 4333,
      "ĠÐºÑĢÐµÑģÑĤ": 4334,
      "ĠÐ»Ð¸Ð±Ð¾": 4335,
      "ĠÐ¿Ð¾ÐºÐ°Ð¶": 4336,
      "Ð»ÑİÑģÑĮ": 4337,
      "ĠÐ²Ð¾ÑĪÐµÐ»": 4338,
      "ĠÑĢÑĥÐº": 4339,
      "ĠÐ»ÑİÐ±Ð²Ð¸": 4340,
      "ĠÐ¾Ð´Ð½Ð¾Ðº": 4341,
      "Ð¾ÑĢÐ¾ÑĪÐ°Ñı": 4342,
      "Ð¸ÑĢÐ¾Ð²Ð°ÑĤÑĮ": 4343,
      "Ð½Ð¸Ð¼Ð°ÑĤÑĮ": 4344,
      "ĠÐ¿Ð¾Ð¼Ð¾": 4345,
      "ĠÐ´Ð²ÐµÑĢ": 4346,
      "ĠÐ´Ð²Ð¸Ð¶": 4347,
      "ĠÐ±Ð¾Ð»ÑĮÐ½Ð¸Ñĩ": 4348,
      "ÑĥÑĢÑģ": 4349,
      "ĠÑĦÐ¸Ð³": 4350,
      "ÑĢÑĭÑĤÑĮ": 4351,
      "ĠÑĢÐ°Ð±Ð¾ÑĤÐµ": 4352,
      "ĠÐ¿Ð¾Ð²ÑĤÐ¾ÑĢ": 4353,
      "ĠÐ¿Ð¾Ð²ÐµÑĢÐ¸": 4354,
      "ĠÐºÐ¾ÑĤÐ¾ÑĢÑĭÑħ": 4355,
      "ĠÐ·Ð°Ð¼ÑĥÐ¶": 4356,
      "ĠÐºÐ¾Ð½ÑĤ": 4357,
      "ĠÐ±Ð»ÐµÑģÑĤ": 4358,
      "ĠÐĹÐ½Ð°ÑĩÐ¸ÑĤ": 4359,
      "ĠÐ½Ð°Ð¿ÑĢÐ°Ð²": 4360,
      "ÐłÐ°Ð±Ð¾ÑĤ": 4361,
      "ĠÑĥÐ¼ÐµÐ½ÑĮ": 4362,
      "ĠÐļÐ°ÐºÐ¾Ð¹": 4363,
      "ĠPuma": 4364,
      "ĠÐ²Ð¾Ð»ÑĪÐµÐ±Ð½Ð¸ÐºÐ¸": 4365,
      "ĠÑĤÑĢÐµÐ²": 4366,
      "ĠÐ¿Ð¾Ð·Ð¶Ðµ": 4367,
      "ĠÐ½Ð°ÑĪÐµÐ³Ð¾": 4368,
      "ĠÐ²ÐµÑīÐ¸": 4369,
      "ĠÐ¼Ð¾Ð»ÑĩÐ°": 4370,
      "Ð½ÑİÑİ": 4371,
      "ĠÐºÐ»Ð°ÑģÑģÐ½ÑĭÐ¹": 4372,
      "ĠÐ¿Ð¾ÑģÐ»ÐµÐ´Ð½ÐµÐµ": 4373,
      "ĠÐ¿Ð°Ð»ÐµÑĨ": 4374,
      "ĠÐ±Ð¾Ð¸ÑĤÑģÑı": 4375,
      "ĠÐ¿Ð¾ÑıÐ²Ð¸Ð»Ð°ÑģÑĮ": 4376,
      "ĠSony": 4377,
      "ĠÐ·Ð½Ð°ÐºÐ¾Ð¼ÑĭÐ¹": 4378,
      "ĠÐ¿Ð¾Ð¹Ð´Ñĥ": 4379,
      "ÑģÑĤÐ²ÐµÐ½Ð½Ð¾Ðµ": 4380,
      "ĠÐ²Ð½Ð¸Ð¼Ð°Ð½Ð¸Ðµ": 4381,
      "ĠÑĤÐµÑĤÑı": 4382,
      "ĠÐ»Ð°Ð¼Ð¿Ñĭ": 4383,
      "ĠÐºÐ°Ð±Ð¸Ð½ÐµÑĤÐµ": 4384,
      "ĠÐºÐ¾ÑĢÐ¾Ð±": 4385,
      "ĠÐ¿Ð¾ÑĩÑĥÐ²ÑģÑĤÐ²Ð¾Ð²Ð°Ð»Ð°": 4386,
      "ĠÐºÐ¸Ð²Ð½ÑĥÐ»Ð°": 4387,
      "ĠÑĤÐµÐ»ÐµÑĦÐ¾Ð½Ñĭ": 4388,
      "lay": 4389,
      "ĠÑģÐ¶Ð°Ð»": 4390,
      "ĠÐŁÐµÑĤÑĥÐ½Ð¸Ñı": 4391,
      "ĠÑħÐ¾ÑĢÐ¾ÑĪÐ°Ñı": 4392,
      "ĠÐ»ÑİÐ´ÐµÐ¹": 4393,
      "ĠÐ³Ð¾Ð²Ð¾ÑĢÑıÑĤ": 4394,
      "ĠÐĸÐ´Ñĥ": 4395,
      "ĠÐ²ÑģÐºÑĢÐ¸": 4396,
      "ĠÑģÑĤÑĢÐ°Ð´Ð°Ð½Ð¸Ñı": 4397,
      "ĠÐ²ÑģÑĤÐ°Ð»": 4398,
      "ĠÐ¾Ð±ÑīÐµÐ¼": 4399,
      "ĠÐ¿ÑĢÐµÐºÑĢÐ°ÑģÐ½Ð¾": 4400,
      "ĠÐĶÑĥÑĢÑģÐ»": 4401,
      "ĠÑģÐ¿Ð¾ÑģÐ¾Ð±Ð½Ð¾": 4402,
      "ĠÐ¿ÑĢÐ¾ÑĪÐµÐ¿ÑĤÐ°Ð»Ð°": 4403,
      "ĠÐ¿Ð¾Ð´Ð½ÑıÐ»ÑģÑı": 4404,
      "ĠÑĢÐ°Ð·Ð¼ÑĭÑĪ": 4405,
      "!!!": 4406,
      "ĠÐ¾Ð±ÑĢÐ°Ð·Ð¾Ð¼": 4407,
      "ĠÐ²Ð¾Ð»Ð½ÐµÐ½Ð¸Ñı": 4408,
      "ĠÐ¼Ð½Ð¾Ð³Ð¸Ðµ": 4409,
      "ĠÐ³Ð»Ð°Ð²Ð½Ð¾Ðµ": 4410,
      "ĠÐ¼Ð°ÑĢÐ¾Ð´": 4411,
      "ĠÑģÑĥÐ»ÑĤÐ°Ð½Ñĥ": 4412,
      "ĠÐŁÑĥÑģÑĤÑĮ": 4413,
      "ĠÐ¸ÑģÐºÑĥÑģÑģÑĤÐ²": 4414,
      "ĠÐ¼Ð³Ð½Ð¾Ð²ÐµÐ½Ð¸Ðµ": 4415,
      "ĠÐºÑĢÐµÑģÐ»Ð¾": 4416,
      "ĠÑĢÐ°ÑģÑĤÐµÑĢÑıÐ½Ð½Ð¾": 4417,
      "ĠÐ°Ð´ÑĢÐµÑģ": 4418,
      "ĠÐ´ÑĥÑĢÐ°ÑĨ": 4419,
      "ĠÐ²ÑģÐ¿ÑĭÑħ": 4420,
      "ĠÐĽÐ¾ÑĢÐ´": 4421,
      "ĠÐ¼ÐµÑģÑıÑĨ": 4422,
      "ĠÐļÑĢÐµÐ±Ð±": 4423,
      "ĠÐłÐ°ÑģÑģÐºÐ°Ð·ÑĭÐ²Ð°Ð¹": 4424,
      "ĠÑģÐ¾ÑĢÐ¾Ðº": 4425,
      "ÐĳÑĥÐ´ÑĥÑīÐµÐµ": 4426,
      "ÐĿÐ°Ð´ÑĳÐ¶": 4427,
      "ĠÑĢÐ°ÑģÑģÑĤÐ°Ð²Ð»Ñİ": 4428,
      "ĠÐ½ÐµÐ¾Ð±ÑħÐ¾Ð´": 4429,
      "ĠÐ¼Ð»Ð°Ð´ÐµÐ½": 4430,
      "ĠÑħÐ°ÑĢÐ°ÐºÑĤÐµÑĢ": 4431,
      "Ð¡Ð°Ð»ÑİÑĤ": 4432,
      "ĠÐ¼Ð°Ð³Ð°Ð·Ð¸Ð½": 4433,
      "ĠÐ¿ÑĥÐ½ÐºÑĤÐ¾Ð²": 4434,
      "ĠÐ¾ÑĦÐ¾ÑĢÐ¼Ð»Ñİ": 4435,
      "ĠÑĤÐºÐ°ÑĩÐ¸ÑħÐ°": 4436,
      "!)": 4437,
      "++": 4438,
      "an": 4439,
      "ok": 4440,
      "un": 4441,
      "ĠV": 4442,
      "Ð¾ÑĪ": 4443,
      "Ð»ÐµÐ½Ð½ÑĭÐ¹": 4444,
      "Ð½Ð°Ð»": 4445,
      "ÑıÐ»Ð¸ÑģÑĮ": 4446,
      "ÑıÑīÐµÐµ": 4447,
      "ĠÑģÐ½Ð°": 4448,
      "ĠÑģÐ°Ð¹": 4449,
      "ĠÑģÑħÐ¾Ð´": 4450,
      "ĠÑģÐ¾Ð¶Ð°Ð»": 4451,
      "ĠÑģÐ¾ÐºÑĢÐ¾Ð²": 4452,
      "ÑĩÐ½ÑĭÐ¹": 4453,
      "ÑĩÐ½Ð¾Ð³Ð¾": 4454,
      "ĠÐ½ÐµÑĢ": 4455,
      "ĠÐ²Ð½Ñĥ": 4456,
      "Ð²Ð°Ð»Ð°": 4457,
      "Ð²Ð¸Ð³": 4458,
      "Ð´Ð²Ð°": 4459,
      "ÑĤÐ¾Ðµ": 4460,
      "ĠÐ¾ÑĦ": 4461,
      "ÑĢÐ¸ÑĤÑĮ": 4462,
      "ĠÐºÐ»Ð°Ð´": 4463,
      "ÑģÑĤÐ¾Ð¼": 4464,
      "ÐµÐ½Ð´Ñĥ": 4465,
      "ĠÐ´Ð¾Ð²Ð¾Ð»ÑĮ": 4466,
      "ÐµÑĢÐºÐ°": 4467,
      "Ð¾Ð²ÑģÐµÐ¼": 4468,
      "ĠÑĤÑĢÐ°Ð²": 4469,
      "ĠÑĤÐ¸Ð¿": 4470,
      "ĠÐ¼Ð¾Ð´": 4471,
      "ĠÐ±Ð°Ð»": 4472,
      "ÑİÐ´Ð°": 4473,
      "ÑĢÐ¾Ð½": 4474,
      "ÑĢÐ¾Ð½Ñĥ": 4475,
      "ĠÑĥÑĪ": 4476,
      "ĠÑĥÑĤÑĢÐ°": 4477,
      "ĠÑĩÐµÐ¼Ñĥ": 4478,
      "Ð¾Ð»Ð´": 4479,
      "Ð»Ð¸ÑĨÐ°": 4480,
      "Ð¾Ð´Ð¾": 4481,
      "ĠÐ¿Ð¾Ð½ÑıÑĤÑĮ": 4482,
      "ĠÐ½Ð°Ñħ": 4483,
      "ĠÐ½Ð°ÑĪÐ¸Ñħ": 4484,
      "Ð³Ð»Ð¸Ð²Ð¾": 4485,
      "ÑĨÐ°ÑĢ": 4486,
      "ĠÐ»ÐµÐ²": 4487,
      "ĠÐ¾ÑĤÐ¾Ð·": 4488,
      "ÐºÐ¸Ð½Ñģ": 4489,
      "ĠÐĶÐ¾Ð´Ð¾": 4490,
      "ÐµÐ²Ð°ÑĤÑĮ": 4491,
      "ĠÐ³Ð½ÐµÐ²": 4492,
      "ĠÐ³Ð°Ð´Ð¾": 4493,
      "ĠÐ³ÑĢÑĭÐ·": 4494,
      "Ð°ÑĤÐµÐ¼": 4495,
      "Ð°ÑĤÑĢÐ¾Ð½Ñĥ": 4496,
      "ÐļÐ°Ð¼": 4497,
      "ÐļÑĥÐ´Ð°": 4498,
      "ĠÐ¿ÑĢÐ¸ÑĪÐ»Ð°": 4499,
      "Ð°Ð½Ð½ÑĭÐ¼": 4500,
      "Ð¾Ð½Ð¾Ð²": 4501,
      "ĠÐ¶Ð´Ñĥ": 4502,
      "ĠÐŁÐ¸Ð½Ð³": 4503,
      "ÐŁÐ¾Ð½": 4504,
      "ÐŁÐµÑĢÐµÐ´": 4505,
      "ĠÐĿÐŀ": 4506,
      "ĠÐĿÐ°ÐºÐ¾Ð½ÐµÑĨ": 4507,
      "ĠÐ²ÑĭÑĪÐ»Ð¸": 4508,
      "ĠÑĤÐ¾Ð½Ð¾Ð¼": 4509,
      "ĠÐ¿Ð¾Ð´Ð¾Ð·": 4510,
      "ĠÐ¿Ð¾Ð´Ð¼Ð¸Ð³": 4511,
      "ĠÐ¾Ð±ÐµÑģÐ¿Ð¾ÐºÐ¾": 4512,
      "ĠÐ°Ð¼Ñĥ": 4513,
      "ĠÐ·Ð°ÑģÑĤÐ°Ð²": 4514,
      "ÑĤÐ¸Ðµ": 4515,
      "ÑĤÐ¸Ñı": 4516,
      "Ð¾Ð·Ð´": 4517,
      "ĠÑģÐ¿Ð¸ÑĤ": 4518,
      "ÐµÐ¿ÑĤ": 4519,
      "Ð°ÑİÑīÐµ": 4520,
      "ĠÐłÐ¸Ð¼": 4521,
      "ÑĪÐ¸ÐµÑģÑı": 4522,
      "ĠÐ¿ÐµÑĢÐµÐ²": 4523,
      "ÐµÐ¶Ð¸ÑĤ": 4524,
      "ÑĢÐ°Ð²Ð¸Ð»ÑĮÐ½Ð¾": 4525,
      "ĠÐĺÐ´Ð¸": 4526,
      "ĠÐĳÐµÐ»ÑĭÐ¹": 4527,
      "ÑĭÑĪÐºÐ°": 4528,
      "ĠÐĽÐ¾Ð½Ð´": 4529,
      "ÑīÐ¸ÐµÑģÑı": 4530,
      "ĠÐ´ÑĢÑĥÐ³Ð¸Ð¼": 4531,
      "ĠÐ´ÑĢÑĥÐ³Ð¸Ðµ": 4532,
      "ĠÐ¾Ð´ÐµÐ¶Ð´Ñĥ": 4533,
      "ÐµÐ»Ð¸Ñĩ": 4534,
      "ĠÐ·Ð°ÐºÑĢÑĭÐ²": 4535,
      "ÐľÐ¸Ð¼Ð¾": 4536,
      "Ð¥Ð¾ÑĢÐ¾ÑĪÐ°Ñı": 4537,
      "ĠÑģÐ²Ð°Ð´ÑĮ": 4538,
      "ĠÐ§Ð¾": 4539,
      "ĠÑģÐºÐ»Ð¾Ð½": 4540,
      "ÑĤÐ°Ð½Ð°": 4541,
      "ĠÑĦÐ°Ðº": 4542,
      "ĠÐ³Ð»Ð°Ð·Ð°Ñħ": 4543,
      "ĠÐ¼Ð¾Ð³ÑĥÑĤ": 4544,
      "ĠÐ±Ð»Ð°Ð³Ð¾": 4545,
      "ĠÐĹÐ°ÑĤÐ¾": 4546,
      "ĠÐ¿ÑĢÐ°Ð²Ð¾": 4547,
      "ĠÐ¿ÑĢÐ°Ð²Ð¸Ð»": 4548,
      "ĠÐ¿ÑĢÐ°Ð²Ð¸Ð»ÑĮ": 4549,
      "ÑĥÑħÐ³Ð°Ð»": 4550,
      "ĠÐ¼Ð¸Ð³": 4551,
      "ĠÐ·Ð°Ð±ÑĭÐ²": 4552,
      "ĠÐ¸Ð¼Ñı": 4553,
      "ÐĽÑİÐ¿": 4554,
      "ĠÐ¾ÑĩÑĥÑĤ": 4555,
      "ĠÑĥÑĢÐ¾ÐºÐµ": 4556,
      "ÐµÑħÐ°Ð½Ð¸": 4557,
      "ĠÑĥÑģÐ¿ÐµÐ»Ð°": 4558,
      "ÐŃÑĤÐ¸": 4559,
      "ĠÑĩÐµÑĢÑĤ": 4560,
      "ĠÑĤÐ²Ð¾Ñİ": 4561,
      "ĠÑģÐ¼Ñĭ": 4562,
      "ĠÐ¾ÑģÑĤÐ°Ð»Ð°ÑģÑĮ": 4563,
      "Ð¼Ð¾ÐµÐ¼Ñĥ": 4564,
      "ÑĨÐ¸Ð¹": 4565,
      "ÑĨÐ¸Ð¾Ð½": 4566,
      "ĠÐ¿Ð¾ÑĢÑĤ": 4567,
      "ĠÐ´Ð¾Ð»Ð¶Ð½Ñĭ": 4568,
      "Ð»ÐµÐºÑĤ": 4569,
      "ÑıÐ³ÑĥÑĪ": 4570,
      "Ð²ÐµÑĢÐ´": 4571,
      "Ġ15": 4572,
      "ĠÐ¿Ð¾Ð¼Ð¾Ð³Ð°ÑĤÑĮ": 4573,
      "ÑıÑīÐ¸Ñħ": 4574,
      "ĠÑģÑĩÐ°ÑģÑĤÑĮÑı": 4575,
      "ĠÐºÑĢÐ¾Ð²Ð¸": 4576,
      "ĠÐ·Ð½Ð°ÐºÐ¾Ð¼Ð¾Ð³Ð¾": 4577,
      "ĠÐ¿Ð»Ð°Ñī": 4578,
      "ĠÐ»ÐµÐ¶Ð¸ÑĤ": 4579,
      "ĠÑĩÐ°ÑģÐ¾Ð²": 4580,
      "ÑĩÑĥÑĤÑĮ": 4581,
      "ĠÐ±ÑĢÐ¾ÑģÐ¸Ð»ÑģÑı": 4582,
      "ĠÐ¿Ð¾ÑĨÐµÐ»Ð¾Ð²": 4583,
      "ĠÐ²ÑĭÐ±ÑĢ": 4584,
      "ĠÐ¾ÑĤÐ²ÐµÑĩÐ°ÐµÑĤ": 4585,
      "ĠÐ²Ð¾Ð´Ð¸ÑĤÐµÐ»ÑĮ": 4586,
      "ĠÐ¼Ð°Ð»ÐµÐ½ÑĮÐºÐ¸Ð¹": 4587,
      "ĠÐ¿ÑĢÐ¾Ð¸ÑģÑħÐ¾Ð´": 4588,
      "ĠÐ·Ð°ÑīÐ¸ÑĤÐµ": 4589,
      "ĠÐ¿Ð¸ÑģÐ°ÑĤÑĮ": 4590,
      "ĠÐ¿ÑĢÐµÐºÑĢÐ°ÑĤ": 4591,
      "ĠÐ·Ð°ÑħÐ¾Ñĩ": 4592,
      "ĠÐ³Ð»ÑĥÐ¿ÑĭÐ¹": 4593,
      "ĠÐ´Ð¾Ð³Ð°Ð´Ð°Ð»ÑģÑı": 4594,
      "ĠÐ½Ð°ÑģÑĤÐ¾Ð»ÑĮÐºÐ¾": 4595,
      "ĠÐºÑĥÑĢÑģ": 4596,
      "ĠÐ´ÑıÐ´Ñİ": 4597,
      "ĠÐºÐ²Ð¸Ð´Ð´Ð¸ÑĩÑĥ": 4598,
      "ĠÐ·Ð°ÐºÐ¾Ð½ÑĩÐ¸Ð»": 4599,
      "ĠÐ¤Ð¸Ð»ÑĩÐ°": 4600,
      "ĠÐŁÐ°ÑĢÐºÐ¸Ð½Ñģ": 4601,
      "ĠÐ¿ÐµÑģÐ½Ñİ": 4602,
      "ĠÐ¾ÑģÑĤÑĢÐ¾Ð²": 4603,
      "ĠÐ²Ð¾Ð·ÑĢÐ°Ð·Ð¸Ð»Ð°": 4604,
      "Ð¾ÑĩÑĥÐ²ÑģÑĤÐ²Ð¸Ðµ": 4605,
      "ĠÐ¾Ð³Ð¾Ð½ÑĮ": 4606,
      "ĠÐ±Ð°ÑĤÐ¾Ð½ÑĩÐ¸": 4607,
      "ĠÐ´Ð¾ÐºÑĥÐ¼ÐµÐ½ÑĤ": 4608,
      "ĠÑĩÑĥÐ¶Ð¸Ðµ": 4609,
      "ĠÑĥÐ³Ð¾Ð»": 4610,
      "ĠÐ²ÑģÐºÐ¾ÑĩÐ¸Ð»": 4611,
      "ĠÐºÑĥÐ·": 4612,
      "ĠÐ¸Ð·Ð±Ð°Ð²": 4613,
      "ĠÐ¾ÑĢÐ³": 4614,
      "ĠÐ¿Ð¾Ð´ÑĥÑĪÐºÑĥ": 4615,
      "ĠÐ¿ÑĢÐµÐ¿Ð¾Ð´": 4616,
      "ĠÐ²Ð»Ð°Ð´Ñĭ": 4617,
      "ĠÑģÑĤÐµÑģÐ½Ñı": 4618,
      "ĠÐ¿Ð¾Ð´ÑĢÐ¾ÑģÑĤÐºÐ¾Ð²": 4619,
      "ĠÐĳÐ°ÑĢÑģ": 4620,
      "ĠÐ¾Ð±ÑģÑĥÐ´Ð¸ÑĤÑĮ": 4621,
      "ĠBMW": 4622,
      "ĠÐ²Ð¾Ð·Ð±ÑĥÐ¶Ð´": 4623,
      "ĠÐºÑĢÐ¾ÑģÑģÐ¾Ð²ÐºÐ¸": 4624,
      "ĠÐ³ÑĢÐ¸Ð¿Ð¿Ð¾Ð¼": 4625,
      "ĠÐ¾Ð´Ð½Ð¾ÐºÐ»Ð°ÑģÑģ": 4626,
      "ĠÐ¿Ð¾Ð¼Ð¾ÑīÐ¸": 4627,
      "ĠÐĶÑĥÑĢÑģÐ»ÐµÐ¹": 4628,
      "ĠÐŁÐ¸Ð½Ð³ÑĥÐ¹": 4629,
      "ÑĥÑħÐ³Ð°Ð»ÑĤÐµÑĢ": 4630,
      "ÐĽÑİÐ¿Ð¸Ð½": 4631,
      "ĠÐŁÐ°ÑĢÐºÐ¸Ð½ÑģÐ¾Ð½": 4632,
      "Sta": 4633,
      "ia": 4634,
      "le": 4635,
      "ĠX": 4636,
      "ĠÑĢÐ¾ÑģÑĤ": 4637,
      "ÐµÑı": 4638,
      "Ð¸Ð½ÑĥÐ»": 4639,
      "ÑģÐºÐ°Ñı": 4640,
      "ÑĢÑİ": 4641,
      "ÑĢÐ¾Ð¹": 4642,
      "ÑĢÐ°Ð¹": 4643,
      "ÑĥÐµÑĤÑģÑı": 4644,
      "ĠÐ¿Ð»Ñĭ": 4645,
      "ĠÐ¿Ð¾Ð²Ð°ÑĢÐ¸": 4646,
      "ĠÑģÑĥÐ¿": 4647,
      "ĠÑģÐ¾Ð±Ñĭ": 4648,
      "ĠÑģÐ¾Ð±ÑĢ": 4649,
      "ĠÑģÐ¾Ð³Ð»Ð°ÑģÐµÐ½": 4650,
      "ÐºÑģ": 4651,
      "ÐºÐ½ÑĥÐ»ÑģÑı": 4652,
      "ĠÐ²Ð°": 4653,
      "ĠÐ²ÐµÐ·": 4654,
      "Ð²Ð¾Ðº": 4655,
      "ĠÐ¾Ð´ÐµÑı": 4656,
      "ĠÐ¾ÑĨÐµÐ½": 4657,
      "Ð°Ð»Ð°ÑĤ": 4658,
      "ĠÐ¸ÑģÑĤ": 4659,
      "ÑĢÐ¸ÐºÐ°": 4660,
      "ÑģÑĤÑĢÐ°": 4661,
      "ĠÐ´Ð°ÑĤÑĮ": 4662,
      "ÑħÑĥ": 4663,
      "ÑħÐµÐ¹": 4664,
      "ÐµÑĢÑĤÐ²": 4665,
      "Ð¾Ð²Ð°Ð»Ð°ÑģÑĮ": 4666,
      "ĠÑĤÐµÐ»Ð°": 4667,
      "ÑİÑīÐµÐµ": 4668,
      "Ð¿Ð¸": 4669,
      "ÑĢÐ¾Ñĩ": 4670,
      "ĠÑĥÐºÐ°Ð·": 4671,
      "ĠÑĩÐµÑĤ": 4672,
      "ĠÐ·ÑĢÑı": 4673,
      "ĠÐ½ÐµÑħ": 4674,
      "ĠÐ½ÐµÑĩÑĤÐ¾": 4675,
      "Ð½Ð¸ÑĪÑĮ": 4676,
      "Ð¶Ð°Ð»": 4677,
      "Ð»Ð¸Ð±Ð¾": 4678,
      "ÐµÐ¼ÑģÑı": 4679,
      "ÐµÐ¼Ð¾Ð½": 4680,
      "ĠÐ¿Ð¾ÑĢÐ¾Ñģ": 4681,
      "ĠÐ¿Ð¾Ð½ÑıÑĤ": 4682,
      "Ð¾ÑĤÑı": 4683,
      "Ð¾ÑĢÐ°": 4684,
      "ÐµÐ´Ð¸Ð½": 4685,
      "Ð¾Ð¶ÐµÑĪÑĮ": 4686,
      "Ð¾Ð±ÐµÐ½Ð½Ð¾": 4687,
      "ĠÐ¿ÑĢÐ¾Ð½": 4688,
      "ÑĳÐº": 4689,
      "ĠÐ³ÑĥÐ´": 4690,
      "ĠÐ³Ð°Ð»Ðµ": 4691,
      "ĠÐ³ÑĢÐ°ÑĦ": 4692,
      "ĠÐ¿ÑĢÐµ": 4693,
      "ĠÐ¿ÑĢÐ¾Ð²Ð°Ð»": 4694,
      "ĠÐ¿ÑĢÐ¸ÑĪÐµÐ»": 4695,
      "ĠÐ¿ÑĢÐ¸Ð·Ð½Ð°": 4696,
      "Ð¾Ð½ÐºÑģ": 4697,
      "ĠÐ²ÑģÐµÐ¼Ñĥ": 4698,
      "ĠÐ¶ÐµÐ½Ð°": 4699,
      "ĠÐŁÐ¾Ð»": 4700,
      "ÐŁÐ¾Ð¿": 4701,
      "ĠÐ²ÑĭÑĢ": 4702,
      "ĠÐ²ÑĭÑģÑĤÐ°Ð²": 4703,
      "ĠÐ²ÑĭÑĢÐ°ÑģÑĤ": 4704,
      "ĠÐ¡ÐµÐ¹ÑĩÐ°Ñģ": 4705,
      "ĠÐ¿Ð¾Ð´Ð¶": 4706,
      "ĠÐ¿Ð¾Ð´Ð½ÑıÐ»Ð°": 4707,
      "ĠÐ¾Ð±Ð°": 4708,
      "ĠÐ¾Ð±Ð½ÑıÐ»": 4709,
      "ĠÐ¾Ð±ÑģÑĤÐ°Ð½Ð¾Ð²": 4710,
      "ÐµÐ½ÑĮÐºÐ¾": 4711,
      "ÐŀÐ½Ð¸": 4712,
      "Ð°Ð±Ð°ÑĢÐ¸": 4713,
      "ÑĤÐ¸Ñħ": 4714,
      "Ð²ÐµÑĤÑģÑĤÐ²": 4715,
      "ÐµÐ·Ð³Ð»Ð¸Ð²Ð¾": 4716,
      "ĠÑģÐ¿Ð°Ð»Ð°": 4717,
      "ĠÑģÐ¿Ð¸Ñģ": 4718,
      "Ð°Ð¹Ð¼Ñĥ": 4719,
      "Ð¾ÑĩÐ½Ð¾": 4720,
      "ĠÐľÐ°Ð³": 4721,
      "ĠÑĢÐ°Ð·Ð°": 4722,
      "ĠÐ¿ÐµÑĢÐµÐ¼": 4723,
      "ĠÐ¿ÐµÑĢÐµÑģÐ¿": 4724,
      "ÑģÐ¿ÑĢÐ¾Ñģ": 4725,
      "ÑģÐºÐ¾ÑĢ": 4726,
      "ÑĥÑİÑĤ": 4727,
      "ĠÑĪÑĤ": 4728,
      "ĠÐ´Ð¾ÑģÑĤÐ¸": 4729,
      "ĠÐ´Ð¾ÑģÑĤÐ°Ð²": 4730,
      "ĠÐ²Ð·Ð²": 4731,
      "Ð´Ð¾ÑĢÐ¾Ð²": 4732,
      "Ð¼ÐµÑĪ": 4733,
      "Ð¼ÐµÑıÐ»Ð°ÑģÑĮ": 4734,
      "ÑĢÑıÑħ": 4735,
      "ĠÑģÐ°Ð¼Ð¾Ð¼Ñĥ": 4736,
      "ĠÐ´ÐµÐ²ÑģÑĤÐ²ÐµÐ½": 4737,
      "ĠÑĢÐ°ÑģÑģÐ»Ð°Ð±": 4738,
      "ĠÑĢÑĥÐºÐµ": 4739,
      "ĠÐ»ÑİÐ±ÑıÑĤ": 4740,
      "ĠÐ¥Ð²Ð¾ÑģÑĤÐ°": 4741,
      "ÐľÐ½Ð¾Ð³Ð¾": 4742,
      "Ð¥ÐµÐ¹": 4743,
      "ĠÐ¡Ð½ÐµÐ¹Ð¿Ñĥ": 4744,
      "ĠÐ¡Ð½ÐµÐ¹Ð¿Ð¾Ð¼": 4745,
      "ĠÐ¿Ð¾Ð¼Ð¾ÑĢÑī": 4746,
      "ĠÐ¼Ð¾Ð¸Ñħ": 4747,
      "ĠÐ¾Ð¿ÑĭÑĤ": 4748,
      "ĠÑģÐ¾Ð²ÑĢÐµÐ¼": 4749,
      "ĠÑĥÑĩÐ¸ÑĤÑĮÑģÑı": 4750,
      "ĠÐ¸Ð½ÑģÑĤ": 4751,
      "ĠÐ½Ð¸ÐºÐ¾Ð¼Ñĥ": 4752,
      "ĠÐ±ÑĢÐ°Ðº": 4753,
      "ĠÐ±ÑĢÐµÐ·Ð³Ð»Ð¸Ð²Ð¾": 4754,
      "ÑĤÐµÑģÑĮ": 4755,
      "ĠÐ²ÐµÑĢÐ½ÐµÐµ": 4756,
      "Ð²ÑĭÑĢ": 4757,
      "ĠÐ½ÐµÐ¼Ð½Ð¾Ð¶": 4758,
      "ĠÐ·Ð°Ð¿ÑĢÐµÑī": 4759,
      "ĠÐŁÐ¾ÑĪÑĳÐ»": 4760,
      "ĠÑĥÑĢÐ¾ÐºÐ°Ñħ": 4761,
      "ĠÑĥÑģÐ¿ÐµÑĪ": 4762,
      "ĠÑĤÑĢÐµÑģ": 4763,
      "ĠÐŁÐ¾ÑĤÐ¾Ð¼": 4764,
      "ĠÑĢÐ°ÑģÑģÐ¼ÐµÑıÐ»ÑģÑı": 4765,
      "ĠÐ½Ð°ÑĪÑĥ": 4766,
      "ĠÑģÐ¼ÐµÑĪÐ½Ð¾": 4767,
      "ĠÐºÐ¾Ð¼Ð½Ð°ÑĤÐ°": 4768,
      "ÑĢÐ¸Ð²Ð¸Ð»ÑģÑı": 4769,
      "Ð»ÐµÑĤÐµÐ»": 4770,
      "ĠÐ¶ÐµÐ½Ñī": 4771,
      "ĠÐ¿ÑĢÐ¾Ð´Ð¾Ð»Ð¶Ð¸Ð»": 4772,
      "Ð»Ð¸Ð²ÑĭÐ¹": 4773,
      "ĠÐ¿ÑĢÐ¾Ð³Ð¾Ð²Ð¾ÑĢÐ¸Ð»Ð°": 4774,
      "Ð½ÑĥÑĤÑĭÐ¹": 4775,
      "ĠÐºÐ°ÑĢÑĤ": 4776,
      "ĠÑĥÐ¿Ð°Ð»Ð°": 4777,
      "ÐļÐ»Ð°ÑģÑģÐ½Ð¾": 4778,
      "ĠÑģÐ¼Ð¾ÑĤÑĢÐµÐ»Ð¸": 4779,
      "ĠÐ¿ÑĭÑĤÐ°ÑıÑģÑĮ": 4780,
      "ĠÐ¿ÑĢÐ¸Ð²ÑĭÑĩÐºÑĥ": 4781,
      "ĠÑģÐµÐºÑģ": 4782,
      "ĠÐ´ÐµÑĤÐµÐ¹": 4783,
      "ĠÐ¾ÑĤÐ¿ÑĥÑģÐº": 4784,
      "ĠÐ²Ð½Ð¸Ð¼Ð°ÑĤÐµÐ»ÑĮÐ½Ð¾": 4785,
      "ĠÐ¿Ð¾Ð²ÐµÑĢÐ½ÑĥÐ»Ð°ÑģÑĮ": 4786,
      "ĠÐ¾ÑĤÐ²ÐµÑĩÐ°Ð»": 4787,
      "ĠÐ²ÑģÑıÐºÐ¾Ð¼": 4788,
      "ĠÐ²ÑĢÐ°ÑĩÐ°": 4789,
      "ĠÑĢÐ°ÑģÑģÐºÐ°Ð·Ð°Ð»": 4790,
      "Ð¤Ð°Ð½ÑĤÐ°ÑģÑĤÐ¸": 4791,
      "ĠÑģÐ¿Ð°Ð»ÑĮÐ½Ð¸": 4792,
      "ĠÑģÐ¿Ð°Ð»ÑĮÐ½Ðµ": 4793,
      "ĠÑģÑĭÐ½Ð°": 4794,
      "ĠÑħÐ²Ð°ÑĤÐ°ÐµÑĤ": 4795,
      "ĠÐ³Ð»ÑĥÐ¿Ð¾": 4796,
      "ĠÑģÐ»ÑĥÑĪÐ°Ð»": 4797,
      "ĠÑģÐ»ÑĥÑĪÐ°ÑĤÑĮ": 4798,
      "ĠÐ±ÑĭÑģÑĤÑĢÑĭÐ¹": 4799,
      "Ð»Ð¾Ð³Ð°": 4800,
      "Ð²Ð¸Ð½Ð¸": 4801,
      "ÑĪÐµÐ³Ð¾ÑģÑı": 4802,
      "ÑĩÐ°ÑıÐ½Ð½Ð¾": 4803,
      "ĠÐºÑĥÑĢÑĤ": 4804,
      "ĠÐ´Ð¾Ð±Ð°Ð²Ð¸Ð»": 4805,
      "ĠÐ¼ÐµÑĪÐ¾Ðº": 4806,
      "ĠÐ·Ð°ÑīÐ¸ÑĤÑĭ": 4807,
      "ĠÐ¾ÑħÑĢÐ°Ð½": 4808,
      "ĠÑģÐ»Ð°Ð±Ð¾ÑģÑĤÑĮ": 4809,
      "ĠÐ´ÑĢÐ¾Ð¶Ð°Ñī": 4810,
      "ĠÐ¿Ð°ÑĢÐ¾Ð»ÑĮ": 4811,
      "ĠÐºÐ¾Ð½ÑĨÐµÑĢ": 4812,
      "ĠÐ¿ÑĢÐ¾ÑĩÐ¸ÑĤÐ°Ð»": 4813,
      "ĠÐ¿ÑĢÐ¾ÑĩÐ¸ÑĤÐ°ÑĤÑĮ": 4814,
      "ĠÐ½Ð°Ð´ÐµÑİÑģÑĮ": 4815,
      "ĠÐ¿Ð¸ÑģÑĮÐ¼Ð¾": 4816,
      "ĠÑģÑĩÐ°ÑģÑĤÐ»Ð¸": 4817,
      "ĠÐ¿ÑĢÐ¸Ð³Ð»Ð°Ñģ": 4818,
      "ĠÑĪÐµÐ¿Ð¾ÑĤÐ¾Ð¼": 4819,
      "ĠÐ²ÑĤÐ¾ÑĢÐ¾Ð¹": 4820,
      "ĠÐ´Ð¸Ð²Ð°Ð½": 4821,
      "ĠÑģÐ¾Ð·Ð½Ð°": 4822,
      "ĠÐ¿Ð¾ÑĨÐµÐ»ÑĥÐ¸": 4823,
      "ĠÐ·Ð»Ð¾ÑģÑĤÐ¸": 4824,
      "ĠÐ±Ð»Ð¸Ð·Ð½ÐµÑĨÐ¾Ð²": 4825,
      "ĠÑģÑĥÐ»ÑĤÐ°Ð½Ð°": 4826,
      "ĠÑģÑĤÑĥÐ¿ÐµÐ½ÑĮ": 4827,
      "ĠÐ¾Ð±Ð¾ÑĢÐ¾ÑĤÐµÐ½ÑĮ": 4828,
      "ĠÑģÐ¸Ð¼Ð¿": 4829,
      "Ð¶ÐµÐ½ÐµÑĢ": 4830,
      "ĠÑĥÑģÐ¿ÐµÑħÐ¸": 4831,
      "ĠÐ±Ð»ÑİÐ´Ð¾": 4832,
      "ĠÐ¿ÑĩÐµÐ»Ð¾Ðº": 4833,
      "ĠÐ¼Ð°ÑħÐ½ÑĥÐ»": 4834,
      "ÐľÐ¾Ð»Ð¾Ð´ÐµÑĨ": 4835,
      "ĠÐ¸Ð½ÑĦÐ¾ÑĢÐ¼Ð°ÑĨÐ¸Ñİ": 4836,
      "ĠÐ¿Ð¾ÐºÐ¾ÑģÐ¸Ð»ÑģÑı": 4837,
      "ĠÐ¿Ð¾Ð¼Ð¾ÑīÑĮ": 4838,
      "ĠÐ»ÐµÐºÐ°ÑĢÑģÑĤÐ²Ð°": 4839,
      "ĠÐºÐ°ÑĦÐµ": 4840,
      "ÐĴÐºÑĥÑģÐ½Ð¾": 4841,
      "ĠÑĢÐ¾Ð¶Ð´ÐµÐ½Ð¸Ñı": 4842,
      "ĠÑĤÐ¾ÑĪÐ½Ð¾ÑĤÐ°": 4843,
      "ĠÐľÐ¸Ð½ÐµÑĢ": 4844,
      "ÐĴÑĭÑģÐ¾Ðº": 4845,
      "ĠÑĥÐ¼ÐµÐ½ÑĮÑĪ": 4846,
      "ĠÐ¼Ð°ÑĢÐ¾Ð´ÐµÑĢÐ¾Ð²": 4847,
      "ĠÐĳÐ°ÑĢÑģÐµÐ»Ð¾": 4848,
      "ĠÐ½ÐµÐ¼Ð½Ð¾Ð¶ÐºÐ¾": 4849,
      "!..": 4850,
      "!),": 4851,
      "ks": 4852,
      "ĠÑĢÐ¾Ñģ": 4853,
      "Ð¸ÐºÐ¸": 4854,
      "Ð¸ÑĩÐµÑģÐºÐ¸": 4855,
      "ÑĢÐµÑģÑģ": 4856,
      "Ð»ÑİÐ±": 4857,
      "Ð½ÐµÐ½Ð¸Ñı": 4858,
      "ÑĥÐºÐ¸": 4859,
      "ÑıÑīÐ¸Ð¹": 4860,
      "ĠÐ¿ÑĤÐ¸": 4861,
      "ĠÐ¿Ð¾Ð»ÑĮÐ·": 4862,
      "ĠÐ¿Ð»Ð¾Ñī": 4863,
      "ĠÐ¿ÑģÐ¸Ñħ": 4864,
      "ĠÑģÐ»Ð¸Ð·": 4865,
      "ĠÑģÐ¾ÑĩÑĥÐ²ÑģÑĤÐ²": 4866,
      "ÑĩÐ°Ð¹": 4867,
      "ÑĩÐ°Ð»ÑģÑı": 4868,
      "ĠÐ½Ð¾Ð¼": 4869,
      "ĠÐ½Ð¾ÑĢ": 4870,
      "ÐºÐ°Ð»": 4871,
      "ÐºÐ°Ð»Ð¸": 4872,
      "ĠÐ²Ð¾Ð½": 4873,
      "ĠÐ²ÐµÐ¶": 4874,
      "ĠÐ²ÑıÐ·": 4875,
      "Ð¼Ð°ÑĤ": 4876,
      "ÑĪÐ°Ð²": 4877,
      "ĠÐ¸Ð´Ð¸": 4878,
      "ÐµÐ½Ð½Ð°": 4879,
      "ĠÐ´ÐµÐ½": 4880,
      "ĠÐ´ÐµÑĪ": 4881,
      "ÐµÑĤÑĥ": 4882,
      "ÐµÑĤÐ½Ð¾": 4883,
      "ÐµÑĤÐµÐ»": 4884,
      "ĠÑĤÑıÐ¶": 4885,
      "ĠÐ¼Ð¸Ð»Ð¾": 4886,
      "ĠÐ±Ð¾Ð¹": 4887,
      "Ð¿Ð¾Ð»": 4888,
      "ÑĢÐ¾ÑĤ": 4889,
      "Ð±Ð¾ÑĤ": 4890,
      "Ð°ÑĢÐ¾Ð¼": 4891,
      "Ð°ÑĢÑĪÐ°Ð²": 4892,
      "ĠÐ½ÐµÑĩÐ°ÑıÐ½Ð½Ð¾": 4893,
      "ĠÐ¿Ð¾ÑģÑĤÐ°Ð²": 4894,
      "ĠÐ¿Ð¾ÑĤÑı": 4895,
      "ĠÐ¿Ð¾ÑģÑĤÑĥÐ¿": 4896,
      "ÑīÑĥÐ¿": 4897,
      "Ð¾ÑĤÐ½Ð¾": 4898,
      "ÐµÐ´Ð»Ð¸Ð²Ð¾": 4899,
      "ĠÐ»Ð±Ñĥ": 4900,
      "ĠÐ¾ÑĤÐºÐ°Ð·": 4901,
      "ĠÑįÐ»ÐµÐºÑĤ": 4902,
      "ĠÐ¿ÑĢÐ¾ÑģÑĮ": 4903,
      "Ð°ÑĤÐ¸Ð»": 4904,
      "ĠÐ¿ÑĢÐµÐ¼": 4905,
      "ĠÐ¿ÑĢÐ°Ð·Ð´": 4906,
      "ÑĢÑĥÐ½": 4907,
      "ĠÐ¿ÑĢÐ¸Ñĩ": 4908,
      "Ð¸Ð²Ð°Ð»Ð°": 4909,
      "ÑĪÑĮÑģÑı": 4910,
      "ĠÐŁÐµÑĢ": 4911,
      "Ð²Ð¾Ðµ": 4912,
      "ĠÑħÐ»": 4913,
      "ĠÑħÐ¼Ñĭ": 4914,
      "ĠÑħÐ¾ÑħÐ¾ÑĤ": 4915,
      "ÑĦÐ¸Ð³": 4916,
      "ĠÑģÑĤÐ¾Ð¼": 4917,
      "ĠÐ²ÑĭÐ²": 4918,
      "ĠÐ²ÑĭÐ¹": 4919,
      "Ð¸Ð½ÑĤÐµÑĢÐµÑģ": 4920,
      "Ð»ÑıÑĤ": 4921,
      "ÐĲÑħ": 4922,
      "ĠÐ¿Ð¾Ð´Ð¾Ð¹ÑĤÐ¸": 4923,
      "ĠÐ¿Ð¾Ð´ÑĢÑĥÐ¶": 4924,
      "ĠÐ¾Ð±ÑħÐ²Ð°ÑĤ": 4925,
      "ÑĢÐ°Ñħ": 4926,
      "ÐĿÐ°Ð²": 4927,
      "ÐĿÑĢÐ°Ð²": 4928,
      "ĠÐ·Ð°ÑħÐ²Ð°ÑĤ": 4929,
      "ÐŀÐ´": 4930,
      "Ð°Ð±Ð»ÐµÑĤ": 4931,
      "ĠÑģÐ»ÑĥÐ¶": 4932,
      "ĠÑģÐ»Ð°Ð´Ð¾": 4933,
      "ĠÐ½Ð¸ÐºÑĥÐ´Ð°": 4934,
      "ĠÑģÐ¿ÑıÑĤ": 4935,
      "ĠÐĴÑģÑĳ": 4936,
      "ĠÐĴÐ°ÑĢÑĪÐ°Ð²": 4937,
      "Ð½ÑıÐµÑĤ": 4938,
      "ÐµÑģÑĤÐ¸ÑĤÑĮ": 4939,
      "ĠÐľÐ¾": 4940,
      "ĠÐľÐµÐ½Ñı": 4941,
      "ĠÑĢÐ°Ð·Ñĥ": 4942,
      "ĠÑĢÐ°Ð·Ð³Ð»ÑıÐ´": 4943,
      "Ð°Ð»Ð¸Ð·Ð°": 4944,
      "Ð°Ð»ÑĮÐ½Ð¾Ð¹": 4945,
      "ĠÐ¿ÐµÑĢÐµÐ½": 4946,
      "ĠÐ¿ÐµÑĢÐ³": 4947,
      "ÑģÐºÐ¾ÑĢÐµ": 4948,
      "Ð¾Ð²Ð¾Ðµ": 4949,
      "ĠÑĥÐ¶Ð¸Ð½": 4950,
      "Ð¸Ð·Ð½ÐµÑģ": 4951,
      "Ð´Ð¾ÑĢÐ¾Ð²Ð¾": 4952,
      "Ð¸ÑģÑĤÐ¾": 4953,
      "ĠÐĳÐ°Ð±Ð°ÑĢÐ¸": 4954,
      "Â»!": 4955,
      "ÑĢÑıÐ¼": 4956,
      "ĠÐ²Ð¸Ð´Ð¸ÑĤ": 4957,
      "ĠÑģÐ°Ð¼Ð¾": 4958,
      "ĠÐ¾Ð´Ð½Ð¾Ð²": 4959,
      "ÐĹÐ°ÑĩÐµÐ¼": 4960,
      "ÑģÑĤÑĢÐµÐ±": 4961,
      "Ð¸ÑĢÐ°Ð»ÑģÑı": 4962,
      "ĠÐ·Ð°ÐºÐ¾Ð½": 4963,
      "ÐľÐ¾Ñī": 4964,
      "ĠÑģÐ²Ð¸ÑĤ": 4965,
      "Ð½Ð¸Ð¼Ð°Ð»": 4966,
      "ĠÐ¿Ð¾Ð¼ÐµÑĪ": 4967,
      "ĠÐ¿Ð¾Ð¼Ð¾Ð¶ÐµÑĤ": 4968,
      "ĠÐ§ÐµÐ³Ð¾": 4969,
      "ĠÑģÐºÑĢÐ¾Ð¼": 4970,
      "ĠÑĦÐ°Ð½ÑĤ": 4971,
      "ĠÑĦÑĭÑĢ": 4972,
      "ÑĢÑĭÐ»Ð°": 4973,
      "ĠÐķÐ¹": 4974,
      "ĠÐ¿Ð¾ÑģÐ¼Ð¾ÑĤÑĢÐ¸": 4975,
      "ĠÑĢÐ°Ð±Ð¾ÑĤÐ°ÑĤÑĮ": 4976,
      "ĠÐĶÐ°Ð¼Ð±Ð»Ð´Ð¾ÑĢÑĥ": 4977,
      "ĠÐ¿ÑĢÐ¾ÑĦÐµÑģÑģÐ¾ÑĢÑĥ": 4978,
      "ÐĳÐ¾Ð»ÑĮÐ½Ð¾": 4979,
      "ĠÐ½Ð°Ð¿ÑĥÐ³": 4980,
      "ĠÐ¸ÑģÐ¿Ð¾Ð»Ð½": 4981,
      "ĊĊĊ": 4982,
      "ĠÐ¿ÑĥÐ³": 4983,
      "ĠÐ½ÑĥÐ¶Ð½ÑĭÐµ": 4984,
      "ĠÐ½Ð°ÑĩÐ°Ð»Ð¸": 4985,
      "ĠÑĥÐ¼Ð¾Ð»": 4986,
      "ĠÐ½ÐµÐ¿Ð¾Ð½": 4987,
      "ĠÐ·Ð°Ð±Ð¾Ð»": 4988,
      "ĠÐ¡Ð¸Ð¼Ñĥ": 4989,
      "ÐµÑĨÐ¸": 4990,
      "ĠÐ²Ð¾Ð»ÑĪÐµÐ±Ð½ÑĭÐ¹": 4991,
      "ĠÐ½ÐµÐ´Ð¾Ð²Ð¾Ð»ÑĮÐ½Ð¾": 4992,
      "ĠÑģÐ»Ð¾Ð²Ð°Ð¼Ð¸": 4993,
      "ĠÐŁÐ¾ÑĤÐ¾Ð¼Ñĥ": 4994,
      "ĠÑĥÐ±ÐµÐ´": 4995,
      "ĠÑĩÑĥÐ²ÑģÑĤÐ²ÑĥÑİ": 4996,
      "ĠÑĩÑĥÐ²ÑģÑĤÐ²Ð¾Ð²Ð°Ð»Ð°": 4997,
      "ĠÐ¿Ð¾Ð·Ð²Ð°Ð»": 4998,
      "ĠÐ²Ð¿Ð¾Ð»": 4999,
      "ĠÐ²Ð¿ÐµÑĢÐµÐ´": 5000,
      "ĠÐ¿Ð¸Ð¶": 5001,
      "ĠÑĥÐ´Ð¸Ð²Ð»Ñı": 5002,
      "Ð¸ÑĤÐµÐ»ÑĮÐ½ÑĭÐ¹": 5003,
      "ĠÑĤÐµÐ»Ð¾Ð¼": 5004,
      "ĠÐ²ÑģÑĤÑĢÐµÑĩÐ¸": 5005,
      "ĠÐ±ÐµÐ´Ð½ÑĭÐ¹": 5006,
      "ĠÐ±ÐµÐ´Ð½Ð°Ñı": 5007,
      "ĠÐºÐ½Ð¸Ð³Ðµ": 5008,
      "ĠÑĥÐ¿Ð°Ð»": 5009,
      "Ð¾Ð¶Ð´ÑĮ": 5010,
      "ĠÐ¸Ð³ÑĢÐ°ÑĤÑĮ": 5011,
      "ĠÐ¿Ð¾ÑıÐ²Ð¸Ð»Ð¸ÑģÑĮ": 5012,
      "ĠÐ¼Ð°ÑĤÑĥÑĪÐºÐ°": 5013,
      "ĠÐ¿ÑĢÐ¾Ð²ÐµÐ´": 5014,
      "ĠÑĪÐºÐ¾Ð»Ñĥ": 5015,
      "ĠÐ²ÑĭÐ¿Ð¾Ð»": 5016,
      "ĠÐ·ÐµÐ¼Ð»Ðµ": 5017,
      "ĠÐ»ÐµÑĩÑĥ": 5018,
      "ĠÐ§ÐµÑĢÐµÐ·": 5019,
      "ĠÐ²Ð°Ð¶Ð½ÑĭÐµ": 5020,
      "ĠÑĤÐµÑĤÑĢÐ°Ð´": 5021,
      "ĠÑĥÐ´Ð¾Ð²Ð¾Ð»ÑĮÑģÑĤÐ²Ð¸Ñı": 5022,
      "ĠÐ³Ð¾ÑĤÐ¾Ð²Ð¸ÑĪÑĮ": 5023,
      "ĠÐ¿ÑĢÐ¾Ð¿ÑĥÑģÑĤÐ¸Ð»": 5024,
      "ĠÑĢÐ°Ð·Ð´ÑĢÐ°Ð¶": 5025,
      "ĠÐ¿Ð°Ð»Ð¾ÑĩÐºÐ¾Ð¹": 5026,
      "ĠÑħÐ²Ð°ÑĤÐ°Ð»Ð¾": 5027,
      "ĠÑģÑĩÐ¸ÑĤÐ°Ð»": 5028,
      "ĠÑģÐ¿Ð¾ÐºÐ¾Ð¹Ð½ÐµÐµ": 5029,
      "ĠÑģÐºÐ°Ð¶ÐµÑĤ": 5030,
      "ĠÑĥÐ¼ÐµÐµÑĪÑĮ": 5031,
      "ĠÐ³Ð¾Ð»Ð¾Ð´": 5032,
      "ĠÐ±ÑĭÐ²Ð°ÑİÑĤ": 5033,
      "ĠÐ²Ð¾ÑģÐºÐ»Ð¸ÑĨ": 5034,
      "ĠÐºÑĥÑĢÑģÐµ": 5035,
      "ĠÐ¸ÑģÐºÐ°ÑĤÑĮ": 5036,
      "ĠÐ·Ð»Ð¾Ð¹": 5037,
      "ĠÐ±ÐµÑģÐ¿Ð¾ÐºÐ¾Ð¹": 5038,
      "ĠÐ²ÐºÑĥÑģÐ½Ð¾": 5039,
      "ĠÐ¿ÑĢÐ¸Ð±Ð°Ð²": 5040,
      "ĠÐ¿Ð¾Ð»ÐµÐ·Ð½Ð¾": 5041,
      "ĠÐ½Ð°ÑĢÑĥÑĪ": 5042,
      "Ð¾Ð¹Ð´ÐµÑĤ": 5043,
      "ĠÐ¿ÑĢÐ¸ÑģÑĥÑĤÑģÑĤÐ²": 5044,
      "ĠÑīÐµÐºÐµ": 5045,
      "ÐļÑĢÑĥÑĤ": 5046,
      "ĠÐ½ÐµÐ±Ð¾Ð»ÑĮ": 5047,
      "ĠÐĶÑĥÑĢÑģÐ»Ð¸": 5048,
      "ĠÐ»ÑİÐ±Ð¸Ð¼ÑĭÐ¹": 5049,
      "ĠÐ¿Ð¸ÑģÑĮÐ¼Ð¾Ð¼": 5050,
      "ĠÑĤÐµÑĢÐ¿ÐµÑĤÑĮ": 5051,
      "ĠÐºÐ»Ð°ÑģÑģÐ°": 5052,
      "ĠÐ·Ð°Ð´ÑĥÐ¼ÑĩÐ¸Ð²Ð¾": 5053,
      "Ġ30": 5054,
      "ĠÐ´ÑĭÑĪÐ°ÑĤÑĮ": 5055,
      "ĠÑĤÐµÐ¿Ð»": 5056,
      "ĠÐ¾ÑĤÑģÑİÐ´Ð°": 5057,
      "ĠÑĢÐ°Ð·Ð³Ð¾Ð²Ð°ÑĢÐ¸Ð²Ð°ÑĤÑĮ": 5058,
      "ĠÐ¿ÑĢÐ¸ÐºÐ°Ð·Ð°Ð»": 5059,
      "ĠÐ¼Ð¸Ð½ÑĥÑĤÐºÐ°": 5060,
      "ĠÐ½ÐµÐ·Ð°Ð¼": 5061,
      "ĠÑģÑĤÐµÐ½Ñĥ": 5062,
      "ĠÐºÑĢÐ°Ð¹Ð½ÐµÐ¹": 5063,
      "ĠÐ½ÐµÐ´Ð¾ÑĥÐ¼": 5064,
      "ĠÐ¼ÑĥÐ·Ñĭ": 5065,
      "ĠÑģÑĤÐ°Ð²Ð¸ÑĤÑĮ": 5066,
      "ĠÐ¿Ð¾Ð¿ÑĢÐ¾ÑģÐ¸Ð»": 5067,
      "ĠÐ¾Ð±ÑĢÐ°Ð´Ð¾Ð²Ð°Ð»ÑģÑı": 5068,
      "Ð»Ð¸Ð¶Ð°Ð¹": 5069,
      "ĠÐ°Ð¿Ð¿Ð°ÑĢÐ¸ÑĢÐ¾Ð²Ð°ÑĤÑĮ": 5070,
      "ĠÐºÐ»Ð¸Ð½Ð¸ÐºÐµ": 5071,
      "ĠÐ±Ð°Ð±Ð¾Ð¹": 5072,
      "ĠÐ³Ð°ÑĢÐ¼Ð¾": 5073,
      "ĠÐºÑĢÐ¸ÑĩÐ°Ð»": 5074,
      "ĠÐ¾ÑĤÐ³Ð¾ÑĢÐ°Ð¶": 5075,
      "ĠÐĹÐ°Ð²ÑĤÑĢÐ°": 5076,
      "tion": 5077,
      "ÐŁÑĢÐ¾ÑģÑĤÐ¾Ð¹": 5078,
      "ĠÑģÐ¿ÑĥÑģÑĤÑı": 5079,
      "ĠÐ½Ð°Ð´ÑĳÐ¶Ð½ÑĭÐµ": 5080,
      "ĠÐ±ÑĥÐºÐ²": 5081,
      "ĠÐ¿ÑĢÑĭÑģÐ½ÑĥÐ»": 5082,
      "ĠÐ²ÑĭÐ½ÑĥÐ¶Ð´ÐµÐ½": 5083,
      "ÐĴÐµÑĩÐµÑĢÐ¾Ð¼": 5084,
      "ÐºÑĥÑĢÑģ": 5085,
      "Ð¡ÑĤÐ¾Ð¸ÑĤ": 5086,
      "ĠÐŀÑģÐ¾Ð±ÐµÐ½Ð½Ð¾": 5087,
      "Ð£ÑĩÐ¸ÑĤÐµÐ»ÑĮ": 5088,
      "ÐļÐ¾ÑĢÐ°Ð±": 5089,
      "ĠÐŁÐ¸Ð²Ð·": 5090,
      "ĠÐĳÐ¸Ð»Ð»ÑĮ": 5091,
      "ĠÐŁÐ¾ÑģÐ»ÑĥÑĪÐ°Ð¹": 5092,
      "laySta": 5093,
      "ĠÐ°Ð¼ÑĥÐ»ÐµÑĤ": 5094,
      "ĠÐ¿ÑĢÐµÐ¿Ð¾Ð´Ð°Ð²": 5095,
      "ĠÐ²Ð»Ð°Ð´ÑĭÐºÐ°": 5096,
      "ĠÐ³Ð°Ð»ÐµÐ¾Ð½Ð¾Ð²": 5097,
      "ÐĴÑĭÑģÐ¾ÐºÐ°Ñı": 5098,
      "ĠÐ¾Ð´Ð½Ð¾Ð²ÑĢÐµÐ¼ÐµÐ½Ð½Ð¾": 5099,
      "ÐľÐ¾ÑīÐ½ÑĭÐ¹": 5100,
      "layStation": 5101,
      "am": 5102,
      "ar": 5103,
      "od": 5104,
      "ook": 5105,
      "ĠF": 5106,
      "ĠI": 5107,
      "Ð¾ÑĤÐ¾": 5108,
      "Ð¾Ñİ": 5109,
      "Ð¸ÑĨÐµÐ¹": 5110,
      "ÑģÑĥÐ´": 5111,
      "ÑĢÐµÑģÑĤ": 5112,
      "Ð»Ð°Ð¼Ð¸": 5113,
      "Ð½ÑĳÑģ": 5114,
      "ÑĮÐ¸": 5115,
      "ÑıÐ»Ð¾": 5116,
      "ÑĭÐ»Ð¾": 5117,
      "ĠÐ¿Ð°Ð¿": 5118,
      "ĠÐ¿Ð°ÑĢÐ¸": 5119,
      "ĠÑģÐ½Ð¸": 5120,
      "ĠÑģÐ¾Ð³": 5121,
      "ĠÑģÐ¾Ðº": 5122,
      "ĠÑģÐ°Ð¿": 5123,
      "ĠÑģÑĥÐ±": 5124,
      "ĠÑģÐ¾Ð»Ð½": 5125,
      "ĠÑģÑħÐ¾Ð´Ð¸ÑĤÑĮ": 5126,
      "ĠÑģÐ¼Ð¾ÑĤÑĢÐ¸ÑĤ": 5127,
      "ÐºÐ°Ðº": 5128,
      "ĠÐ²Ð°ÑĪÐ¸": 5129,
      "ĠÐ²Ð°Ð½Ð½Ð¾Ð¹": 5130,
      "ĠÐ²ÐµÐ±Ð°": 5131,
      "Ð¼ÑģÑı": 5132,
      "Ð¼Ð°Ð½": 5133,
      "ĠÐ¾Ð»": 5134,
      "ĠÐ¾ÑģÑĤÐ°Ð²Ð»Ñı": 5135,
      "Ð°Ð»Ð¸Ð²": 5136,
      "Ð°Ð»ÐµÐº": 5137,
      "ĠÐºÑĢÐ¾": 5138,
      "ĠÐºÐ»Ñİ": 5139,
      "ĠÐ´Ð°ÐµÑĤ": 5140,
      "ĠÐ´ÐµÐ¶": 5141,
      "ÐµÑĢÑģÑĤ": 5142,
      "ÐµÑĢÐ¿": 5143,
      "ÐµÑĢÐµÐ½Ð½Ð¾": 5144,
      "ĠÑĤÑĥÐ¼": 5145,
      "ÐµÐ»Ðµ": 5146,
      "ÐµÐ»Ð°ÑģÑĮ": 5147,
      "ĠÐ±Ð°ÑĤ": 5148,
      "ĠÐ±Ð¸Ð±": 5149,
      "ĠÐ±Ð»ÑİÐ´": 5150,
      "ĠÐ±ÑĥÑħÐ³Ð°Ð»ÑĤÐµÑĢ": 5151,
      "ĠÑĥÑĢÐ¾Ð²": 5152,
      "ĠÑĥÐ½Ð¸Ð²ÐµÑĢ": 5153,
      "ĠÐ·Ð»Ð¸": 5154,
      "ĠÐ·Ð°Ð»Ðµ": 5155,
      "ĠÐ·Ð¸Ð¼Ð¾Ð¹": 5156,
      "Ð±Ðµ": 5157,
      "Ð±ÑĢÐ¸": 5158,
      "Ð°ÑĢÐ¾Ð²Ð°": 5159,
      "ĠÐ½ÐµÑģÐ¿": 5160,
      "ĠÐ½ÐµÑĥÐ´Ð°": 5161,
      "ĠÐ½ÐµÑĥÐ¶ÐµÐ»Ð¸": 5162,
      "ĠÐµÑİ": 5163,
      "Ð¶ÐµÑĤ": 5164,
      "Ð°ÑģÐº": 5165,
      "Ð»Ð¸Ð¾ÑĤÐµÐº": 5166,
      "Ð¾Ð´Ð¸": 5167,
      "ĠÑĢÐµÐº": 5168,
      "ĠÑĢÐµÑĨ": 5169,
      "ĠÐ¿Ð¾ÑĪÐ»Ð¸": 5170,
      "ĠÐ½Ð°ÑģÑĤÑĥÐ¿": 5171,
      "ÑĨÐµÐ¿": 5172,
      "ĠÐ»ÐµÑģ": 5173,
      "ĠÐ»ÐµÐ·": 5174,
      "Ð¾Ð¶Ð´Ðµ": 5175,
      "ÐºÐ¸Ð²": 5176,
      "Ð´Ð°Ñı": 5177,
      "ĠÐ³Ð»Ñı": 5178,
      "ĠÐ¿ÑĢÑıÑĤ": 5179,
      "ÐļÐ¾Ð¼": 5180,
      "ÐļÐ°ÑĢ": 5181,
      "ĠÐ¿ÑĢÐ¸Ð¿Ð¾Ð´": 5182,
      "Ð¸Ð²ÑĪÐ¸Ð¹ÑģÑı": 5183,
      "ĠÐ¶Ð¸Ð»Ð¸": 5184,
      "Ð¢ÐµÐ¿ÐµÑĢÑĮ": 5185,
      "ĠÐŁÑĢÐµÐ´": 5186,
      "ĠÐŁÑĢÐ¸Ð²": 5187,
      "ÐºÐ¾Ñģ": 5188,
      "ĠÐºÐ°ÐºÐ¸Ñħ": 5189,
      "ĠÐĿÐ°ÑĤ": 5190,
      "ĠÐ²ÑĭÑĤÐ°": 5191,
      "ĠÐ²ÑĭÐ³Ð»Ñı": 5192,
      "ĠÐ¡ÐµÐ³Ð¾Ð´Ð½Ñı": 5193,
      "ĠÐ¡Ð»Ð¸Ð·ÐµÑĢÐ¸": 5194,
      "ĠÐ¡Ð½Ð°ÑĩÐ°Ð»Ð°": 5195,
      "ĠÐ¡Ð¾Ð·Ð´": 5196,
      "Ð¸Ð½Ð°Ð»": 5197,
      "ĠÑĤÐ°ÐºÑĥÑİ": 5198,
      "ĠÐ°Ð±": 5199,
      "ÑģÑĤÐ²Ð¸Ðµ": 5200,
      "ÑĤÐ¸Ð±Ð¸": 5201,
      "Ð¡ÐµÑĢÑĮÑĳÐ·": 5202,
      "ĠÐŀÐºÐ°Ð·ÑĭÐ²Ð°ÐµÑĤÑģÑı": 5203,
      "ĠÑģÐ¿Ð¸Ð½Ð¾Ð¹": 5204,
      "ĠÐĴÐ¾Ð·Ð¼Ð¾Ð¶Ð½Ð¾": 5205,
      "Ð½ÑıÐ¼Ð¸": 5206,
      "ÑģÑĤÑĮÐµ": 5207,
      "ĠÐłÑıÐ´Ð¾Ð¼": 5208,
      "ĠÐľÐ°Ð¹Ð¼Ñĥ": 5209,
      "ÑĭÐ²Ð°ÐµÐ¼": 5210,
      "Ð§Ð¸ÑĤ": 5211,
      "ĠÐ¢Ð¾ÑĤ": 5212,
      "ĠÐ¢ÑĥÑĤ": 5213,
      "ĠÐ¢Ð¾Ð½ÐºÑģ": 5214,
      "ÑĢÐ¾ÑģÐ¸Ð»": 5215,
      "ĠÑģÐºÐ°Ð·Ð°Ð»Ð¸": 5216,
      "ĠÐ¿Ð¾Ð»Ð¾Ð³": 5217,
      "ĠÐ¿Ð¾Ð»Ð¾Ð²Ð¸": 5218,
      "Ð°Ð½Ð¸Ñİ": 5219,
      "Ð¸ÑģÐ¸ÑĤ": 5220,
      "ĠÐ²Ð¾ÑģÑĤÑĢÐµÐ±": 5221,
      "ĠÑģÐ¾Ð¾Ð±ÑĢÐ°Ð¶": 5222,
      "ÑħÐ¾Ð´Ð¸": 5223,
      "ĠÑģÐ°Ð¼Ð¾Ð¹": 5224,
      "ĠÑģÐ°Ð¼ÑĭÐ¼": 5225,
      "ĠÐ²Ð¾Ð·ÑĢÐ°Ð¶": 5226,
      "ĠÑĢÐ°ÑģÑģÐ¿ÑĢÐ¾Ñģ": 5227,
      "ĠÑĢÑĥÐ³": 5228,
      "Ð»Ð°Ð´ÑĭÐ²": 5229,
      "Ð¾Ð²Ð¾ÑĢÐ¸Ð¼ÑģÑı": 5230,
      "ĠÐŃÑĤÐ°": 5231,
      "ĠÐ¥Ð¾ÑĢÐ¾ÑĪ": 5232,
      "ÑģÑĤÑĢÐ°Ð´": 5233,
      "Ð¸ÑĢÑĤ": 5234,
      "ĠÐ·Ð°ÐºÐ»Ñı": 5235,
      "ĠÑģÑĤÐ¾ÑıÐ»Ð°": 5236,
      "ĠÐ²Ð¾Ð»Ð½Ñĥ": 5237,
      "ĠÑģÐ²Ð°ÑĤÑĮ": 5238,
      "ĠÑģÐ²Ð°ÑĢÐ¸": 5239,
      "ĠÑĩÑĤÐ¾Ð±": 5240,
      "ĠÑħÐ¾ÑĤÑıÑĤ": 5241,
      "ĠÐ´ÑĥÐ¼Ð°ÐµÑĤ": 5242,
      "ĠÐ¼Ð¾Ð³Ð»Ð¾": 5243,
      "ĠÐºÐ¾Ð½ÑĦ": 5244,
      "ĠÐĹÐ°Ð¿": 5245,
      "ĠÐĹÐ½Ð°ÐµÑĪÑĮ": 5246,
      "ĠÐ±ÑĢÐ°ÑĤÑĮ": 5247,
      "ĠÐ½Ð°Ð¿ÑĢÐ¸Ð¼ÐµÑĢ": 5248,
      "ĠÐ²ÐµÑĢÐ½ÑĥÐ»Ð°ÑģÑĮ": 5249,
      "ĠÐ¿ÑĢÐ°Ð²Ð°": 5250,
      "ĠÑĥÐ¼ÑĥÐ´": 5251,
      "ÐµÑħÐ°Ð»": 5252,
      "ĠÑĤÑĢÐ¾Ð³": 5253,
      "ĠÑĥÐ»ÑĭÐ±Ð°Ð»ÑģÑı": 5254,
      "ĠÐ¾ÑĤÐ²ÐµÑĢ": 5255,
      "ĠÑĥÐ±ÑĮÐµÑĤ": 5256,
      "ĠÐ·Ð°Ð´ÑĢ": 5257,
      "ĠÐ¿ÑĢÐ¾ÑĪÑĳÐ»": 5258,
      "ĠÑĤÐ²Ð¾Ð¸": 5259,
      "ĠÐºÐ¾Ð»Ð¾Ð½": 5260,
      "ĠÐ¾ÑģÑĤÐ°Ð½": 5261,
      "ĠÐ¾ÑģÑĤÐ°Ð»ÑģÑı": 5262,
      "ĠÐ½Ð°Ð¼Ð½Ð¾Ð³Ð¾": 5263,
      "ĠÐ½ÐµÐ²Ð¾Ð»ÑĮ": 5264,
      "ĠÑĥÐ´Ð¸Ð²Ð¸ÑĤÐµÐ»ÑĮÐ½Ð¾": 5265,
      "Ð¾Ð²Ð¾ÑĢÑıÑĤ": 5266,
      "ĠÑĥÐ¶Ð°ÑģÐ¾Ð¼": 5267,
      "ĠÐŁÐ¾ÑĤÑĤÐµÑĢÑĥ": 5268,
      "ĠÑĢÐµÑĪÐ¸ÑĤÐµÐ»ÑĮÐ½Ð¾": 5269,
      "ĠÐ¶Ð¸Ð²ÐµÑĤ": 5270,
      "ĠÐ¿Ð¾ÑģÐ»ÐµÐ´Ð½Ð¸Ðµ": 5271,
      "Ð´ÑĢÐ°Ð²Ð»ÑıÑİ": 5272,
      "Ġ12": 5273,
      "Ġ16": 5274,
      "ĠÑĩÐ¸ÑĤÐ°Ð»Ð°": 5275,
      "ĠÐ¾Ð±ÑĬÑıÑĤÐ¸": 5276,
      "ĠÐ±ÐµÑģÐºÐ¾": 5277,
      "ÑģÑĥÐ»ÑĮ": 5278,
      "ĠÐ½Ð¸ÐºÐ°ÐºÐ¾Ð¹": 5279,
      "ĠÐ¿Ð»ÐµÑĩÐ¾": 5280,
      "ĠÐ¿ÑĭÑĤÐ°Ð»Ð°ÑģÑĮ": 5281,
      "ĠÐ´Ð¾Ð³Ð¾Ð²Ð¾ÑĢÐ¸Ð¼ÑģÑı": 5282,
      "ĠÐºÐ°Ð¼Ð½Ð¸": 5283,
      "ĠÑĢÐµÐ°Ðº": 5284,
      "ĠÑĢÐ°Ð·Ð²Ð¸ÑĤÑĮ": 5285,
      "ĠÐ´ÐµÑĢÐ¶Ð°Ð»": 5286,
      "ĠÐ³ÑĥÐ±Ð°Ð¼Ð¸": 5287,
      "ĠÑģÐµÐºÑĢÐµÑĤ": 5288,
      "ĠÐ¿Ð¾Ð¹Ð´": 5289,
      "ĠÐ¸ÑģÐ¿ÑĥÐ³Ð°Ð»ÑģÑı": 5290,
      "ĠÐ»ÐµÐ¶Ð°Ñī": 5291,
      "ĠÐºÑĢÐ°ÑģÐ¸Ð²Ð°Ñı": 5292,
      "ĠÐ²ÐµÑģÑĮÐ¼Ð°": 5293,
      "ĠÐºÑĢÐ¸ÐºÐ½ÑĥÐ»Ð°": 5294,
      "ĠÐ²Ð·Ð³Ð»ÑıÐ´Ñĭ": 5295,
      "ĠÐ¿Ð¾Ð²ÐµÑĢÑħ": 5296,
      "ĠToyota": 5297,
      "ĠÐºÐ¾ÑĪÐºÐ¸": 5298,
      "ĠÐ¾Ð±ÑģÑĥÐ¶Ð´Ð°": 5299,
      "ĠÑģÐ¾Ð³Ð»Ð°ÑģÐ½Ð¾": 5300,
      "ĠÐ½ÐµÐ½Ð¾ÑĢÐ¼": 5301,
      "ĠÑĩÐµÐ»Ð¾Ð²ÐµÐºÐ°": 5302,
      "ÐŀÑĤÐ»Ð¸ÑĩÐ½Ð¾Ðµ": 5303,
      "Ð¥Ð¾ÑĢÐ¾ÑĪÐ¸Ðµ": 5304,
      "ĠÑĥÑĩÐµÐ±Ð½Ð¸Ðº": 5305,
      "ĠÑĨÐµÐ»ÑĭÐ¹": 5306,
      "ĠÑĢÐµÐ±ÑĳÐ½": 5307,
      "ĠÑģÑĤÐ¾Ð»Ð¾Ð¼": 5308,
      "ĠÑģÑįÑĢÐ¾Ð¼": 5309,
      "ĠÐ±ÑĭÑģÑĤÑĢÐµÐ½ÑĮÐºÐ¾": 5310,
      "ĠÐ¶Ð´ÐµÑĤ": 5311,
      "ĠÑĤÐ¾ÑĢÐ¶Ðµ": 5312,
      "ĠÐ²Ð¾Ð·Ð´ÑĥÑħÐ°": 5313,
      "ĠÐ³Ð¾ÑĢÑıÑĩ": 5314,
      "ĠÐ³Ð¾ÑĢÑıÑĩÐ¸": 5315,
      "ĠÐļÑĢÐ°ÑģÐ¾ÑĤÐºÐ¸": 5316,
      "ĠÐŁÐ¾Ð´ÑĤÐ²ÐµÑĢÐ¶": 5317,
      "ĠÑĥÑģÐ¿Ð¾ÐºÐ¾Ð¸ÑĤÑĮ": 5318,
      "ÑĪÐ¸Ð¼ÑģÑı": 5319,
      "ĠÐ»ÑİÐ±Ð¾Ð²ÑĮÑİ": 5320,
      "ĠÐ´Ð¾ÑģÑĤÐ°Ð»": 5321,
      "ĠÐ¶ÐµÐ½ÑīÐ¸Ð½Ñĥ": 5322,
      "Ð¾Ð¹Ð´Ñı": 5323,
      "ĠÐ¿ÑĢÐ¸Ð¶Ð¸Ð¼": 5324,
      "ÑİÑīÐµÐ³Ð¾": 5325,
      "ĠÑĥÑĩÐ¸ÑĤÐµÐ»Ñı": 5326,
      "ĠÐºÐ¾ÑģÐ½ÑĥÐ»Ð°ÑģÑĮ": 5327,
      "Ġ20": 5328,
      "ĠÐŁÐ°ÑĢÐ²Ð°ÑĤ": 5329,
      "ĠÐ¸ÑģÑĤÐ¾ÑĢÐ¸Ñı": 5330,
      "ĠÐ¸ÑģÑĤÐ¾ÑĢÐ¸Ñİ": 5331,
      "ÐŁÐ¾ÑĤÐ¾Ð¼": 5332,
      "ĠÐ³Ð¾ÑģÐ¿Ð¾Ð¶Ð°": 5333,
      "ÐĶÐ¾ÑĢÐ¾Ð³Ð¾": 5334,
      "ĠÑģÑĤÐ°ÑĢÐ¾ÑģÑĤ": 5335,
      "ĠÐ¿Ð¾Ð´Ð±Ð¾ÑĢÐ¾Ð´": 5336,
      "ĠÐ¿ÑĢÐµÐ´ÑģÑĤÐ°Ð²Ð»ÑıÐµÑĪÑĮ": 5337,
      "ĠÑİÑĢÐ¸ÑģÑĤ": 5338,
      "ĠÑģÐµÐºÑĥÐ½Ð´Ñĥ": 5339,
      "ĠÑģÐ¾ÑģÐµÐ´Ð°": 5340,
      "ĠÐ»ÑİÐ±Ð¾Ð¿ÑĭÑĤÑģÑĤÐ²Ð¾Ð¼": 5341,
      "ĠÐ³Ð»ÑĥÐ±Ð¾Ðº": 5342,
      "ĠÐ¾ÑĤÑĩÐ°ÑıÐ½Ð½Ð¾": 5343,
      "ĠÐ±Ð»Ð¸Ð·Ð½ÐµÑĨÑĭ": 5344,
      "Ð¡Ð¾Ð²ÑĢÐµÐ¼ÐµÐ½Ð½ÑĭÐ¹": 5345,
      "ĠÐ£Ð¸Ð·Ð»ÐµÐ¹": 5346,
      "ĠÐµÐ´Ð¸Ð½ÑģÑĤÐ²ÐµÐ½Ð½ÑĭÐ¹": 5347,
      "Ð°ÑĢÑĭÐ½Ñı": 5348,
      "ĠÐ±ÐµÑĢÐµÐ¼ÐµÐ½Ð½Ð°": 5349,
      "ĠÐ¼ÐµÑĩÑĤÐ°Ñİ": 5350,
      "ĠÐļÑįÐ´Ð¾Ð³Ð°Ð½Ð¾Ð¼": 5351,
      "ĠÐĳÐµÑĢÐ»Ð¸": 5352,
      "ĠÐ·Ð°ÐºÐ°Ð·Ð°Ð»": 5353,
      "ĠÐ·Ð°Ð²ÑĤÑĢÐ°Ðº": 5354,
      "ĠÐ¼Ð¾Ð»ÑĩÐ°Ð½Ð¸Ðµ": 5355,
      "ĠÐ·Ð°Ð¶Ð¼ÑĥÑĢÐ¸Ð»Ð°ÑģÑĮ": 5356,
      "ĠÐļÑĢÑĥÑĨÐ¸Ð¾": 5357,
      "ĠÐ´ÐµÑģÑıÑĤÑĮ": 5358,
      "ÐŁÐ¾Ð²ÐµÐ·Ð»Ð¾": 5359,
      "ĠÐ²Ð¸Ð½Ð¾Ð²Ð°ÑĤ": 5360,
      "ĠÐ³Ð¾ÑģÐ¿Ð¾Ð´Ð¸Ð½": 5361,
      "Ð£Ð´Ð¾Ð±Ð½ÑĭÐµ": 5362,
      "ĠÑģÑĥÑīÐµÑģÑĤÐ²": 5363,
      "ĠÐ¿Ð¾Ð¾Ð±ÐµÑīÐ°Ð»": 5364,
      "ÐĳÑĭÑģÑĤÑĢ": 5365,
      "ÐŀÑĤÐ´ÑĭÑħ": 5366,
      "ĠÐºÐ°Ð½Ð¸ÐºÑĥÐ»Ñĭ": 5367,
      "ĠÐ²Ð½ÑĥÑĤÑĢ": 5368,
      "ĠÑĤÐ¸Ð¿Ð°": 5369,
      "ĠÐĿÐŀÐ§": 5370,
      "ĠÐ¿Ð¾Ð²Ð°ÑĢÐ¸ÑħÐ¾Ð¹": 5371,
      "ĠÐ¿Ð¾Ð¼Ð¾ÑĢÑīÐ¸Ð»ÑģÑı": 5372,
      "ĠÐĳÐ°Ð±Ð°ÑĢÐ¸ÑħÐ¾Ð¹": 5373,
      "ĠÐ²Ð¿Ð¾Ð»Ð½Ðµ": 5374,
      "ĠÐ±Ð¸Ð±Ð»Ð¸Ð¾ÑĤÐµÐº": 5375,
      "ÑĤÐ¸Ð±Ð¸Ð¾ÑĤÐ¸": 5376,
      "ĠÐŁÐ¾Ð´ÑĤÐ²ÐµÑĢÐ¶Ñĥ": 5377,
      "Book": 5378,
      "or": 5379,
      "sun": 5380,
      "uc": 5381,
      "Ð¾Ð½Ðµ": 5382,
      "Ð¾ÑģÑĮ": 5383,
      "ÐµÐµÑĤ": 5384,
      "ÐµÑİ": 5385,
      "ÐµÐµÑĪÑĮ": 5386,
      "ÐµÑĪÐµ": 5387,
      "ÑĤÐµÐ»ÑĮ": 5388,
      "Ð¸ÑĪ": 5389,
      "Ð¸Ð½Ð¾": 5390,
      "ÑĢÑĮ": 5391,
      "ÑĢÑĩ": 5392,
      "Ð»ÑĥÑĪ": 5393,
      "Ð½Ð°Ð²": 5394,
      "Ð½Ð¾Ð²Ð°": 5395,
      "Ð½ÐºÐµ": 5396,
      "ĠÑģÑĥÐ´ÑĮ": 5397,
      "ĠÑģÑĢÐ¾ÑĩÐ½Ð¾": 5398,
      "ÑĩÐ½ÑĭÐµ": 5399,
      "ĠÐ½ÐµÐ³": 5400,
      "ĠÐ½ÐµÑĢÐ²": 5401,
      "ĠÐ²ÑĤÐ¾": 5402,
      "ĠÐ²ÑħÐ¾Ð´": 5403,
      "ĠÐ²ÑģÑĤÐ°Ð²": 5404,
      "ĠÐ²Ð²ÐµÑĢ": 5405,
      "Ð²Ð°ÑĢÐ¸": 5406,
      "Ð´ÐµÐ²": 5407,
      "Ð¼ÐµÑĢ": 5408,
      "Ð¼Ð¾Ð½": 5409,
      "Ð¼Ð¾Ñģ": 5410,
      "ÑĪÐºÑĥ": 5411,
      "ÑĪÐµÐ¼Ñĥ": 5412,
      "ĠÐ¸Ð´Ðµ": 5413,
      "ĠÐºÐ¾Ð¿": 5414,
      "ĠÐºÐ»ÑĥÐ±": 5415,
      "ÑģÑĤÐ°Ð»": 5416,
      "ÑģÑĤÐ¸ÑĤÑĮ": 5417,
      "ĠÐ´Ð½Ð¸": 5418,
      "ĠÐ´ÑĭÐ¼": 5419,
      "ÐµÑĢÐ³": 5420,
      "Ð¾Ð²ÑĭÐ¹": 5421,
      "Ð¾Ð²Ð°Ð½Ð¸Ðµ": 5422,
      "Ð¾Ð²Ð»ÐµÑĤ": 5423,
      "ĠÑĤÐ°Ð½": 5424,
      "ĠÐ¼ÐµÐ½": 5425,
      "ĠÐ¼Ð°Ñģ": 5426,
      "ĠÐ¼ÐµÑħÐ°Ð½Ð¸": 5427,
      "ĠÐ±Ð»Ð¸Ð¶Ð°Ð¹": 5428,
      "Ð¿Ð°": 5429,
      "ĠÑĥÑİÑĤ": 5430,
      "ĠÑĩÑĥÐ²": 5431,
      "ĠÐ·Ð²ÐµÑĢ": 5432,
      "ĠÐ½ÐµÑĥÐ²": 5433,
      "ĠÐµÐ´Ñĥ": 5434,
      "Ð½Ð¸Ñħ": 5435,
      "Ð¶ÑĥÑģÑĮ": 5436,
      "Ð»Ð¸Ð½ÑıÐ²": 5437,
      "ĠÑĢÑĥÑĩ": 5438,
      "ĠÑĢÐµÐ¶": 5439,
      "ĠÑĢÑĤÐ°": 5440,
      "ĠÐ¿Ð¾ÑģÑĤÑĢÐ¾": 5441,
      "ĠÐĵÐ»Ð°Ð·": 5442,
      "Ð°Ð²Ð°": 5443,
      "Ð°Ð²ÑĪÐ¸Ð¹": 5444,
      "Ð¾Ð³Ñĥ": 5445,
      "Ð¾ÑĢÐ½Ð¾Ð¹": 5446,
      "ÐµÐ´Ð»ÐµÐ½Ð½Ð¾": 5447,
      "ĠÐ»Ð¾Ð¶": 5448,
      "ĠÐ¾ÑĤÐ¾Ð¼": 5449,
      "Ð°Ð´Ð°": 5450,
      "ÐĶÐµÐ²ÑĥÑĪÐºÐ°": 5451,
      "ĠÐ¿ÑĢÐ¾ÑīÐµ": 5452,
      "ĠÐ¿ÑĢÐ¾ÑħÐ¾Ð´Ð¸ÑĤ": 5453,
      "ĠÐ¿ÑĢÐ¾Ð¸Ð³ÑĢ": 5454,
      "ĠÐĶÐ»Ñı": 5455,
      "ÐµÐ²Ð°ÑİÑīÐµÐµ": 5456,
      "ĠÐ³ÐµÐ¹": 5457,
      "ĠÐ³Ð¸Ð´": 5458,
      "ĠÐ³ÑĢÐ°": 5459,
      "Ð°ÑĤÐµÐ»ÐµÐ¼": 5460,
      "ĠÐ¿ÑĢÑĭ": 5461,
      "ÐļÐ°Ð¶Ð´": 5462,
      "ÑĢÑĥÐ´": 5463,
      "ĠÐ¿ÑĢÐ¸Ð½": 5464,
      "ĠÐ¿ÑĢÐ¸ÑģÐ»": 5465,
      "ĠÐ¿ÑĢÐ¸ÑĢÐ¾Ð´": 5466,
      "Ð¸Ð²Ð°Ð»Ð¸": 5467,
      "ĠÐ¶ÑĥÑĤ": 5468,
      "Ð¢Ð¾": 5469,
      "ĠÑħÐ¾Ð»": 5470,
      "ĠÐºÐ°ÐºÐ¾Ð¼": 5471,
      "Ð»Ð°ÑģÑĤÐ¸": 5472,
      "ĠÐĿÐ°Ð¼": 5473,
      "ĠÐĿÐ°Ð¿": 5474,
      "ĠÐ²ÑĭÐº": 5475,
      "ĠÐ²ÑĭÐ½ÑĥÐ»": 5476,
      "ĠÐ²ÑĭÑĢÐ°Ð·": 5477,
      "ĠÐ²ÑĭÐ»ÐµÑĩ": 5478,
      "ĠÐ²ÑĭÐ¹ÑĤÐ¸": 5479,
      "Ð»ÑıÐ»ÑģÑı": 5480,
      "ĠÐ¿Ð¾Ð´Ð½Ð¸Ð¼": 5481,
      "Ð°Ð¶Ð¸": 5482,
      "ĠÐ¾Ð±Ð¾Ð¶": 5483,
      "ĠÐĲÐ²": 5484,
      "ĠÐ°ÑģÑĤ": 5485,
      "ĠÐ°Ð»ÑĮ": 5486,
      "ĠÐ·Ð°ÑĪ": 5487,
      "ÐŀÑģ": 5488,
      "Ð°Ð±Ð¸Ð»ÑĮÐ½Ð¾": 5489,
      "ÐµÑĩÐµÑģ": 5490,
      "ÑĥÐ´Ñĥ": 5491,
      "Ð¡Ð¸Ð»ÑĮÐ½Ð¾": 5492,
      "ÐµÐ·Ð´Ð°": 5493,
      "ĠÑģÐ¿Ð¾Ñħ": 5494,
      "ĠÑģÐ¿ÑĥÑģÐº": 5495,
      "ĠÑģÐ¿ÑĢÐ°Ð²Ð»Ñı": 5496,
      "ĠÑģÐ¿Ð¸Ð½Ðµ": 5497,
      "ĠÐĴÐµÑĢ": 5498,
      "ĠÐłÐµ": 5499,
      "ÑģÐ°Ñħ": 5500,
      "ĠÑĢÐ°Ð·Ð´ÐµÐ»": 5501,
      "ÑĭÐ²Ð°Ñİ": 5502,
      "Ð°Ð»ÑĮÐ½Ð°Ñı": 5503,
      "Ð°Ð»ÑĮÐ½ÑĭÐ¼": 5504,
      "ĠÐ¿ÐµÑĢÐµÐ²ÐµÑĢ": 5505,
      "ÐĴÐµÑģ": 5506,
      "ÐĴÐ¾Ð·ÑĮÐ¼Ð¸": 5507,
      "ÑĢÐ°Ð²Ð´": 5508,
      "Ð¸ÑħÐ¸Ðº": 5509,
      "ĠÑĪÐ¾Ðº": 5510,
      "ĠÑĪÐ°Ð¿": 5511,
      "ĠÐ³Ð»ÑĥÑħ": 5512,
      "ĠÐĳÐ¾": 5513,
      "ĠÐ±ÑĥÐ´ÑĮ": 5514,
      "ĠÐĽÐµÑģÑĤ": 5515,
      "ĠÐ²Ð¾ÑĪÐ»Ð°": 5516,
      "ĠÐ´ÑĢÑĥÐ³Ð¾Ð³Ð¾": 5517,
      "ĠÐĲÐ»Ð¸ÑģÑĭ": 5518,
      "ĠÑĢÑĥÐ±": 5519,
      "Ð¼Ð¾ÑĤÑĢÐµÑĤÑĮ": 5520,
      "ĠÐŃÐ²Ð°Ð½": 5521,
      "ÑģÑĤÑĢÐµÐ¿": 5522,
      "Ð¸ÑĢÐ¾Ð²Ð°Ð»": 5523,
      "ĠÑĥÐ´Ð°Ð»": 5524,
      "ÐľÐ°ÑĤÑĮ": 5525,
      "ĠÑģÐ²ÐµÐ¶": 5526,
      "Ð½Ð¸Ð¼Ð°ÐµÑĪÑĮ": 5527,
      "ĠÐ¿Ð¾Ð¼Ð½Ð¸Ð»": 5528,
      "ĠÐ§ÑĤÐ¾Ð±Ñĭ": 5529,
      "ĠÐ±Ð¾Ð»ÑĮÑĪÐ°Ñı": 5530,
      "ĠÐ¾ÑĤÐ²ÐµÑĤÐ¸ÑĤÑĮ": 5531,
      "ĠÑģÐºÑĢÑĭÐ²": 5532,
      "ĠÑģÐºÑĢÐ¸Ð²Ð¸Ð»ÑģÑı": 5533,
      "ĠÐ¼Ð¾Ñĳ": 5534,
      "ÑĢÑĭÑĤ": 5535,
      "ĠÐķÐ´Ð²Ð°": 5536,
      "ĠÐ¿Ð°ÑĢÐ½ÐµÐ¼": 5537,
      "ĠÑģÐ¾Ð²ÐµÑĤÑĭ": 5538,
      "ĠÐ½Ð¾Ð²Ð¾Ð¹": 5539,
      "ĠÐ¿Ð¾ÑģÐ»ÑĭÑĪ": 5540,
      "ĠÐ¸Ð½ÑĦ": 5541,
      "Ð½ÐµÐ²Ð¸ÑģÐºÐ¸": 5542,
      "ĠÐ·Ð°Ð¼ÐµÑĢ": 5543,
      "ÐĳÐ¾Ð»ÑĮ": 5544,
      "ÑĤÐµÑĨ": 5545,
      "ĠÐ½Ð°Ð¿Ð¸ÑģÐ°": 5546,
      "Ð»Ð¸Ð·Ð½ÐµÑĨ": 5547,
      "ÐłÐ°Ñģ": 5548,
      "ĠÐ¿ÑĢÐ°Ð²Ð¸Ð»Ð¾": 5549,
      "ĠÐ¿ÑĥÐ·Ñĭ": 5550,
      "ĠÐ½ÑĥÐ¶ÐµÐ½": 5551,
      "ĠÑĥÐ²Ð¸Ð´Ð¸ÑĤ": 5552,
      "ÑĢÐ¾Ð´Ð¾Ð»Ð¶": 5553,
      "ĠÑģÑĤÐ°ÑĢÐ°Ð»ÑģÑı": 5554,
      "ĠÑģÑĤÐ°ÑĢÑĪÐµÐº": 5555,
      "ĠÐ·Ð°Ð¿Ð»Ð°Ðº": 5556,
      "ĠÐļÐ°ÐºÐ°Ñı": 5557,
      "ĠÐ¸Ð¼ÐµÐ»": 5558,
      "ĠÐ²Ð¾Ð»ÑĪÐµÐ±Ð½ÑĥÑİ": 5559,
      "ÑĤÑĭÐ¼Ð¸": 5560,
      "ĠÐ¿ÑĢÐ¾Ð´ÐµÐ»": 5561,
      "ĠÑģÐ»ÑĭÑĪÐ½Ð¾": 5562,
      "ÑĩÐµÑģÐºÐ¸Ð¹": 5563,
      "ĠÑģÐ´ÐµÐ»Ð°Ð»Ð°": 5564,
      "ĠÐ´Ð¾Ð¼Ðµ": 5565,
      "ĠÐ¿ÑĢÐ¾ÑĪÐ»Ð°": 5566,
      "ĠÐ²Ð¿ÑĢÐ¾ÑĩÐµÐ¼": 5567,
      "ĠÐºÐ¾Ð»Ð¾Ð´": 5568,
      "ĠÐºÐ¾Ð»Ð´Ñĥ": 5569,
      "ĠÐ½Ð°ÑĪÑĳÐ»": 5570,
      "ĠÐ¸ÑģÑħÐ¾Ð´": 5571,
      "ĠÐ½ÐµÐ²Ð°Ð¶Ð½Ð¾": 5572,
      "ĠÑĥÐ´Ð¸Ð²Ð¸Ð»Ð°ÑģÑĮ": 5573,
      "ĠÐ¿Ð¾ÑħÐ²Ð°Ð»": 5574,
      "ĠÐ¡Ð¸ÑĢÐ¸ÑĥÑģÑĥ": 5575,
      "ĠÐ³Ð¾Ð»Ð¾ÑģÐµ": 5576,
      "Ð¾Ð¶Ð°Ð»ÑĥÐ¹ÑģÑĤÐ°": 5577,
      "ĠÐ±Ð»Ð¾ÐºÐ¸": 5578,
      "ĠÐ±Ð»Ð¾ÐºÐ¾Ð»Ð¾Ð³Ð¸": 5579,
      "Ð¸ÑĤÐµÐ»ÑĮÐ½Ð¾Ðµ": 5580,
      "ĠÐ¸Ð½ÑĤÐµÑĢÐµÑģÐ½ÑĭÐ¹": 5581,
      "ĠÑĢÐµÑĪÐ¸Ð»Ð¸": 5582,
      "ĠÐ¾ÑīÑĥÑīÐµÐ½Ð¸Ð¹": 5583,
      "ĠÐºÐ»Ð°ÑģÑģÐ½Ð¾": 5584,
      "ĠÐ¿ÐµÑĢÐ²ÑĥÑİ": 5585,
      "Ð½ÑĥÑĤÑĢÐ¸": 5586,
      "Ð½ÑĥÑĤÑģÑı": 5587,
      "hone": 5588,
      "ĠÑħÐ¾ÑĢÐ¾ÑĪÐµÐµ": 5589,
      "ĠÐ¼Ð°Ð¼Ñĥ": 5590,
      "ĠÐ±Ð¾ÑıÐ»ÑģÑı": 5591,
      "ĠÐ³Ð¾ÑĢÐ¶ÑĥÑģÑĮ": 5592,
      "ĠÐ³Ð¾ÑĢÐ¾Ð´Ð°": 5593,
      "ĠÐ´ÑĢÐµÐ²": 5594,
      "Ð¡Ð»ÐµÐ´": 5595,
      "ĠÐ¿ÑĢÐ¸Ð´ÐµÑĤÑģÑı": 5596,
      "ĠÐ¿ÑĭÑĤÐ°ÐµÑĤÑģÑı": 5597,
      "ĠÐºÑĢÑĥÑĤÐ¾Ð¹": 5598,
      "ĠÐºÐ°Ð¼Ð¸Ð½": 5599,
      "ĠÐºÐ°Ð¼ÐµÑĪ": 5600,
      "ĠÐ¿Ð¾Ð¼Ð¾Ð³Ð»Ð¾": 5601,
      "ĠÐ·Ð°ÑĤÑĭÐ»": 5602,
      "ĠÐ³ÑĥÐ±Ð°Ð¼": 5603,
      "ĠÐ¿ÑĢÐ¾Ð²ÐµÐ»": 5604,
      "ĠÐ¿ÑĢÐ¾Ð²Ð¾Ð´": 5605,
      "ĠÐ¸ÑģÑĩÐµÐ·Ð½ÑĥÑĤÑĮ": 5606,
      "ĠÑĨÐ°ÑĢÑı": 5607,
      "ĠÐ¿Ð¾Ð¶Ð°Ð»ÑĥÐ¹": 5608,
      "ĠÐºÐ¸Ð¿": 5609,
      "ÑĩÑĥÑģÑĮ": 5610,
      "ĠÐ±ÑĢÐ¾ÑģÐ¸Ð»": 5611,
      "ĠÐ´ÑĥÑĪÐ°": 5612,
      "ĠÐ·ÐµÐ¼Ð»Ñı": 5613,
      "ĠÐ²Ð·Ð´Ð¾ÑħÐ½ÑĥÐ»Ð°": 5614,
      "ĠÐ²Ð¾Ð´Ñĭ": 5615,
      "ĠÐ¼Ð°Ð³Ð³Ð»Ð¾Ð²ÑģÐºÐ¾Ð¹": 5616,
      "ĠÐ°Ð½Ð°Ð»Ð¸Ð·Ð°": 5617,
      "ĠÑģÑĩÐ¸ÑĤÐ°ÑĤÑĮ": 5618,
      "ĠÐ¿ÐµÑĢÐµÐ¶Ð¸Ð²Ð°Ñİ": 5619,
      "ĠÑģÐºÐ°Ð¶ÐµÑĪÑĮ": 5620,
      "ĠÑģÐ¶Ð°Ð»Ð°": 5621,
      "ĠÐ¶Ð´Ð°Ð»": 5622,
      "ĠÐ¿ÑĢÐ¾ÑĤÑıÐ½ÑĥÐ»Ð°": 5623,
      "ĠÐ¿Ð¾Ð½ÑĢÐ°Ð²Ð¸Ð»ÑģÑı": 5624,
      "ĠÐ±ÑĢÐ°ÑĤÐ°": 5625,
      "Ð»Ð°Ð³Ð¾Ð´": 5626,
      "ĠÐ²Ð¾ÑģÐ¿Ð¸ÑĤ": 5627,
      "ĠÐ±ÐµÑģÐ¿Ð¾ÐºÐ¾": 5628,
      "Ð¾Ð»Ð¾Ð³Ð°": 5629,
      "ĠÐ²ÑĭÐ´ÑĥÐ¼": 5630,
      "ĠÐ²ÑĭÑħÐ¾Ð´Ð½ÑĭÐµ": 5631,
      "ĠÑĥÑĩÐµÐ½Ð¸ÐºÐ¸": 5632,
      "ĠÐ¾ÐºÐ°Ð·Ð°Ð»ÑģÑı": 5633,
      "ĠÐ±Ð¾Ð³Ð°ÑĤÑĭ": 5634,
      "ĠÐ¿ÑĢÐ¸Ð±Ð»Ð¸Ð¶": 5635,
      "ĠÐ·Ð°Ð½Ð¸Ð¼Ð°ÐµÑĤÑģÑı": 5636,
      "ĠÐ¶Ð¸Ð²Ð¾ÑĤÐ½Ð¾Ðµ": 5637,
      "ĠÐ¶ÐµÐ½ÑīÐ¸Ð½Ñĭ": 5638,
      "ĠÐ·Ð°ÑīÐ¸ÑĤÑĥ": 5639,
      "ÑĪÐµÐ¹ÑģÑı": 5640,
      "ĠÑħÐ¾Ð´Ð¸Ð»": 5641,
      "ĠÐºÐ²Ð¸Ð´Ð´Ð¸Ñĩ": 5642,
      "ĠÐ¿Ð¾ÑĤÐµÑĢÑıÑĤÑĮ": 5643,
      "ĠÐ½ÐµÐ½Ð°Ð²Ð¸": 5644,
      "Ð¾ÑĢÐ¸ÑĤÑĮ": 5645,
      "ĠÐĶÑĥÑĢÑģ": 5646,
      "ĠÐ¿Ð¾Ð¶ÐµÐ»": 5647,
      "ĠÑĥÐ·Ð½Ð°ÐµÑĤ": 5648,
      "ĠÐ½Ð°ÑĥÑĩÐ¸Ð»ÑģÑı": 5649,
      "ĠÐ¾Ð±ÑĢÐ°ÑĤÐ½Ð¾": 5650,
      "ĠÐ¿ÑĢÐµÐ´Ð»Ð¾Ð¶Ð¸Ð»": 5651,
      "ĠÐ¾ÑģÑĤÑĢÐ¾Ð²Ð°": 5652,
      "ĠÐ¶ÐµÐ»Ð°Ð½Ð¸Ðµ": 5653,
      "ĠÐ¾Ð³Ð½ÐµÐ²Ð¸ÑģÐºÐ¸": 5654,
      "ĠÐ¼ÑĥÑĩÐ°ÐµÑĤ": 5655,
      "ĠÐ¾ÑĤÑģÑĥÑĤÑģÑĤÐ²": 5656,
      "ĠÑĢÐ°ÑģÑģÐºÐ°Ð·ÑĭÐ²Ð°ÑĤÑĮ": 5657,
      "ĠÐºÑĥÑħÐ°ÑĢ": 5658,
      "ĠÐ³Ð»ÑĥÐ±Ð¾ÐºÐ¾": 5659,
      "ĠÐ´Ð¸Ð·Ð°Ð¹Ð½ÐµÑĢ": 5660,
      "ĠÑĢÐµÐ±ÐµÐ½Ð¾Ðº": 5661,
      "ĠÑĢÐµÐ±ÐµÐ½ÐºÐ°": 5662,
      "ĠÑģÐ¾Ð¿ÑĢÐ¾Ð²": 5663,
      "ĠÐ²Ð·Ð³Ð»ÑıÐ½ÑĥÐ»Ð°": 5664,
      "ĠÐ¼Ð¾ÑīÐ½ÑĭÐ¹": 5665,
      "ĠÐ¿ÑĥÑĤÐµÑĪÐµ": 5666,
      "ĠÐŁÑĥÑĦÑĦ": 5667,
      "ĠÐŃÐ´Ð³Ð°ÑĢÐ°": 5668,
      "ĠÐ¾ÑĩÐµÑĢÐµÐ´Ð½Ð¾Ð¹": 5669,
      "ĠÐ¸Ð·Ð¼ÐµÐ½Ð¸Ð»Ð¾ÑģÑĮ": 5670,
      "ĠÑĨÐ°ÑĢÐ¸ÑĨÐ°": 5671,
      "ĠÐ²ÑĭÑģÐ¾ÐºÐ°Ñı": 5672,
      "ĠÐ»Ð°ÑģÐºÐ¾Ð²Ð¾": 5673,
      "ĠÑģÐ¸Ð¼Ð²Ð¾Ð»": 5674,
      "ĠÐ·ÑĥÐ±Ñĭ": 5675,
      "ĠÐ½Ð°ÑħÐ¾Ð´Ð¸ÑĤÑģÑı": 5676,
      "ĠÑģÑĤÐµÐºÐ»Ð¾": 5677,
      "ÑħÐ¸ÑĤÐµÐºÑĤÐ¾ÑĢ": 5678,
      "Ð¿ÑĢÐ¸Ð²ÐµÑĤ": 5679,
      "ĠÑıÑĢÐºÐ¾": 5680,
      "ÐĺÐ½ÑĤÐµÑĢÐµÑģÐ½ÑĭÐ¹": 5681,
      "ĠÐ½Ð°ÑģÑĤÐ¾Ð¹ÐºÐ¸": 5682,
      "ĠÐŁÐ¾Ð¿ÑĢÐ¾Ð±": 5683,
      "ĠÐĿÐ¸ÐºÑĤÐ¾": 5684,
      "ĠÐ¥Ð°Ð³ÑĢÐ¸Ð´": 5685,
      "ĠÐ½Ð°Ð¿ÑĢÑıÐ¶": 5686,
      "ĠÑĨÐµÐ½ÑĤÑĢ": 5687,
      "ĠÑĢÐ°ÑģÑĤÑıÐ½ÑĥÐ»ÑģÑı": 5688,
      "ĠÐ½ÐµÐºÐ¾ÑĤÐ¾ÑĢÑĭÐµ": 5689,
      "ĠÐ¾ÐºÐ¾Ð½ÑĩÐ°ÑĤÐµÐ»ÑĮÐ½Ð¾": 5690,
      "ĠÐ°ÐºÐºÑĥÑĢÐ°ÑĤÐ½Ð¾": 5691,
      "ĠÑģÐ¿Ð¾ÑĢÑĤÐ·Ð°Ð»": 5692,
      "ĠÐŀÑĢÐ´ÐµÐ½Ð°": 5693,
      "ĠÐ¿ÑĢÐµÐ´ÑĥÐ¿ÑĢÐµÐ´": 5694,
      "ĠÐ¿Ð¸ÑĢÐ¾Ð¶": 5695,
      "ĠÐ¿Ð¸Ð»Ð¾ÑĤÐ°": 5696,
      "ĠÐ½ÐµÐ¾Ð±ÑħÐ¾Ð´Ð¸Ð¼Ð¾": 5697,
      "ĠÐ¾ÑĤÐ¾Ð·Ð²Ð°Ð»ÑģÑı": 5698,
      "ÑıÐ³ÑĥÑĪÐ¾Ð½": 5699,
      "ÑĢÐ°Ð¹Ð²": 5700,
      "ĠÐ¾Ð´ÐµÑıÐ»Ð¾": 5701,
      "ĠÐ¿Ð¾Ð½ÑıÑĤÐ½Ð¾": 5702,
      "ĠÐ²Ð·Ð²Ð¸Ð·": 5703,
      "ĠÐºÐ°ÑĢÑĤÐ¸Ð½": 5704,
      "ĠÐºÐ¾Ð½ÑĨÐµÑĢÑĤÐµ": 5705,
      "ĠÑģÑĤÐ¾Ð¼Ð°ÑĤÐ¾": 5706,
      "ĠÐ²ÑĭÐ¹Ð´ÐµÑĤ": 5707,
      "ĠÐ¡Ð¸Ð¼ÑĥÑģ": 5708,
      "ĠÐ¿Ð¸Ð¶Ð°Ð¼": 5709,
      "amsun": 5710,
      "ĠÐ½ÐµÑģÐ¿ÑĢÐ°Ð²": 5711,
      "ĠÐ¿ÑĢÐ¸Ð¿Ð¾Ð´Ð½ÑıÐ»": 5712,
      "ĠÐŁÑĢÐ¸Ð²Ð¸ÑĤ": 5713,
      "ĠÐ¡Ð»Ð¸Ð·ÐµÑĢÐ¸Ð½Ð°": 5714,
      "ĠÐ¡Ð¾Ð·Ð´Ð°Ð¼": 5715,
      "ĠÑģÐ²Ð°ÑĤÑĮÐµÐ¹": 5716,
      "ĠÐ¾Ð±ÑģÑĥÐ¶Ð´Ð°ÐµÐ¼": 5717,
      "ĠÐĳÐµÑĢÐ»Ð¸Ð½Ðµ": 5718,
      "ĠÐ²Ð²ÐµÑĢÑħ": 5719,
      "ĠÑĩÑĥÐ²ÑģÑĤÐ²Ð¾": 5720,
      "ĠÐ½ÐµÑĥÐ²ÐµÑĢÐµÐ½Ð½Ð¾": 5721,
      "ĠÑģÐ¿Ð¾ÑħÐ²Ð°ÑĤ": 5722,
      "ĠÐŃÐ²Ð°Ð½Ñģ": 5723,
      "Ð»Ð¸Ð·Ð½ÐµÑĨÑĭ": 5724,
      "amsung": 5725,
      "at": 5726,
      "buc": 5727,
      "ed": 5728,
      "el": 5729,
      "ni": 5730,
      "rbuc": 5731,
      "ĠÐ¦": 5732,
      "ÐµÑģÑĮ": 5733,
      "ÑģÐµÐ³Ð´Ð°": 5734,
      "ÑĢÐ°Ð±Ð¾ÑĤ": 5735,
      "Ð»ÑĥÑĩ": 5736,
      "Ð»ÐµÐ¿": 5737,
      "Ð»ÐµÐ½Ð¸ÐµÐ¼": 5738,
      "Ð½Ð¸Ð»ÑģÑı": 5739,
      "Ð½Ð¸Ð»Ð¾": 5740,
      "Ð½Ð¸Ð»Ð¾ÑģÑĮ": 5741,
      "ÑĥÑĢÐ¸": 5742,
      "ÑĥÐµÐ¼": 5743,
      "ÑıÑı": 5744,
      "ÑıÐº": 5745,
      "ÑĭÐ½": 5746,
      "ĠÐ¿ÑıÑĤÑĮ": 5747,
      "ĠÐ¿Ð°ÑĤÑĢÐ¾Ð½Ñĥ": 5748,
      "ĠÑģÐµÐ½": 5749,
      "ĠÑģÑħ": 5750,
      "ĠÑģÐ¾ÑĤ": 5751,
      "ĠÑģÐ½ÑıÑĤÑĮ": 5752,
      "ĠÐ²Ð°Ð»": 5753,
      "ĠÐ²Ð¸ÑĤ": 5754,
      "ĠÐ²ÑıÐ»Ð¾": 5755,
      "ĠÐ²Ð½ÑĥÑĤÑĢÐ¸": 5756,
      "Ð²Ð°Ð»Ð°ÑģÑĮ": 5757,
      "Ð²Ð¸Ð¶": 5758,
      "Ð´Ð°ÑĢÐ¾Ð²Ð°": 5759,
      "Ð¼Ð¾ÑĢ": 5760,
      "ĠÐ¾Ð²Ð¾": 5761,
      "ĠÐ¾Ð³Ð»Ñı": 5762,
      "ĠÐ¾ÑģÐºÐ¾ÑĢ": 5763,
      "ÑĪÐ½Ð¸Ð»Ð¾": 5764,
      "ÑĢÐ¸ÑģÑĤ": 5765,
      "ÑĢÐ¸Ð·": 5766,
      "ĠÐºÐ½Ñı": 5767,
      "ĠÐºÑĥÐ±": 5768,
      "ĠÐºÑĥÐ»": 5769,
      "ÐµÐ½ÑĤÐ¾Ð²": 5770,
      "ĠÐ´Ð¸Ð½": 5771,
      "ĠÐ´ÐµÐº": 5772,
      "ĠÐ´ÐµÐ»Ð¸": 5773,
      "ĠÐ´Ð¾ÑĩÑĮ": 5774,
      "ÑħÐ¸Ñī": 5775,
      "Ð¾Ð²ÑĥÑĤ": 5776,
      "Ð¾Ð²ÐµÑĢÑĪ": 5777,
      "ĠÑĤÑĳ": 5778,
      "ĠÑĤÐ²Ð°ÑĢ": 5779,
      "ĠÐ¼ÐµÐ»": 5780,
      "ĠÐ¼Ð¾Ð½": 5781,
      "ÐµÐ»ÐµÐ¹": 5782,
      "ĠÐ±ÑĥÐ¼": 5783,
      "ĠÐ±ÐµÐ¶Ð¸ÑĤ": 5784,
      "ĠÐ±Ð¸Ð·Ð½ÐµÑģ": 5785,
      "ÑİÑīÐ¸Ðµ": 5786,
      "ÑĢÐ¾Ð½Ð¸": 5787,
      "ÑĢÐ¾ÑģÑĤÐ¸": 5788,
      "ĠÑĩÐ°ÑĤ": 5789,
      "ĠÑĩÐµÑģÑĤÑĮ": 5790,
      "ĠÑĩÐ°ÑĢÑĭ": 5791,
      "ĠÐ·ÐµÐ»": 5792,
      "ĠÐ·Ð°Ð·": 5793,
      "ĠÐ·Ð°Ð±Ð¾ÑĤ": 5794,
      "ĠÐ·ÐµÐ»ÐµÐ½": 5795,
      "Ð°ÑĢÐ¼Ð°": 5796,
      "ĠÐ½ÐµÑĥÐ´": 5797,
      "ĠÐ½ÐµÐ¾Ð±Ñĭ": 5798,
      "ĠÐµÑĢÑĥÐ½": 5799,
      "Ð»Ð¸Ð¶Ðµ": 5800,
      "Ð¾Ð´Ð¸ÑĤÑĮ": 5801,
      "ĠÑĢÐ¾Ð·": 5802,
      "Ð¹ÑĦ": 5803,
      "Ð¹ÑĦÐ¾Ð½": 5804,
      "ĠÐ½Ð°ÑīÑĥÐ¿": 5805,
      "Ð¾ÑĢÐ°Ñĩ": 5806,
      "ĠÐ»Ð¾Ð¼": 5807,
      "ĠÐ»Ð¾Ð±": 5808,
      "Ð¾Ð¶Ð´Ð°": 5809,
      "ĠÐ¾ÑĤÐºÐ°Ð·ÑĭÐ²": 5810,
      "Ð¾ÐºÐµÑĤ": 5811,
      "ĠÑįÑĢÐ¾ÑĤÐ¸ÑĩÐµÑģ": 5812,
      "ÐĶÐµÑĤ": 5813,
      "ÐĶÐ°Ð¼": 5814,
      "ÐĶÑĢÐ°Ð¹Ð²": 5815,
      "ĠÐ¿ÑĢÐ¾ÑĪÐ¸": 5816,
      "ĠÐ³ÑĢÐ¸": 5817,
      "ĠÐ³Ð°Ð´": 5818,
      "Ð°ÑĤÐµ": 5819,
      "Ð°ÑĤÐ¾Ðº": 5820,
      "Ð°ÑĤÐ¾Ð³Ð¾": 5821,
      "ĠÐ¿ÑĢÐ¾Ð·": 5822,
      "ÑĢÑĥÐº": 5823,
      "ÑĢÑĥÑģÑĤ": 5824,
      "ÑĢÑĥÐµÑĤ": 5825,
      "ÑĢÑĥÐ·": 5826,
      "ĠÐ¿ÑĢÐ¸Ð¿": 5827,
      "ĠÐ¿ÑĢÐ¸Ð·": 5828,
      "ĠÐ¿ÑĢÐ¸ÐºÐ¾Ñģ": 5829,
      "Ð¢Ð¾Ð»ÑĮÐºÐ¾": 5830,
      "ĠÐŁÑĢÐ°Ð³": 5831,
      "ĠÑħÐ°Ð»Ð°ÑĤ": 5832,
      "ÐŁÐµÑĢ": 5833,
      "ÐŁÑĢÐ¾ÑģÑĤÐ¾": 5834,
      "ĠÐĿÐ¸ÑĩÐµÐ³Ð¾": 5835,
      "ĠÑģÑĤÑĥÐ»": 5836,
      "ĠÐ²ÑĭÐ¼": 5837,
      "ĠÐ²ÑĭÑĤÑı": 5838,
      "ĠÐ²ÑĭÐ´ÐµÑĢÐ¶": 5839,
      "ĠÐ²ÑĭÑģÐ»ÑĥÑĪ": 5840,
      "ĠÐ¡Ð²": 5841,
      "ĠÐ¡Ð»Ð¸Ð½ÑıÐ²": 5842,
      "ĠÐ¿Ð¾Ð´Ð´": 5843,
      "ĠÐ¿Ð¾Ð´Ð°Ð²": 5844,
      "ĠÐ¿Ð¾Ð´Ð½Ñı": 5845,
      "ĠÐ¿Ð¾Ð´ÑħÐ²Ð°ÑĤ": 5846,
      "ĠÐ¾Ð±Ðµ": 5847,
      "ĠÐ¾Ð±Ð¾Ð·": 5848,
      "ĠÐ¾Ð±ÑĥÑĩ": 5849,
      "ĠÐ¾Ð±ÑĢÑı": 5850,
      "ĠÐĲÑĦ": 5851,
      "ĠÐ°ÑĤ": 5852,
      "ĠÑģÐ»Ð¾Ð¼": 5853,
      "ĠÐ³Ð¾ÑĤ": 5854,
      "ĠÐ½Ð¸ÑĩÐµÐ¼": 5855,
      "ÐµÐ»ÑĮÑīÐ¸": 5856,
      "Ð¡Ð¾Ð½": 5857,
      "ĠÑģÐ¿Ð°ÑģÑĤÐ¸": 5858,
      "ĠÐĴÐ¸Ð»ÑĮ": 5859,
      "ÑĥÑĩÐ½Ð¾": 5860,
      "ÑĥÑĪÐºÐµ": 5861,
      "ĠÐľÐµÑĢ": 5862,
      "ĠÐľÐ¸Ð»": 5863,
      "ĠÐľÐ¾Ð¹": 5864,
      "ĠÐľÐ¸ÑĢÑĤ": 5865,
      "ĠÑĢÐ°Ð·Ð¾Ñĩ": 5866,
      "ĠÑĢÐ°Ð·ÑĢÑĥÑĪ": 5867,
      "ÑĭÐ²Ð°Ð¹": 5868,
      "Ð§Ð°ÑĢ": 5869,
      "Ð§ÐµÐ³Ð¾": 5870,
      "ÐµÐ½ÑıÑħ": 5871,
      "ĠÐ¿ÐµÑĢÑģÐ¿": 5872,
      "ÐµÐ½Ð½Ð¾ÑģÑĤÐ¸": 5873,
      "ĠÑģÐºÐ°Ð·Ð°Ð²": 5874,
      "Ð°Ð½Ð¸Ð·": 5875,
      "ĠÐ²Ð·Ð²Ð¾Ð»": 5876,
      "ĠÐ²Ð·Ð¼Ð°Ñħ": 5877,
      "ĠÐ·Ð½Ð°Ñĩ": 5878,
      "ĠÐĳÐµÐ·": 5879,
      "ĠÐĽÐ¸": 5880,
      "ĠÐ²Ð¸Ð´Ð°Ð»Ð°": 5881,
      "ĠÐ²Ð¸Ð´Ð¸ÑĪÑĮ": 5882,
      "ĠÐ²Ð¸Ð´Ð¸Ð¼Ð¾": 5883,
      "ĠÐ´ÑĢÑĥÐ³Ð°Ñı": 5884,
      "ĠÐ´ÑĢÑĥÐ³Ð¸Ð¼Ð¸": 5885,
      "ĠÑģÐ°Ð¼Ð¾ÑĩÑĥÐ²ÑģÑĤÐ²Ð¸Ðµ": 5886,
      "ĠÐĲÐ»Ð¸Ñģ": 5887,
      "ĠÐ¾Ð´Ð½Ð¸Ð¼": 5888,
      "ĠÐ¾Ð´Ð½Ð°Ð¶Ð´Ñĭ": 5889,
      "ÑģÑĤÐ¾ÑıÑĤ": 5890,
      "ÑģÑĤÑĢÐ¾Ð¹": 5891,
      "ĠÑĨÐµÐ½Ñĭ": 5892,
      "ĠÑĥÐ´Ð°ÑĢ": 5893,
      "ĠÑĥÐ´Ð¾Ð²Ð»ÐµÑĤ": 5894,
      "ĠÑģÑĤÐ¾Ð¸Ð»Ð¾": 5895,
      "ĠÐ±Ð¾Ð»ÑĮÑĪÐ¸Ñħ": 5896,
      "ĠÑĦÐ¾ÑĢ": 5897,
      "ĠÑĦÐ¸Ð·": 5898,
      "ĠÐ¼Ð¾ÐµÐ¼Ñĥ": 5899,
      "ĠÐ½Ð°ÑģÐ»": 5900,
      "ĠÐ½Ð¾Ð²Ð¾Ð¼": 5901,
      "ĠÐ¿Ð¾ÑģÐ¾Ð²ÐµÑĤ": 5902,
      "ÑĢÐ¾ÐºÐ¸": 5903,
      "ĠÐ£Ð¿": 5904,
      "ĠÐ£Ð¶Ðµ": 5905,
      "ÐµÑĤÑĮÑģÑı": 5906,
      "Ð»ÑĭÐ»Ð°": 5907,
      "ĠÐĶÐ°Ð¼Ð±Ð»Ð´Ð¾ÑĢÐ¾Ð¼": 5908,
      "ĠÐ¿Ð¾Ð²ÐµÐ´": 5909,
      "ĠÐ¸Ð½Ð¶ÐµÐ½ÐµÑĢ": 5910,
      "ĠÐĹÐ°ÑĤÐµÐ¼": 5911,
      "ÐĳÐµÐ´": 5912,
      "ĠÐ¿Ð»Ð°ÑĤÑĮ": 5913,
      "ĠÐ½Ð°Ð¿ÑĢÐ¾ÑĤÐ¸Ð²": 5914,
      "ĠÐ·Ð°Ð²Ð¸ÑģÑĤ": 5915,
      "ĠÐ¾ÑģÐµÐ½": 5916,
      "ĠÐ¾ÑģÐ½Ð¾Ð²": 5917,
      "ĠÐ±ÐµÐ·Ð¾Ð¿Ð°Ñģ": 5918,
      "ĠÐ¸ÑģÐ¿Ð¾Ð»": 5919,
      "ĠÐ·Ð°Ð±Ð°Ð²": 5920,
      "Ð½ÑĮÐµ": 5921,
      "ĠÑģÑĤÐ°ÑĢÑĤ": 5922,
      "ĠÑģÑĤÐ°ÑĢÐ°ÑİÑģÑĮ": 5923,
      "ÐĽÐµÑĩ": 5924,
      "ÐĽÐµÐ±ÐµÐ´ÑĮ": 5925,
      "ÑĤÑĭÐ¼": 5926,
      "Ð°Ð½Ð¸ÑıÐ¼Ð¸": 5927,
      "ĠÐ¿ÑĢÐ¾Ð¸Ð·Ð½ÑĳÑģ": 5928,
      "ÑĢÐ¾Ð²Ð°Ð½Ð¸Ñı": 5929,
      "ĠÐ¼Ð¾ÑĢÐµÐ¼": 5930,
      "ĠÑĥÑģÐ¿Ð¾ÐºÐ°": 5931,
      "ÐŃÑĤÐ°": 5932,
      "ĠÐ¿ÑĢÐ¾Ð´ÑĥÐº": 5933,
      "ĠÑģÐ»ÑĭÑĪÐ°ÑĤÑĮ": 5934,
      "Ð°ÑĩÐµ": 5935,
      "ĠÑĥÐ»ÑĭÐ±ÐºÐ°": 5936,
      "ÑĩÐµÑģÐºÐ¸Ðµ": 5937,
      "ĠÐ·Ð°Ð´ÑĭÑħ": 5938,
      "ĠÐ·Ð°Ð´Ð°Ñĩ": 5939,
      "ÑĥÐ»ÑĤÐ°Ð½": 5940,
      "ĠÐ¿ÑĢÐ¾ÑĪÐ»Ð¸": 5941,
      "ĠÐ¿Ð¾Ð³Ð»Ð¾Ñī": 5942,
      "ĠÐºÐ¾Ð»ÐµÐ½ÑıÑħ": 5943,
      "ĠÐ½Ð°ÑĪÐ°": 5944,
      "ĠÑģÐ¼ÐµÐ»Ð¾": 5945,
      "ĠÐ½ÐµÐ²Ñĭ": 5946,
      "ĠÐ½ÐµÐ²Ð¸Ð½": 5947,
      "ĠÐ²ÐµÐµÑĢ": 5948,
      "Ð½Ð¸ÑĤÐµÐ»ÑĮÐ½Ð¾": 5949,
      "ĠÐ³ÑĢÑĥÑģÑĤ": 5950,
      "ĠÐ¡Ð¸ÑĢÐ¸ÑĥÑģÐ¾Ð¼": 5951,
      "ÐºÐ¾Ð»ÐµÐ¿": 5952,
      "ĠÐ¾ÑĤÐºÑĢÐ¾Ð²": 5953,
      "ĠÑģÐ»ÐµÐ´ÑĥÐµÑĤ": 5954,
      "ĠÑĢÑĭÐ¶": 5955,
      "ĠÑĢÑĭÐ½ÐºÐµ": 5956,
      "ĠÐ¾ÑīÑĥÑīÐ°Ð»": 5957,
      "ĠÐ¿ÐµÑĢÐ²Ð¾Ð³Ð¾": 5958,
      "ĠÐ¿ÑĢÐ¾Ð³ÑĥÐ»": 5959,
      "ĠÐ»ÐµÑĤÐ¾Ð¼": 5960,
      "ĠÑĤÑĢÑĥÑģ": 5961,
      "ĠÐ±ÐµÐ´Ð°": 5962,
      "ĠÐ½Ð°Ð¹Ð´": 5963,
      "Ġ10": 5964,
      "ĠÐ¿Ð¾ÐºÐ°Ð·Ð°ÑĤÑĮ": 5965,
      "ĠÐ³Ð¾Ð´Ñĭ": 5966,
      "ĠÐĽÑİÐ¿Ð¸Ð½Ð¾Ð¼": 5967,
      "ĠÑīÐ¸ÑĤ": 5968,
      "ĠÐ¿Ð¾Ð±Ð»ÐµÐ´": 5969,
      "ĠÐºÐ°ÑĢÑĮ": 5970,
      "ĠÐºÐ°ÑĢÐ¼Ð°": 5971,
      "ĠÐ³Ð¾ÑĢÐ»Ðµ": 5972,
      "Ð²Ð¸Ð´ÐµÐ²": 5973,
      "Ð¡Ð»Ð°Ð±": 5974,
      "ĠÑģÐµÑĢÐµÐ±": 5975,
      "ĠÐ¿ÑĢÐ¸Ð´ÑĳÑĤÑģÑı": 5976,
      "ĠÐ²ÑģÐ¿Ð¾Ð¼Ð½Ð¸Ð»Ð°": 5977,
      "ĠÐºÐ°Ð¼ÐµÐ½ÑĮ": 5978,
      "ĠÐºÐ°Ð¼Ð½ÑıÐ¼Ð¸": 5979,
      "ĠÐ¼Ð°ÑĤÑĩ": 5980,
      "ÑıÑīÐµÐ³Ð¾": 5981,
      "ĠÐ¿ÑĢÐ¾Ð²ÐµÑģÑĤÐ¸": 5982,
      "ĠSamsung": 5983,
      "ĠÐºÑĢÐ¾Ð²ÑĮ": 5984,
      "ĠÐºÑĢÐ¾Ð²ÑĮÑİ": 5985,
      "ĠÐ²ÑĭÐ¿Ð¸Ð»": 5986,
      "ĠÐ¼ÑĥÐ¶ÑĩÐ¸": 5987,
      "Ð°ÐµÐ¼ÑģÑı": 5988,
      "ĠÐºÑĢÐ¸Ðº": 5989,
      "ĠÐŁÑĢÐ¸ÑĪÐ»Ð¾ÑģÑĮ": 5990,
      "ĠÐ²Ð·Ð³Ð»ÑıÐ´Ð¾Ð¼": 5991,
      "ĠÐ¿Ð¾Ð½Ð¸Ð¼Ð°ÐµÑĪÑĮ": 5992,
      "ĠÐ¿ÑĢÐ¸Ð²ÐµÐ·": 5993,
      "ĠÐ¿ÑĢÐ¸Ð²Ð»ÐµÐº": 5994,
      "ĠÐºÐ¾ÑĪÐµÐº": 5995,
      "ĠÐ¼Ð°Ð»ÐµÐ½ÑĮÐºÐ°Ñı": 5996,
      "ĠÐ´Ð°Ð»ÐµÐº": 5997,
      "ĠÐ¿Ð¾Ð¿ÑĢÐ¾Ð±Ð¾Ð²Ð°Ð»": 5998,
      "ĠÑİÐ½Ð¾": 5999,
      "ĠÑģÐ¾Ð³Ð»Ð°ÑģÐ¸Ð»ÑģÑı": 6000,
      "ĠÑģÐ¼ÑĥÑīÐµÐ½Ð¸Ñı": 6001,
      "ĠÑĢÐ°ÑģÑģÐºÐ°Ð·Ð°Ð»Ð°": 6002,
      "ĠÐ¿ÑĥÑģÑĤÐ¾Ð¼": 6003,
      "ĠÑģÐ¸Ð»ÑĮÐ½ÑĭÐ¹": 6004,
      "ĠÐ¾ÑģÑĤÐ°Ð²Ð¸Ð»": 6005,
      "ĠÐºÐ¾ÑĢÐ°Ð±": 6006,
      "ĠÐ¿ÑĢÐ¾Ð¿Ð¸ÑĤ": 6007,
      "ĠÑĢÐ°Ð·Ð´Ð°Ð»ÑģÑı": 6008,
      "ĠÑĥÑĩÐµÐ±Ðµ": 6009,
      "ĠÐ·Ð°Ð³Ð°Ð´": 6010,
      "ÑĢÐ¾Ð³ÑĢÐ°Ð¼Ð¼Ð¸": 6011,
      "ÑĩÐµÑģÐºÐ¸Ð¼": 6012,
      "ĠÑĢÐµÐ±ÑıÑĤ": 6013,
      "Ð¾Ð¿Ð¾Ð»ÑĥÑĩÐ½Ð¾": 6014,
      "ĠÐ¿ÐµÑĢÐµÐ¶Ð¸Ð²Ð°Ð»": 6015,
      "ĠÑĤÐµÑħÐ½Ð¸ÐºÐ°": 6016,
      "ÑĥÐ½Ð³Ð¾": 6017,
      "Ð¼ÑĭÑģÐ»": 6018,
      "ĠÐ¿Ð¾Ð¿ÑĭÑĤÐºÐ¸": 6019,
      "ĠÐ¿Ð¾Ð¿ÑĭÑĤÐ°Ð»Ð°ÑģÑĮ": 6020,
      "ĠÐ¿Ð¾Ð½ÑĢÐ°Ð²Ð¸Ð»Ð°ÑģÑĮ": 6021,
      "ĠÐ·Ð»Ð¾Ð±Ð½Ð¾": 6022,
      "ĠÐ²ÐµÐ»Ð¸ÑĤ": 6023,
      "ĠÐ²ÑĭÑħÐ¾Ð´Ð½Ð¾Ð¹": 6024,
      "ĠÐ²ÑģÑĤÑĢÐµÑĤÐ¸Ð¼ÑģÑı": 6025,
      "ĠÐļÑĢÐ°ÑģÐ¾ÑĤÐºÑĥ": 6026,
      "ÑĢÐµÐ¶Ð´Ðµ": 6027,
      "ĠÐ¼Ð¸ÑģÑģÐ¸Ñģ": 6028,
      "ĠÑģÐµÑĢÐ´ÑĨÐ°": 6029,
      "ĠÐ·Ð°Ð½Ð¸Ð¼Ð°ÐµÑĪÑĮÑģÑı": 6030,
      "ĠÐ·Ð°Ð¼ÐµÑĩÐ°ÑĤÐµÐ»ÑĮÐ½Ð¾": 6031,
      "ĠÐ¼ÐµÑĢÑĤÐ²": 6032,
      "ĠÐ¼ÐµÑĪÐ°ÐµÑĤ": 6033,
      "ĠÐ¿Ð¾ÑĢÑıÐ´Ð¾Ðº": 6034,
      "ÐºÐ¾ÑĩÐ¸Ð»": 6035,
      "ĠÐ½Ð¾ÑģÐ¾Ð¼": 6036,
      "ĠÐ¿Ð¾Ð»ÐµÐ·Ð½ÑĭÐµ": 6037,
      "ĠÑģÐ²ÑıÐ·ÑĮ": 6038,
      "ĠÑīÐµÐºÐ¸": 6039,
      "ĠÐĸÐ°Ð»ÑĮ": 6040,
      "ĠÐ±Ð»Ð°Ð³Ð¾Ð¿Ð¾Ð»ÑĥÑĩÐ½Ð¾": 6041,
      "ĠÐºÐ½Ð¸Ð¶ÐºÑĥ": 6042,
      "ĠÐ²ÑģÑĤÐ°Ð»Ð°": 6043,
      "ĠÐ²Ð¾ÑģÑħÐ¸Ñī": 6044,
      "ĠÐ½Ð°Ð³ÑĢÐ°Ð´": 6045,
      "ĠÐºÐ¾Ð»ÑĮÑĨÐ°": 6046,
      "ÐĳÑĥÐ´ÐµÑĤ": 6047,
      "ĠÐ´Ð¸ÑĢÐµÐº": 6048,
      "ĠÐ´ÐµÐ²ÑĩÐ¾Ð½ÐºÐ¸": 6049,
      "ĠÐ´ÐµÐ²ÑĩÐ¾Ð½ÐºÑĥ": 6050,
      "ĠÐ¡Ð°Ð»ÑĤÐ°Ð½Ð°": 6051,
      "ĠiP": 6052,
      "ĠÐ²ÐµÐ»Ð¸ÐºÐ¾Ð»ÐµÐ¿": 6053,
      "Ð½Ð¾ÑģÐ¸ÑĤ": 6054,
      "ĠÐ¿ÑĢÐ¸Ð³Ð»Ð°ÑĪ": 6055,
      "ĠÐ¶ÐµÐ»Ð°Ð½Ð¸Ñı": 6056,
      "ĠÐĿÐ°Ð²ÐµÑĢÐ½ÑıÐºÐ°": 6057,
      "ĠÑģÐµÐ¼ÑĮÐµ": 6058,
      "ĠÐ¿ÐµÑĢÐµÑģÑĤÐ°Ð»": 6059,
      "ĠMacBook": 6060,
      "ĠÑĢÐ¸Ñģ": 6061,
      "ĠÐ¾Ð±ÐµÐ´Ð°": 6062,
      "ĠÑģÐ¾Ð·Ð½": 6063,
      "ĠÐŁÐ¸ÑĤÐµÑĢ": 6064,
      "ĠÐŁÐ¸ÑĤÐµÑĢÐ°": 6065,
      "ÐŁÐ¾Ð»ÐµÐ·Ð½Ð¾": 6066,
      "ĠÐ»ÑİÐ±Ð¾Ð¿ÑĭÑĤÑģÑĤÐ²Ð°": 6067,
      "ĠÑģÐ¾Ð²ÐµÑĤÑĥÑİ": 6068,
      "ĠÐ²Ð°ÑĪÐ°": 6069,
      "ĠÐ¸Ð·ÑĥÑĩÐ°ÑĤÑĮ": 6070,
      "ĠÐ·Ð»Ð¾ÑģÑĤÑĮ": 6071,
      "ĠÐ¾ÑĤÐ»Ð¸ÑĩÐ½ÑĭÐµ": 6072,
      "ĠÐĴÐ¸Ð´Ð¸ÑĪÑĮ": 6073,
      "ĠÐĴÐ¸Ð´Ð¸Ð¼Ð¾": 6074,
      "ĠÐ¡ÐºÐ¾Ð»ÑĮÐºÐ¾": 6075,
      "Ð¡ÑĤÐ°Ð±Ð¸Ð»ÑĮÐ½Ð¾": 6076,
      "ĠÐ¿Ð¸ÑĤÐ°Ð½Ð¸Ðµ": 6077,
      "Ð°ÑİÑīÐ¸ÑħÑģÑı": 6078,
      "ĠÑģÐ¾Ð¼Ð½ÐµÐ²": 6079,
      "ĠÑģÑĤÐ¸Ð»ÑĮÐ½ÑĭÐ¹": 6080,
      "ĠÐ¿Ð¾ÐºÑĢÐ°ÑģÐ½": 6081,
      "ĠÐ¿Ð¾ÐºÑĢÐ°ÑģÐ½ÐµÐ»": 6082,
      "ĠÑĥÐ´Ð¸Ð²Ð»ÐµÐ½Ð¸Ñİ": 6083,
      "ĠÑĪÐ¸ÑĢÐ¾ÐºÐ¾": 6084,
      "ĠÐ¿Ð¾ÑıÑģÐ½Ð¸Ð»": 6085,
      "ĠÑħÐ¸ÑħÐ¸Ðº": 6086,
      "ĠÐ¾Ð¿Ð¸ÑģÐ°ÑĤÑĮ": 6087,
      "ĠÑģÐ¼ÐµÑĢÑĤÑĮ": 6088,
      "ĠÑģÐ¼ÐµÑĢÑĤÐ¸": 6089,
      "ĠÐ·ÐµÐ»ÑĮÐµÐ²ÐµÐ´ÐµÐ½Ð¸Ñı": 6090,
      "ĠÑĢÐ¾Ð¼Ð°Ð½ÑĤÐ¸": 6091,
      "ĠÐ·Ð°Ð½ÑıÑĤÐ¸Ñı": 6092,
      "ĠÐºÐ½Ð¸Ð¶ÐµÑĩÐºÑĥ": 6093,
      "ĠÑįÐ½ÐµÑĢÐ³ÐµÑĤÐ¸ÐºÐ°": 6094,
      "ĠÐ½ÐµÐºÑĥÐ´Ð°": 6095,
      "ĠÐ¿Ð¾Ð´ÑģÐºÐ°Ð·": 6096,
      "ĠÐ¿Ð¾Ð´Ð¿ÑĢÑĭ": 6097,
      "ĠÑĤÐ¾ÑĢÐ¾Ð¿Ð»Ð¸Ð²Ð¾": 6098,
      "ĠÐ²Ð¾ÑģÑĤÐ¾ÑĢÐ³": 6099,
      "ĠÐĿÐµÐ²Ð¸Ð»Ð»": 6100,
      "ĠÐ¿Ð¾Ð·Ð½Ð°ÐºÐ¾Ð¼Ð¸ÑĤÑĮÑģÑı": 6101,
      "ĠÐ´ÑĢÐ°Ð³Ð¾ÑĨ": 6102,
      "ĠÐ´ÑĭÑħÐ°Ð½Ð¸Ðµ": 6103,
      "ĠÐ¿ÑĢÐ¾ÑħÐ»Ð°Ð´": 6104,
      "ĠÐŁÐ°ÑĢÐ¸Ð¶": 6105,
      "ĠÐºÑĥÑĩÑĥ": 6106,
      "ĠÑĢÐµÐ´ÐºÐ¾": 6107,
      "ĠÐĵÐ¾ÑĢÐ»Ð¸ÑĨÐ°": 6108,
      "ĠÐ¾Ð±Ð¸Ð¶ÐµÐ½Ð½Ð¾": 6109,
      "ĠÐºÐ¾Ð½ÑĤÑĢÐ¾Ð»ÑĮ": 6110,
      "ĠÑģÐ°Ð¹ÑĤÐ¾Ð²": 6111,
      "ĠÑģÐ¾Ð¶Ð°Ð»ÐµÐ½Ð¸Ñİ": 6112,
      "ĠÐ³Ð°Ð´Ð¾ÑģÑĤÑĮ": 6113,
      "ÐļÐ°Ð¼ÐµÑĢÑĭ": 6114,
      "ĠÐ¿Ð»ÑĭÐ²ÐµÑĤ": 6115,
      "ĠÐ¿ÑĢÐ¾Ð½Ð·": 6116,
      "ĠÐ²ÑĭÑģÑĤÐ°Ð²ÐºÐµ": 6117,
      "ĠÐ¶ÐµÐ½ÑīÐ¸Ð½": 6118,
      "ĠÑģÐ¾Ð·Ð½Ð°Ð½Ð¸Ðµ": 6119,
      "ĠÐľÐ¸Ð½ÐµÑĢÐ²Ð°": 6120,
      "ĠÐĳÐ°ÑĢÑģÐµÐ»Ð¾Ð½Ñĥ": 6121,
      "ĠÐ½Ð¾Ð¼ÐµÑĢ": 6122,
      "ĠÐ²ÐµÐ¶Ð»Ð¸Ð²Ð¾": 6123,
      "Ð±Ð¾ÑĤÑĥ": 6124,
      "ĠÑĦÐ°Ð½ÑĤÐ°Ð·": 6125,
      "ĠÑĤÐµÑĤÑĢÐ°Ð´ÑĮ": 6126,
      "ĠÐ½ÐµÐ·Ð°Ð¼ÐµÑĤÐ½Ð¾": 6127,
      "ode": 6128,
      "ĠÑģÑĥÐ±Ð±Ð¾ÑĤÑĥ": 6129,
      "ĠÑĢÐµÑĨÐµÐ¿ÑĤ": 6130,
      "Ð¡ÐµÑĢÑĮÑĳÐ·Ð½Ð¾": 6131,
      "ĠÐ¥Ð¾ÑĢÐ¾ÑĪÐµÐ³Ð¾": 6132,
      "ĠÐŁÐ°ÑĢÐ²Ð°ÑĤÐ¸": 6133,
      "ĠÐ¿Ð¾Ð´Ð±Ð¾ÑĢÐ¾Ð´Ð¾Ðº": 6134,
      "ÐĳÑĭÑģÑĤÑĢÑĭÐ¹": 6135,
      "ĠÐ²Ð½ÑĥÑĤÑĢÐµÐ½": 6136,
      "ĠÐ°Ð»ÑĮÐ±Ð¾Ð¼": 6137,
      "ĠÐ½Ð°Ð¿Ð¸ÑģÐ°Ð½Ð¾": 6138,
      "ĠÐŁÑĥÑĦÑĦÐµÐ½Ð´Ñĥ": 6139,
      "ĠÑģÑĤÐ¾Ð¼Ð°ÑĤÐ¾Ð»Ð¾Ð³Ð°": 6140,
      "rbucks": 6141,
      "Ð°ÑĢÐ¼Ð°ÑĨÐµÐ²": 6142,
      "ĠÐľÐ¸ÑĢÑĤÐ»": 6143,
      "ĠÐ¿ÐµÑĢÑģÐ¿ÐµÐºÑĤÐ¸Ð²": 6144,
      "ĠÐ²Ð·Ð²Ð¾Ð»Ð½Ð¾Ð²": 6145,
      "ata": 6146,
      "vo": 6147,
      "Ð°ÑĨÐ¸Ñı": 6148,
      "ÑĤÐ¾Ð¶": 6149,
      "ÑĤÐ¾Ð±": 6150,
      "ÑĤÐµÐ»ÑĮÐ½Ð¾": 6151,
      "ÑĤÐ²ÐµÑĢÐ´": 6152,
      "Ð¸ÐºÑĥ": 6153,
      "Ð¸ÑĢÐ°Ñı": 6154,
      "Ð¸Ð½Ð¸ÑģÑĤÐµÑĢ": 6155,
      "ÑģÐ¾": 6156,
      "ÑģÐºÐ¸": 6157,
      "ÑĢÐµÐ»": 6158,
      "ÑĢÐµÐ½Ð¸Ðµ": 6159,
      "Ð»Ð¸Ð»": 6160,
      "Ð»Ð¾Ðº": 6161,
      "Ð»ÑĥÐ¶": 6162,
      "Ð»ÑĥÑħ": 6163,
      "ÑĥÑį": 6164,
      "ÑıÐ½ÑĥÐ»": 6165,
      "ĠÐ¿Ð°Ðº": 6166,
      "ĠÐ¿Ð¸Ð½": 6167,
      "ĠÐ¿Ð»Ñı": 6168,
      "ĠÑģÐ¸ÑĤ": 6169,
      "ĠÑģÐ½Ñı": 6170,
      "ĠÑģÑĤÐ¾ÑĢÐ¾Ð¶": 6171,
      "ÑĩÐµÐº": 6172,
      "ÑĩÐ½Ð¾Ð¹": 6173,
      "ÑĩÑĥÐ²ÑģÑĤÐ²": 6174,
      "ĠÐ²Ð°ÑĢ": 6175,
      "ĠÐ²Ð¾ÑĢ": 6176,
      "ĠÐ²Ð½Ðµ": 6177,
      "Ð²Ð¾ÑĤ": 6178,
      "Ð´ÑĥÐ¼": 6179,
      "Ð´ÑĨÐ°ÑĤÑĮ": 6180,
      "ÑĤÐ¾Ð»Ð¾Ð³": 6181,
      "Ð¼Ð¾Ð¹": 6182,
      "Ð¼Ð¾Ð¶": 6183,
      "Ð¼Ð±ÑĢÐ¸": 6184,
      "ĠÐ¾Ð´Ðµ": 6185,
      "ÑĪÐ¾Ð¹": 6186,
      "Ð°Ð»ÐºÐ¸": 6187,
      "ĠÐ¸Ñī": 6188,
      "ĠÐ¸Ð±Ð¾": 6189,
      "ÐµÐ½Ð·": 6190,
      "ÐµÐ½Ð°Ð²": 6191,
      "ÐµÐ½Ð½Ð¾Ð¼": 6192,
      "ĠÐ´Ð¸Ð²Ð¾": 6193,
      "ÐµÑĢÐ¿ÐµÐ»": 6194,
      "Ð¾Ð²ÑĥÑİ": 6195,
      "Ð½Ð¾Ñİ": 6196,
      "ĠÐ¼Ð¾Ðº": 6197,
      "ĠÐ¼ÐµÐ»ÑĮ": 6198,
      "ÐµÐ»ÐºÐ°": 6199,
      "ÑİÐ¹": 6200,
      "ÑİÑīÐµ": 6201,
      "Ð°ÐºÐ¾Ð²": 6202,
      "Ð°ÐºÐ°Ð½": 6203,
      "Ð¿Ñĥ": 6204,
      "ÑĢÐ¾Ñħ": 6205,
      "ĠÑĥÐ·": 6206,
      "ĠÑĥÑĪÐ»Ð°": 6207,
      "ĠÑĥÑħÐ²Ð°ÑĤ": 6208,
      "ĠÑĥÐ½Ð¸Ñĩ": 6209,
      "ĠÑĩÐ°ÑĪ": 6210,
      "ĠÑĩÐ»ÐµÐ½": 6211,
      "ĠÐ·Ð¾Ð²ÐµÑĤ": 6212,
      "Ð±Ð¸ÑĤ": 6213,
      "Ð¾Ð»Ð·": 6214,
      "Ð¾Ð»Ð¾Ð²Ð°": 6215,
      "Ð¾Ð»ÑĩÐ°Ð»": 6216,
      "Ð½Ð¸ÑģÑĮ": 6217,
      "Ð»Ð¸ÑĤÐ²": 6218,
      "ÐµÐ¼ÑıÐ½": 6219,
      "ĠÑĢÐµÑĩ": 6220,
      "ĠÐ¿Ð¾ÑģÑĤÐ°Ð²Ð¸Ð»": 6221,
      "ĠÐ¿Ð¾ÑĢÑĥÑĩ": 6222,
      "ĠÐ¿Ð¾ÑģÑĤÑĢÐ°Ð´": 6223,
      "ĠÐ½Ð°Ð¸Ð²": 6224,
      "Ð°Ð·Ð°Ð»Ð¾ÑģÑĮ": 6225,
      "Ð°Ð²ÑĤÐ¾Ð¼": 6226,
      "Ð¾Ð³Ð°": 6227,
      "Ð³Ð»Ð¸": 6228,
      "Ð¾ÑĢÐ¾Ð¼": 6229,
      "Ð¾ÑĢÐµÐµ": 6230,
      "Ð¸ÑĤÐ¸Ð²": 6231,
      "ÐµÐ´Ð¾Ð¼": 6232,
      "ĠÐ¾ÑĤÐ¼": 6233,
      "ĠÐ¾ÑĤÐ´Ð°": 6234,
      "Ð°Ð´ÑĨÐ°ÑĤÑĮ": 6235,
      "ĠÐ¿ÑĢÐ¾ÑĤ": 6236,
      "ĠÐ¿ÑĢÐ¾ÑģÑĤÐ¸": 6237,
      "ĠÐ¿ÑĢÐ¾ÑĩÑĮ": 6238,
      "ĠÑıÐ·": 6239,
      "ĠÐĶÐ¸Ð½": 6240,
      "ĠÐ¿ÑĢÐµÑĢ": 6241,
      "ĠÐ¿ÑĢÐ¾Ð¹Ð´ÐµÑĤ": 6242,
      "ÐļÐ¾ÑĢÐ¾": 6243,
      "ÐļÑĥÐ¿": 6244,
      "ĠÐ¿ÑĢÐ¸ÑĪ": 6245,
      "ĠÐ¿ÑĢÐ¸Ð´Ñĥ": 6246,
      "ĠÐ¿ÑĢÐ¸Ð»Ð¾Ð¶": 6247,
      "ĠÐ¿ÑĢÐ¸ÑħÐ¾Ð´Ð¸ÑĤ": 6248,
      "Ð¸Ð²Ð°ÐµÑĤÑģÑı": 6249,
      "Ð¸Ð²ÑĪÐ°Ñı": 6250,
      "ĠÐ²ÑģÐµÐ¹": 6251,
      "ĠÐ²ÑģÐ»ÐµÐ´": 6252,
      "ĠÐ²ÑģÐ»ÑĥÑħ": 6253,
      "ĠÐ¶ÐµÑĢÑĤÐ²": 6254,
      "ÐŁÑĢÐ°Ð²": 6255,
      "ÐŁÑĮÑİ": 6256,
      "ĠÐºÐ°ÐºÐ¾Ð³Ð¾": 6257,
      "ĠÑģÑĤÐ¸Ñħ": 6258,
      "ĠÑģÑĤÐ°ÐºÐ°Ð½": 6259,
      "ĠÐ²ÑĭÑĤÐ²Ð¾ÑĢ": 6260,
      "Ð»ÑıÑĤÑĮÑģÑı": 6261,
      "ÐĲÐ½": 6262,
      "ĠÐ¿Ð¾Ð´ÑĢÑĥÐ³": 6263,
      "ĠÐ¿Ð¾Ð´ÐºÐ¾Ð»": 6264,
      "ĠÐ¿Ð¾Ð´ÑĥÑĪÐºÐ¸": 6265,
      "ĠÐ¾Ð±Ð»Ð¸Ð·": 6266,
      "ĠÐ¾Ð±ÑıÐ·": 6267,
      "ĠÐ¾Ð±Ð½Ð¾Ð²": 6268,
      "Ð¸Ð´ÑĥÑİ": 6269,
      "ĠÐĲÐ½": 6270,
      "ÐĿÐ°ÐºÐ¾Ð½ÐµÑĨ": 6271,
      "ÐµÐ½ÑĮÐºÐ°": 6272,
      "ÐºÑĥÐ¿": 6273,
      "ÐŀÐºÐ¾Ð»Ð¾": 6274,
      "ĠÑģÐ»ÑĥÑħ": 6275,
      "ĠÑģÐ»ÑĳÐ·": 6276,
      "ÐµÐºÑĤ": 6277,
      "ÑĤÐ¸ÑĢÐ°Ñı": 6278,
      "ĠÐļÐ¾": 6279,
      "Ð¡ÑĥÐ¿": 6280,
      "Ð¡Ð¼Ð¾ÑĤÑĢ": 6281,
      "ĠÑģÐ¿ÐµÑĨÐ¸": 6282,
      "ĠÐĴÐµÐ½": 6283,
      "ĠÐĴÐ¾Ð·": 6284,
      "Ð°ÑİÑīÐ¸Ðµ": 6285,
      "Ð¾ÑĩÑĤÐ¸": 6286,
      "ÑĪÐ¸Ð¼Ð¸": 6287,
      "ĠÐľÐ¾Ð¶Ð½Ð¾": 6288,
      "ĠÐľÐ¸Ð½Ð¸ÑģÑĤÐµÑĢ": 6289,
      "ÑĭÐ²Ð°Ð»Ð¸ÑģÑĮ": 6290,
      "ÑĭÐ²Ð°ÑİÑĤÑģÑı": 6291,
      "Ð°Ð»ÑĮÐ½Ð¾Ð³Ð¾": 6292,
      "Ð°Ð»ÑĮÐ½ÑĭÑħ": 6293,
      "Ð°Ð»ÑĮÑĩÐ¸Ðº": 6294,
      "ĠÐ¿ÐµÑĢÐµÑĩ": 6295,
      "ÐµÐ³Ð°Ð»": 6296,
      "Ð¸Ð¼Ð°": 6297,
      "ÑĢÐ¾ÑģÐ¸Ð»Ð°": 6298,
      "ÑĥÐ¶Ñĥ": 6299,
      "ÑģÐ¿Ð¾ÐºÐ¾Ð¹": 6300,
      "ÐµÐ¶Ð½Ð¾": 6301,
      "ÐŁÑĢÐ¸ÑħÐ¾Ð´Ð¸": 6302,
      "ÑĤÐ¾ÑĢÐ¾Ð¿": 6303,
      "ĠÐ¿Ð¾Ð»Ð¾Ð²": 6304,
      "ĠÐ¿Ð¾Ð»Ð½ÑĭÐ¹": 6305,
      "ÑĥÑİÑīÐ¸Ðµ": 6306,
      "ĠÑĪÐ²ÑĭÑĢ": 6307,
      "ĠÐ´Ð¾Ð½ÐµÑģ": 6308,
      "ĠÐ¿Ð¾ÐºÐ°ÑĤ": 6309,
      "ĠÐ¿Ð¾ÐºÐ¸Ð²Ð°Ð»": 6310,
      "ĠÐ·Ð½Ð°ÑİÑĤ": 6311,
      "ĠÐ·Ð½Ð°ÐµÑĤÐµ": 6312,
      "ĠÑģÐ¾Ð¾ÑĤ": 6313,
      "ĠÑģÐ¾ÑģÑĤÐ¾": 6314,
      "ĠÐ´ÑĢÑĥÐ³ÑĥÑİ": 6315,
      "ĠÑģÐ°Ð¼Ð°Ñı": 6316,
      "ĠÑģÐ°Ð¼ÑĭÐµ": 6317,
      "ĠÑĢÑĥÑħ": 6318,
      "ÐµÐ½Ð¸ÑıÐ¼Ð¸": 6319,
      "ĠÐ¾Ð´Ð½Ð¾Ð¼": 6320,
      "ĠÐłÐ¾Ð½Ð¾Ð¼": 6321,
      "ÑĩÐ¸ÐºÐ°": 6322,
      "ĠÑģÑĤÐ¾Ð»Ð¸": 6323,
      "ĠÑģÑĤÐ¾Ð»Ð°": 6324,
      "ĠÑģÑĤÐ¾ÑıÐ»Ð¸": 6325,
      "ÐľÐ°ÑĢ": 6326,
      "ÑĩÐ¸ÑĤÐ°ÑĤÑĮ": 6327,
      "ĠÑģÐ²Ð¸Ð½": 6328,
      "ĠÐ¿Ð¾Ð¼Ð¾Ð³Ð¸": 6329,
      "ĠÐ¿Ð¾Ð¼Ð½Ð¸ÑĪÑĮ": 6330,
      "ĠÐ´Ð²Ð¸Ð³": 6331,
      "ÑĥÑģÐºÐ°Ñı": 6332,
      "ÐºÐµÑĤÐ¾Ð»Ð¾Ð³": 6333,
      "ĠÑĦÐ»Ñİ": 6334,
      "ĠÐ¾Ð¿ÑĢÐ°Ð²Ð´": 6335,
      "ÑįÐº": 6336,
      "ÑįÑĤÐ¾": 6337,
      "ĠÑħÐ¾ÑĤÐµÐ»Ð¸": 6338,
      "ĠÐ¿Ð¾ÑģÐ°Ð´": 6339,
      "Ð»ÑĭÐ¼": 6340,
      "ÑĭÑĤÐ½ÑĭÐ¹": 6341,
      "ĠÐ¿Ð¾Ð²ÑĭÑĪ": 6342,
      "ĠÐºÐ¾ÑĤÐ¾ÑĢÐ¾Ð¼Ñĥ": 6343,
      "ÑĢÐµÐ´Ð¸": 6344,
      "ĠÐ¿Ð¾Ð¿Ð°Ð´": 6345,
      "ĠÐ¿Ð¾Ð¿Ð°ÑģÑĤÑĮ": 6346,
      "ĠÐ·Ð°Ð¼Ð¾Ð»Ñĩ": 6347,
      "ĠÐ±Ð»ÐµÑģ": 6348,
      "ÑıÐ»Ð¾Ð¼": 6349,
      "ĠÐºÐ¾Ð¼Ð¼ÐµÐ½": 6350,
      "ĠÐĹÐ°Ðº": 6351,
      "ĠÐĹÐ°ÑĩÐµÐ¼": 6352,
      "ĠÐ¿ÑĢÐ¾ÑĦÐµÑģÑģÐ¾ÑĢÐ¾Ð¼": 6353,
      "Ð£Ð¶Ðµ": 6354,
      "ĠÐ¿Ð»ÐµÐ¼ÑıÐ½": 6355,
      "ĠÐ²ÐµÑĢÐ½ÑĥÑĤÑĮÑģÑı": 6356,
      "ĠÐ±ÐµÐ·Ð·": 6357,
      "ÐłÐ¾Ð¼": 6358,
      "ĠÐ½ÐµÑĤÐµÑĢÐ¿ÐµÐ»": 6359,
      "ĠÐ¿ÑĥÑĤÐ¸": 6360,
      "ĠÐ·Ð½Ð°Ð»Ð¸": 6361,
      "ĠÑģÑĤÐ°ÑĢÐ°ÑĤÐµÐ»ÑĮÐ½Ð¾": 6362,
      "ĠÐ·Ð°Ð¿ÐµÑĢ": 6363,
      "ĠÐŃÑĤÐ¾ÑĤ": 6364,
      "ĠÐ²ÐµÑĩÐ½Ð¾": 6365,
      "ĠÐ¸Ð¼Ð¼Ñĥ": 6366,
      "ĠÐ¸Ð¼ÐµÑĤÑĮ": 6367,
      "ĠÐ²Ð¾Ð»ÑĪÐµÐ±Ð½Ð¾Ð³Ð¾": 6368,
      "ĠÐ²Ð¾Ð»ÑĪÐµÐ±Ð½ÑĭÐµ": 6369,
      "ĠÑĢÐ¾Ð´ÑģÑĤÐ²ÐµÐ½": 6370,
      "ĠÐ¾ÑĩÐºÐ°Ñħ": 6371,
      "ĠÐ»ÑĥÑĩÑĪÐµÐ³Ð¾": 6372,
      "ĠÐŁÐ¾ÑģÐºÐ¾Ð»ÑĮÐºÑĥ": 6373,
      "ĠÐŁÐ¾Ð½Ð¸Ð¼Ð°ÐµÑĪÑĮ": 6374,
      "ĠÑģÐ¾Ð±ÑģÑĤÐ²ÐµÐ½Ð½Ð¾": 6375,
      "ĠÑģÐ¾Ð±Ð»Ð°Ð·": 6376,
      "ÐµÑħÐ°Ð»Ð¸": 6377,
      "ĠÑĤÐµÐ¼Ð¿ÐµÑĢÐ°ÑĤÑĥÑĢÐ°": 6378,
      "ĠÐ¼Ð¾ÑĢÐ°Ð»ÑĮ": 6379,
      "ĠÑĤÑĢÐ°Ð½Ñģ": 6380,
      "ĠÑĥÐ»ÑĭÐ±ÐºÐ¾Ð¹": 6381,
      "ĠÑģÐ´ÐµÐ»Ð°Ð»Ð¸": 6382,
      "ĠÑĩÑĥÐ²ÑģÑĤÐ²Ð°": 6383,
      "ĠÐ½Ð°ÑĪÐ»Ð¸": 6384,
      "ĠÐ¾ÑģÑĤÐ°ÑĤÑĮÑģÑı": 6385,
      "ĠÐ¾ÑģÑĤÐ°Ð»ÑĮÐ½ÑĭÐµ": 6386,
      "ĠÑģÐ¸Ð´ÐµÐ»Ð¸": 6387,
      "ÑģÑĤÐ²ÐµÐ½Ð½Ð¾Ð¹": 6388,
      "ĠÐ½ÐµÐ²Ð¸Ð´Ð¸Ð¼": 6389,
      "ÑĥÑģÑĤÐ¸Ð»Ð°": 6390,
      "ĠÐ²Ð·Ð´ÑĭÑħ": 6391,
      "Ð¸ÑĤÐµÑģÑĮ": 6392,
      "ĠÑĢÐ°ÑģÑĤÑĢÐµÐ¿": 6393,
      "ĠÑįÑĤÐ¸Ð¼Ð¸": 6394,
      "Ð¸ÑĤÐµÐ»ÑĮÐ½Ð¾Ð¹": 6395,
      "ĠÐ¸Ð½ÑĤÐµÑĢÐµÑģÐ½Ð¾Ðµ": 6396,
      "ĠÑĥÑģÐ¸Ð»": 6397,
      "ĠÑĥÑģÐ½ÑĥÑĤÑĮ": 6398,
      "ĠÐ¼Ð°Ð»ÐµÐ¹": 6399,
      "ĠÐ¿ÐµÑĢÐ²Ð°Ñı": 6400,
      "ĠÐ¿ÑĢÐ¾Ð³Ð»Ð¾ÑĤ": 6401,
      "ĠÐ¤Ð»Ð¸ÑĤÐ²": 6402,
      "ÑĢÐ¸ÑĤÐµÐ»ÑĮ": 6403,
      "ĠÐºÐ¾ÑĤÑıÑĤ": 6404,
      "ÐµÑĤÐµÑģÑĮ": 6405,
      "ĠÑĥÑģÐ»Ð¾Ð²": 6406,
      "Ð°ÑİÑīÑĥÑİ": 6407,
      "ĠÐ¿Ð¾ÐºÐ°Ð·ÑĭÐ²Ð°Ð»Ð¸": 6408,
      "ĠÐ±Ð¾ÑıÑģÑĮ": 6409,
      "ĠÐ¸Ð³ÑĢÐ¾Ð²Ð¾Ð¹": 6410,
      "ĠÐ³Ð¾ÑĢÐµ": 6411,
      "Ð¡Ð»ÑĥÑĪ": 6412,
      "Ð¡Ð»ÑĥÑĪÐ°Ð¹": 6413,
      "Ð°ÑĤÐµÐ»ÑĮÐ½Ð°Ñı": 6414,
      "ĠÐ¿Ð¾Ð¼Ð¾Ð³Ð°Ð»": 6415,
      "ĠÐ´ÐµÑĢÐ¶Ð¸ÑĤ": 6416,
      "ĠÐ´ÐµÑĢÐ¶Ð¸ÑĤÑģÑı": 6417,
      "ĠÐ¿ÑĢÐ¸Ð²ÑĭÑĩÐºÐ¸": 6418,
      "ĠSta": 6419,
      "ĠÑĨÐ°ÑĢÑĮ": 6420,
      "ĠÑģÑĤÑĢÐ°ÑĪÐ½ÑĭÐ¹": 6421,
      "ĠÐ´ÐµÑĤÐ¸": 6422,
      "ĠÐ¿Ð¾ÑģÐ¼Ð¾ÑĤÑĢÐµÐ»Ð¸": 6423,
      "ĠÐ¿Ð¾Ð½ÑĤÐ¾Ð²": 6424,
      "ĠÐ¾ÐºÑĢÑĥÐ¶": 6425,
      "ĠÐºÐ¸Ð½ÑĥÐ»ÑģÑı": 6426,
      "ĠÑĥÑģÐ»ÑĭÑĪÐ°Ð²": 6427,
      "ĠÐ±ÑĢÐ¾ÑģÐ¸Ð»Ð°": 6428,
      "ĠÐ·Ð°ÑģÐ¼ÐµÑıÐ»ÑģÑı": 6429,
      "ĠÐ¿ÑĢÐ¾ÑģÐ¸Ð»": 6430,
      "ĠÐ¿ÑĢÐ¾ÑģÐ¸ÑĤ": 6431,
      "ĠÐ²ÑĭÐ±ÐµÐ¶Ð°Ð»": 6432,
      "Ð¥Ð¾ÑĩÐµÑĪÑĮ": 6433,
      "ĠÐ¿Ð¾Ð²ÐµÑĢÐ½ÑĥÐ²ÑĪÐ¸ÑģÑĮ": 6434,
      "ĠÐ¿ÑĢÐ¸Ð²ÑıÐ·": 6435,
      "ĠÐļÐ¾ÑĢÐ¾Ð»ÐµÐ²Ñĭ": 6436,
      "ĠÐ²Ð¾Ð´Ñĥ": 6437,
      "ĠÑĥÐ³Ð¾Ð²Ð°ÑĢÐ¸Ð²": 6438,
      "ĠÑĥÐ³Ð»Ñĥ": 6439,
      "ĠÑĥÐ³Ð¾Ð´Ð½Ð¾": 6440,
      "ĠÐºÐ¾ÑĪÐ°Ñĩ": 6441,
      "ĠÐ»Ð°Ð¼Ð¿Ð°": 6442,
      "ĠÐ¼Ð°Ð³Ð³Ð»Ð¾Ð²ÑģÐºÑĥÑİ": 6443,
      "ĠÐ¿Ð°Ð»ÑĮÑĨÐ°Ð¼Ð¸": 6444,
      "ĠÑģÐ»ÐµÐ´ÑĥÑİÑīÐµÐµ": 6445,
      "ĠÐ¼Ð°Ð½ÑĤÐ¸ÐµÐ¹": 6446,
      "Ð¤Ð°ÑĢÐ¼Ð°ÑĨÐµÐ²": 6447,
      "ĠÑĥÑĤÐºÐ½ÑĥÐ»ÑģÑı": 6448,
      "ĠÐºÐ¾ÑĢÑĮÑİ": 6449,
      "ĠÑįÐºÑģÐ¿": 6450,
      "ĠÐŀÑĤÐºÑĥÐ´Ð°": 6451,
      "ĠÐ·Ð°Ð³Ð»ÑıÐ´": 6452,
      "ĠÑħÐ²Ð°ÑĤÐ¸Ð»Ð¾": 6453,
      "ĠÑĨÐµÐ»ÑĥÑİ": 6454,
      "ĠÐ¼Ð¾Ð»Ð¾Ð´Ð¾Ð¹": 6455,
      "ĠÑĩÐ°ÑģÑĤÐ¸": 6456,
      "ĠÐ´ÐµÐ¹ÑģÑĤÐ²Ð¸Ñı": 6457,
      "ĠÑģÐºÐ°Ð¶Ð¸": 6458,
      "ĠÑĪÐµÐ¸": 6459,
      "ĠÐ´ÐµÑĢÐ±Ð¸": 6460,
      "ĠÐ½ÐµÑģÐ¼Ð¾ÑĤÑĢÑı": 6461,
      "ĠÐ·Ð¾Ð»Ð¾ÑĤÐ°Ñı": 6462,
      "ĠÐ·Ð¾Ð»Ð¾ÑĤÑĭÑħ": 6463,
      "ĠÐ³Ð¾ÑĢÑıÑĩÐ¸Ñħ": 6464,
      "ĠÐ²ÑĭÑħÐ¾Ð´Ð½ÑĭÑħ": 6465,
      "ĠÐ¾Ð³ÑĢÐ¾Ð¼Ð½Ð¾Ðµ": 6466,
      "ĠÐ²Ð»ÑİÐ±Ð¸Ð»ÑģÑı": 6467,
      "ÐłÐµÐ³ÑĥÐ»ÑıÑĢÐ½ÑĭÐµ": 6468,
      "ĠÐ½ÐµÐ¿ÑĢÐ¸ÑıÑĤÐ½Ð¾ÑģÑĤÐ¸": 6469,
      "ĠÐ½Ð°ÑĢÐ¾Ð´": 6470,
      "ĠÐľÐ°Ð»ÑĦÐ¾Ñİ": 6471,
      "ĠÐļÑĢÐ¾Ð»Ð¸": 6472,
      "Ð¦ÐµÐ½Ð°": 6473,
      "ÑİÑīÐ¸Ñħ": 6474,
      "ĠÑģÐ»Ð°Ð±Ð¾ÑģÑĤÐ¸": 6475,
      "ĠÑĢÐµÐ·ÐºÐ¾": 6476,
      "ĠÐ³ÑĢÐ¾Ð¼ÑĩÐµ": 6477,
      "ĠÐ½ÐµÐ½Ð°Ð²Ð¸Ð´": 6478,
      "ĠÐ½ÐµÐ½Ð°Ð²Ð¸ÑģÑĤ": 6479,
      "ĠÐ½ÐµÐ½Ð°Ð²Ð¸Ð´Ð¸ÑĤ": 6480,
      "ĠÐ´ÐµÐ²Ð¾ÑĩÐµÐº": 6481,
      "ĠÐ½Ð°Ð³Ð»Ð¾": 6482,
      "ÐŀÐ¿ÑĭÑĤÐ½ÑĭÐ¹": 6483,
      "ĠÐºÐ¾ÑģÐ½ÑĥÐ»ÑģÑı": 6484,
      "ĠÑģÑİÐ¶ÐµÑĤ": 6485,
      "ĠÐ¶Ð°Ð»Ð¾Ð±Ð½Ð¾": 6486,
      "ĠÐ´Ð¾Ð±ÑĢÐ¾Ð´ÑĥÑĪ": 6487,
      "ĠÑĩÐ¸ÑģÑĤÑĭÐ¹": 6488,
      "ĠÐ¿ÑĢÐµÐ´Ð»Ð¾Ð¶Ð¸ÑĤÑĮ": 6489,
      "ĠÐ¿ÑĢÐµÐ´Ð»Ð¾Ð¶Ð¸Ð»Ð°": 6490,
      "ĠÐ¿Ð¸ÑģÑĮÐ¼Ð°": 6491,
      "ĠÐ¸ÑģÑĤÐ¾ÑĢÐ¸Ð¸": 6492,
      "ĠÐ¶ÐµÐ»Ð°Ð½Ð¸Ñİ": 6493,
      "ĠÐŀÐ±ÑĢÑıÐ´": 6494,
      "ĠÐºÑĢÑĭÐ»Ðµ": 6495,
      "ĠÐĺÐ·Ð²Ð¸Ð½Ð¸": 6496,
      "ĠÐ´ÑĭÑĪÐ°": 6497,
      "ĠÐ³ÑĥÐ»ÑıÐ»": 6498,
      "ĠÐ¾Ð³Ð¾ÑĢÑĩ": 6499,
      "ĠÐ¼ÑıÐ³ÐºÐ¾": 6500,
      "ĠÑģÐ¾Ð±ÑģÑĤÐ²ÐµÐ½Ð½Ð¾Ð¹": 6501,
      "ĠÐ³ÑĢÐ¸ÑĦÑĦÐ¸Ð½Ð´Ð¾ÑĢÑĨÐµÐ²": 6502,
      "ĠÐ¾ÑĤÑĩÐ°ÑıÐ½Ð¸Ñı": 6503,
      "ĠÐ¿ÑĢÐ¸ÐºÐ°Ð·Ð°Ð»Ð°": 6504,
      "ĠÐ·Ð°Ð¿Ð¸ÑģÐ°ÑĤÑĮÑģÑı": 6505,
      "ĠÐ±ÐµÑĢÐµÐ³Ñĥ": 6506,
      "ĠÐºÐ°ÑĩÐµ": 6507,
      "ĠÐºÐ°ÑĩÐµÑģÑĤÐ²Ð¾": 6508,
      "ĠÐ±Ð°Ð½Ðº": 6509,
      "ĠÐ²Ð·Ð³Ð»ÑıÐ½ÑĥÐ»": 6510,
      "ĠÐ²Ð¾Ð·Ð²ÑĢÐ°ÑīÐ°ÑĤÑĮÑģÑı": 6511,
      "ĠÐºÐ¾Ð¼Ð¿Ð»ÐµÐº": 6512,
      "ĠÐ¾ÑĤÐºÑĢÑĭÐ»Ð°": 6513,
      "ĠÐ¡Ð°Ð¼Ð¾Ðµ": 6514,
      "ĠÐ²Ð¾Ð·Ð¼ÑĥÑĤÐ¸Ð»Ð°ÑģÑĮ": 6515,
      "ĠÐ´Ð¾Ð¿Ð¾Ð»Ð½Ð¸ÑĤÐµÐ»ÑĮÐ½ÑĭÐ¹": 6516,
      "ĠÐ´Ð¾Ð¿Ð¾Ð»Ð½Ð¸ÑĤÐµÐ»ÑĮÐ½ÑĭÐµ": 6517,
      "ĠÐ´Ð¾Ð¿Ð¾Ð»Ð½Ð¸ÑĤÐµÐ»ÑĮÐ½ÑĭÑħ": 6518,
      "ĠÑģÐ¿ÑĢÑıÑĤÐ°Ð»": 6519,
      "Ð¸ÑģÐºÐ¸Ð²": 6520,
      "ĠÐ¾ÑģÐ²ÐµÑī": 6521,
      "ĠÑĩÑĥÐ²ÑģÑĤÐ²Ð¸ÑĤÐµÐ»ÑĮÐ½Ð¾ÑģÑĤÐ¸": 6522,
      "ĠÐ±ÑĥÑĢÐºÐ½ÑĥÐ»": 6523,
      "ĠÑģÑĤÐµÐºÐ»ÑıÐ½": 6524,
      "Ð°ÐµÑĤÐµÑģÑĮ": 6525,
      "ĠÐ½Ð°Ð¿Ð¾Ð¼Ð½Ð¸Ð»": 6526,
      "ĠÐ½ÐµÐ¶Ð½Ð¾": 6527,
      "ĠÐ²ÐµÐ´ÐµÑĤ": 6528,
      "ĠÐ²ÑĭÐ³Ð»ÑıÐ´Ð¸ÑĤ": 6529,
      "ĠÑģÐ¾ÑģÑĢÐµÐ´Ð¾ÑĤÐ¾ÑĩÐ¸ÑĤÑĮÑģÑı": 6530,
      "ĠÑıÐ²Ð¸Ð»ÑģÑı": 6531,
      "ĠÐ¿ÑĢÐ¸ÑģÑıÐ¶Ð½ÑĭÐµ": 6532,
      "ĠÐ°ÑĢÑħÐ¸ÑĤÐµÐºÑĤÐ¾ÑĢ": 6533,
      "ĠÐ²ÐµÑīÑĮ": 6534,
      "ĠÐ¸Ð·Ð²ÐµÑģÑĤ": 6535,
      "ĠÐ·Ð°Ð¶Ð¼ÑĥÑĢÐ¸Ð»ÑģÑı": 6536,
      "ĠÑĥÐ»Ð¸ÑĨÑĥ": 6537,
      "ĠÑĢÐ¾Ð¼Ð°Ð½": 6538,
      "ĠÑįÐ¼Ð¾ÑĨÐ¸Ð¸": 6539,
      "ĠÑįÐ¼Ð¾ÑĨÐ¸Ð¹": 6540,
      "ĠÑģÑĤÐ°Ð½Ð¾Ð²Ð¸ÑĤÑģÑı": 6541,
      "ĠÐ²ÑĭÑĥÑĩÐ¸ÑĤÑĮ": 6542,
      "ĠÐ¿Ð¾Ð²ÑĤÐ¾ÑĢÐ¸Ð»Ð°": 6543,
      "ĠÐ½Ð°Ð¿Ð¸ÑģÐ°ÑĤÑĮ": 6544,
      "ĠÐºÐ½Ð¸Ð¶ÐµÑĩÐºÐ°": 6545,
      "ĠÐ²ÐµÑĢÐ¸ÑĤÑĮ": 6546,
      "ĠÐ½Ð°ÑĩÐ¸Ð½Ð°ÐµÑĤ": 6547,
      "ÐĿÑĥÐ¶Ð½Ð°": 6548,
      "ĠÑģÐ»ÐµÐ·Ð°Ð¼Ð¸": 6549,
      "ĠÑģÐ¾ÑģÑĤÐ¾ÑıÐ½Ð¸Ðµ": 6550,
      "ĠÑĢÐ°ÑģÑģÑĤÐµÐ³": 6551,
      "ĠÐ¾Ð´ÐµÐ¶Ð´Ð°": 6552,
      "ÐłÐ°Ð·Ð½ÑĭÐµ": 6553,
      "ĠÐ¿Ð¾Ð³Ð»Ð°Ð´Ð¸Ð»Ð°": 6554,
      "ĠÐ¥Ð¾Ð³ÑģÐ¼Ð¸Ð´Ðµ": 6555,
      "ĠÑĤÐµÐ»ÐµÐ²Ð¸Ð·Ð¾ÑĢÑĭ": 6556,
      "ĠÐ²Ð¾ÑģÑĤÐ¾ÑĢÐ¶": 6557,
      "ĠÐ¿Ð°Ð¼ÑıÑĤÐ¸": 6558,
      "ĠÐ²ÐµÐ½ÑĩÐ°Ð½Ð¸Ñı": 6559,
      "ĠÐ¿Ð¾ÑĤÐ°ÑīÐ¸Ð»": 6560,
      "ĠÐ°Ð»ÐºÐ¾Ð³Ð¾": 6561,
      "ÐĳÐ¾Ð»ÐµÐ»": 6562,
      "ĠÐºÐ°ÑģÐ°ÐµÑĤÑģÑı": 6563,
      "ĠÑĢÐ°ÑģÑģÐºÐ°Ð¶Ñĥ": 6564,
      "ĠÐ·Ð²ÑĥÑĩÐ¸ÑĤ": 6565,
      "ĠÐ¿ÑĢÐµÐ´Ð¿Ð¾Ð»Ð¾Ð¶": 6566,
      "ĠÐŁÐ¾ÑģÐ¼Ð¾ÑĤÑĢÐ¸": 6567,
      "ÐŁÐ¾Ð·Ð´ÑĢÐ°Ð²Ð»ÑıÑİ": 6568,
      "ĠÑģÐ¾Ð¾Ð±ÑīÐ¸Ð»": 6569,
      "ĠÐ½Ð°ÑģÑĤÐ¾ÑıÑīÐ°Ñı": 6570,
      "ĠÐ±Ð¾Ð»ÑĮÐ½Ð¸ÑĩÐ½Ð¾Ð¼": 6571,
      "ĠÑĤÑĢÐµÐ²Ð¾Ð³Ð¾Ð¹": 6572,
      "ĠÑĢÐ°Ð·Ð¼ÑĭÑĪÐ»Ñı": 6573,
      "ĠÐ¼Ð»Ð°Ð´ÐµÐ½ÑĨÐ°": 6574,
      "++?": 6575,
      "ĠÐ¾ÑĦÐ¸Ñģ": 6576,
      "ĠÐ³Ð½ÐµÐ²Ð°": 6577,
      "ĠÐ³ÑĢÑĭÐ·ÐµÑĤ": 6578,
      "ĠÐ¿Ð¾Ð´Ð¼Ð¸Ð³Ð½ÑĥÐ»": 6579,
      "ĠÐ¾Ð±ÐµÑģÐ¿Ð¾ÐºÐ¾ÐµÐ½Ð¾": 6580,
      "ĠÑģÐ¼ÑĭÑģÐ»Ðµ": 6581,
      "ĠÐ¿Ð¾ÑĨÐµÐ»Ð¾Ð²Ð°Ð»Ð°": 6582,
      "ĠÐ²ÑĭÐ±ÑĢÐ°ÑĤÑĮÑģÑı": 6583,
      "ĠÐ¾ÑĢÐ³Ð°Ð½Ð¸Ð·": 6584,
      "ĠÑģÐ¾Ð±ÑĢÐ°Ð»ÑģÑı": 6585,
      "Ð¤Ð°Ð½ÑĤÐ°ÑģÑĤÐ¸ÐºÐ°": 6586,
      "Ð¼Ð°ÑĤÑĢÐ¸Ð²": 6587,
      "ĠÐ´ÐµÐ½ÐµÐ³": 6588,
      "ĠÐ±Ð¾Ð¹ÑģÑı": 6589,
      "ĠÑħÐ¾ÑħÐ¾ÑĤÐ°": 6590,
      "ÐĿÑĢÐ°Ð²Ð¸ÑĤÑģÑı": 6591,
      "ĠÐ·Ð°ÑħÐ²Ð°ÑĤÑĭÐ²Ð°ÐµÑĤ": 6592,
      "ĠÐ¿ÐµÑĢÐ³Ð°Ð¼ÐµÐ½ÑĤ": 6593,
      "ĠÐ±ÑĥÐºÐ²Ð°Ð»ÑĮÐ½Ð¾": 6594,
      "ÐļÐ¾ÑĢÐ°Ð±ÐµÐ»ÑĮÑīÐ¸": 6595,
      "ĠÑģÐ¾Ð»Ð½ÑĨÐµ": 6596,
      "ĠÐ´ÐµÐ¶ÑĥÑĢ": 6597,
      "ĠÑĤÑĥÐ¼Ð±": 6598,
      "ĠÐ±Ð°ÑĤÐ°ÑĢ": 6599,
      "ĠÐľÐ°Ð¹Ð¼ÑĥÐ½": 6600,
      "ĠÐ²Ð¾ÑģÑĤÑĢÐµÐ±Ð¾Ð²Ð°": 6601,
      "ĠÐ¾Ð±ÑĬÑıÑĤÐ¸ÑıÑħ": 6602,
      "ĠÑĢÐµÐ±ÑĳÐ½ÐºÐ¾Ð¼": 6603,
      "ĠÐĿÐŀÐ§Ð¸": 6604,
      "Ð¼Ð¾Ð½Ð°Ð²ÑĤÐ¾Ð¼": 6605,
      "Ð¼Ð¾ÑģÑĦ": 6606,
      "ĠÐ±Ð»Ð¾ÐºÐ¾Ð»Ð¾Ð³Ð¸Ñİ": 6607,
      "ĠÐ¿ÑĥÑĤÐµÑĪÐµÑģÑĤÐ²Ð¸Ñı": 6608,
      "ĠÐ½ÐµÑģÐ¿ÑĢÐ°Ð²ÐµÐ´Ð»Ð¸Ð²Ð¾": 6609,
      "ĠÐ´ÐµÐ»Ð¸ÐºÐ°ÑĤ": 6610,
      "ÐĶÐµÑĤÐµÐºÑĤÐ¸Ð²": 6611,
      "ĠÐ¿ÑĢÐ¾ÑĪÐ¸Ð¿ÐµÐ»": 6612,
      "ĠÐ´Ð¸ÑĢÐµÐºÑĤÐ¾ÑĢÐ°": 6613,
      "ĠÑģÐ¾Ð·Ð½Ð°Ð»ÑģÑı": 6614,
      "Ð¼Ð±ÑĢÐ¸Ð´Ð¶": 6615,
      "ĠÐ¾Ð´ÐµÑıÐ»Ð¾Ð¼": 6616,
      "ĠÐ½ÐµÑĤÐµÑĢÐ¿ÐµÐ»Ð¸Ð²Ð¾": 6617,
      "ĠÑĤÑĢÐ°Ð½ÑģÑĦÐ¸Ð³": 6618,
      "ĠStarbucks": 6619,
      "ÐļÐ¾ÑĢÐ°Ð±ÐµÐ»ÑĮÑīÐ¸ÐºÐ¸": 6620,
      "?..": 6621,
      "SU": 6622,
      "Uni": 6623,
      "js": 6624,
      "ss": 6625,
      "Ð®": 6626,
      "ĠÑİÐ±": 6627,
      "ĠUni": 6628,
      "Ð¾ÑģÑĤ": 6629,
      "Ð¾ÑģÐ¿": 6630,
      "Ð°Ð½Ð¾": 6631,
      "Ð°Ð½Ñĥ": 6632,
      "Ð¸ÑĢÐ¸": 6633,
      "Ð¸ÑĨ": 6634,
      "Ð¸Ð¼Ñĥ": 6635,
      "ÑģÐºÐ¾Ðµ": 6636,
      "ÑģÐ¾ÑĢÐ¸": 6637,
      "ÑĢÐ¿ÑĢÐ¸": 6638,
      "Ð»ÐµÐ½Ð¸Ð¹": 6639,
      "Ð½Ð°Ð»Ð°": 6640,
      "Ð½ÐºÑĥ": 6641,
      "ÑĥÑĢÑĥ": 6642,
      "ÑĮÐµÐ²": 6643,
      "ÑĮÐºÐ°": 6644,
      "ÑĮÑĤÐµ": 6645,
      "ÑıÑİÑģÑĮ": 6646,
      "ÑĭÐ»Ð¸": 6647,
      "ÑĭÐ»ÑĮ": 6648,
      "ĠÐ¿Ð¸Ð»": 6649,
      "ĠÐ¿Ð»Ð¾": 6650,
      "ĠÐ¿Ð¾Ð±ÑĢ": 6651,
      "ĠÐ¿ÑĭÐ»Ð°": 6652,
      "ĠÐ¿Ð¾Ð±ÑĢÐ°Ð»": 6653,
      "ĠÑģÐ·": 6654,
      "ĠÑģÐºÐ°": 6655,
      "ĠÑģÐ³Ð¾": 6656,
      "ĠÑģÐ¾Ñĩ": 6657,
      "ĠÑģÐ¸Ð»Ð°": 6658,
      "ĠÑģÑĥÐ´Ð°": 6659,
      "ĠÑģÐ¾Ð¹ÑĤÐ¸": 6660,
      "ÑĩÐµÑĢ": 6661,
      "ÑĩÐ¸Ð½": 6662,
      "ÑĩÐ½ÑĥÑİ": 6663,
      "ÐºÐ²": 6664,
      "ĠÐ²ÐµÐ¹": 6665,
      "ĠÐ²ÐµÐº": 6666,
      "ĠÐ²Ð¾ÑĢÐ¾ÑĤ": 6667,
      "ĠÐ²Ð¼Ð¸Ð³": 6668,
      "ĠÐ²Ð°Ð½Ð½ÑĥÑİ": 6669,
      "Ð²Ð¾Ð½": 6670,
      "Ð²Ð°Ð¶": 6671,
      "Ð²ÐµÑĩ": 6672,
      "Ð²Ð°Ð»Ð¸": 6673,
      "Ð´ÐµÑĤÑģÑı": 6674,
      "ĠÐ¾Ð¼Ð°ÑĢ": 6675,
      "ĠÐ¾ÑĢÐµÑĪ": 6676,
      "Ð°Ð»Ð°Ð½ÑĤ": 6677,
      "ĠÐ¸ÑĤ": 6678,
      "ĠÐºÐ¾ÑĢÐ¼": 6679,
      "ÑģÑĤÑģÑı": 6680,
      "ĠÐ´ÐµÐ¼": 6681,
      "ĠÐ´Ð°Ð»Ð°": 6682,
      "ĠÐ´Ð¾Ñĩ": 6683,
      "ĠÐ´Ð¾Ð¼Ñĥ": 6684,
      "ĠÐ´Ð½ÐµÐ²": 6685,
      "ĠÐ´Ð¾Ð¶Ð´ÑĮ": 6686,
      "ÑħÑĢÐ°Ð½Ð¸ÑĤ": 6687,
      "ÐµÑĤÐµÑĢ": 6688,
      "Ð¾Ð²Ð°Ð»Ð¸ÑģÑĮ": 6689,
      "ĠÑĤÐµÐº": 6690,
      "ĠÑĤÑĢÑı": 6691,
      "ĠÑĤÐ²ÐµÑĢ": 6692,
      "ĠÑĤÐ¸ÑĪÐ¸": 6693,
      "ĠÑĤÐ°Ð»Ð°Ð½ÑĤ": 6694,
      "ĠÐ¼ÐµÐ¶": 6695,
      "ĠÐ±Ð¾Ð´": 6696,
      "ĠÐ±ÐµÐ½Ð·": 6697,
      "Ð¿ÐµÑĢ": 6698,
      "ĠÑĥÑģÑĭ": 6699,
      "ĠÑĥÑĪÐµÐ¹": 6700,
      "ĠÑĩÑĥ": 6701,
      "ĠÑĩÐ°Ñİ": 6702,
      "ĠÐ·Ð°Ð»Ð°": 6703,
      "Ð½Ð°ÑĤÑĮ": 6704,
      "ĠÐ½ÐµÑİ": 6705,
      "ĠÐµÑģÑĤÐµÑģÑĤÐ²ÐµÐ½Ð½Ð¾": 6706,
      "Ð½Ð¸Ð¼Ð¸": 6707,
      "Ð½Ð¸ÑĩÐ½Ð¾Ðµ": 6708,
      "Ð»Ð¸Ñģ": 6709,
      "Ð¾Ð´Ñĭ": 6710,
      "Ð¾Ð¹Ð´Ñĥ": 6711,
      "ĠÐ¿Ð¾ÑĢÐ¾": 6712,
      "ĠÐ¿Ð¾Ð½Ñı": 6713,
      "ĠÐ¿Ð¾ÑĤÐ¾Ð»": 6714,
      "Ð°Ð²ÑĪÐ¸Ñħ": 6715,
      "Ð°Ð²ÑĪÐµÐ³Ð¾": 6716,
      "Ð³Ð½ÑĥÐ»Ð°": 6717,
      "Ð³Ð¾Ð²Ð¾ÑĢ": 6718,
      "ÑīÐµÐ¼": 6719,
      "Ð¾ÑĤÐº": 6720,
      "Ð¾ÑĢÑĩ": 6721,
      "Ð¾ÑĢÐ°Ð¶": 6722,
      "ÑĨÐµÐ»": 6723,
      "ÑĨÐ°ÑĢÑĮ": 6724,
      "ÐµÐ´Ñı": 6725,
      "ÐµÐ´Ð¸Ð»": 6726,
      "ĠÐ»Ð°Ð²": 6727,
      "ĠÐ»Ð¾Ð¿": 6728,
      "ĠÐ»Ð°Ð´Ð¾": 6729,
      "ĠÐ»ÐµÐ±ÐµÐ´ÑĮ": 6730,
      "Ð¾Ð¶ÐµÐ»": 6731,
      "ĠÐ¾ÑĤÑĢÐ°Ð·": 6732,
      "ĠÐ¾ÑĤÑģÑĤÑĥÐ¿": 6733,
      "ĠÐ¾ÑĤÑĢÑĭÐ²": 6734,
      "ĠÐ¾ÑĤÐ¼ÐµÑĤ": 6735,
      "Ð½ÐµÑģÐ»Ð¸": 6736,
      "ĠÐ¿ÑĢÐ¾ÑıÐ²": 6737,
      "ÑĳÐ²": 6738,
      "ĠÐĶÐµÐ²": 6739,
      "ÐµÐ²ÐµÐ»": 6740,
      "ÐµÐ²Ð¾Ð¹": 6741,
      "ĠÐ³Ð¸Ð¿": 6742,
      "ĠÐ³ÑĢÐ¾Ñħ": 6743,
      "ÐļÐ¾ÑĤ": 6744,
      "ĠÐ¿ÑĢÐ¸ÑĩÐ¸": 6745,
      "ĠÐ¿ÑĢÐ¸Ð³ÑĢ": 6746,
      "ĠÐ¿ÑĢÐ¸Ð½ÐµÑģÑĤÐ¸": 6747,
      "ĠÐ¿ÑĢÐ¸Ð½Ð¸Ð¼Ð°ÐµÑĤ": 6748,
      "Ð°Ð½ÐµÑĤ": 6749,
      "Ð¸Ð²Ð°ÑİÑĤ": 6750,
      "Ð¸Ð²Ð°ÐµÐ¼": 6751,
      "ĠÐ¶Ð¸Ð´": 6752,
      "Ð¢ÑĢÐ¸": 6753,
      "Ð¢Ð°Ð¼": 6754,
      "ĠÐŁÐ¾Ð·": 6755,
      "ĠÐŁÐµÑĢÐµÐ´": 6756,
      "ĠÐŁÑĢÐ¾Ð´Ð¾Ð»Ð¶": 6757,
      "Ð²Ð¾ÑĢÐ¾ÑĤ": 6758,
      "ÑĦÐ¸Ð»": 6759,
      "ÐºÐ¾ÑģÑĤÐ¸": 6760,
      "Ð»Ð°Ñħ": 6761,
      "ĠÐĿÐ¸": 6762,
      "ĠÑģÑĤÑĢÐµÐ¼": 6763,
      "ĠÐ²ÑĭÑĪÐµ": 6764,
      "ĠÐ²ÑĭÐ±Ð¸": 6765,
      "ĠÐ¡ÐµÐº": 6766,
      "ĠÐ¡ÑĤÑĢÐ°": 6767,
      "ĠÐ¡Ð¾Ð²ÑģÐµÐ¼": 6768,
      "Ð»Ð¾Ð½Ð¸Ð²": 6769,
      "Ð»ÑıÐµÑĤ": 6770,
      "ÐĲÐºÑĤ": 6771,
      "ĠÐ¿Ð¾Ð´ÑĬ": 6772,
      "ĠÐ¿Ð¾Ð´ÑģÐºÐ°Ð·ÑĭÐ²": 6773,
      "ĠÐ¿Ð¾Ð´ÑĤÐ²ÐµÑĢÐ´": 6774,
      "ĠÐĲÐ¼Ð±ÑĢÐ¸Ð´Ð¶": 6775,
      "ÐĿÐ¸Ðº": 6776,
      "ÐµÐ½ÑĮÐµ": 6777,
      "ÐµÐ½ÑĮÑİ": 6778,
      "ÐµÐ½ÑĮÐºÐ¸Ñħ": 6779,
      "ÐºÑĥÑĩ": 6780,
      "ĠÐ°Ñħ": 6781,
      "ĠÐ°Ð¹ÑĦÐ¾Ð½": 6782,
      "ĠÐ·Ð°ÑħÐ¾Ð´": 6783,
      "ĠÐ·Ð°ÑģÑĤÐ°Ð²Ð¸Ð»": 6784,
      "ĠÐ³Ð¾ÑģÑĥÐ´": 6785,
      "ĠÐ½Ð¸Ð·": 6786,
      "ĠÐļÐµÐ´": 6787,
      "Ð¡Ð¾": 6788,
      "Ð¡Ð¾Ð»": 6789,
      "Ð¡Ð°Ð¼": 6790,
      "Ð¡ÑĥÐ´": 6791,
      "Ð¡Ð»Ð¾Ð¶": 6792,
      "Ð¡ÐµÐ³Ð¾Ð´Ð½Ñı": 6793,
      "Ð¾Ð·Ð¸Ð»": 6794,
      "Ð¾Ð·Ð½Ð°": 6795,
      "ÐµÐ·Ð¾Ð¿Ð°Ñģ": 6796,
      "ĠÐŀÑĩ": 6797,
      "ĠÐŀÐºÐ¸": 6798,
      "ĠÐĴÐ°Ð¼": 6799,
      "ĠÐĴÐ°ÑĪ": 6800,
      "Ð½ÑıÐ³Ð°": 6801,
      "ÐµÐ¿ÑĢÐ¸": 6802,
      "ÑĥÐ¼Ð°Ð»": 6803,
      "ÐļÐ°ÐºÐ¸Ðµ": 6804,
      "Ð¾ÑĩÐºÐµ": 6805,
      "ĠÐłÐ¾Ð¶Ð´": 6806,
      "ĠÐłÐ¾Ð¶Ð´Ðµ": 6807,
      "ĠÐºÐ¾ÑĪÐµÐ»": 6808,
      "ĠÐºÐ¾Ð½ÐµÑĨ": 6809,
      "ÐµÑģÑĤÐµÐ»": 6810,
      "ĠÐľÐ¸Ð»Ð°": 6811,
      "ĠÐľÑĥÐ½Ð³Ð¾": 6812,
      "ĠÑĤÑĭÑģÑı": 6813,
      "Ð°Ð»Ð¸ÑģÑĤ": 6814,
      "Ð§ÑĥÐ´": 6815,
      "Ð°Ð¿ÐµÐ²": 6816,
      "ĠÐ¿ÐµÑĢÐµÑĪ": 6817,
      "ĠÐ¿ÐµÑĢÐ²ÑĭÐ¼": 6818,
      "ÐµÐ³Ð³Ð¸": 6819,
      "ĠÐ¢ÐµÑĤ": 6820,
      "Ð¸Ð¼Ð¾Ðµ": 6821,
      "ÐĴÑģÐºÐ¾ÑĢÐµ": 6822,
      "ÐĴÐµÑĤÐµÑĢ": 6823,
      "ÐĵÐ¾ÑģÑĤÐ¸": 6824,
      "ÐŁÑĢÐ¸Ð¿": 6825,
      "ĠÐºÑĢÐ¾ÐºÐµÑĤ": 6826,
      "ĠÑĪÐ»Ð¸": 6827,
      "ĠÑĪÐµÑģÑĤ": 6828,
      "ĠÐ²Ð·Ð´Ñĥ": 6829,
      "ĠÐ²Ð·ÑĢÑĭÐ²": 6830,
      "ĠÐĳÑĥÑı": 6831,
      "ĠÐĳÐ»Ð¸Ð·Ð½ÐµÑĨÑĭ": 6832,
      "ĠÐĽÑĥÑĩÑĪÐµ": 6833,
      "ĠÐĽÑıÐ³ÑĥÑĪÐ¾Ð½": 6834,
      "ĠÑģÐ¾Ñħ": 6835,
      "ĠÑģÐ¾ÑģÑĤÐ°Ð²": 6836,
      "ĠÐ²Ð¾Ð·ÑĢÐ°ÑģÑĤ": 6837,
      "ĠÐ»ÑİÐ±Ð¸ÑĤÑĮ": 6838,
      "ĠÐ¾Ð´Ð½Ð°ÐºÐ¾": 6839,
      "ĠÐŃÐ´Ð¸": 6840,
      "ÐĹÐ´Ð°ÑĢÐ¾Ð²Ð°": 6841,
      "ÑģÑĤÑĢÐ°Ð½": 6842,
      "ĠÑĨÐµÐ»ÑĮ": 6843,
      "ĠÑĨÐµÐ¿": 6844,
      "ĠÐ´ÐµÐ»Ñĥ": 6845,
      "ĠÐ´ÐµÐ»Ð°Ð»Ð¸": 6846,
      "ĠÐ´ÐµÐ»Ð°ÑİÑĤ": 6847,
      "ĠÐ´ÐµÐ»Ð°ÐµÑĤÑģÑı": 6848,
      "ÑĩÐ¸ÑĪÑĮ": 6849,
      "ÑĩÐ¸ÐºÐ¾Ð¼": 6850,
      "ĠÐ·Ð°ÐºÑĢÑĭÐ»Ð°": 6851,
      "ÐľÐ¾ÑĢÐµ": 6852,
      "ĠÑģÐ²ÐµÑĩ": 6853,
      "ĠÐ±Ð¾Ð»ÑĮÐ½Ð¸ÑĩÐ½Ð¾Ðµ": 6854,
      "ĠÑģÐºÐ¾Ð»ÑĮÐ·": 6855,
      "ĠÑĥÐ²Ñĭ": 6856,
      "ĠÐ¿ÑĢÐµÐ´Ð¼ÐµÑĤ": 6857,
      "ĠÐ¼Ð¾Ð¸Ð¼": 6858,
      "ĠÑĩÑĤÐµÐ½Ð¸Ðµ": 6859,
      "ĠÐ½Ð°ÑģÐ»ÐµÐ´": 6860,
      "ĠÐ¾Ð¿ÑĥÑģÑĤÐ¸Ð»": 6861,
      "ĠÐķÑģÑĤÐµÑģÑĤÐ²ÐµÐ½Ð½Ð¾": 6862,
      "ĠÐ¿Ð°ÑĢÑĤ": 6863,
      "ĠÐ¿Ð°ÑĢÑĭ": 6864,
      "ĠÐ¿Ð°ÑĢÐº": 6865,
      "ĠÐ¿Ð¾ÑģÐ¼Ðµ": 6866,
      "Ð°ÑĢÐ¸ÑĤÑĮ": 6867,
      "ĠÐ£Ð²Ñĭ": 6868,
      "ĠÐ£Ð²Ð¸Ð´ÐµÐ²": 6869,
      "ĠÐ£ÑģÐ¿Ð¾ÐºÐ¾Ð¹": 6870,
      "ĠÑĥÑĩÑĤÐ¸Ð²": 6871,
      "ĠÑĥÑĩÐ°ÑģÑĤ": 6872,
      "ĠÐ¿Ð¾Ð²ÐµÐ»": 6873,
      "ĠÐ¿Ð¾Ð²ÐµÐ·Ð»Ð¾": 6874,
      "ĠÐ¿Ð¾Ð¿ÑĢÐ¸": 6875,
      "ĠÐºÐ¾Ð½Ñģ": 6876,
      "ĠÐ±Ð»Ð°Ð¶": 6877,
      "ÐĳÐµÐ»ÐºÐ°": 6878,
      "Ð¾ÑģÑħÐ¾Ð´": 6879,
      "Ð£ÑĩÑĥÑģÑĮ": 6880,
      "ĠÐ¿Ð»Ð°ÑĤ": 6881,
      "ĠÐ½Ð°Ð¿Ð¾Ð¼Ð¸Ð½Ð°": 6882,
      "ĠÐ²ÐµÑĢÐµÐ²": 6883,
      "ĠÐ·Ð°Ð²Ð¸": 6884,
      "ĠÐ·Ð°Ð²Ð°Ð»": 6885,
      "ĠÐ¾ÑģÐ¼Ð¾ÑĤÑĢÐµÐ»": 6886,
      "ĠÐ±ÐµÐ·Ð¶": 6887,
      "ĠÐ½ÐµÐ¼ÐµÐ´Ð»ÐµÐ½Ð½Ð¾": 6888,
      "ĠÐ½Ð°ÑĩÐ°Ð»Ð¾": 6889,
      "ĠÐ²ÑĢÐµÐ¼ÐµÐ½Ð°": 6890,
      "ĠÐ½ÐµÐ¿Ð»Ð¾Ñħ": 6891,
      "ĠÐ½ÐµÐ¿ÑĢÐ°Ð²Ð¸Ð»ÑĮÐ½Ð¾": 6892,
      "ĠÐ·Ð°Ð±ÑĭÑĤÑĮ": 6893,
      "ĠÐ·Ð°Ð¿ÑĢÐµÑĤ": 6894,
      "ĠPlayStation": 6895,
      "ĠÐ¸Ð¼ÐµÐ½Ð¸": 6896,
      "ĠÐ²Ð¾Ð»ÑĪÐµÐ±Ð½Ð¸ÐºÐ°": 6897,
      "ÐĽÐ°Ð´Ð½Ð¾": 6898,
      "ĠÐ¾ÑĩÐºÐ°Ð¼Ð¸": 6899,
      "ÐµÑħÐ°ÑĤÑĮ": 6900,
      "ĠÑĤÐµÐ¼Ð¿ÐµÑĢÐ°ÑĤ": 6901,
      "ĠÐ½ÐµÐ´ÐµÐ»Ð¸": 6902,
      "ÐŃÐ´Ð¸": 6903,
      "ĠÑĤÑĢÐµÑĤÑĮ": 6904,
      "ÑĬÑıÑģ": 6905,
      "ĠÑĥÐ»ÑĭÐ±Ð°ÑĤÑĮÑģÑı": 6906,
      "ÑĩÐµÑģÐºÐ¾Ðµ": 6907,
      "ĠÑģÐ´ÐµÐ»Ð°Ñİ": 6908,
      "ĠÑĩÑĥÐ²ÑģÑĤÐ²ÑĥÐµÑĪÑĮ": 6909,
      "ĠÑĢÐ°ÑģÑģÐ¼ÐµÑıÐ»Ð°ÑģÑĮ": 6910,
      "ĠÑĩÐµÑĢÐ½Ð¾Ð¹": 6911,
      "ĠÑĩÐµÑĢÑĤÑĭ": 6912,
      "ĠÐ¿Ð¾Ð·Ð´Ð½Ð¾": 6913,
      "ĠÑģÐ½ÐµÐ³": 6914,
      "ĠÐ½Ð°ÑĪÐµÐ¼": 6915,
      "ĠÑģÐ¼ÐµÐ½": 6916,
      "ĠÐ½Ð°Ð²ÑĢÐµÐ´": 6917,
      "ĠÐ¿Ð¸ÑĨ": 6918,
      "ĠÐ½ÐµÐ²ÐµÐ¶": 6919,
      "ÐķÐ¹": 6920,
      "ÐķÑģÑĤÑĮ": 6921,
      "Ð½Ð¸ÑĤÑģÑı": 6922,
      "ÑĨÐ¸Ðº": 6923,
      "ĠÑĥÐ¶Ð°ÑģÐ½ÑĭÐ¹": 6924,
      "Ð¸ÑģÑĤÐ¾Ð¼": 6925,
      "ÑģÑĭÐ¿": 6926,
      "Ð¸Ð½Ð°ÑĤÑĮ": 6927,
      "Ð»ÐµÑĤÐµÐ»Ð°": 6928,
      "ĠÐºÑĥÐ¿Ð¸ÑĤÑĮ": 6929,
      "ĠÐ¶ÐµÐ½Ð¾Ð¹": 6930,
      "ĠÑĢÑĭÐ½Ð¾Ðº": 6931,
      "ĠÑĢÑĭÑĨÐ°ÑĢÑĮ": 6932,
      "ĠÐ¼Ð½Ð¾Ð³Ð¾Ðµ": 6933,
      "ĠÐ¿ÑĢÐ¾Ð´Ð¾Ð»Ð¶Ð°ÑĤÑĮ": 6934,
      "ĠÐ²ÑģÑĤÑĢÐµÑĩÐ°Ð»Ð¸ÑģÑĮ": 6935,
      "ĠÐºÐ¾ÑĤÐ¾Ð¼": 6936,
      "ĠÑħÐ¾ÑĢÐ¾ÑĪÐ¸": 6937,
      "ĠÐ¼Ð°Ð¼Ðµ": 6938,
      "Ð°ÑİÑīÐ¸Ð¼": 6939,
      "ĠÐ½Ð¾ÑĢÐ¼Ð°Ð»ÑĮÐ½ÑĭÐ¹": 6940,
      "ĠÐ¾Ð±ÑĬÐµÑħÐ°Ð»Ð¸": 6941,
      "ĠÑīÐµÐ½Ð¾Ðº": 6942,
      "ĠÐºÐ°ÑĢÐ¼Ð°Ð½": 6943,
      "ĠÐ³Ð¾ÑĢÐ¾Ð´Ðµ": 6944,
      "ÑĩÐµÑģÑĤÐ²Ð°": 6945,
      "ĠÐ¿ÑĢÐ¸Ð´ÐµÑĤ": 6946,
      "ĠÐ½Ð°ÐºÐ¾Ð»Ð´": 6947,
      "ĠÐºÑĢÑĥÐ¶": 6948,
      "ĠÐ²ÑģÐ¿Ð¾Ð¼Ð½Ð¸Ð²": 6949,
      "ĠÐºÐ°Ð¼ÐµÑĢÐ°": 6950,
      "ĠÐºÐ°Ð¼ÐµÑĢÑĭ": 6951,
      "ÑıÑīÑĥÑİ": 6952,
      "ĠÐ´ÐµÑĢÐ¶Ð°Ð»Ð°": 6953,
      "Ð°Ð¼Ð¿Ð¸ÑĢ": 6954,
      "ĠÑģÑĩÐ°ÑģÑĤÑĮÐµ": 6955,
      "ĠÐ°Ð²ÑĤÐ¾ÑĢ": 6956,
      "ĠÐ°Ð²ÑĤÐ¾Ð¼": 6957,
      "ĠÐ²ÑĭÐ¿Ð¸ÑĤÑĮ": 6958,
      "ĠÑĨÐ°ÑĢÑģÑĤÐ²Ð¾": 6959,
      "ĠÐ´Ð²Ð¾ÑĢÑĨÐµ": 6960,
      "ĠÑģÑĤÑĢÐ°ÑĪÐ½Ð¾Ð³Ð¾": 6961,
      "ĠÑģÑĤÑĢÐ°ÑĪÐ½Ð¾Ðµ": 6962,
      "ĠÐ¼ÑĥÐ¶ÐµÐ¼": 6963,
      "ĠÐ»ÐµÐ¶Ð°Ð»Ð°": 6964,
      "ĠÐ¿Ð¾ÑģÐ¼Ð¾ÑĤÑĢÑİ": 6965,
      "ĠASU": 6966,
      "ĠÑģÐ¸Ð»Ð¾Ð¹": 6967,
      "ĠÐ¾ÐºÐ½Ð¾": 6968,
      "ĠÐºÐ¸ÑģÐ»": 6969,
      "ĠÐ·Ð°ÑģÐ»ÑĥÐ¶": 6970,
      "ĠÐ¢Ð°ÐºÐ°Ñı": 6971,
      "ĠÐ½Ð¾Ð²Ð¾Ðµ": 6972,
      "ÐļÑĢÐ°ÑģÐ¾ÑĤ": 6973,
      "ĠÐ´ÑĥÑĪÐ¸": 6974,
      "ĠÐ¼Ð¸Ð»Ð°Ñı": 6975,
      "ĠÐ·ÐµÐ¼Ð»Ð¸": 6976,
      "ĠÐ¿Ð¾Ð½Ð¸Ð¼Ð°ÐµÑĤ": 6977,
      "ÑĪÐ¸ÑħÑģÑı": 6978,
      "ĠÐ§ÐµÑĢÑĤ": 6979,
      "ĠÐ²ÑģÑıÐºÐ¸Ñħ": 6980,
      "ĠÐ·Ð²Ð°Ð»Ð¸": 6981,
      "ĠÑĤÐµÑĤÐºÐ°": 6982,
      "ĠÐ¿Ð°Ð»ÑĮÑĨÐµÐ¼": 6983,
      "Ð¤ÑĥÑĤÐ±Ð¾Ð»": 6984,
      "ĠÐ¿Ð¾ÑĤÐ¾Ðº": 6985,
      "ĠÑĢÐ°Ð·Ð´ÐµÐ²Ð°ÑİÑīÐµÐµ": 6986,
      "ĠÑģÐµÐ¼ÐµÐ¹": 6987,
      "ĠÐ¿Ð¾Ð´Ð¾ÑĪÑĳÐ»": 6988,
      "ĠÐ·Ð°ÑħÐ¸ÑħÐ¸Ðº": 6989,
      "ĠÐ¼Ð¾Ð»Ð¾Ð´Ð°Ñı": 6990,
      "ĠÐ¼Ð¾Ð»Ð¾Ð´ÑĭÐµ": 6991,
      "ĠÐ´Ð¾Ð³Ð°Ð´Ð°ÑĤÑĮÑģÑı": 6992,
      "ĠÑģÐ°Ð´Ð¾Ð²": 6993,
      "ĠÐ±Ð»Ð¸Ð·ÐºÐ¾": 6994,
      "ĠÐ½Ð°ÑģÑĤÐ¾ÑıÑīÐ¸Ð¹": 6995,
      "ĠÑĪÐµÐµ": 6996,
      "ĠÐ¼ÐµÐ´Ð»ÐµÐ½Ð½ÑĭÐ¹": 6997,
      "ĠÑĤÐ¾ÑĢÐ³": 6998,
      "ĠÐŁÐµÑĤÑĥÐ½Ð¸Ð¸": 6999,
      "ĠÐ¿Ð¾Ð½ÑĢÐ°Ð²Ð¸ÑĤÑģÑı": 7000,
      "ĠÐ¿Ð¾ÑĨÐµÐ»Ð¾Ð²Ð°ÑĤÑĮ": 7001,
      "ĠÐ¿Ð¾ÑĨÐµÐ»ÑĥÐ¹": 7002,
      "ĠÐ¼Ð¸ÑĢÐ½Ð¾": 7003,
      "ÑĦÑĢÐ¸ÐºÐ¸": 7004,
      "ĠÐ»Ð°ÑģÐºÐ¸": 7005,
      "ĠÐ¿ÑĢÐ¸ÐºÑĢÑĭÐ»": 7006,
      "ĠÐ¿ÑĢÐ¸ÐºÐ»ÑİÑĩ": 7007,
      "ĠÐ¿ÑĢÐµÐ²Ð¾ÑģÑħÐ¾Ð´": 7008,
      "ĠÐ´Ð¾Ð±Ð°Ð²Ð¸Ð»Ð°": 7009,
      "ĠÐ¾Ð³ÑĢÐ¾Ð¼Ð½Ð¾Ð³Ð¾": 7010,
      "Ð°Ð³Ð¾Ð½": 7011,
      "ĠÐ·Ð°ÑĢÐ°Ð±Ð¾ÑĤ": 7012,
      "ĠÐ·Ð°ÑĢÐ¿Ð»": 7013,
      "ĠÑĥÑģÐ¿Ð¾ÐºÐ¾Ð¸ÑĤÑĮÑģÑı": 7014,
      "ĠÐ½Ð°Ð·Ð½Ð°ÑĩÐµÐ½Ð¸Ñİ": 7015,
      "ĠÑĢÐ¾ÑģÑĤÐ°": 7016,
      "ĠÐ½Ð¾Ð³Ð°Ð¼Ð¸": 7017,
      "ĠÐ½Ð¾Ð³Ð°Ñħ": 7018,
      "ĠÐ¾ÐºÐ°Ð·Ð°Ð»Ð¾ÑģÑĮ": 7019,
      "ĠÐ¾ÐºÐ°Ð·Ð°Ð»Ð¸ÑģÑĮ": 7020,
      "ĠÐ¼ÐµÑĢÐ·": 7021,
      "Ð¸Ð²Ð°ÑİÑīÐ¸ÐµÑģÑı": 7022,
      "ĠÐ½Ð°ÑĢÑıÐ´": 7023,
      "ĠÐ¿ÑĢÐ¸Ð¶Ð°Ð»ÑģÑı": 7024,
      "ĠÑĥÐ²ÐµÑĢÐµÐ½": 7025,
      "ĠÑĢÑĭÐ±ÐºÑĥ": 7026,
      "ĠÐĴÐ¾Ð»Ð´ÐµÐ¼Ð¾ÑĢÑĤÐ¾Ð¼": 7027,
      "ĠÑģÑĢÐµÐ´ÑģÑĤÐ²Ð¾": 7028,
      "ĠÐ²ÑģÑĤÐ°ÑĤÑĮ": 7029,
      "ÑİÑīÑĥÑİ": 7030,
      "ĠÐ´ÑĢÐ¾Ð¶Ð°": 7031,
      "ĠÐ¾ÑĤÐ½Ð¾ÑĪÐµÐ½Ð¸Ðµ": 7032,
      "ĠÑģÑĤÐ°ÑĢÐ¸Ð½Ð°": 7033,
      "ĠÐ´Ð¾ÑĢÐ¾Ð³Ð¾Ðµ": 7034,
      "ĠÑĪÑĥÑĤÐºÐ¸": 7035,
      "ĠÑįÐ½ÐµÑĢÐ³Ð¸": 7036,
      "ĠNode": 7037,
      "ĠÑģÑİÑĢÐ¿ÑĢÐ¸": 7038,
      "ĠÑĤÐµÐ»Ð¾ÑħÑĢÐ°Ð½Ð¸ÑĤ": 7039,
      "ĠÐ½Ð°ÑĥÑĩÐ¸ÑĤÑĮÑģÑı": 7040,
      "ĠÐ´ÐµÐ²ÑĩÐ¾Ð½ÐºÐ°": 7041,
      "ĠÐ´Ð¾Ð¼Ð°ÑĪÐ½Ð¸Ðµ": 7042,
      "ĠÐ²Ð·Ð´ÑĢÐ¾Ð³Ð½ÑĥÐ»Ð°": 7043,
      "ĠÐ½Ð°Ð´ÐµÑıÑģÑĮ": 7044,
      "ĠÐ¿ÐµÑģÐµÐ½": 7045,
      "ÐļÑĢÐ°ÑģÐ¸Ð²ÑĭÐµ": 7046,
      "ĠÐ¿ÑĢÐ¸ÑħÐ¾Ð´Ð¸Ð»": 7047,
      "ĠÐºÑĢÑĭÐ»Ð¾": 7048,
      "ĠÐ¿ÑĢÐµÐ´ÑģÑĤÐ°Ð²Ð»ÑıÑİ": 7049,
      "ĠÐ¾ÑģÑĤÐ¾ÑĢÐ¾Ð¶": 7050,
      "ĠÐºÐ¾Ð»Ð»ÐµÐ³Ð¸": 7051,
      "ĠÐļÑįÐ´Ð¾Ð³Ð°Ð½Ð°": 7052,
      "ĠÑĤÐµÐ¿Ð»Ð¾": 7053,
      "ĠÐ·Ð°Ð»ÐµÐ·": 7054,
      "ĠÐ¿ÑĢÐ¾ÐµÐºÑĤÐ¾Ð²": 7055,
      "ĠÐ²ÑĭÐ³Ð¾Ð²Ð¾ÑĢÐ¸Ð»": 7056,
      "ĠÑĤÑĥÐ°Ð»": 7057,
      "ĠÑĤÑĥÐ°Ð»ÐµÑĤ": 7058,
      "ĠÐ¿ÑĢÐ¾Ð³ÑĢÐ°Ð¼Ð¼Ð¸ÑģÑĤÐ°": 7059,
      "Ð°ÑİÑīÐµÐ³Ð¾ÑģÑı": 7060,
      "ĠÐ³ÑĢÐ¸ÑĦÑĦÐ¸Ð½Ð´Ð¾ÑĢÑĨÑĭ": 7061,
      "ĠÑĥÐ´Ð°ÑģÑĤÑģÑı": 7062,
      "ĠÐ¿ÑĢÐ¸Ð¼ÐµÑĢÐ½Ð¾": 7063,
      "ĠÑĢÐ°Ð·Ð³Ð¾Ð²Ð°ÑĢÐ¸Ð²Ð°Ð»Ð°": 7064,
      "ĠÐ¿ÑĩÑĳÐ»": 7065,
      "ĠÑĥÐ´Ð¾Ð±Ð½ÑĭÐ¹": 7066,
      "ĠÑĥÐ´Ð¾Ð±Ð½ÐµÐµ": 7067,
      "ĠÑģÐ¼Ð¾Ð³Ñĥ": 7068,
      "ĠÑģÐ¼Ð¾Ð³Ð»Ð°": 7069,
      "ĠÐ¿Ð¾ÑĤÑĢÑıÑģÐµÐ½Ð½Ð¾": 7070,
      "ĠÑģÑĥÐ´Ð¾ÑĢ": 7071,
      "ĠÐ¡ÑĤÐ°ÑĢ": 7072,
      "ĠÐ¾Ð±Ð¸Ð´ÐµÐ»ÑģÑı": 7073,
      "ĠÐ²ÑģÐºÐ¾ÑĩÐ¸Ð»Ð°": 7074,
      "ĠÑģÐ»Ð°Ð²Ð½Ð¾Ð³Ð¾": 7075,
      "ĠÐ¿Ð¾Ð»Ð¾Ð¶Ð¸Ð»": 7076,
      "ĠÐºÐ¾Ð¼Ð¿Ð°Ð½Ð¸Ð¸": 7077,
      "ĠÐ¾ÑĤÐºÑĢÑĭÑĤ": 7078,
      "ĠÐŁÐµÑĤÑĥÐ½ÑĮÐ¸": 7079,
      "ĠÐ´Ð¾Ð»Ð³": 7080,
      "ĠÐ¼Ð³Ð½Ð¾Ð²ÐµÐ½Ð½Ð¾": 7081,
      "ĠÐ¿ÐµÑĩÐ°Ð»ÑĮÐ½Ð¾": 7082,
      "ĠÐ°Ð´Ð²Ð¾Ðº": 7083,
      "Ð¡ÑĤÐ°ÑĢ": 7084,
      "ĠÐ¾ÑģÐ²ÐµÐ´Ð¾Ð¼": 7085,
      "ĠÑħÑĥÐ´Ð¾": 7086,
      "ĠÐ²Ð¾Ð·ÑĮÐ¼Ð¸": 7087,
      "ĠÐ²Ð¾Ð·ÑĮÐ¼Ñĥ": 7088,
      "Ð¡ÐºÐ¾Ð»ÑĮÐºÐ¾": 7089,
      "ĠÐĳÐ¾Ð»ÑĮÑĪÐµ": 7090,
      "ĠÐĽÐ¾ÑĢÐ´Ð°": 7091,
      "ĠÐ¿ÑĢÐ¸ÑģÑıÐ¶Ð½ÑĭÑħ": 7092,
      "ĠÐ¿Ð¾Ð±ÐµÐ´Ñĥ": 7093,
      "ĠÐ±Ð¾ÐºÐ°Ð»": 7094,
      "ĠÐ¿ÑĢÐµÐ·ÑĢÐ¸ÑĤÐµÐ»ÑĮÐ½Ð¾": 7095,
      "ĠÑħÐ¸ÑħÐ¸ÐºÐ°": 7096,
      "ĠÑģÐ¸ÑĤÐ¾": 7097,
      "ĠÑģÑĢÐ°Ð²Ð½": 7098,
      "ĠÐ¶ÐµÑģÑĤÐ¾ÐºÐ¾": 7099,
      "ĠÐ¸Ð·Ð´ÐµÐ²": 7100,
      "ĠÑĥÑģÑĤÐ°Ð»Ð¾ÑģÑĤÑĮ": 7101,
      "ĠÐ½ÐµÐ¸Ð·Ð²": 7102,
      "ĠÑģÑĤÑĭÐ´Ð°": 7103,
      "ĠÐ¾Ð´ÐµÐ¶Ð´Ñĭ": 7104,
      "ĠÐ¾ÑĤÐ²ÑĢÐ°ÑīÐµÐ½Ð¸Ðµ": 7105,
      "ĠÐ¾ÑĤÐ²ÑĢÐ°ÑīÐµÐ½Ð¸Ñı": 7106,
      "ĠÐ±Ð°ÑĪÐ½Ð¸": 7107,
      "ĠÐ¿Ð¾Ð´Ð°ÑĢÐ¸Ð¼": 7108,
      "ĠÐ½Ð°Ð»Ð¾Ð¶Ð¸ÑĤÑĮ": 7109,
      "ĠÐ¿Ð°Ð¼ÑıÑĤÑĮ": 7110,
      "ĠÐºÐ¾Ð´Ð¸ÑĪÑĮ": 7111,
      "ÐµÑĢÐ´ÑĨÐµ": 7112,
      "ĠÐ¼Ð°ÑĪÐ¸Ð½Ð°": 7113,
      "ĠÐ¿Ð¾Ð´Ð¾Ð¶Ð´Ð°ÑĤÑĮ": 7114,
      "ĠÐ½Ð°Ð±Ð»ÑİÐ´Ð°ÑĤÑĮ": 7115,
      "ĠÐĿÐµÐ²Ð¸Ð»Ð»Ð°": 7116,
      "ĠÑĩÐµÑĤÑĭÑĢÐµ": 7117,
      "ĠÐ»ÐµÐ½Ð¸Ð²Ð¾": 7118,
      "ĠÐ¾ÑĤÐ´ÐµÐ»Ðµ": 7119,
      "ĠÐ´ÑĢÐ°Ð³Ð¾ÑĨÐµÐ½": 7120,
      "ĠÐ·Ð°ÑħÐ¾ÑĤÐµÐ»Ð¾ÑģÑĮ": 7121,
      "ÐŁÐ¾Ð¼Ð¾Ð³Ð°ÐµÑĤ": 7122,
      "ĠÐ²ÑĭÐ¶Ð¸Ð»": 7123,
      "ÑģÐ»Ð¾Ð²Ð½Ð¾": 7124,
      "ĠÐ¼Ð°Ð³ÑĢÐ¸Ð±Ð¸Ð½ÑĨÐ°": 7125,
      "ĠÐ·Ð°Ð³Ð»ÑıÐ½ÑĥÐ»": 7126,
      "ĠÐ¼ÑĭÑģÐ»ÑıÐ¼Ð¸": 7127,
      "ĠÐ¾Ð±Ð½Ð°ÑĢÑĥÐ¶Ð¸Ð»": 7128,
      "Ð¸ÑĢÑĥÑĢ": 7129,
      "ĠÐ¾ÑĤÑĢÑĥÐ±Ð¸ÑĤÑĮ": 7130,
      "ĠÐ¶ÐµÐ½Ð¸Ñħ": 7131,
      "ĠÐ¶ÐµÐ½Ð¸ÑĤÑĮÑģÑı": 7132,
      "ÑĥÑĢÑģÐ½Ð¸ÐºÐ¾Ð²": 7133,
      "ĠÐ²ÑģÐºÑĢÐ¸ÐºÐ½ÑĥÐ»Ð°": 7134,
      "ĠÐ½ÐµÑĢÐ²Ñĭ": 7135,
      "ĠÐ½Ð°ÑħÐ¼Ñĥ": 7136,
      "ĠÐĽÐ¾Ð½Ð´Ð¾Ð½": 7137,
      "ĠÐ²Ð°ÑĪÐ¸Ñħ": 7138,
      "ĠÐ¿Ð¾ÑĢÐ¾ÑģÐµÐ½ÐºÐ°": 7139,
      "ĠÐľÐ°Ð³Ð¸Ð¸": 7140,
      "ĠÐ¿ÐµÑĢÐµÑģÐ¿ÑĢÐ¾ÑģÐ¸Ð»Ð°": 7141,
      "ĠÑĢÐ°ÑģÑģÐ»Ð°Ð±Ð¸ÑĤÑĮÑģÑı": 7142,
      "ĠÐ¸Ð½ÑģÑĤÐ¸Ð½": 7143,
      "ĠÑĥÑģÐ¿ÐµÑĪÐ½Ð¾": 7144,
      "ĠÑħÐ»ÐµÐ±": 7145,
      "ĠÑħÐ¼ÑĭÐºÐ½ÑĥÐ»": 7146,
      "ĠÐ½ÐµÐ¿Ð¾Ð½ÑıÑĤ": 7147,
      "ĠÐ·Ð°Ð±Ð¾Ð»ÐµÐ²": 7148,
      "ÐļÑĢÑĥÑĤÐ°Ñı": 7149,
      "ĠÐºÐ»ÑİÑĩÐ¸Ðº": 7150,
      "ĠÑĥÐ½Ð¸Ð²ÐµÑĢÑģ": 7151,
      "ĠÐ·Ð»Ð¸ÑĤÑģÑı": 7152,
      "ĠÐ¿Ð¾Ð»Ð¾Ð²Ð¸Ð½Ñĥ": 7153,
      "ĠÐ¾ÑģÑĤÐ°Ð½Ð°Ð²Ð»Ð¸Ð²": 7154,
      "ĠÑĤÐ¾ÑĢÐ¶ÐµÑģÑĤÐ²ÐµÐ½Ð½Ð¾": 7155,
      "ĠÑģÑĥÑīÐµÑģÑĤÐ²ÑĥÐµÑĤ": 7156,
      "ĠÐ¼Ð°ÑģÐ»Ð¾Ð¼": 7157,
      "ĠÐ°ÑģÑĤÐ¼Ñĥ": 7158,
      "ĠÐĴÐµÑĢÐ½ÐµÐµ": 7159,
      "ĠÐĽÐµÑģÑĤÑĢÐ¸Ðº": 7160,
      "Ð¡Ð»ÐµÐ´ÑĥÑİÑīÐ¸Ðµ": 7161,
      "ĠÐ±Ð¾Ð³Ð°ÑĤÑĭÑĢÑı": 7162,
      "ĠÐĶÑĥÑĢÑģÐ»ÑĮ": 7163,
      "ĠÐºÑĥÑħÐ°ÑĢÐºÐ°": 7164,
      "Ð¾ÑĢÐ°ÑĩÐ¸Ð²Ð°ÑıÑģÑĮ": 7165,
      "ĠÐ°ÑĤÐ¼Ð¾ÑģÑĦ": 7166,
      "ĠÐľÐ¸Ð»Ð°Ð½": 7167,
      "Ð§Ð°ÑĢÑĥÑİÑī": 7168,
      "ĠÑĥÐ´Ð¾Ð²Ð»ÐµÑĤÐ²Ð¾ÑĢ": 7169,
      "ĠÐ½ÐµÐ²ÑĭÐ½Ð¾Ñģ": 7170,
      "ĠiPhone": 7171,
      "Ð¡ÑĤÐ°Ð±Ð¸Ð»ÑĮÐ½Ð¾ÑģÑĤÑĮ": 7172,
      "ĠÑĥÐ½Ð¸ÑĩÑĤÐ¾Ð¶": 7173,
      "ĠÑıÐ·Ð²": 7174,
      "ÐĲÐ½ÑĤÐ¸Ð±Ð¸Ð¾ÑĤÐ¸": 7175,
      "Ð¡Ð¼Ð¾ÑĤÑĢÑİ": 7176,
      "ĠÑģÐ¾Ð¾ÑĤÐ²ÐµÑĤÑģÑĤÐ²": 7177,
      "ĠÑģÐ·Ð°Ð´Ð¸": 7178,
      "ĠÐ¾ÑĢÐµÑĪÐºÐ¸": 7179,
      "ĠÐłÐ¾Ð¶Ð´ÐµÑģÑĤÐ²Ð¾": 7180,
      "ĠÐĳÑĥÑıÐ½Ð°": 7181,
      "ĠASUS": 7182,
      "ci": 7183,
      "da": 7184,
      "gle": 7185,
      "ovo": 7186,
      "ogle": 7187,
      "Ð«": 7188,
      "Ð¬": 7189,
      "Ġ6": 7190,
      "Ġ7": 7191,
      "Ð°Ñĥ": 7192,
      "ÐµÑĪÐ¸": 7193,
      "ÐµÑİÑĤ": 7194,
      "ÑĤÐµÐ»": 7195,
      "ÑĤÐ²Ð¾": 7196,
      "ÑĤÐ°Ð»Ð¸": 7197,
      "Ð¸ÑĨÑĥ": 7198,
      "Ð¸ÑĨÐ¸Ñı": 7199,
      "Ð¸ÐºÑĥÑĢÑģ": 7200,
      "ÑģÐ¾Ð»": 7201,
      "ÑģÐµÑģÑĤ": 7202,
      "ÑģÑħÐ¾Ð´": 7203,
      "ÑĢÐ°Ð»Ð°": 7204,
      "ÑĢÐ°Ð±": 7205,
      "ÑĢÐµÑĩ": 7206,
      "ÑĢÐ°Ð»Ð¸": 7207,
      "ÑĢÐµÑħ": 7208,
      "ÑĢÐµÑĤÑĭ": 7209,
      "Ð»ÐµÑĢ": 7210,
      "Ð»ÐºÐ¸": 7211,
      "Ð»ÐµÑģ": 7212,
      "Ð»ÐºÑĥ": 7213,
      "Ð»ÐµÐ·": 7214,
      "Ð»ÑĳÐ½": 7215,
      "Ð½Ð°Ð¼": 7216,
      "ÑĥÐµÑĤÐµ": 7217,
      "ÑĭÐ·": 7218,
      "ÑĭÑī": 7219,
      "ÑĭÑĪÐ¸": 7220,
      "ĠÐ¿Ð¾Ð³Ð¾": 7221,
      "ĠÐ¿Ð°Ð¿Ñĭ": 7222,
      "ĠÑģÐ½Ðµ": 7223,
      "ĠÑģÐ¼Ð¸": 7224,
      "ĠÑģÑĦ": 7225,
      "ĠÑģÐ½ÑıÐ»": 7226,
      "ĠÑģÐ»Ð¸Ð²Ð¾": 7227,
      "ĠÑģÐ½ÑıÐ»Ð°": 7228,
      "ĠÑģÐ¼Ð¾ÑĤÑĢÑı": 7229,
      "ÑĩÐ¾Ðº": 7230,
      "ÑĩÐ½ÑĭÐ¼": 7231,
      "ĠÐ½ÑĭÑĢ": 7232,
      "ÐºÐ°ÑĢ": 7233,
      "ÐºÐµÐ¹": 7234,
      "ÐºÑģÐ°": 7235,
      "ÐºÐ¾Ð¼Ñĥ": 7236,
      "ĠÐ²ÐºÑĥ": 7237,
      "ĠÐ²Ð¸Ð½Ð°": 7238,
      "ĠÐ²ÑĢÑıÐ´": 7239,
      "ĠÐ²Ð°Ð¼Ð¿Ð¸ÑĢ": 7240,
      "Ð²ÐµÐ½": 7241,
      "Ð²ÐµÐ»": 7242,
      "ÑĤÐ¾ÑĢÐ¸": 7243,
      "Ð¼Ð¾Ð»": 7244,
      "ĠÐ¾ÑģÑĤÐ°": 7245,
      "ĠÐ¾ÐºÐ¾Ð»Ð¾": 7246,
      "ÑĪÐ°": 7247,
      "ÑĪÐµÐ¼": 7248,
      "ÑĪÐµÑģ": 7249,
      "Ð°Ð»ÐµÐ½Ð¸Ðµ": 7250,
      "ĠÐ¸Ð´Ñĥ": 7251,
      "ÑĢÐ¸ÑĨÐ°": 7252,
      "ĠÐºÐ°Ð¹": 7253,
      "ĠÐºÑĥÑĪ": 7254,
      "ĠÐºÐ»Ð¸Ðº": 7255,
      "ĠÐºÑĢÐ¾ÑĪ": 7256,
      "ÑģÑĤÑĢÐ¸": 7257,
      "ÑģÑĤÐ°Ñı": 7258,
      "ÑģÑĤÑıÐ¼Ð¸": 7259,
      "ÐµÐ½Ð´Ð°": 7260,
      "ÐµÐ½Ð½ÑĭÐ¼Ð¸": 7261,
      "ĠÐ´Ð½Ðµ": 7262,
      "ĠÐ´Ð°Ð»Ð¸": 7263,
      "ĠÐ´Ð°Ð½Ð½ÑĭÑħ": 7264,
      "ĠÐ´Ð°ÑĩÐµ": 7265,
      "ĠÐ´ÑĥÑį": 7266,
      "ÑħÐ¾ÑħÐ¾ÑĤ": 7267,
      "ÐµÑĢÐ±": 7268,
      "ÐµÑĢÐµÐ¼": 7269,
      "Ð¾Ð²Ð°Ð½Ð¸Ñı": 7270,
      "Ð¾Ð²ÑĭÐ¼": 7271,
      "ĠÑĤÐ°ÑĢ": 7272,
      "ĠÑĤÐµÑĩ": 7273,
      "ĠÑĤÐ°Ð»Ð¸": 7274,
      "ĠÑĤÑĢÐ°Ñħ": 7275,
      "ĠÑĤÐ°Ð±Ð»ÐµÑĤ": 7276,
      "ĠÐ¼Ñı": 7277,
      "ĠÐ¼Ð°Ð·": 7278,
      "ĠÐ¼ÑĥÐ´": 7279,
      "ĠÐ¼Ð¾Ð¿": 7280,
      "ĠÐ¼Ð½Ð¾Ñİ": 7281,
      "ÐµÐ»ÐµÐµ": 7282,
      "Ð°ÐºÐµ": 7283,
      "Ð°ÐºÐ°Ð»": 7284,
      "Ð¿Ð¾Ð½": 7285,
      "ÑĢÐ¾ÑģÑĤÑĮ": 7286,
      "Ð¸Ð»Ðµ": 7287,
      "ĠÑĥÐºÐ°Ð·ÑĭÐ²": 7288,
      "ĠÑĥÑĪÑĳÐ»": 7289,
      "ĠÑĩÐ¸ÑģÑĤÐ¾": 7290,
      "Ð±ÑĢÑı": 7291,
      "Ð±Ð¸ÑĢ": 7292,
      "ÑģÑıÑĤ": 7293,
      "Ð°ÑĢÑİ": 7294,
      "Ð°ÑĢÐ°ÑĤÑĭ": 7295,
      "ĠÐ½ÐµÑĥÐº": 7296,
      "ĠÐ½ÐµÐ¾ÑħÐ¾ÑĤ": 7297,
      "Ð·Ñİ": 7298,
      "Ð·ÑĢÐ¾ÑģÐ»": 7299,
      "ĠÐµÐ´Ð¸": 7300,
      "Ð½Ð¸ÐºÑĥ": 7301,
      "Ð½Ð¸ÑĤÑĮÑģÑı": 7302,
      "Ð½Ð¸Ð³Ñĥ": 7303,
      "Ð¶ÐºÐ°": 7304,
      "Ð°ÑģÑĤÐ¾": 7305,
      "Ð°ÑģÐ½Ð¾": 7306,
      "Ð»Ð¸Ð²ÑĭÐ¼": 7307,
      "Ð¾Ð´Ð¾Ð±": 7308,
      "Ð¾Ð´Ð°Ð½": 7309,
      "Ð¾Ð¹Ð´ÐµÐ¼": 7310,
      "ÐµÐ¼Ð°ÑĤÐ¸": 7311,
      "ĠÑĢÐ°Ðº": 7312,
      "ĠÑĢÑĤÑĥ": 7313,
      "ĠÑĢÐµÑĩÑĮ": 7314,
      "ĠÐ¿Ð¾ÑģÑĤÐ¸": 7315,
      "ĠÐ¿Ð¾ÑħÐ¾Ð´": 7316,
      "ĠÐ¿Ð¾ÑĪÑĳÐ»": 7317,
      "ĠÐ¿Ð¾Ð¸Ð½ÑĤÐµÑĢÐµÑģ": 7318,
      "Ð³Ð´Ðµ": 7319,
      "ÑīÐ°": 7320,
      "ÑīÐµÐ¹": 7321,
      "Ð¾ÑĤÐµ": 7322,
      "Ð¾ÑĤÑĭ": 7323,
      "Ð½ÑĥÑģÑĮ": 7324,
      "Ð½ÑĥÐ»Ð¾ÑģÑĮ": 7325,
      "Ð¾ÑĢÐ°Ð´": 7326,
      "ÐµÐ´Ñĥ": 7327,
      "Ð¾Ð¶Ð°Ð»Ð°": 7328,
      "ĠÐ¾ÑĤÑĪ": 7329,
      "ĠÐ¾ÑĤÐ¾Ð±ÑĢÐ°Ð»": 7330,
      "Ð°Ð´ÑĢÐ¸": 7331,
      "ĠÑįÑĦÑĦ": 7332,
      "ÐĶÐ°Ð¼Ð±Ð»Ð´Ð¾ÑĢ": 7333,
      "ÐĶÐµÑĢÐ¶": 7334,
      "ÐĶÑıÐ´": 7335,
      "ÐĶÑĢÐ°Ð¼": 7336,
      "ĠÐ¿ÑĢÐ¾ÑĢÑĭ": 7337,
      "ÐµÐ±Ð¾Ð»ÑĮ": 7338,
      "ÐºÐ¸Ð·": 7339,
      "ĠÐĶÐ¸": 7340,
      "ĠÐĶÐ¸Ð½Ð°": 7341,
      "ÐµÐ²Ð°Ð»Ð°": 7342,
      "ÐµÐ²Ð°ÐµÑĤ": 7343,
      "ÐµÐ²ÑĪÐ¸ÑģÑĮ": 7344,
      "Ð´Ð°ÑĤÑĭ": 7345,
      "ĠÐ³Ð½": 7346,
      "ĠÐ³ÑĢÐ°Ð¼": 7347,
      "ÐºÐ°ÐµÑĤ": 7348,
      "ÐºÐ°ÑĦ": 7349,
      "Ð°ÑĤÐ¾Ð¹": 7350,
      "ÐļÐ¾Ñģ": 7351,
      "ÑĢÑĥÑı": 7352,
      "ĠÐ¿ÑĢÐ¸ÑĪÐ»Ð¸": 7353,
      "ĠÐ¿ÑĢÐ¸Ð¹ÑĤÐ¸": 7354,
      "Ð°Ð½Ð½Ð¾Ð¼": 7355,
      "Ð¸Ð²Ð°": 7356,
      "ÐµÑģÐµÐ»": 7357,
      "Ð¾Ð½ÑĩÐ¸Ðº": 7358,
      "ĠÐ²ÑģÐµÑĢÑĮÑĳÐ·": 7359,
      "Ð°Ð»Ð°Ñĩ": 7360,
      "ÐµÐ½Ð¸ÐºÑģÐ°": 7361,
      "ĠÑħÐ¸ÑĤ": 7362,
      "ĠÑħÑĢÐ°": 7363,
      "ĠÑħÑĢÐ¸Ð¿": 7364,
      "ÐŁÐ¾Ð³": 7365,
      "ÐŁÐ¾Ñģ": 7366,
      "ÐŁÑĢÐ¾Ð³ÑĢÐ°Ð¼Ð¼Ð¸": 7367,
      "ĠÐĿÐ°ÑĪ": 7368,
      "ĠÑģÑĤÐ¾Ð¿": 7369,
      "ĠÐ²ÑĭÑģÑĤÑĢÐ¾": 7370,
      "ĠÐ²ÑĭÐ½ÑĥÐ»Ð°": 7371,
      "ĠÐ²ÑĭÑģÑĤÑĥÐ¿": 7372,
      "ĠÐ²ÑĭÑıÑģ": 7373,
      "ĠÐ¡ÑĥÐ»ÑĤÐ°Ð½": 7374,
      "ĠÐ¡ÐµÑĢÐ´ÑĨÐµ": 7375,
      "Ð¸Ð½Ð³Ð¾": 7376,
      "Ð»ÑıÐ¿": 7377,
      "Ð»ÑıÑĤÑĮ": 7378,
      "ĠÐ¿Ð¾Ð´ÑħÐ¾Ð´Ð¸ÑĤ": 7379,
      "Ð°Ð¶ÐµÑĤ": 7380,
      "ĠÐ¾Ð±Ð°Ð»": 7381,
      "ĠÐ¾Ð±Ð¾Ð´": 7382,
      "ĠÐ¾Ð±Ð»Ð¾Ð¶": 7383,
      "ĠÐ¾Ð±Ð¼Ð°": 7384,
      "ĠÐ¾Ð±Ð½ÑıÑĤÑĮ": 7385,
      "ĠÐ¾Ð±Ð½ÑıÐ»Ð°": 7386,
      "ÑĢÐ°ÐµÑĤ": 7387,
      "ÐĿÐµÐ´": 7388,
      "ÐµÐ½ÑĮÑı": 7389,
      "ÐºÑĥÑĪ": 7390,
      "ĠÐ·Ð°ÑıÐ²": 7391,
      "Ð¾Ð»ÑĮÐºÐ¸Ñħ": 7392,
      "Ð°Ð±Ñĭ": 7393,
      "ĠÑģÐ»ÑĭÑħ": 7394,
      "ÐµÑĩÐºÐ¾": 7395,
      "ÐµÑĩÐºÑĥ": 7396,
      "ÐµÑĩÑĤÐ°": 7397,
      "ĠÐ³Ð¾ÑĢÑĭ": 7398,
      "ĠÐ³Ð¾ÑĢÐ¸ÑĤ": 7399,
      "Ð¡Ð²": 7400,
      "Ð¡Ð¼": 7401,
      "Ð¡Ð°Ð´": 7402,
      "Ð¡Ð¸Ð»ÑĮ": 7403,
      "Ð¡ÑĤÐ°": 7404,
      "Ð¡Ð¾Ð²ÑģÐµÐ¼": 7405,
      "ĠÐŀÑģÑĤ": 7406,
      "ĠÐŀÐ¿": 7407,
      "ĠÑģÐ¿Ð°Ð»Ð¸": 7408,
      "ĠÐĴÑĢÑıÐ´": 7409,
      "ÐµÐ¿Ð»Ð¾": 7410,
      "ĠÐľÐ¸ÑģÑģ": 7411,
      "ĠÑĤÑĭÐºÐ²": 7412,
      "Ð°Ð»Ð¸Ð¿": 7413,
      "ÑĭÐ²Ð°Ð»Ð¾": 7414,
      "ÑĭÐ²Ð°Ð½Ð¸Ðµ": 7415,
      "Ð°Ð»ÑĮÑģÑı": 7416,
      "Ð§Ð°ÐµÐ¼": 7417,
      "Ð§ÑĥÑĤÑĮ": 7418,
      "Ð§Ð°ÑģÑĤÐ¸": 7419,
      "ÐµÐ½ÑıÑĤÑĮ": 7420,
      "ĠÐ¿ÐµÑĢÐµÑĢ": 7421,
      "ĠÐ¿ÐµÑĢÐµÐ³": 7422,
      "ĠÐ¿ÐµÑĢÐµÑħ": 7423,
      "ÐµÐ³Ð¸ÑģÑĤ": 7424,
      "Ð¸Ð¼ÑĭÐ¼": 7425,
      "ÐĴÐ¸Ð´": 7426,
      "ÐĴÐ¸Ð´Ð¸ÑĤ": 7427,
      "ÐĵÐ¸Ð±": 7428,
      "ÐµÐ¶Ð°Ð»Ð¸": 7429,
      "ÑıÑĤÐµÑĢÐºÐ°": 7430,
      "ÐĺÐ³ÑĢ": 7431,
      "ÐĺÑģÑĤÐ¾ÑĢÐ¸": 7432,
      "ĠÐ¿Ð¾Ð»Ð½Ð¾": 7433,
      "ĠÐ¿Ð¾Ð»ÑİÐ±": 7434,
      "ĠÐºÑĢÑĭÑģ": 7435,
      "ĠÑĪÑĥ": 7436,
      "ĠÑĪÐ»Ð°": 7437,
      "ĠÑĪÐºÐ°ÑĦ": 7438,
      "ĠÐ»Ð¸ÑĩÐ½Ð¾": 7439,
      "ĠÐ´Ð¾ÑģÑĤÐ°Ð²Ð»Ñı": 7440,
      "ĠÐ²Ð·Ð°": 7441,
      "ĠÐ¿Ð¾ÐºÑĢÑĭÐ²": 7442,
      "ĠÐĺÑħ": 7443,
      "ĠÐĺÑģÐ¿": 7444,
      "ĠÐĺÑĦÑĢÐ¸ÐºÐ¸": 7445,
      "Ð¸ÑģÐºÐ°Ñħ": 7446,
      "ĠÐ·Ð½Ð°Ð½Ð¸Ñı": 7447,
      "ĠÐĳÑĭÐ»Ð¾": 7448,
      "ĠÐĳÐ»Ð¾Ðº": 7449,
      "Â»?": 7450,
      "ĠÐĽÐ¾Ð½": 7451,
      "ĠÐ²Ð¾ÑģÑĮ": 7452,
      "ĠÐ²Ð¸Ð´Ñı": 7453,
      "ĠÐ²Ð¸Ð´Ð¾Ð¼": 7454,
      "ÑīÐ¸Ð¿": 7455,
      "ÑīÐ¸Ð¼Ð¸": 7456,
      "ĠÑģÐ°Ð¼ÑĭÑħ": 7457,
      "ĠÑĢÐ°ÑģÑħÐ¾ÑħÐ¾ÑĤ": 7458,
      "ĠÐ»ÑİÐ±Ð¸Ð»Ð¸": 7459,
      "ĠÐ»ÑİÐ±ÑĥÑİ": 7460,
      "ÐµÐ½Ð¸ÑıÐ¼": 7461,
      "ÐµÐ½Ð¸ÑıÑħ": 7462,
      "ĠÐ¾Ð´Ð¾Ð±": 7463,
      "ĠÐŃÑĤÐ¸": 7464,
      "ĠÐ½Ð°Ð´ÐµÑĤÑĮ": 7465,
      "ÐĹÐ¾Ð»Ð¾ÑĤ": 7466,
      "ÐĹÐ´Ð¾ÑĢÐ¾Ð²Ð¾": 7467,
      "ÑģÑĤÐ¾Ð¸Ð½": 7468,
      "ÑģÑĤÑĢÐµÐ»": 7469,
      "ĠÑĨÐµÐ»Ð¸": 7470,
      "Ð¸ÑĢÐ°ÑĤÑĮÑģÑı": 7471,
      "ĠÐ´ÐµÐ»Ð°Ð»Ð°": 7472,
      "ĠÐ´ÐµÐ»Ð°Ñİ": 7473,
      "ÑĩÐ¸ÐºÐ¸": 7474,
      "ÑĩÐ¸ÐºÐ¾Ð²": 7475,
      "ĠÐ·Ð°ÐºÐ¾Ð»Ð´": 7476,
      "ĠÑģÑĤÐ¾Ð½Ñĭ": 7477,
      "ÐľÐ°Ð»ÑĦ": 7478,
      "ÑĩÐ¸ÑĤÑģÑı": 7479,
      "ĠÑģÐ²Ð¸Ð´": 7480,
      "ĠÑģÐ²Ð¸Ð´Ð°": 7481,
      "Ð½Ð¸Ð¼Ð°Ñİ": 7482,
      "ĠÐ¿Ð¾Ð¼Ð¾ÑĤ": 7483,
      "ĠÐ§ÑĥÐ²ÑģÑĤÐ²": 7484,
      "ÑĥÑģÐ¾Ð¼": 7485,
      "ÑĢÐµÐ¼Ñı": 7486,
      "ĠÐ¿ÑĢÐµÐ´Ð¾": 7487,
      "ĠÐ¿ÑĢÐµÐ´ÑĩÑĥÐ²ÑģÑĤÐ²": 7488,
      "ÑĥÑĢÐ¾Ð¹": 7489,
      "ĠÑĦÐ¾Ð½": 7490,
      "ĠÑĦÑĥÑĤ": 7491,
      "ĠÑĦÐ¸ÑĢ": 7492,
      "ĠÑĦÐ¸Ð»ÑĮ": 7493,
      "ĠÑĦÐ¾ÑĤÐ¾": 7494,
      "ĠÐ¼Ð¾ÐµÐ¼": 7495,
      "ĠÐ½Ð°ÑģÐ¼ÐµÑĪ": 7496,
      "ĠÐ¾Ð¿Ð¸ÑģÐ°": 7497,
      "ĠÐķÐ´Ð¸Ð½": 7498,
      "ÑįÑĢ": 7499,
      "ĠÐ³Ð»Ð°Ð·ÐºÐ¸": 7500,
      "ĠÐ½Ð¾Ð²Ð°Ñı": 7501,
      "ĠÐ½Ð¾Ð²ÑĭÑħ": 7502,
      "ĠÑħÐ¾ÑĤÐ¸ÑĤÐµ": 7503,
      "Ð¾ÑħÐ½ÑĥÑĤÑĮ": 7504,
      "ĠÐ±Ð¾Ð»ÐµÐµÑĪÑĮ": 7505,
      "Ð»ÑĭÐ¼Ð¸": 7506,
      "ĠÐ¿Ð¾Ð²ÐµÑĢÑĮ": 7507,
      "ÐµÑĢÐ¸Ð°Ð»": 7508,
      "ĠÐ¿Ð¾Ð¿ÑĢÐ°Ð²": 7509,
      "ĠÐ¼Ð°Ð³Ð°Ð·Ð¸": 7510,
      "ĠÐĹÐ°Ð¼": 7511,
      "ĠÐĹÐ°Ð±": 7512,
      "ĠÐĹÐ°Ð¹": 7513,
      "ĠÐĹÐ´ÐµÑģÑĮ": 7514,
      "Ð£Ñĩ": 7515,
      "ĠÐ±ÑĥÐ´ÐµÑĤÐµ": 7516,
      "ĠÐ¾ÑģÐ¼Ð¾ÑĤÑĢ": 7517,
      "ĠÐ±ÐµÐ·Ð´": 7518,
      "ĠÐ¸ÑģÐ¿Ð¾ÑĢÑĩ": 7519,
      "ĠÑģÑĤÑĢÐ°Ð½Ð½ÑĭÐ¹": 7520,
      "ĠÑģÑĤÑĢÐ°Ð½Ð½Ð¾Ðµ": 7521,
      "ĠÐ¿ÑĢÐ°Ð²Ð´Ñĥ": 7522,
      "ĠÐ½ÑĥÐ¶Ð´Ð°": 7523,
      "ĠÑĩÐµÐ¼Ð¾Ð´Ð°Ð½": 7524,
      "ĠÐ·Ð°Ð±ÑĥÐ´": 7525,
      "ĠÐ·Ð°Ð±Ð°Ð²Ð½Ð¾": 7526,
      "ÑĥÐ¹ÑģÑı": 7527,
      "ĠÑģÑĤÐ°ÑĢÑĥÑİ": 7528,
      "ĠÑģÑĤÐ°ÑĢÐ°ÑıÑģÑĮ": 7529,
      "ĠÐ·Ð°Ð¿Ð¾Ð¼": 7530,
      "ĠÐ¿Ð¾Ð»ÑĥÑĩÐ¸Ð»Ð¸": 7531,
      "ĠÐ¿Ð¾Ð»ÑĥÑĩÐ°Ð»Ð¾ÑģÑĮ": 7532,
      "ĠÐ¿Ð¾Ð»ÑĥÑĩÐ¸ÑĪÑĮ": 7533,
      "ĠÐ²Ð¾Ð»ÑĪÐµÐ±Ð½Ð¾Ð¼": 7534,
      "ĠÑĢÐ¾Ð´Ðµ": 7535,
      "ĠÐ»ÑĥÑĩÑĪÐ¸Ð¹": 7536,
      "ÐĿÐ°Ñĩ": 7537,
      "Ð°ÑĪÐ°": 7538,
      "ĠÑĤÐµÐ¼Ð¿ÐµÑĢ": 7539,
      "ĠÑĥÑģÐ¿ÐµÐ»Ð¸": 7540,
      "ĠÑĤÑĢÐµÑħ": 7541,
      "ĠÐ¿ÑĢÐ¾Ð´Ð°Ð²": 7542,
      "ĠÑĥÐ»ÑĭÐ±ÐºÑĥ": 7543,
      "ĠÑĥÐ»ÑĭÐ±Ð°ÑıÑģÑĮ": 7544,
      "ÑĩÐµÑģÐºÐ°Ñı": 7545,
      "ĠÐ·Ð°Ð´Ð°": 7546,
      "ĠÐ·Ð°Ð´ÐµÑĢÐ¶": 7547,
      "ĠÐ·Ð°Ð´Ð°Ð½Ð¸Ñı": 7548,
      "ĠÐ·Ð°Ð´Ð°Ð½Ð¸Ðµ": 7549,
      "ĠÐ¿Ð¾Ð´ÑĥÐ¼Ð°Ð²": 7550,
      "ĠÑĩÑĥÐ²ÑģÑĤÐ²ÑĥÐµÑĤ": 7551,
      "ĠÑĢÐ°ÑģÑģÑĩÐ¸ÑĤ": 7552,
      "ĠÐ¿ÑĢÐ¾ÑĪÑĥ": 7553,
      "ĠÑĩÐµÑĢÐ½ÑĭÐ¹": 7554,
      "ĠÐ¿Ð¾Ð·Ð´ÑĢÐ°Ð²": 7555,
      "ĠÑĤÐ²Ð¾Ðµ": 7556,
      "ĠÑģÐ¼ÑĭÑģ": 7557,
      "ĠÑģÐ¼ÐµÑıÐ»ÑģÑı": 7558,
      "ĠÑģÐ¼ÐµÑıÑĤÑĮÑģÑı": 7559,
      "ĠÐµÐ´Ñĭ": 7560,
      "ĠÑģÐ¸Ð´ÐµÐ²": 7561,
      "ÑĥÐ³Ð°Ð¹": 7562,
      "ĠÐ½Ð°Ð²ÑıÐ·": 7563,
      "ĠÐ½ÐµÐ²Ð¾Ð´": 7564,
      "ĠÐ´Ð°ÑģÑĤ": 7565,
      "ÑĤÑıÐ±ÑĢÑı": 7566,
      "ĠÐ¼Ð¾Ð»Ð²": 7567,
      "ÐĿÐµÐ¾Ð¶Ð¸Ð´Ð°Ð½Ð½Ð¾": 7568,
      "ÐķÐ´Ð°": 7569,
      "ÐķÐ¼Ñĥ": 7570,
      "ÑĥÑģÑĤÐ¸ÑĤÑĮ": 7571,
      "ÑĨÐ¸Ð¿": 7572,
      "ĠÐ½Ð°Ð·Ð²": 7573,
      "ĠÐŁÐ¾ÑĤÑĤÐµÑĢÐ¾Ð²": 7574,
      "ĠÐ¿Ð¾ÑĢÑĤÐ°Ð»": 7575,
      "Ð½ÑİÑħ": 7576,
      "ÑģÑĤÑĥÐ¿Ð°ÐµÑĤ": 7577,
      "Ð¸ÑĤÐµÐ»ÑĮÐ½ÑĭÐµ": 7578,
      "Ð¸ÑĤÐµÐ»ÑĮÐ½ÑĭÐ¼": 7579,
      "ĠÐ¸Ð½ÑĤÐµÑĢÐµÑģÐ½Ð¾Ð³Ð¾": 7580,
      "ĠÑĥÑģÐ½ÑĥÐ»": 7581,
      "ĠÐ¶ÐµÐ½Ñĥ": 7582,
      "ĠÑģÐ»ÐµÐ´Ð¾Ð¼": 7583,
      "ÐĺÐ½Ð¶ÐµÐ½": 7584,
      "ĠÑĤÐµÐ»Ñĥ": 7585,
      "ÑĢÐ¾Ð¼Ðµ": 7586,
      "ĠÐ¾ÑīÑĥÑīÐ°ÑĤÑĮ": 7587,
      "ĠÐºÐ»Ð°ÑģÑģÐ½Ð°Ñı": 7588,
      "Ð»Ð¸Ð²Ð°Ñı": 7589,
      "ĠÐ¤ÐµÐ½Ð¸ÐºÑģÐ°": 7590,
      "ÐŁÐ¾ÑģÐ»ÐµÐ´": 7591,
      "Ð½ÑĥÑĤÐ°Ñı": 7592,
      "ĠÑĤÑĢÑĥÐ±Ñĥ": 7593,
      "ĠÐ±ÐµÐ´Ð½Ð¾Ð³Ð¾": 7594,
      "ĠÐ±ÐµÐ´Ð½ÑĥÑİ": 7595,
      "Ð°ÑİÑīÐ°Ñı": 7596,
      "ĠÐĵÑĢÐ¸ÑĦÐ¾Ð½Ð°": 7597,
      "ĠÐºÐ°Ð¶Ð´Ð¾Ðµ": 7598,
      "ĠÐ¼Ð°Ð³Ð³Ð»Ð°Ð¼Ð¸": 7599,
      "ĠÐºÐ½Ð¸Ð³Ð°": 7600,
      "ĠÐ¿Ð¾Ð±ÐµÐ¶Ð°Ð»Ð°": 7601,
      "ĠÐ½ÑĢÐ°Ð²Ð¸ÑĪÑĮÑģÑı": 7602,
      "ĠÐ½ÑĢÐ°Ð²Ð»ÑİÑģÑĮ": 7603,
      "ĠÐ³Ð¾ÑĢÑĮ": 7604,
      "ĠÑģÐµÑĢÐ´Ð¸": 7605,
      "ĠÐ¿ÑĭÑĤÐ¾Ðº": 7606,
      "ĠÐ²ÑģÐ¿Ð¾Ð¼Ð½Ð¸ÑĤÑĮ": 7607,
      "ĠÐ¿Ð¾Ð¼Ð¾Ð³Ð°ÐµÑĤ": 7608,
      "ÑıÑīÐµÐ¹": 7609,
      "ÑıÑīÐ¸Ð¼": 7610,
      "ĠÐ¿ÑĢÐ¾Ð²ÐµÑĢ": 7611,
      "ĠSci": 7612,
      "ĠÐ²Ð¾ÑģÐºÑĢÐµÑģ": 7613,
      "ĠÑĨÐ°ÑĢÑİ": 7614,
      "ĠÐ´Ð²Ð¾ÑĢÑĨÑĥ": 7615,
      "ĠÑĤÐ¾ÑĤÑĩÐ°Ñģ": 7616,
      "ĠÑĩÐµÐ»Ð¾Ð²ÐµÑĩÐµÑģ": 7617,
      "ĠÐ»ÐµÐ¶Ð°ÑĤÑĮ": 7618,
      "ĠÐ»ÐµÐ¶Ð°Ð»Ð¸": 7619,
      "ĠÑĥÑģÑĤÐ°Ð»Ð°": 7620,
      "ĠÑģÐ¸Ð»Ñĥ": 7621,
      "Ð¼ÐµÐ½ÑĤÐ¾Ð²": 7622,
      "ĠÑĩÐ°ÑģÐ°": 7623,
      "ĠÐ·Ð°ÑģÑĭÐ¿": 7624,
      "ĠÐ¿ÑĢÐ¾ÑģÑĤÐ¾ÑĢ": 7625,
      "ĠÐ¿ÑĢÐ¾ÑģÐ½ÑĥÐ»Ð°ÑģÑĮ": 7626,
      "ĠÐ¾ÑģÐ¾Ð±Ð¾": 7627,
      "ĠÐ¾ÑģÐ¾Ð±ÐµÐ½Ð½Ð¾Ð³Ð¾": 7628,
      "ĠÐ¿Ð¾Ð½Ð¸Ð¼Ð°ÑĤÑĮ": 7629,
      "ĠÐ¾ÑĤÐ¿ÑĢÐ°Ð²Ð»Ñı": 7630,
      "ĠÑģÐµÑģÑĤÑĢÐ¸Ñĩ": 7631,
      "ĠÑģÐµÑģÑĤÑĢÐ¸ÑĨÐ°": 7632,
      "ĠÐ²Ð°Ð¶Ð½Ð°": 7633,
      "ĠÐ²Ð¾Ð´Ð¾Ð¹": 7634,
      "ĠÐ·Ð²ÐµÑĢÑĮ": 7635,
      "ĠÐ¼Ð°Ð»ÐµÐ½ÑĮÐºÐ¾Ð¹": 7636,
      "ĠÐ¼Ð°Ð»ÐµÐ½ÑĮÐºÑĥÑİ": 7637,
      "ĠÑĢÐ°Ð·Ð±Ð¾Ð»": 7638,
      "ĠÐ¿Ð°Ð»ÑĮÑĨÐ°": 7639,
      "ĠÑģÐ¾Ð³Ð»Ð°ÑģÐ½Ð°": 7640,
      "ĠÐ¼Ð°Ð½ÑĤÐ¸Ñı": 7641,
      "ĠÐ³Ð¾ÑĤÐ¾Ð²Ð¸ÑĤÑĮ": 7642,
      "ĠÐ±ÑĥÐ´ÑĥÑīÐµÐµ": 7643,
      "ĠÐ¿ÑĢÐ¾ÑģÑĤÑĭÐµ": 7644,
      "ĠÐ¾ÑģÑĤÐ°Ð²Ð¸Ð²": 7645,
      "ĠÐ¾ÑģÑĤÐ°Ð²Ð°Ð»Ð¾ÑģÑĮ": 7646,
      "ĠÐºÐ¾ÑĢÑĭ": 7647,
      "ĠÑįÐºÐ¾Ð½Ð¾Ð¼": 7648,
      "ĠÑĥÑĩÐµÐ±Ð½Ð¾Ð³Ð¾": 7649,
      "ĠÑĥÑĩÐµÐ±Ð½Ð¸ÐºÐ¸": 7650,
      "ĠÑģÑĭÐ½Ñĥ": 7651,
      "ĠÐ¾Ð³ÑĢÑĭÐ·": 7652,
      "ĠÐ³Ð»ÑĥÐ¿Ð°Ñı": 7653,
      "ĠÑģÐ°Ð´Ñĥ": 7654,
      "ĠÑĩÐ°ÑīÐµ": 7655,
      "ĠÑĥÐ¼ÐµÑİÑĤ": 7656,
      "ĠÑıÐ·ÑĭÐºÐ¾Ð¼": 7657,
      "ĠÑĤÐ¾Ð»ÐºÑĥ": 7658,
      "ĠÐ¾Ð±ÑĬÑıÑģÐ½Ð¸Ð»": 7659,
      "ĠÐ½Ð°Ð±Ð»Ñİ": 7660,
      "ĠÐ²Ð¸Ð½ÑĤÐ¾Ð²": 7661,
      "ĠÐ¿ÑĢÐ¾ÑĤÑıÐ³": 7662,
      "ĠÐĳÐ»ÐµÐºÑĥ": 7663,
      "ĠÐĳÐ»ÐµÐºÐ¾Ð¼": 7664,
      "ĠCan": 7665,
      "ĠÐ·Ð¾Ð»Ð¾ÑĤÐ¾Ð¹": 7666,
      "ĠÐ·Ð¾Ð»Ð¾ÑĤÑĭÐµ": 7667,
      "ĠÑĢÐ°Ð´Ð°": 7668,
      "ĠÐ±ÐµÑģÐ¿Ð¾Ð»": 7669,
      "ÑıÐ½ÐºÐ¾Ð¹": 7670,
      "ĠÐ²ÐµÐ»ÐµÐ»Ð°": 7671,
      "ĠÐ»ÑİÐ´": 7672,
      "ĠÐ²ÑĭÐ·Ð´Ð¾ÑĢÐ¾Ð²": 7673,
      "ĠÐ²ÑĭÑħÐ¾Ð´Ñĥ": 7674,
      "ĠÐłÐ°Ð·Ð³Ð¾Ð²Ð¾ÑĢ": 7675,
      "ĠÑĥÑĩÐµÐ½Ð¸ÐºÐ°": 7676,
      "ĠÐ²ÑģÑĤÑĢÐµÑĤÐ¸ÑĤÑĮÑģÑı": 7677,
      "ĠÐ´ÑĢÑĥÐ·ÑĮÑıÐ¼": 7678,
      "ĠÐ¾Ð³ÑĢÐ¾Ð¼Ð½ÑĭÐ¹": 7679,
      "ĠÐ¾Ð³ÑĢÐ¾Ð¼Ð½ÑĭÐ¼": 7680,
      "ĠÑĥÑģÐ¿Ð¾ÐºÐ¾Ð¸Ð»ÑģÑı": 7681,
      "ĠÐ¿ÑĢÐ¸Ð±Ð»Ð¸Ð·": 7682,
      "ĠÐ·Ð°Ð¼ÐµÑĩÐ°Ð½Ð¸Ñı": 7683,
      "ĠÐ·Ð°Ð¼ÐµÑĩÐ°ÑĤÐµÐ»ÑĮÐ½ÑĭÐ¹": 7684,
      "ĠÐ¶Ð¸Ð²Ð¾ÑĤÐµ": 7685,
      "ĠÐ¶Ð¸Ð²Ð¾ÑĤÐ½ÑĭÑħ": 7686,
      "Ð¸Ð²Ð°ÑİÑīÐµ": 7687,
      "ĠÐ³Ð¾ÑģÑĤÐµÐ¹": 7688,
      "ĠÐ¿ÑĢÐµÐ´Ð¿ÑĢÐ¸": 7689,
      "ÐłÐµÐ³ÑĥÐ»ÑıÑĢÐ½Ð°Ñı": 7690,
      "ĠÐ¶ÐµÐ»ÐµÐ·": 7691,
      "ĠÐ²ÑĢÐ°ÑĩÐ¾Ð¼": 7692,
      "ÐŁÑĢÐ¾ÑīÐµ": 7693,
      "ĠÑĥÐ²ÐµÑĢÑıÐ»": 7694,
      "ĠÑĥÐ²ÐµÑĢÐµÐ½Ð°": 7695,
      "ĠÑħÐ¾Ð´Ð¸ÑĤ": 7696,
      "ĠÑħÐ¾Ð´Ð¸ÑĤÑĮ": 7697,
      "ĠÑģÑĤÑĢÐ°Ð´Ð°ÑĤÑĮ": 7698,
      "ĠÑģÑĤÑĢÐ°Ð´Ð°Ð½Ð¸Ð¹": 7699,
      "ĠÑĢÐ°ÑģÑĤÑĳÑĤ": 7700,
      "ĠLen": 7701,
      "ÐĴÑĭÐ¿": 7702,
      "ĠÐ¾ÑĤÐ½Ð¾ÑĪÐµÐ½Ð¸Ð¹": 7703,
      "ĠÐ¿Ð°ÑĢÐ¾": 7704,
      "ĠÑĪÑĥÑĤÐ¸ÑĤ": 7705,
      "ĠÐ¾Ð¿Ð°ÑģÐ»Ð¸Ð²Ð¾": 7706,
      "ÐĳÑĥÐ´ÑĤÐ¾": 7707,
      "ĠÐ¿Ð¾ÑħÐ¾Ð¶ÐµÐµ": 7708,
      "ĠKia": 7709,
[...]
