{
  "version": "1.0",
  "truncation": null,
  "padding": null,
  "added_tokens": [
    {
      "id": 0,
      "content": "<pad>",
      "single_word": false,
      "lstrip": false,
      "rstrip": false,
      "normalized": false,
      "special": true
    },
    {
      "id": 1,
      "content": "<bos>",
      "single_word": false,
      "lstrip": false,
      "rstrip": false,
      "normalized": false,
      "special": true
    },
    {
      "id": 2,
      "content": "<eos>",
      "single_word": false,
      "lstrip": false,
      "rstrip": false,
      "normalized": false,
      "special": true
    },
    {
      "id": 3,
      "content": "<unk>",
      "single_word": false,
      "lstrip": false,
      "rstrip": false,
      "normalized": false,
      "special": true
    }
  ],
  "normalizer": null,
  "pre_tokenizer": {
    "type": "ByteLevel",
    "add_prefix_space": true,
    "trim_offsets": true,
    "use_regex": true
  },
  "post_processor": null,
  "decoder": {
    "type": "ByteLevel",
    "add_prefix_space": true,
    "trim_offsets": true,
    "use_regex": true
  },
  "model": {
    "type": "BPE",
    "dropout": null,
    "unk_token": "<unk>",
    "continuing_subword_prefix": null,
    "end_of_word_suffix": null,
    "fuse_unk": false,
    "byte_fallback": false,
    "ignore_merges": false,
    "vocab": {
      "<pad>": 0,
      "<bos>": 1,
      "<eos>": 2,
      "<unk>": 3,
      "!": 4,
      "#": 5,
      "&": 6,
      "'": 7,
      "(": 8,
      ")": 9,
      "*": 10,
      "+": 11,
      ",": 12,
      "-": 13,
      ".": 14,
      "/": 15,
      "0": 16,
      "1": 17,
      "2": 18,
      "3": 19,
      "4": 20,
      "5": 21,
      "6": 22,
      "7": 23,
      "8": 24,
      "9": 25,
      ":": 26,
      ";": 27,
      "?": 28,
      "A": 29,
      "B": 30,
      "C": 31,
      "D": 32,
      "E": 33,
      "F": 34,
      "G": 35,
      "H": 36,
      "I": 37,
      "J": 38,
      "K": 39,
      "L": 40,
      "M": 41,
      "N": 42,
      "O": 43,
      "P": 44,
      "Q": 45,
      "R": 46,
      "S": 47,
      "T": 48,
      "U": 49,
      "V": 50,
      "W": 51,
      "X": 52,
      "Z": 53,
      "[": 54,
      "]": 55,
      "a": 56,
      "b": 57,
      "c": 58,
      "d": 59,
      "e": 60,
      "f": 61,
      "g": 62,
      "h": 63,
      "i": 64,
      "j": 65,
      "k": 66,
      "l": 67,
      "m": 68,
      "n": 69,
      "o": 70,
      "p": 71,
      "q": 72,
      "r": 73,
      "s": 74,
      "t": 75,
      "u": 76,
      "v": 77,
      "w": 78,
      "x": 79,
      "y": 80,
      "z": 81,
      "¡": 82,
      "¢": 83,
      "£": 84,
      "¤": 85,
      "¥": 86,
      "¦": 87,
      "§": 88,
      "¨": 89,
      "©": 90,
      "ª": 91,
      "«": 92,
      "¬": 93,
      "®": 94,
      "¯": 95,
      "°": 96,
      "±": 97,
      "²": 98,
      "³": 99,
      "´": 100,
      "µ": 101,
      "¶": 102,
      "·": 103,
      "¸": 104,
      "¹": 105,
      "º": 106,
      "»": 107,
      "¼": 108,
      "½": 109,
      "¾": 110,
      "¿": 111,
      "Â": 112,
      "Ã": 113,
      "Ð": 114,
      "Ñ": 115,
      "â": 116,
      "ĉ": 117,
      "Ċ": 118,
      "Ġ": 119,
      "Ģ": 120,
      "ģ": 121,
      "Ĥ": 122,
      "ĥ": 123,
      "Ħ": 124,
      "ħ": 125,
      "Ĩ": 126,
      "ĩ": 127,
      "Ī": 128,
      "ī": 129,
      "Ĭ": 130,
      "ĭ": 131,
      "Į": 132,
      "į": 133,
      "İ": 134,
      "ı": 135,
      "Ĳ": 136,
      "ĳ": 137,
      "Ĵ": 138,
      "ĵ": 139,
      "Ķ": 140,
      "ķ": 141,
      "ĸ": 142,
      "Ĺ": 143,
      "ĺ": 144,
      "Ļ": 145,
      "ļ": 146,
      "Ľ": 147,
      "ľ": 148,
      "Ŀ": 149,
      "ŀ": 150,
      "Ł": 151,
      "ł": 152,
      "Ń": 153,
      "ĠÐ": 154,
      "Ð¾": 155,
      "Ð°": 156,
      "Ðµ": 157,
      "ÑĤ": 158,
      "Ð¸": 159,
      "Ñģ": 160,
      "ÑĢ": 161,
      "Ð½": 162,
      "Ð»": 163,
      "Ð¾Ð": 164,
      "Ñĥ": 165,
      "Ð°Ð": 166,
      "Ñı": 167,
      "ÐµÐ": 168,
      "ÑĮ": 169,
      "Ñĭ": 170,
      "ĠÐ¿": 171,
      "ĠÐ½": 172,
      "ĠÑģ": 173,
      "Ñĩ": 174,
      "Ðº": 175,
      "ĠÐ²": 176,
      "Ð²": 177,
      "Ð´": 178,
      "Ð¼": 179,
      "ÑĤÐ¾": 180,
      "ĠÐ¾": 181,
      "Ð°Ð»": 182,
      "ÑģÑĤ": 183,
      "ĠÐ¸": 184,
      "ÑĪ": 185,
      "ĠÐº": 186,
      "âĢ": 187,
      "ÐµÐ½": 188,
      "Ñħ": 189,
      "Ð¾Ð²": 190,
      "ÐµÑĢ": 191,
      "ĠÐ´": 192,
      "ĠÐ¼": 193,
      "Âł": 194,
      "ÑĢÐ¸": 195,
      "Ð½Ð¾": 196,
      "ÐµÑĤ": 197,
      "Ð¿": 198,
      "ÐµÐ»": 199,
      "ĠÑĤ": 200,
      "Ð¾Ð»": 201,
      "Ñİ": 202,
      "Ð¾Ð¼": 203,
      "ĠÐ±": 204,
      "âĢĵ": 205,
      "ÑĤÑĮ": 206,
      "Ð°Ðº": 207,
      "Ð¸Ð»": 208,
      "³Ð¾": 209,
      "ÑĢÐ¾": 210,
      "ĠÐ·": 211,
      "ĠÑĥ": 212,
      "ĠÑĩ": 213,
      "ÑģÑı": 214,
      "Ð·": 215,
      "Ð°Ð½": 216,
      "Ð±": 217,
      "ĠÐ½Ð°": 218,
      "Ð¾Ð´": 219,
      "ĠÑĢ": 220,
      "Ð¾Ð¹": 221,
      "ÐµÐ¼": 222,
      "ĠÐ½Ðµ": 223,
      "Ð¶": 224,
      "ĠÐ¿Ð¾": 225,
      "Ð½Ñĭ": 226,
      "Ð»Ð¸": 227,
      "Ð½Ð°": 228,
      "Ñī": 229,
      "Ð¹": 230,
      "Ð°Ð¼": 231,
      "ÑģÑĮ": 232,
      "Ð°Ð·": 233,
      "Ð³": 234,
      "Ð°Ð²": 235,
      "ÑĨ": 236,
      "Ð°ÑĢ": 237,
      "Ð½Ð¸": 238,
      "ĠÐµ": 239,
      "Ð½Ñĥ": 240,
      "Ð¾ÑĢ": 241,
      "ÐµÐ´": 242,
      "Ð¾ÑĤ": 243,
      "Ð¾Ð³": 244,
      "ĠÑ": 245,
      "Ð¸ÑĤ": 246,
      "ÐµÐ¹": 247,
      "ĠÑĩÑĤÐ¾": 248,
      "ĠÐ³": 249,
      "Ð°Ñģ": 250,
      "ĠÑı": 251,
      "Ð¾Ð±": 252,
      "Ð°ÑĤÑĮ": 253,
      "Ñĳ": 254,
      "ĠÐ¾ÑĤ": 255,
      "ÐºÐ¸": 256,
      "Ð¾Ð¶": 257,
      "Ð°ÑĤ": 258,
      "ĠÐ»": 259,
      "Ð°Ð´": 260,
      "Ð¾Ðº": 261,
      "ĠÑį": 262,
      "ĠÐ±Ñĭ": 263,
      "ÐµÐ½Ð¸": 264,
      "ĠÐ¿ÑĢ": 265,
      "ÐµÑģ": 266,
      "ÑĢÑĥ": 267,
      "Ð¾Ð³Ð¾": 268,
      "âĢĶ": 269,
      "Ð¸Ð²": 270,
      "Ð¾Ð½": 271,
      "ĠÐ¿ÑĢÐ¾": 272,
      "ĠÐĵ": 273,
      "ĠÐ¿ÑĢÐ¸": 274,
      "ĠĊ": 275,
      "ĠÐ²Ñĭ": 276,
      "ÐºÐ°": 277,
      "ÐµÐ²": 278,
      "Ð¼Ð¸": 279,
      "Ð´Ð°": 280,
      "Ð»Ð°": 281,
      "Ð¸Ð½": 282,
      "ÐµÐ±": 283,
      "ĠÐ¾Ð±": 284,
      "Ð»Ñı": 285,
      "ĠÐ¶": 286,
      "ÑģÑĤÐ²": 287,
      "Ð°Ð»Ð°": 288,
      "ĠÑģÑĤ": 289,
      "ÐºÐ¾": 290,
      "ÑĦ": 291,
      "ĠÐ²Ñģ": 292,
      "ĠÐ¿Ð¾Ð´": 293,
      "Ð°Ñı": 294,
      "ĠÐŁ": 295,
      "ĠÐĿ": 296,
      "ĠÐºÐ°Ðº": 297,
      "Ð¸Ð¼": 298,
      "ĠÐĶ": 299,
      "ÐµÐº": 300,
      "ĠÐ°": 301,
      "ĠÑĤÐ¾": 302,
      "ÐµÐ·": 303,
      "ĠÑħ": 304,
      "Ð¾Ñģ": 305,
      "Ð¾Ð·": 306,
      "ĠâĢĵ": 307,
      "Ð¾Ð»ÑĮ": 308,
      "ĠÐĴ": 309,
      "Ð³Ð¾": 310,
      "Ð¸ÑĤÑĮ": 311,
      "ÐºÑĥ": 312,
      "ÐµÑĪ": 313,
      "Ð°Ð¶": 314,
      "Ð»Ð¾": 315,
      "ÐĶ": 316,
      "ĠÐ¸Ð·": 317,
      "Ð¸Ð´": 318,
      "ÐµÑĩ": 319,
      "Ð°Ð±": 320,
      "ĠÑĤÐ°Ðº": 321,
      "ĠÐŀ": 322,
      "ÐµÐ³Ð¾": 323,
      "ĠÐļ": 324,
      "Ð°ÑĢÑĢÐ¸": 325,
      "ÑĢÐ°": 326,
      "ÐµÐ»ÑĮ": 327,
      "ĠÐ¡": 328,
      "ÑĤÐ¸": 329,
      "ĠÐ·Ð°": 330,
      "Ð½Ðµ": 331,
      "ĠÑģÐ»": 332,
      "ĠÑģÐ²": 333,
      "ÑĢÑĭ": 334,
      "ÑĥÐ´": 335,
      "ĠÑįÑĤÐ¾": 336,
      "Ðļ": 337,
      "ÑĪÐ¸": 338,
      "ĠÐ¾Ð½": 339,
      "Ð°Ð»Ð¸": 340,
      "Ð¾Ð¿": 341,
      "ĠÑĢÐ°Ð·": 342,
      "ÐĿ": 343,
      "ĠÐĵÐ°ÑĢÑĢÐ¸": 344,
      "ÐŁ": 345,
      "Ð°Ð½Ð¸": 346,
      "ĠÑģÐ¿": 347,
      "ÑģÑĤÑĮ": 348,
      "Ð½ÑĭÐ¹": 349,
      "Ð°Ð»ÑĮ": 350,
      "Ð°Ð¹": 351,
      "Ð°Ñİ": 352,
      "ÐµÐ¿": 353,
      "Ð½Ñı": 354,
      "ÑĥÑĩ": 355,
      "Ð¢": 356,
      "Ð°Ð¼Ð¸": 357,
      "ĠÐ½Ð¸": 358,
      "Ð¾Ñĩ": 359,
      "ĠÑģÐº": 360,
      "Ð¸Ð»Ð°": 361,
      "Ð°Ð¿": 362,
      "Ð½ÑĥÐ»": 363,
      "ÑģÐ»": 364,
      "ĠÐ¿Ð¾Ð»": 365,
      "ÐµÐ³": 366,
      "ÐµÑģÑĤ": 367,
      "Ð½Ð¾Ð¹": 368,
      "ÐµÐ½ÑĮ": 369,
      "ĠÐµÐ³Ð¾": 370,
      "ĠÐ¿ÐµÑĢ": 371,
      "ĠÐĲ": 372,
      "Ðŀ": 373,
      "ÑģÐº": 374,
      "ĠÐºÐ¾": 375,
      "ĠÐľ": 376,
      "ÐµÐ½Ñı": 377,
      "Ð½Ð¾Ð³Ð¾": 378,
      "ÐĶÐ°": 379,
      "ÑĥÐ¼": 380,
      "ĠÐ½Ð¾": 381,
      "ÐĲ": 382,
      "Ð°ÐµÑĤ": 383,
      "Ð¾Ð³Ð´Ð°": 384,
      "Ð¡": 385,
      "Ð½ÑĭÐµ": 386,
      "ÐµÐ¶": 387,
      "Ċĉ": 388,
      "ĠĠ": 389,
      "ÑĢÐ¾Ð²": 390,
      "Ð¸Ð»Ð¸": 391,
      "Ð°Ð³": 392,
      "ÑĥÑĤ": 393,
      "ĠÐ¯": 394,
      "ĠÐ¢": 395,
      "Ð»ÑĮ": 396,
      "ÑīÐ¸": 397,
      "ĠÐ¼ÐµÐ½Ñı": 398,
      "ĊĠĠ": 399,
      "ÑĥÑĪ": 400,
      "ÑĭÐ²": 401,
      "Ġ-": 402,
      "ĠÐĺ": 403,
      "ÑħÐ¾Ð´": 404,
      "ÐĴ": 405,
      "ÑĥÐ¶": 406,
      "ÐµÐ½Ð¸Ðµ": 407,
      "ÑģÑĤÐ¸": 408,
      "ÑĨÐ¸": 409,
      "ÑĤÐ¾Ð¼": 410,
      "ĠÑĪ": 411,
      "Â«": 412,
      "Â»": 413,
      "ÐµÐ½Ð½Ð¾": 414,
      "ÑģÐ¿": 415,
      "ÐµÑĪÑĮ": 416,
      "ÑĢÐ°Ð²": 417,
      "ÑıÑĤ": 418,
      "ĠÐ»Ð¸": 419,
      "ÑĢÐ¾Ñģ": 420,
      "ĠÐĳ": 421,
      "ĠÐł": 422,
      "ÑĥÑİ": 423,
      "ÐµÐ½Ð¸Ñı": 424,
      "Ð¸Ð·": 425,
      "ĠÐ²ÑģÐµ": 426,
      "ÑĭÐ¹": 427,
      "ÑĢÑĥÐ³": 428,
      "Ð²ÐµÑĤ": 429,
      "Ð¾ÑģÑĮ": 430,
      "âĢ¦": 431,
      "ĠÐ´Ð²": 432,
      "Ð¸Ñģ": 433,
      "ĠÐ¾Ð½Ð°": 434,
      "Ð¸Ð»ÑģÑı": 435,
      "ĠÑģÐ¼": 436,
      "Ð°Ð»ÑģÑı": 437,
      "Ð¶Ðµ": 438,
      "ÑĪÐµ": 439,
      "ĠÑģÐ²Ð¾": 440,
      "ĠÐ²Ð·": 441,
      "ÑĤÐ¾ÑĢ": 442,
      "ĠÑĤÑĭ": 443,
      "Ð½ÑĭÑħ": 444,
      "ÑĥÐ¿": 445,
      "Ð¸Ñħ": 446,
      "ĠÂ«": 447,
      "ĠÑĢÐ°Ñģ": 448,
      "Ð´Ðµ": 449,
      "Ð½Ð¾Ðµ": 450,
      "ĠÐ´Ð¾": 451,
      "ĠÑĢÑĥ": 452,
      "ÑģÑĤÐ°Ð²": 453,
      "ÑīÐµ": 454,
      "ĠÑģÑĤÐ¾": 455,
      "ÑģÐ»Ð¸": 456,
      "Ð¾Ð²Ð¾": 457,
      "ĠÐ¼Ð½Ðµ": 458,
      "Ð»Ñİ": 459,
      "ÐµÐ±Ñı": 460,
      "ĠÐ¶Ðµ": 461,
      "ÐµÐ»Ð°": 462,
      "ÐµÑĢÐ¼Ð¸": 463,
      "ÐµÐ¼Ñĥ": 464,
      "ĠÐ±ÑĭÐ»Ð¾": 465,
      "ĠÐ¾Ð´": 466,
      "ĠÐ³Ð¾Ð»": 467,
      "ĠÐ¿Ð¾Ðº": 468,
      "Ð¾ÑĢÐ¾": 469,
      "Ð¢Ñĭ": 470,
      "ĠÐ³Ð¾": 471,
      "Ð½Ð°Ñı": 472,
      "Ð½Ð¸Ðº": 473,
      "ÑĢÐ°Ð½": 474,
      "Ð¾Ð²Ð°": 475,
      "ÑģÐ°": 476,
      "ĠÐ³Ð»": 477,
      "Ð¾Ð½Ð°": 478,
      "ÑģÑĤÐ¾": 479,
      "ÑĢÐµÐ¼": 480,
      "ĠÑģÐºÐ°Ð·": 481,
      "ĠâĢĶ": 482,
      "Ð½ÑĭÐ¼": 483,
      "Ð°Ñħ": 484,
      "ĠÑģÐ°Ð¼": 485,
      "ÑĢÑı": 486,
      "Ð¯": 487,
      "Ð¼Ñĥ": 488,
      "Ð»ÑĮÐºÐ¾": 489,
      "ÐļÐ°Ðº": 490,
      "ĠÐĵÐµÑĢÐ¼Ð¸": 491,
      "Ð¾Ð±Ñĭ": 492,
      "ÑĩÐµÐ½ÑĮ": 493,
      "Ð¾Ðµ": 494,
      "ÑĤÐ°": 495,
      "Ð§": 496,
      "ÐµÐ±Ðµ": 497,
      "ĠÐ²Ð¾Ð·": 498,
      "Ðĺ": 499,
      "ĠÐ±ÑĥÐ´": 500,
      "ĠÐ¼Ñĭ": 501,
      "Ð¾Ð¶Ð½Ð¾": 502,
      "ÐµÐ»Ð¸": 503,
      "Ðĵ": 504,
      "ĠÐĽ": 505,
      "ÑĩÐ¸": 506,
      "ĠÑĦ": 507,
      "ÑĤÑĥ": 508,
      "Ð½Ð¾Ð¼": 509,
      "ÑģÐ¼": 510,
      "ĠÐ»Ñİ": 511,
      "ĠÐ¼Ð¾": 512,
      "ĠÐŃ": 513,
      "ÐºÐµ": 514,
      "ĠÐ¿Ð»": 515,
      "Ð²Ð¾": 516,
      "ĠÑĥÐ¶Ðµ": 517,
      "Ð°ÑĤÑĮÑģÑı": 518,
      "ĠÑĤÐ¾Ð»ÑĮÐºÐ¾": 519,
      "ĠÐ²Ð¸Ð´": 520,
      "ĠÑģÐ¾": 521,
      "Ð½Ð¸Ð¼": 522,
      "ĠÐ¿ÑĢÐµÐ´": 523,
      "Ð¾ÑĤÑĢ": 524,
      "ĠÐ±ÑĭÐ»": 525,
      "ÑĤÐµÑĢ": 526,
      "Ñį": 527,
      "Ð½ÑĥÐ»Ð°": 528,
      "ÑĩÐµÑģ": 529,
      "ĠÐºÐ¾Ð½": 530,
      "ĠÐ¾Ð¿": 531,
      "ÐµÑĢÑĮ": 532,
      "ÑĭÑĪ": 533,
      "ĠÐ¿Ð¾ÑģÐ»": 534,
      "ĠÐĶÐ¶": 535,
      "Ð¸ÑĢ": 536,
      "Ð¸ÑĤÐµÐ»ÑĮ": 537,
      "Ðľ": 538,
      "ĠÐ½Ð°Ð´": 539,
      "Ð¾Ð¶Ðµ": 540,
      "ÐµÑħ": 541,
      "ÑĤÐ¾Ð±Ñĭ": 542,
      "ĠÐ¸Ð¼": 543,
      "ĠÐ´Ð»Ñı": 544,
      "ĠÐºÐ¾Ð³Ð´Ð°": 545,
      "Ð´Ñĥ": 546,
      "ĠÐºÑĢ": 547,
      "ĠÐ´ÑĢÑĥÐ³": 548,
      "ĠÐ·Ð½Ð°": 549,
      "ĠÑĨ": 550,
      "ĊĊ": 551,
      "ĠÐ´ÐµÐ»": 552,
      "Ð³Ð»Ñı": 553,
      "ÑĪÑĮ": 554,
      "ĠÐ·Ð°Ðº": 555,
      "ÑģÑĤÑĢ": 556,
      "Ð¾Ð²Ð¾ÑĢÐ¸": 557,
      "ÐºÐ¾Ð¹": 558,
      "ĠÐĿÐ¾": 559,
      "ĠÐ±Ð¾Ð»ÑĮ": 560,
      "ĠÑĩÑĤÐ¾Ð±Ñĭ": 561,
      "ĠÐ¿Ð¾Ð²": 562,
      "ÑĭÑħ": 563,
      "Ð½ÑĥÑİ": 564,
      "ĠÑĥÐ´": 565,
      "ĠÐ¿Ð¾Ð¼": 566,
      "ĠÐĹ": 567,
      "Ð¸Ðµ": 568,
      "Ð½ÐµÐ¹": 569,
      "ĠÐºÐ¾Ð¼": 570,
      "ÐµÑĤÑģÑı": 571,
      "ĠÑįÑĤ": 572,
      "Ð»Ð°Ð´": 573,
      "ÑĭÐµ": 574,
      "Ð´ÐµÐ»": 575,
      "ÑĢÐµÐ´": 576,
      "ÑīÑĳ": 577,
      "ĠÐ¸Ð½": 578,
      "ÑĥÑģ": 579,
      "Ð½ÑĥÐ»ÑģÑı": 580,
      "Ð°Ð±Ð¾ÑĤ": 581,
      "ÑĢÐ°Ð·": 582,
      "ĠÐµÑĳ": 583,
      "ÐŁÑĢÐ¸": 584,
      "ÑĥÑĢ": 585,
      "ÐºÐ¾Ð¼": 586,
      "ĠÑĥÐ²": 587,
      "ÑĩÐ½Ð¾": 588,
      "ĠÐ²ÑĢÐµÐ¼": 589,
      "ÑĥÐ±": 590,
      "Ð´Ð¸": 591,
      "ĠÐ£": 592,
      "ÐµÑģÑģ": 593,
      "ÐµÑĨ": 594,
      "ĠÐºÐ¾ÑĤÐ¾": 595,
      "ĠÐµÑģÐ»Ð¸": 596,
      "Ð´Ð¾ÑĢ": 597,
      "Ð°Ð½Ð¸Ñı": 598,
      "Ð¾Ð»Ð¶": 599,
      "Ð»Ð°Ñģ": 600,
      "ÑĨÐ°": 601,
      "ÑĤÑĢ": 602,
      "ĠÐķ": 603,
      "ĠÐ½Ð°Ð¿": 604,
      "Ð°Ð»Ð¾ÑģÑĮ": 605,
      "Ð¸ÑģÑĤ": 606,
      "ÑĭÑĤ": 607,
      "ĠÐĵÐµÑĢÐ¼Ð¸Ð¾Ð½Ð°": 608,
      "Ð°Ð¶Ðµ": 609,
      "ĠÐ²ÐµÑĢ": 610,
      "ĠÐ³Ð»Ð°Ð·": 611,
      "Ð°Ð»Ð¾": 612,
      "ÐĹ": 613,
      "ĠÐ¥": 614,
      "Ð°Ð½Ð¸Ðµ": 615,
      "ĠÐ¾ÑĩÐµÐ½ÑĮ": 616,
      "ĠÐ¾ÑģÑĤ": 617,
      "Ð§ÑĤÐ¾": 618,
      "ÐµÑĢÐ¶": 619,
      "ÐµÑĤÑĮ": 620,
      "ÐµÐ¹Ð¼": 621,
      "ÑĭÐ¼": 622,
      "ĠÐµÐ¼Ñĥ": 623,
      "Ð¾ÑĢÐ¾ÑĪ": 624,
      "ĠÐ³Ð¾Ð»Ð¾Ð²": 625,
      "ÑĥÐ²": 626,
      "ĠÐ§": 627,
      "ÑĩÐ¸ÑĤ": 628,
      "ĠÐ»ÑİÐ±": 629,
      "Ð¸Ð»ÑĮ": 630,
      "ĠÐ¸Ñħ": 631,
      "Ð¸Ð³": 632,
      "ÑĢÑĤ": 633,
      "ÐµÐµ": 634,
      "ĠÐ²Ð¾": 635,
      "Ð°Ð»Ð°ÑģÑĮ": 636,
      "ÑĥÑģÑĤ": 637,
      "ĠÐĶÐ¶ÐµÐ¹Ð¼": 638,
      "Ð¾Ð»ÑĮÐºÐ¾": 639,
      "ÑĤÐµ": 640,
      "ĠÐ¾Ðº": 641,
      "ĠÑģÐ¾Ð±": 642,
      "Ð°ÑĢÐ¸": 643,
      "ĠÐ¸Ð»Ð¸": 644,
      "ĠÑģÐ¾Ð²": 645,
      "ĠÐµÑīÑĳ": 646,
      "ĠÐ¾Ñģ": 647,
      "ĠÑĤÐµÐ±Ñı": 648,
      "ĠÑħÐ¾ÑĤ": 649,
      "Ð¸Ñı": 650,
      "ÑıÑĤÑĮ": 651,
      "ÑĢÐ¾ÑĦ": 652,
      "Ð¸ÑĤÑĮÑģÑı": 653,
      "ÑĪÐ¸ÑģÑĮ": 654,
      "Ð½Ð¾Ð²": 655,
      "Ð»Ðµ": 656,
      "Ð¾ÑĢÐ¼": 657,
      "ÑĤÐ¾Ð²": 658,
      "ĠÐ¼Ð¾Ð³": 659,
      "ĠÐŀÐ½": 660,
      "ĠÐ½Ð¸Ðº": 661,
      "ÑģÐµ": 662,
      "ĠÐ¿Ð¾Ð¿": 663,
      "ĠÐ¾Ð½Ð¸": 664,
      "Ð¸Ð»Ð°ÑģÑĮ": 665,
      "ĠÐ´ÐµÐ²": 666,
      "ĠÐ²Ð¾Ð»": 667,
      "ĠÐ·Ð°Ð¼": 668,
      "ÐºÐ¸Ð¹": 669,
      "ÑĢÑĥÐ¶": 670,
      "ĠÐ¿Ð°ÑĢ": 671,
      "ĠÐ·Ð°Ð¿": 672,
      "ĠÐ½Ð°Ñģ": 673,
      "Ð¾Ñħ": 674,
      "ĠÐ±ÐµÐ·": 675,
      "ĠÐ¿Ð¾Ñĩ": 676,
      "Ð°Ð»Ð¸ÑģÑĮ": 677,
      "Ð¥": 678,
      "ĠÐ½Ð°Ñĩ": 679,
      "Ð°ÑĤÐµÐ»ÑĮ": 680,
      "ÑĥÐ²ÑģÑĤÐ²": 681,
      "Ð½ÑĥÐ²": 682,
      "ÑĢÐ¾Ð´": 683,
      "ĠÐ½ÐµÐ³Ð¾": 684,
      "ĠÐ±Ð¾Ð»": 685,
      "ĠÐ´Ð°Ð¶Ðµ": 686,
      "ÐµÐ»Ð¾Ð²": 687,
      "Ð°Ð½Ðº": 688,
      "ĠÑģÐµÐ±Ñı": 689,
      "ÑģÑĤÑĢÐ¾": 690,
      "Ð»Ñĭ": 691,
      "Ð°Ñĩ": 692,
      "ĠÑĢÐ°Ð±Ð¾ÑĤ": 693,
      "ÐŁÑĢÐ¸Ð²ÐµÑĤ": 694,
      "Ð¾Ð¶ÐµÑĤ": 695,
      "ÑĤÐ¾Ð¼Ñĥ": 696,
      "ÑĢÐ°ÑĤ": 697,
      "Ð³ÑĢ": 698,
      "Ð¸ÑĤÑģÑı": 699,
      "ĠÐ¾ÑĤÐ²ÐµÑĤ": 700,
      "ĠÑĤÐµÐ±Ðµ": 701,
      "ĠÑĩÐµÐ¼": 702,
      "Ð³Ð»ÑıÐ´": 703,
      "Ð°ÑĪ": 704,
      "ÑĩÐ°Ñģ": 705,
      "ĠÑĩÐµÑĢ": 706,
      "Ð²Ñĭ": 707,
      "ĠÐ¿ÑĢÐ°Ð²": 708,
      "Ġ*": 709,
      "ÑĥÑħ": 710,
      "ĠÐ·Ð°Ð²": 711,
      "ÑĢÑĤÐµÐ³": 712,
      "Ð¸Ð»Ð¾ÑģÑĮ": 713,
      "ÑĤÐ¸Ð²": 714,
      "ÑģÐ¼Ð¾ÑĤÑĢ": 715,
      "ÑĩÐµÐ³Ð¾": 716,
      "ĠÐºÐ¾ÑĤÐ¾ÑĢÑĭ": 717,
      "ĠÐ²ÑģÑĳ": 718,
      "ÐµÑĢÐ°": 719,
      "ĠÐ¿ÑĢÐ¾Ð¸Ð·": 720,
      "ĠÐ½ÐµÑĤ": 721,
      "ĠÐµÑģÑĤÑĮ": 722,
      "ĠÐ±ÑĥÐ´ÐµÑĤ": 723,
      "Ð¾ÑĢÐ¾ÑĪÐ¾": 724,
      "ĠÐ½Ð¾Ð²": 725,
      "ĠÑĥÐ±": 726,
      "Ðĳ": 727,
      "Ð°ÑİÑĤ": 728,
      "Ð°Ð½ÐºÑĢÐ¾ÑĦ": 729,
      "Ð¸Ðº": 730,
      "ÐºÑĢÑĭ": 731,
      "Ð²Ð°ÑĤ": 732,
      "ĠÑĥÑĩ": 733,
      "ĠÐ¿ÑĢÐ¾ÑĦ": 734,
      "ÑĢÐ¾Ðº": 735,
      "ÐµÐ»Ð¾": 736,
      "ĠÐ½Ð°Ð·": 737,
      "Ð°ÐµÑĤÑģÑı": 738,
      "Ð°ÑģÑĤ": 739,
      "ĠÐ½ÑĥÐ¶": 740,
      "Ð¾Ð¼Ñĥ": 741,
      "ĠÐĲÐ»Ð¸": 742,
      "ĠÐĶÐ¶ÐµÐ¹Ð¼Ñģ": 743,
      "ĠÑĤÑĢ": 744,
      "Ð°Ð½Ð¾Ð²": 745,
      "ÑıÐ²": 746,
      "ĠÑģÐ¿ÑĢÐ¾Ñģ": 747,
      "ÑıÐ·": 748,
      "Â».": 749,
      "ĠÑģÐºÐ°Ð·Ð°Ð»": 750,
      "ÑĪÐµÐ»": 751,
      "ĠÐ¿ÑĢÐ¾ÑģÑĤÐ¾": 752,
      "Ð½ÑĭÐ¼Ð¸": 753,
      "ĠÐ¿ÑĢÐ¾ÑĦÐµÑģÑģ": 754,
      "Ð¸Ð½Ñĥ": 755,
      "ĠÐ¸ÑģÐ¿": 756,
      "ÐµÑģÑı": 757,
      "ÑĤÑĭ": 758,
      "ÑĬ": 759,
      "ÑĥÐ»": 760,
      "Ð²ÐµÑĢ": 761,
      "ÑıÐ´": 762,
      "ĠÐ³Ð¾Ð²Ð¾ÑĢÐ¸": 763,
      "ĠÐºÑĤÐ¾": 764,
      "ĠÐ¼Ð¾Ð¶Ð½Ð¾": 765,
      "ÐµÐ¹ÑĩÐ°Ñģ": 766,
      "ĠÐ³ÑĢÑĥ": 767,
      "Ð¸Ð»Ð¸ÑģÑĮ": 768,
      "ÑĨÐµ": 769,
      "Ð£": 770,
      "Ð½Ð¾ÑģÑĤÑĮ": 771,
      "ĠÐ±ÑĭÐ»Ð°": 772,
      "ĠÑĥÐ¼": 773,
      "ĠÑģÐ»Ð¾Ð²": 774,
      "ÐºÐ¾Ð²": 775,
      "ĠÐ½ÐµÐ¿": 776,
      "ĠÐ·Ð°Ð´": 777,
      "ÑĪÐ¸Ð¹": 778,
      "Ð¸ÑĤÐµ": 779,
      "ĠÐ·Ð½": 780,
      "ÑģÑĤÐ°": 781,
      "Ð±Ð»": 782,
      "ĠÐ¿ÑĢÐ¾Ð´": 783,
      "ĠÐ²Ð¿": 784,
      "ĠÐĳÐ°Ð½ÐºÑĢÐ¾ÑĦ": 785,
      "ĠÐŃÑĤÐ¾": 786,
      "ĠÐ±Ð»": 787,
      "ÑģÑĤÐ²Ð¾": 788,
      "ÑĢÐ°Ñģ": 789,
      "Ð½ÐµÑģ": 790,
      "ĠÐŀÑĢÑĤÐµÐ³": 791,
      "Ð½ÑıÐ»": 792,
      "Ð°ÑıÑģÑĮ": 793,
      "ĠÐ¿ÐµÑĢÐµÐ´": 794,
      "ĠÐ²Ð¾Ñģ": 795,
      "ĠÐłÐ¾Ð½": 796,
      "ÑĩÐµÑģÐºÐ¸": 797,
      "ĠÑĤÐµÐ¼": 798,
      "ÐµÑĩÐ½Ð¾": 799,
      "ĠÐ´ÑĥÐ¼": 800,
      "ĠÐ¿Ð¾Ð»ÑĥÑĩ": 801,
      "ĠÐ²ÑĢÐµÐ¼Ñı": 802,
      "Ðł": 803,
      "ÑıÐ»": 804,
      "ĠÐ¿Ð¾Ð·": 805,
      "ÑģÑĤÐ²ÐµÐ½": 806,
      "ĠÑĤÐ°Ð¼": 807,
      "Ð¾Ð³Ð¸": 808,
      "Ð½ÐµÐµ": 809,
      "Ð°Ð¶Ð´": 810,
      "ÐµÐ¿ÐµÑĢÑĮ": 811,
      "Ð½ÐµÐ¹Ð¿": 812,
      "Ð°ÐµÑĪÑĮ": 813,
      "ÑĥÐ´Ð°": 814,
      "ÐµÑī": 815,
      "ÑĮÑİ": 816,
      "ĠÑģÐ´ÐµÐ»": 817,
      "ĠÐ·Ð°Ð±": 818,
      "ĠÑģÐ»ÑĥÑĩ": 819,
      "ĠÑįÑĤÐ¾Ð³Ð¾": 820,
      "Ð½ÑĥÑĤÑĮ": 821,
      "ÑĨÑĭ": 822,
      "ĠÑħÐ¾Ñĩ": 823,
      "ĠÑĥÐ²Ð¸Ð´": 824,
      "ĠÐ²Ð¾ÑĤ": 825,
      "ĠÑĥÑģÐ¿": 826,
      "ĠÑģÑĤÐ°ÑĢ": 827,
      "ĠÑĤÐ¾Ð¶Ðµ": 828,
      "Ð»ÐµÐ½": 829,
      "ÑīÐ¸Ð¹": 830,
      "ĠÐļÐ°Ðº": 831,
      "ĠÐ½ÐµÐ¼": 832,
      "Ð²Ð°": 833,
      "ĠÐ¶ÐµÐ½": 834,
      "ĠÐºÐ¾ÑĤÐ¾ÑĢ": 835,
      "ĠÐ¡Ð½ÐµÐ¹Ð¿": 836,
      "Ð¸ÑĤÐµÐ»ÑĮÐ½Ð¾": 837,
      "ÐŃ": 838,
      "ÐµÐ½ÑĤ": 839,
      "ĠÐĿÐ°": 840,
      "ĠÐ¿Ð¾ÑģÐ¼Ð¾ÑĤÑĢ": 841,
      "Ð»Ð¸Ð·": 842,
      "ÐºÐ°Ð¼Ð¸": 843,
      "ĠÐ²Ð°Ñģ": 844,
      "ĠÐ¿ÑĢÐ¾Ð²": 845,
      "ÑĨÐ¸Ð¸": 846,
      "ĠÐ½ÐµÐ´": 847,
      "ĠÑģÐ½": 848,
      "ĠÐ½ÐµÐ¹": 849,
      "Ð¸Ð»Ð¾": 850,
      "ĠÑĩÐµÐ»Ð¾Ð²": 851,
      "ĠÐ³Ð´Ðµ": 852,
      "ÐµÑĤÐµ": 853,
      "ÐĿÐµÑĤ": 854,
      "ÑĤÐµÑĢÐµÑģ": 855,
      "ĠÐĲÐ»Ð¸ÑģÐ°": 856,
      "Ð²Ð°Ð½": 857,
      "ÑģÑĤÑĥÐ¿": 858,
      "ÐĽ": 859,
      "ÑĥÑī": 860,
      "Ð°Ð»ÑĮÐ½Ð¾": 861,
      "ÑĤÑı": 862,
      "ĠÐĿÐµ": 863,
      "ĠÐ½Ð¸ÑĩÐµÐ³Ð¾": 864,
      "ĠÐ¼Ð¾Ð¶ÐµÑĤ": 865,
      "ĠÑĤÐ¾Ð³Ð¾": 866,
      "Ð½ÐµÐ²": 867,
      "ĠÐºÐ¾Ð»": 868,
      "ÑĥÐ´ÑĮ": 869,
      "ĠÐ¿Ñĥ": 870,
      "ĠÐ´ÐµÐ²ÑĥÑĪ": 871,
      "ÐµÑĢÐ¸": 872,
      "Ð¸ÑĢÐ¸": 873,
      "ĠÐ±ÑĭÐ»Ð¸": 874,
      "ĠÐ¿Ð¾ÑģÐ»Ðµ": 875,
      "ĠÐŁÐ¾": 876,
      "ĠÑģÐµÐ±Ðµ": 877,
      "Ð»ÐµÑĤ": 878,
      "ĠÐºÐ¾ÑĢ": 879,
      "ĠÐµÑīÐµ": 880,
      "Ð´Ð¸Ð½": 881,
      "ĠÐ¼Ð°Ð³": 882,
      "ÐĵÐ°ÑĢÑĢÐ¸": 883,
      "Ð¸Ð¶": 884,
      "Ð°Ð²Ð½Ð¾": 885,
      "ÐµÐ´ÑĮ": 886,
      "ÑĳÐ»": 887,
      "ĠÐ»Ð¸ÑĨ": 888,
      "Ġ(": 889,
      "ĠÐºÐ°ÑĢ": 890,
      "ÑĳÑĤ": 891,
      "ÑĢÐ°Ð¶": 892,
      "ĠÐ½Ð°ÑĪ": 893,
      "ĠÑģÐµÐ¹ÑĩÐ°Ñģ": 894,
      "ÐºÐ°Ñħ": 895,
      "Ð¼Ð¾": 896,
      "ĠÑįÑĤÐ¾Ð¼": 897,
      "ĠÐ³Ð¾Ð»Ð¾Ñģ": 898,
      "ĠÐ²Ð·Ð³Ð»ÑıÐ´": 899,
      "ĠÐĶÐ°": 900,
      "ĠÑĢÐµÑĪ": 901,
      "Ð¸Ð¹": 902,
      "Ð»ÑĭÐ±": 903,
      "Ð¿Ð¾Ð¼": 904,
      "Ðķ": 905,
      "Ð»ÐµÐº": 906,
      "ÑİÑĤ": 907,
      "ĠÑģÐ½Ð¾Ð²Ð°": 908,
      "ĠÐ½Ð°Ð²": 909,
      "ĠÐ»ÑĥÑĩ": 910,
      "ÑģÐºÐ¸": 911,
      "Ð¾Ð²Ð°Ð»": 912,
      "ĠÐ·Ð°Ð½": 913,
      "ĠÐµÐ¹": 914,
      "ĠÐ½Ð°Ð¼": 915,
      "ĠÐ¸Ñģ": 916,
      "ĠÑĩÑĥÐ²ÑģÑĤÐ²": 917,
      "ÐºÐ°Ð·": 918,
      "Ð·Ð°": 919,
      "ĠÐ¿ÑĢÐ¾ÑĪ": 920,
      "ĠÑģÐ»ÐµÐ´": 921,
      "ĠÐ³Ð»Ð°Ð·Ð°": 922,
      "Ð¾Ð²Ð¾ÑĢ": 923,
      "ĠÐ¢Ñĭ": 924,
      "ĠÑģÑĤÐ¾ÑĢÐ¾": 925,
      "ÑĢÐ°Ñī": 926,
      "Ð»Ð¸ÑģÑĮ": 927,
      "ĠÐ±ÑĭÑĤÑĮ": 928,
      "Ð¸ÑĢÐ¾Ð²": 929,
      "ÑĢÐ¾Ð¼": 930,
      "ĠÐ½Ð°Ðº": 931,
      "ÐµÐ½Ð°": 932,
      "ĠÑĥÐ»ÑĭÐ±": 933,
      "ÐµÐ¹ÑģÑĤÐ²": 934,
      "ĠÐºÑĢÐ°Ñģ": 935,
      "ĠÑĥÐ¶": 936,
      "ĠÐ¿Ð¾Ñħ": 937,
      "ĠÐ½Ð¸Ð¼": 938,
      "ĠÐ²ÑģÑĤÑĢ": 939,
      "ĠÑĤÐ°ÐºÐ¾Ðµ": 940,
      "ĠÑģÐ»Ð¾Ð²Ð½Ð¾": 941,
      "Ð¾Ð»Ð¾Ð´": 942,
      "Ð°Ð¼Ð±Ð»": 943,
      "ĠÐµÐµ": 944,
      "ĠÐŀÐ½Ð°": 945,
      "Ð°Ð¼Ð±Ð»Ð´Ð¾ÑĢ": 946,
      "ĠÑĥÐ¿": 947,
      "Ð°ÑĤÐ¸": 948,
      "ĠÐ¿ÐµÑĢÐ²": 949,
      "ĠÐ²Ð´": 950,
      "ĠÐ¼ÐµÑģÑĤ": 951,
      "Ð°Ð½ÑĤ": 952,
      "ĠÐ´Ð¾Ð»Ð¶": 953,
      "ĠÐ±Ð¾Ð»ÑĮÑĪÐµ": 954,
      "ĠÐ·Ð°ÑĤ": 955,
      "ÐºÐ°Ñı": 956,
      "ĠÐ¾Ñĩ": 957,
      "ĠÐĶÐ°Ð¼Ð±Ð»Ð´Ð¾ÑĢ": 958,
      "ĠÐ¿ÑĢÐ¾ÑĦÐµÑģÑģÐ¾ÑĢ": 959,
      "ĠÐ´Ð¾Ð¼": 960,
      "Ð¸Ð¼Ð¾": 961,
      "ĠÐ¿Ð¾ÐºÐ°": 962,
      "Ð¸Ð¼Ð¸": 963,
      "ĠÑģÐºÐ°Ð·Ð°Ð»Ð°": 964,
      "ÑģÐµÐ¼": 965,
      "ĠÐ¿ÑĢÐ¾Ð±": 966,
      "Ð¸ÑĪÑĮ": 967,
      "Ð½ÑĮ": 968,
      "ĠÐ¼ÐµÑĤ": 969,
      "ĠÐ¼Ð¾ÑĢ": 970,
      "Ð»Ð¸Ð²": 971,
      "ÑĢÐ¸Ð²": 972,
      "ĠÐ»ÐµÑĤ": 973,
      "ÐĿÐµ": 974,
      "ĠÑģÐ¾Ñģ": 975,
      "ÑģÐºÐ°Ð·": 976,
      "ĠÑĩÐµÐ»Ð¾Ð²ÐµÐº": 977,
      "ÑĳÐ¼": 978,
      "ÑĥÐ¹": 979,
      "ÑĥÐ³": 980,
      "Ð·Ð¾Ð²": 981,
      "ĠÑĢÐ¾Ð´": 982,
      "ÑĢÑĭÐ²": 983,
      "ĠÐ§ÑĤÐ¾": 984,
      "Ð±Ð¾": 985,
      "Ð¾Ð³Ð»Ð°Ñģ": 986,
      "ÑģÐ¸": 987,
      "Ð¾Ð²Ð¾Ð»ÑĮ": 988,
      "ĠÐ±ÐµÑģ": 989,
      "ĠÐ¢Ð°Ðº": 990,
      "ĠÑģÐ¼Ð¾ÑĤÑĢ": 991,
      "Ð´ÐµÑģÑĮ": 992,
      "ĠÐ¿Ð¾Ð¶": 993,
      "ĠÑĤÐµÐ¿ÐµÑĢÑĮ": 994,
      "ÑģÑĤÐ²Ð°": 995,
      "Ð½Ð°Ñĩ": 996,
      "ÑįÑĤÐ¾Ð¼Ñĥ": 997,
      "ÐµÑĢÐµÐ´": 998,
      "ÐµÐ»Ñı": 999,
      "Ð½Ð¸Ð±": 1000,
      "ĠÐ¿Ð¾ÑģÐ»ÐµÐ´": 1001,
      "ĠÑĩÐµÑĢÐµÐ·": 1002,
      "ĠÑĤÐ²Ð¾": 1003,
      "ÐµÐ½Ð¸ÐµÐ¼": 1004,
      "Ð»Ð°ÑģÑĮ": 1005,
      "Ð½ÑĥÐ»Ð°ÑģÑĮ": 1006,
      "ĠÐ¿ÑĢÐ¾Ð´Ð¾Ð»Ð¶": 1007,
      "Ð½Ð¸Ð±ÑĥÐ´ÑĮ": 1008,
      "ĠÐ°Ð²": 1009,
      "ĠÐŀÑĢÑĤÐµÐ³Ð°": 1010,
      "ĠÐ´Ð°": 1011,
      "ĠÐ´Ð¾Ð±": 1012,
      "ÑĳÑĢ": 1013,
      "ĠÐĳÐ°Ð½ÐºÑĢÐ¾ÑĦÑĤ": 1014,
      "ĠÐ¿Ð¾Ð³": 1015,
      "ĠÑģÐ¸Ð´": 1016,
      "Ð½Ð¾ÑģÑĤÐ¸": 1017,
      "ÐµÑĤÑĭ": 1018,
      "ĠÐ¿Ð¾ÑıÐ²": 1019,
      "ĠÐ¾ÑĤÐ²": 1020,
      "ĠÑįÑĤÐ¾ÑĤ": 1021,
      "ÐŀÑĩÐµÐ½ÑĮ": 1022,
      "Â»,": 1023,
      "ÐµÑĢÐ²": 1024,
      "ĠÐ¶Ð¸Ð·": 1025,
      "ÑĢÐ°Ð¼": 1026,
      "ĠÐ½ÐµÐ²": 1027,
      "ĠÐ²ÑĭÐ¿": 1028,
      "Ð»ÑİÑĩ": 1029,
      "ĠÐ¿Ð¾Ð²ÐµÑĢ": 1030,
      "ĠÐ³Ð¾Ð»Ð¾Ð²Ñĥ": 1031,
      "ĠÐ´Ð¾ÑĢ": 1032,
      "Ð¾Ð¶Ð´": 1033,
      "Ð°ÑİÑī": 1034,
      "ĠÐ¾Ð´Ð¸Ð½": 1035,
      "ÐµÐ½Ð½ÑĭÐ¹": 1036,
      "Ð³Ð¸": 1037,
      "ĠÑĤÑĥÑĤ": 1038,
      "ĠÑĢÐµÐ·": 1039,
      "ÑĳÐ½": 1040,
      "Ð½Ñİ": 1041,
      "Ð¼Ð¾Ð¶Ð½Ð¾": 1042,
      "Ð°ÐºÐ¾Ð¼": 1043,
      "Ð³Ð»": 1044,
      "ÑģÐºÐ¾Ð»ÑĮÐºÐ¾": 1045,
      "ÑıÐ´Ð¾Ð¼": 1046,
      "ÑĥÐº": 1047,
      "ĠÑģÐ»ÑĭÑĪ": 1048,
      "ĠÐ¿Ð»ÐµÑĩ": 1049,
      "ĠÑĤÐ¾Ð¼": 1050,
      "ĠÑĩÐ°Ñģ": 1051,
      "Ð»Ð¸Ð½": 1052,
      "ÑĪÐ¸Ñħ": 1053,
      "ĠÑĢÐ°ÑģÐ¿": 1054,
      "ĠÑĢÑĥÐºÑĥ": 1055,
      "ĠÐ²ÑĭÑģ": 1056,
      "Ð½Ð¸ÐºÐ¾Ð²": 1057,
      "ÑıÑī": 1058,
      "ĠÑĤÐµÐ»": 1059,
      "ĠÑĤÑĢÑĥ": 1060,
      "Ð»Ð¾Ð¶": 1061,
      "ĠÐ¾Ñī": 1062,
      "Ð¾Ð»Ð¾Ñĩ": 1063,
      "ÑĨÐ¸Ñı": 1064,
      "ĠÐ²ÐµÑĩ": 1065,
      "ĠÐĴÑĭ": 1066,
      "ĠÐ½Ð¸Ñħ": 1067,
      "ÑĤÐ°Ðº": 1068,
      "ĠÐ¾ÑĤÐºÑĢÑĭ": 1069,
      "ĠÐ½ÑĥÐ¶Ð½Ð¾": 1070,
      "ÑĤÐµÐ»ÑĮ": 1071,
      "Ð¸ÑĨ": 1072,
      "ÑıÑģ": 1073,
      "Ð°Ð½Ð´": 1074,
      "Ð½Ð¸ÐºÐ°": 1075,
      "ĠÐºÑĢÐ¾Ð²": 1076,
      "ĠÑģÑĤÑĢÐ°": 1077,
      "ĠÐ¿Ð¾Ð´ÑĥÐ¼": 1078,
      "ĠÐ¿Ð¾ÐºÐ°Ð·": 1079,
      "ÑĥÐ½": 1080,
      "ÑĩÐ°": 1081,
      "ĠÐ¼Ð¸Ð½Ñĥ": 1082,
      "ĠÑĤÐ¾ÑĤ": 1083,
      "ĠÑĢÑĥÐºÐ¸": 1084,
      "ĠÐ¿ÑĢÐ¾Ð¸Ð·Ð½ÐµÑģ": 1085,
      "ÐĿÐ°": 1086,
      "ÑīÐ¸Ñħ": 1087,
      "ÐµÑİ": 1088,
      "ÑĢÐµÐ½": 1089,
      "ĠÑģÐµÐº": 1090,
      "ĠÑĤÑĢÐ¸": 1091,
      "Ð°ÑĢÐ°": 1092,
      "ĠÐ¾Ð±ÑĬ": 1093,
      "Ð°ÑĤÐµÐ»ÑĮÐ½Ð¾": 1094,
      "ĠÐķÑģÐ»Ð¸": 1095,
      "ÐºÐ½ÑĥÐ»": 1096,
      "ÑħÐ²Ð°ÑĤ": 1097,
      "ĠÐ±Ð¾": 1098,
      "ĠÐ¿Ð¾ÑĢ": 1099,
      "ĠÐ¾ÑģÑĤÐ°Ð²": 1100,
      "ĠÐ´ÐµÐ¹ÑģÑĤÐ²": 1101,
      "ĠÐ¼Ð¾Ð¹": 1102,
      "ĠÐµÐ´": 1103,
      "Ð¾ÑĢÑĤ": 1104,
      "Ð¾ÑĪ": 1105,
      "Ð»Ð°Ð²": 1106,
      "ÑıÐ½": 1107,
      "ĠÐ¿Ð¾Ð±": 1108,
      "Ð²Ð°ÑĢ": 1109,
      "ĠÐ¶Ð¸Ð²": 1110,
      "ĠÐ¼Ð½Ð¾Ð³Ð¾": 1111,
      "ĠÐ½ÐµÐ±": 1112,
      "ÑĩÐµÐ¼": 1113,
      "ĠÐ·Ð²": 1114,
      "ĠÐ·Ð°Ð³": 1115,
      "ĠÑħÐ¾ÑĢÐ¾ÑĪÐ¾": 1116,
      "ÐĿÑĥ": 1117,
      "ĠÐ´Ð¾Ð»": 1118,
      "ĠÐ³Ð¾ÑĢ": 1119,
      "ĠÐ½Ð¸ÐºÐ°Ðº": 1120,
      "ÑĭÐ»": 1121,
      "ĠÑĤÐµÑħ": 1122,
      "ĠÑĥÐ·": 1123,
      "Ð°Ð´Ð¾": 1124,
      "ĠÐ²Ð¸Ð´ÐµÐ»": 1125,
      "ÑĩÐ¸Ð²": 1126,
      "ĠÐ·Ð´ÐµÑģÑĮ": 1127,
      "ĠÑģÑĤÑĢ": 1128,
      "ĠÐ½Ð°Ð´Ð¾": 1129,
      "ĠÐ»Ð¸ÑĨÐ¾": 1130,
      "ĠÐ¿ÑĭÑĤ": 1131,
      "ÐµÑĢÑĪ": 1132,
      "ĠÐ´ÐµÐ½ÑĮ": 1133,
      "ĠÐ¿ÑĢÐ¸ÑĪ": 1134,
      "ÑĢÐµÐ¶": 1135,
      "ÑĪÐµÐ±": 1136,
      "ĠÑĥÑģÑĤ": 1137,
      "ĠÐĲÐ»Ð°Ð´": 1138,
      "ĠÑĥÐ´Ð¸Ð²": 1139,
      "ĠÐ·Ð°Ð¼ÐµÑĤ": 1140,
      "ĠÐ¾ÑĤÐ²ÐµÑĤÐ¸Ð»": 1141,
      "ĠÐ²Ð¾Ð´": 1142,
      "ĠÐ¼Ð½Ð¾Ð¹": 1143,
      "ÐµÐ½Ð¸Ð¹": 1144,
      "ÐµÑģÑĤÐ¾": 1145,
      "ÑĢÑıÐ´": 1146,
      "ĠÐ¿Ð»Ð°Ð½": 1147,
      "ĠÑģÐ¾Ð²ÑģÐµÐ¼": 1148,
      "ĠÑĢÑıÐ´Ð¾Ð¼": 1149,
      "ĠÑįÑĤÐ¸": 1150,
      "ĠÑĢÐ°Ð·Ð²": 1151,
      "Ð¼ÐµÑĢ": 1152,
      "ĠÑĢÐµ": 1153,
      "Ð¾ÐºÐ¾Ð¹": 1154,
      "ÐµÐ½Ñĭ": 1155,
      "Ð¾Ð»Ð½": 1156,
      "ĠÐ¾Ð±Ð¾Ð»Ð¾Ñĩ": 1157,
      "ĠÐ¤": 1158,
      "ĠÐ½ÐµÑĳ": 1159,
      "ÑĢÑĥÐ·": 1160,
      "ĠÐŁÐ¾Ñģ": 1161,
      "ĠÑĥÑģÐ»": 1162,
      "ĠÐ½ÐµÑģÐºÐ¾Ð»ÑĮÐºÐ¾": 1163,
      "Ð¸Ð½Ð¾Ð¹": 1164,
      "ĠÑħÐ¾ÑĤÐµÐ»": 1165,
      "ĠÐ»ÑĥÑĩÑĪÐµ": 1166,
      "Ð¸Ð½Ð°": 1167,
      "Ð¾Ð´Ð½Ñı": 1168,
      "ĠÐ¾ÐºÐ°Ð·": 1169,
      "ĠÐºÑĢÐ¸": 1170,
      "ĠÑįÐº": 1171,
      "Ð¾ÐºÐ¾": 1172,
      "Ð½Ð¾Ð¼Ñĥ": 1173,
      "ĠÐºÐ¾Ð¼Ð½Ð°": 1174,
      "ĠÐ½Ð°Ð±": 1175,
      "ĠÐ¿Ð¾ÑĤÐ¾Ð¼": 1176,
      "ĠÐ²Ð¾Ð»ÑĪÐµÐ±": 1177,
      "Ð²ÑĭÑĩ": 1178,
      "ÑĤÑĢÐ°": 1179,
      "ÑıÐ¶": 1180,
      "ĠÐ¼ÑĥÐ¶": 1181,
      "ĠÐŀÑĤ": 1182,
      "ÐµÑģÑĤÐ¸": 1183,
      "ÐµÐ½Ð¸Ð¸": 1184,
      "ĠÐŁÑĢÐ¸": 1185,
      "ĠÐļÐ¾ÑĢ": 1186,
      "ÑıÑĤÐ½Ð¾": 1187,
      "ĠÐ±Ð¾Ð»ÐµÐµ": 1188,
      "Ð¸Ð¸": 1189,
      "ÑĩÐµ": 1190,
      "Ð¾Ð²Ð°ÑĤÑĮ": 1191,
      "ĠÐ´ÐµÑĢ": 1192,
      "ĠÐ¿Ð¾ÑģÐ¼Ð¾ÑĤÑĢÐµÐ»": 1193,
      "ĠÐ´ÐµÐ»Ð°": 1194,
      "ĠÐ±Ð¾Ð»ÑĮÑĪ": 1195,
      "Ð°ÑĤÐ¾": 1196,
      "ÑĮÑı": 1197,
      "ĠÐºÐ°Ð±": 1198,
      "ĠÐ¼ÐµÐ´": 1199,
      "ĠÑĩÐµÐ³Ð¾": 1200,
      "ĠÐ¿ÑĢÐ¾ÑĤÐ¸Ð²": 1201,
      "ĠÐĵÐµÑĢÐ¼Ð¸Ð¾": 1202,
      "ĠÐ·Ð½Ð°Ñİ": 1203,
      "ÑĢÐµ": 1204,
      "ĠÐ²ÐµÐ´ÑĮ": 1205,
      "Ð»Ð¸Ð²Ð¾": 1206,
      "ĠÐ¸Ð½ÑĤÐµÑĢÐµÑģ": 1207,
      "ĠÑģÐ¿ÑĢÐ¾ÑģÐ¸Ð»": 1208,
      "ÑĢÐµÐ·": 1209,
      "ĠÐ²Ðµ": 1210,
      "ÑĨÑĥ": 1211,
      "ĠÐ¶ÐµÐ»": 1212,
      "ÐºÑĥÑģ": 1213,
      "ĠÐ²Ð·Ð´": 1214,
      "ÐŃÑĤÐ¾": 1215,
      "ÑĪÐµÐ³Ð¾": 1216,
      "ĠÐĿÑĥ": 1217,
      "ĠÐ¾ÑĤÐ¿": 1218,
      "ĠÐ¿ÑĢÐ¾Ð³": 1219,
      "Ð»Ð¾ÑģÑĮ": 1220,
      "Ð½Ð°Ð»": 1221,
      "ĠÐ²Ð°Ð¼": 1222,
      "Ð²Ð¾Ð»": 1223,
      "Ð½Ð¾Ñģ": 1224,
      "Ð°Ð½Ð°": 1225,
      "ÑīÐµÐµ": 1226,
      "ĠP": 1227,
      "Ð¾ÑĤÐ¾": 1228,
      "Ð³Ð°": 1229,
      "ĠÐŁÐ¾ÑĤ": 1230,
      "ĠÐ²Ð¼": 1231,
      "ÐŀÑĤ": 1232,
      "ÑīÐ¸Ðµ": 1233,
      "ĠÑģÐ¸ÑģÑĤ": 1234,
      "ĠÐºÐ°Ð¼": 1235,
      "ĠÐ¼Ð°Ð»": 1236,
      "ĠÐ½Ð°ÑħÐ¾Ð´": 1237,
      "Ð»Ð¸Ñĩ": 1238,
      "ÑĢÐ¾ÑģÑĤ": 1239,
      "ĠÐ¿Ð¾Ñģ": 1240,
      "Ð½ÑĥÑĤ": 1241,
      "ĠÐ¿ÑĢÐ¸Ð²": 1242,
      "ĠÐ½ÐµÐ¼Ð½Ð¾Ð³Ð¾": 1243,
      "ĠÑģÐ¸Ð»": 1244,
      "ĠÐ¿ÑĢÐ¸Ð±": 1245,
      "ĠÐµÐ´Ð²Ð°": 1246,
      "ÑĥÐ»Ñı": 1247,
      "ÑĤÑĮÑģÑı": 1248,
      "ĠÐ¿ÑĢÐ¸Ð´": 1249,
      "Ð¾Ð¿ÑĢÐ¾Ñģ": 1250,
      "ĠÐ´ÐµÐ»Ð°ÑĤÑĮ": 1251,
      "Ð¼ÐµÐ½": 1252,
      "ĠÐºÐ°Ð¶Ð´": 1253,
      "ĠÑĥÑģ": 1254,
      "Ð¸Ð½Ðµ": 1255,
      "ĠÐ²ÑĭÐ±": 1256,
      "ÐĿÐ¾": 1257,
      "ĠÐ·Ð½Ð°ÐµÑĪÑĮ": 1258,
      "ÐµÑĤÐ¸": 1259,
      "ĠÐ·Ð°ÑĢ": 1260,
      "Ð¾Ð¹Ð´": 1261,
      "Ð¾Ð½ÐµÑĨ": 1262,
      "ĠÑĤÐ°ÐºÐ¾Ð¹": 1263,
      "Ð¾Ð´Ð°": 1264,
      "Ð½Ð¸Ð¹": 1265,
      "ĠÐ±ÑĭÑģÑĤÑĢÐ¾": 1266,
      "ĠÐ¿ÑĢÐµÐ´ÑģÑĤÐ°Ð²": 1267,
      "ĠÐºÐ¾Ð½ÐµÑĩÐ½Ð¾": 1268,
      "ĠÐ¿Ð¾ÑĩÐµÐ¼Ñĥ": 1269,
      "ĠÐ½Ð°Ð¹": 1270,
      "ÐµÑĢÐ¾Ð¼": 1271,
      "ÑĢÐ¾Ðµ": 1272,
      "ĠÐ½Ð°Ð·Ð°Ð´": 1273,
      "Ð´Ð°Ð»": 1274,
      "ĠÐºÐ¸Ð²": 1275,
      "ĠÐ´Ð°Ð»ÑĮ": 1276,
      "ĠÑĤÐ¾Ð³Ð´Ð°": 1277,
      "ĠÐ²ÑģÐµÐ³Ð¾": 1278,
      "Ð°Ð¶ÐµÑĤÑģÑı": 1279,
      "ÑĥÑĪÐºÐ°": 1280,
      "ĠÐ¶ÐµÐ½ÑīÐ¸": 1281,
      "Ð»ÐµÐ½Ð½Ð¾": 1282,
      "Ð½Ð¸Ð·": 1283,
      "Ð»Ð¾Ñħ": 1284,
      "ÑĢÐ¾Ð±": 1285,
      "ĠÐ¸Ð´": 1286,
      "ĠÐºÐ°Ð¿": 1287,
      "ĠÑĥÑĢÐ¾Ðº": 1288,
      "ÑĢÑĥÑİ": 1289,
      "ĠÐ¡Ð¸ÑĢÐ¸": 1290,
      "ÑĨÐ¸Ñİ": 1291,
      "ĠÐ³Ð¾ÑĢÐ¾Ð´": 1292,
      "ĠÐºÐ¾ÑĤÐ¾ÑĢÑĭÐ¹": 1293,
      "ĠÐ½Ð¾Ñĩ": 1294,
      "Ð½Ð¸Ðµ": 1295,
      "ĠÑģÐ²ÐµÑĤ": 1296,
      "ÑģÑĤÑĮÑİ": 1297,
      "Ð¾Ð²Ð°Ñĩ": 1298,
      "ÑĢÐµÐ¿": 1299,
      "ĠÐ¿Ð°Ð»": 1300,
      "Ð½Ð¸ÐºÐ¸": 1301,
      "ĠÐ²ÑģÐµÑħ": 1302,
      "ĠÑģÐ²Ð¾Ñİ": 1303,
      "Ð°ÑĪÐ¸": 1304,
      "ĠÑģÐ¾Ð·": 1305,
      "ĠÑĩÐ°": 1306,
      "ĠÐ»ÐµÐ³": 1307,
      "ÐµÑģÐº": 1308,
      "ĠÐ¸Ð·Ð²": 1309,
      "ĠÐ²ÑģÑĤÑĢÐµÑĩ": 1310,
      "ÑģÐºÐ¸Ð¹": 1311,
      "Ð¿Ð»": 1312,
      "ĠÑĤÐµÑĢ": 1313,
      "Ð¾Ð»Ð´": 1314,
      "ĠÐ±ÐµÑĢ": 1315,
      "ĠÑģÐ²ÑıÐ·": 1316,
      "ĠÑĢÐ°ÑģÑģÐºÐ°Ð·": 1317,
      "Ð¸Ð»ÑĮÐ½Ð¾": 1318,
      "ĠÑĥÐ²Ð¸Ð´ÐµÐ»": 1319,
      "ĠÑģÐµÑĢ": 1320,
      "Ð¿Ð¿": 1321,
      "ĠÐ·ÐµÐ¼": 1322,
      "ÐµÐ³Ð¾Ð´Ð½Ñı": 1323,
      "ĠÐľÐ½Ðµ": 1324,
      "ÑħÐ¾Ð´Ð¸ÑĤ": 1325,
      "ÐĴÑĭ": 1326,
      "Ð°Ð²Ð°Ð¹": 1327,
      "Ð°Ð´ÑĨ": 1328,
      "ÑĪÐ¸Ðµ": 1329,
      "ĠÑģÐ²Ð¾ÐµÐ¹": 1330,
      "Ð½ÑĥÐ²ÑĪÐ¸ÑģÑĮ": 1331,
      "ĠÐ¾Ñħ": 1332,
      "Ð·Ñĭ": 1333,
      "ÐºÐ¾Ðµ": 1334,
      "ĠÑĢÐ°Ð·Ð³": 1335,
      "ÐµÑģÑĤÐ½Ð¾": 1336,
      "ĠÐ¿Ð¾ÑĩÑĤÐ¸": 1337,
      "on": 1338,
      "Ð»ÐµÐ½Ð¸Ñı": 1339,
      "ÑĦÐ¾ÑĢÐ¼": 1340,
      "ĠÑĤÐ¾ÑĢ": 1341,
      "ĠÐ»Ð¸ÑĪÑĮ": 1342,
      "ĠÑħÐ¾ÑĤÑı": 1343,
      "ĠÐ²Ð´ÑĢÑĥÐ³": 1344,
      "ÑģÑĥ": 1345,
      "ĠÐ²Ð½Ð¸Ð¼": 1346,
      "ĠÐ¿Ð¾Ð½Ð¸Ð¼": 1347,
      "Ð¾Ð½Ñĩ": 1348,
      "Ð½ÑıÑĤÑĮ": 1349,
      "ĠÐ´ÐµÐ»Ð¾": 1350,
      "ĠÐ¿Ð°Ð»ÑĮ": 1351,
      "Ð²Ð°Ð»": 1352,
      "ÐµÐ½Ð½ÑĭÐµ": 1353,
      "ÑĢÐ¾ÑĤ": 1354,
      "ĠÐľÑĭ": 1355,
      "ĠÑī": 1356,
      "ÐµÐ½Ð½Ð¾Ð¹": 1357,
      "ĠÐ´ÑĢ": 1358,
      "ĠÐ¿ÑĢÐ¾Ð¸Ñģ": 1359,
      "ÐµÐ¶Ð´Ñĥ": 1360,
      "ĠÐ´Ð²ÐµÑĢÑĮ": 1361,
      "ĠÑģÐ¸ÑģÑĤÐµÐ¼": 1362,
      "Ġ:": 1363,
      "Ð¸ÑĢÐ°": 1364,
      "ĠÐ¸ÑģÐº": 1365,
      "ĠÐºÑĥÐ¿": 1366,
      "ĠÐ¼Ð¾Ð»": 1367,
      "ĠÑģÐºÐ°Ð·Ð°ÑĤÑĮ": 1368,
      "ĠÑģÐ¾Ð±Ð¾Ð¹": 1369,
      "ĠÐ¿Ð¾Ð¶Ð°Ð»": 1370,
      "Ð°ÐµÐ¼": 1371,
      "ĠÐ½Ð¾Ñģ": 1372,
      "ÐºÐ»ÑİÑĩ": 1373,
      "ĠÐºÐ½Ð¸": 1374,
      "ĠÐ¿Ð¾ÑĤ": 1375,
      "ĠÐ³ÑĥÐ±": 1376,
      "ĠÐºÐ°ÐºÐ¾Ð¹": 1377,
      "ÐµÐ³Ð´Ð°": 1378,
      "ĠÐ½Ð¾Ð²ÑĭÐ¹": 1379,
      "Ġ:)": 1380,
      "Ð½ÐµÐ¼": 1381,
      "ĠÐºÐ»Ð°Ñģ": 1382,
      "ĠÐ´ÐµÑĢÐ¶": 1383,
      "ĠÐ¿ÑĢÐ¾ÑģÑĤ": 1384,
      "ÑģÑĤÐ²ÐµÐ½Ð½Ð¾": 1385,
      "ĠÐļÐ¾Ð³Ð´Ð°": 1386,
      "ĠÐĽÑİ": 1387,
      "ĠÑħÐ¾ÑĩÑĥ": 1388,
      "ÑĤÐ°Ð½": 1389,
      "ÐºÐ¾Ð»": 1390,
      "Ð¼Ð°": 1391,
      "ÑĢÐ¸ÑĦ": 1392,
      "Ð°Ð´Ð¸": 1393,
      "ÐµÐ½Ð¸Ñİ": 1394,
      "Ð¾Ð½ÐµÑĩÐ½Ð¾": 1395,
      "Ð´ÑĥÑħ": 1396,
      "ĠÐ²ÑĢÐµÐ¼ÐµÐ½Ð¸": 1397,
      "ĠÐ½Ð¾Ð³": 1398,
      "ĠÑģÑĥ": 1399,
      "ĠÑģÐ»Ð¸": 1400,
      "ĠÐ±ÑĢÐ¾Ñģ": 1401,
      "ÐµÐ·Ð´": 1402,
      "ÑĭÐ²Ð°ÑĤÑĮ": 1403,
      "ĠÐ´ÐµÑĢÐµÐ²": 1404,
      "ÑĢÐ°Ð»": 1405,
      "ĠÑģÑĩÐ¸ÑĤ": 1406,
      "ĠÐ¿ÑĢÑı": 1407,
      "Ð»Ð¾Ð½": 1408,
      "ĠÐ¾ÑĢ": 1409,
      "ĠÐ´Ð²Ð°": 1410,
      "ÑĢÐµÐ´ÐµÐ»": 1411,
      "ĠÑģÐ¾Ð²ÐµÑĢÑĪ": 1412,
      "ĠÐ¾ÑīÑĥÑī": 1413,
      "ĠÐ¾Ð³ÑĢ": 1414,
      "ĠÐ¿ÑĢÐ¸Ð·": 1415,
      "ÐŀÐ±": 1416,
      "ÑĢÐ°Ð·Ñĥ": 1417,
      "Ð»ÐµÐ´": 1418,
      "Ð¼Ñĭ": 1419,
      "ÑĪÐºÐ¾Ð¼": 1420,
      "ĠÑĢÑĭ": 1421,
      "Ð¾ÑĤÑĢÐ¸": 1422,
      "ĠÐ¿Ð¾Ð´Ð¾Ð±": 1423,
      "ĠÑĢÐ°Ð·Ð±": 1424,
      "ÑĩÐ°Ð»": 1425,
      "ĠÐ½Ð°ÑģÑĤÐ¾": 1426,
      "ĠÑĢÐ°Ð½": 1427,
      "ĠÐŁÐµÑĤ": 1428,
      "ĠÐ³Ð¾Ð»Ð¾Ð²Ð¾Ð¹": 1429,
      "ĠÐ¼Ð¾Ð³Ñĥ": 1430,
      "ĠÐ´Ð¾ÑĢÐ¾Ð³": 1431,
      "Ð½Ð¸Ð»": 1432,
      "ĠÐ¿Ð¾ÑģÑĤ": 1433,
      "Ð¾ÑĤÑĤ": 1434,
      "ĠÐºÐ¾Ð¼Ð¿": 1435,
      "ÑĥÑģÐº": 1436,
      "ÑĥÐ»ÑĮ": 1437,
      "ÑĩÐµÐ·": 1438,
      "ĠÐºÑĢÑĥ": 1439,
      "ĠÐºÑĥÐ´Ð°": 1440,
      "Ð¿ÐµÑĢ": 1441,
      "ĠÑģÐ²Ð¾Ð¸": 1442,
      "Ð½ÐµÐ²Ð½Ð¸Ðº": 1443,
      "ÑıÑģÑĮ": 1444,
      "ĠÑģÐµÐ¼": 1445,
      "Ð´ÐµÑĢÐ¶": 1446,
      "ÐºÐ¸Ñħ": 1447,
      "ĠÑģÑĤÐ°Ð»": 1448,
      "ĠÐĴÐ¾ÑĤ": 1449,
      "ÑĢÐ°Ñĩ": 1450,
      "ÑģÑĭ": 1451,
      "Ð»ÐµÐ¼": 1452,
      "Ð»ÐµÐ½Ð¸Ðµ": 1453,
      "ĠÐ¿Ð¸": 1454,
      "ĠÐļÐ¾Ð²Ð°Ñĩ": 1455,
      "ÐµÑģÑĤÐµ": 1456,
      "ĠÐ¾ÑģÑĤÐ°Ð½Ð¾Ð²": 1457,
      "ĠÑĥÐ¶Ð°Ñģ": 1458,
      "Ð¸Ñĩ": 1459,
      "ĠÐ´Ð¾Ð³": 1460,
      "Ð°ÐºÐ¾": 1461,
      "ĠÐ¿Ð¾ÑįÑĤÐ¾Ð¼Ñĥ": 1462,
      "ÑĪÐ°Ñı": 1463,
      "ĠĊĊ": 1464,
      "ÐĵÐ»Ð°Ð²": 1465,
      "ĠÐ½Ð°Ð²ÐµÑĢ": 1466,
      "ÑĥÑĤÑĮ": 1467,
      "ĠÐºÑĥÑĢ": 1468,
      "ĠÑĥÑĤ": 1469,
      "ĠÐ²ÑģÐµÐ³Ð´Ð°": 1470,
      "ÑĩÐ¸Ðº": 1471,
      "ÑĩÐ¸Ð½Ð°": 1472,
      "Ð¥Ð¾ÑĢÐ¾ÑĪÐ¾": 1473,
      "Ġ1": 1474,
      "ĠÐ²Ð¾Ð¿ÑĢÐ¾Ñģ": 1475,
      "ÐµÐ½Ð½ÑĭÑħ": 1476,
      "ĠÐ´Ð°Ð»": 1477,
      "ĠÐ·Ð°Ñģ": 1478,
      "ĠÐ»ÐµÐ¶": 1479,
      "Ð¸Ð²ÑĪÐ¸ÑģÑĮ": 1480,
      "ĠÐ²Ð°ÑĪ": 1481,
      "ÑĪÐµÐ¹": 1482,
      "ĠÐ´ÐµÑĤ": 1483,
      "ÑĳÐ·": 1484,
      "Ð¾ÐºÐ°": 1485,
      "ĠÐ²Ð¾Ð·Ð´ÑĥÑħ": 1486,
      "ĠÐ½ÐµÐ¿ÑĢÐ¸": 1487,
      "ĠÐ¸ÑģÑĩÐµÐ·": 1488,
      "ÑıÑĤÐ¸": 1489,
      "ĠÐ°Ð½": 1490,
      "ÑĭÐ²Ð°Ð»": 1491,
      "ĠÑģÐ¿ÑĢÐ¾ÑģÐ¸Ð»Ð°": 1492,
      "ĠÑģÐ»ÑĭÑĪÐ°Ð»": 1493,
      "ĠÑģÐ¾Ð³Ð»Ð°Ñģ": 1494,
      "ĠÑĥÐ³": 1495,
      "ÐºÐ¸Ðµ": 1496,
      "Ð¾Ð½Ðµ": 1497,
      "ĠÐ²ÑģÐ¿Ð¾Ð¼": 1498,
      "ĊĊĊ": 1499,
      "ĠÐ¿Ð¾Ð¿ÑĭÑĤ": 1500,
      "ÑģÑĤÐ°ÑĤÐ¾": 1501,
      "Ð°Ð»ÑĦ": 1502,
      "ÐµÑĤÐ°": 1503,
      "ĠÐ¾Ð±ÑĢÐ°ÑĤ": 1504,
      "ĠÐ¾ÑģÐ¾Ð±": 1505,
      "Ð¸Ð½Ð¸": 1506,
      "ÑĥÑĢÐ°": 1507,
      "ĠÑģÑĢÐµÐ´": 1508,
      "ĠÐ¼Ð¾Ð¼": 1509,
      "ĠÑĤÐ¸Ñħ": 1510,
      "Ð°ÑİÑģÑĮ": 1511,
      "ÑĭÐ²Ð°Ñı": 1512,
      "Ð°Ð½Ð½ÑĭÐµ": 1513,
      "ĠÐĿÐµÑĤ": 1514,
      "ĠÐ½Ð°Ð¿ÑĢÐ°Ð²": 1515,
      "ĠÐ·Ð½Ð°ÐºÐ¾Ð¼": 1516,
      "ÑĥÐµÑĤ": 1517,
      "ĠÐ¼ÐµÑĢ": 1518,
      "ĠÑįÑĤÑĥ": 1519,
      "ĠÑħÑĢÐ°Ð½": 1520,
      "ÐŀÐ½": 1521,
      "ÐµÑģÑĤÑĮ": 1522,
      "ÑıÐ³": 1523,
      "Ð³Ð½Ð¾Ð²": 1524,
      "ĠÑģÑĤÑĢÐ°Ð½": 1525,
      "ÐºÑĥÑİ": 1526,
      "ĠÑģÐ»Ð¾Ð²Ð°": 1527,
      "ĠÑģÐ¿Ð¾ÐºÐ¾Ð¹": 1528,
      "Ð°Ð¹Ðº": 1529,
      "Ð¸ÑģÑģ": 1530,
      "ĠÑĥÑģÐ»ÑĭÑĪ": 1531,
      "ĠÐ´ÐµÑģÑı": 1532,
      "Ð¾Ð»ÑĮÐ·Ð¾Ð²": 1533,
      "ÑģÐºÐ¾Ð¹": 1534,
      "ĠÑģÑĤÐ¾Ð»": 1535,
      "ĠÐŁÐ¾ÑĤÑĤÐµÑĢ": 1536,
      "ĠÐ¡Ð¸ÑĢÐ¸ÑĥÑģ": 1537,
      "ÐµÐ»ÐµÐ¹": 1538,
      "Ð½Ð¸Ñĩ": 1539,
      "ĠÐĴÑģÐµ": 1540,
      "Ð²Ð°ÑĢÑĤ": 1541,
      "ĠÑĪÐ¸": 1542,
      "Ð¾ÑĤÑĮ": 1543,
      "ĠÑģÑĢÐ°Ð·Ñĥ": 1544,
      "ĠÐºÑĢÑĭ": 1545,
      "ĠÐ¼ÐµÑģÑĤÐ¾": 1546,
      "Ð°Ð½Ð½Ð¾": 1547,
      "ĠÐ¿Ð¾Ð½ÑıÐ»": 1548,
      "ĠÑģÐ»Ð¸ÑĪÐºÐ¾Ð¼": 1549,
      "ĠÐ¼Ð°ÑĤ": 1550,
      "ĠÐ²ÑĭÑħÐ¾Ð´": 1551,
      "ÐŀÐ½Ð°": 1552,
      "ĠÐłÐ°Ð¹Ðº": 1553,
      "ĠÐ¿Ð¸Ñģ": 1554,
      "ĠÐ²Ð¾Ðº": 1555,
      "ĠÐºÐ»Ð¸": 1556,
      "ÐµÐ½Ð¾": 1557,
      "ĠÐ±ÐµÐ´": 1558,
      "ĠÐŁÑĢ": 1559,
      "ĠÑĤÐ¾Ð»": 1560,
      "ĠÐĺÐ²Ð°Ð½": 1561,
      "ĠÑĪÐ°Ð³": 1562,
      "ĠÐ²Ð¾Ð·Ð¼Ð¾Ð¶Ð½Ð¾": 1563,
      "ÐĺÐ½": 1564,
      "ĠÐ¸Ð¼ÐµÐ½Ð½Ð¾": 1565,
      "ĠÐºÐ¾ÑĤÐ¾ÑĢÑĭÐµ": 1566,
      "Ð½Ð¾ÑģÑĤÑĮÑİ": 1567,
      "ĠÑģÐ»ÑĥÑĩÐ°": 1568,
      "ĠÐ´Ð°Ð»ÑĮÑĪÐµ": 1569,
      "Ð²Ð¾Ð·": 1570,
      "Ð¼Ð°Ð½": 1571,
      "Ð¿Ð¾Ð»": 1572,
      "Ð¾ÑĤÐ°": 1573,
      "Ð°Ð´Ð¼Ð¸": 1574,
      "ĠÑĤÐ¾ÑĩÐ½Ð¾": 1575,
      "ĠÐłÐ°Ð·": 1576,
      "ĠÐ¥Ð¾Ð³": 1577,
      "ĠÐ½Ð°ÑĩÐ°Ð»": 1578,
      "Ð°ÑİÑĤÑģÑı": 1579,
      "ĠÐ±Ð»Ð¾Ðº": 1580,
      "ĠÐ²ÐµÑģÑĮ": 1581,
      "ĠÐ¼ÐµÑĩ": 1582,
      "ÑĢÐ¸Ðº": 1583,
      "ĠÐŀÐ½Ð¸": 1584,
      "ĠÐľÐ°Ð»ÑĦ": 1585,
      "Ð»ÑİÐ´": 1586,
      "ĠÑģÐ´ÐµÐ»Ð°ÑĤÑĮ": 1587,
      "Ð¾Ñī": 1588,
      "ÑĭÐ¼Ð¸": 1589,
      "ĠÑģÐ±": 1590,
      "Ð´Ð¶": 1591,
      "ÑģÑĤÐ°Ð»": 1592,
      "ÑİÑī": 1593,
      "ÑĢÐ¾ÑĪ": 1594,
      "ĠÑĥÐ»Ð¸": 1595,
      "Ð½Ð¸ÑĤÑĮ": 1596,
      "ĠÑĢÐ°Ð·Ð´": 1597,
      "ĠÐ·Ð°Ð½Ð¸Ð¼": 1598,
      "Ð½ÐµÑĤ": 1599,
      "ĠÑģÑĥÐ´": 1600,
      "ĠÐ²ÑģÑı": 1601,
      "Ð½Ð¾ÑĪ": 1602,
      "Ð¿ÑĢÐ¸": 1603,
      "ĠÑĢÐ°ÑģÑĤ": 1604,
      "Ð¾ÑģÐ¾Ð±": 1605,
      "ÑĢÑĭÐ¹": 1606,
      "ĠÑĢÑĥÐºÐ¾Ð¹": 1607,
      "ĠÐ¼ÑĭÑģÐ»": 1608,
      "ĠÐ´ÑĢÑĥÐ³Ð¾Ð¹": 1609,
      "ĠÐ¿Ð¾Ð¼Ð¾Ð³": 1610,
      "ĠÐ½Ð¸ÐºÐ¾Ð³Ð´Ð°": 1611,
      "ĠÐ½Ð°Ð¹ÑĤÐ¸": 1612,
      "ĠÐĽÑİÐ¿": 1613,
      "Ðĸ": 1614,
      "Ð¸Ð±Ð¾": 1615,
      "Ð»ÑģÑı": 1616,
      "ÐºÐ¾Ð³Ð¾": 1617,
      "ĠÐ¼Ð³Ð½Ð¾Ð²": 1618,
      "Ð¸ÑģÑĤÐµÑĢ": 1619,
      "Ð¾Ð²Ð¾Ð»ÑĮÐ½Ð¾": 1620,
      "ĠÐĲÐ»Ð°Ð´Ð´Ð¸Ð½": 1621,
      "ĠÐ½ÑĢÐ°Ð²": 1622,
      "ĠÑģÐµÐ³Ð¾Ð´Ð½Ñı": 1623,
      "ÑİÐ´Ð°": 1624,
      "ĠÑĢÐ°Ð²Ð½Ð¾": 1625,
      "ĠÐ¿ÑĢÐ¾Ð¿": 1626,
      "ÑĢÐ°ÑĦ": 1627,
      "ĠÑģÐ¼Ð¾Ð³": 1628,
      "ĠÑģÐ¾Ð¾Ð±": 1629,
      "ĠÐĶÐ¶ÐµÐ¹Ð¼ÑģÐ°": 1630,
      "ĠÐºÐ¾ÑĢÐ°Ð±": 1631,
      "ÑĦÐ¾ÑĢÐ¼Ð°": 1632,
      "Ð´ÑĢÐ°Ð²": 1633,
      "ĠÐ´Ð¸": 1634,
      "ĠÐ¿Ð¾ÑĤÐ¾Ð¼Ñĥ": 1635,
      "ÑģÑĤÐ²Ðµ": 1636,
      "ĠÑģÐ²Ð¾Ð¸Ñħ": 1637,
      "ĠÐ»ÑİÐ´": 1638,
      "ĠÐ¿Ð°ÑĢÑĥ": 1639,
      "ĠÐºÐ°Ð±Ð¸Ð½": 1640,
      "ÑģÑĤÐ°ÑĤÐ¾ÑĩÐ½Ð¾": 1641,
      "ĠÐ¿ÑĥÑģÑĤ": 1642,
      "ĠÐ½Ð¾ÑĢÐ¼": 1643,
      "ĠÐ¼ÐµÐ¶Ð´Ñĥ": 1644,
      "Ð°ÑģÐ¸Ð±Ð¾": 1645,
      "Ð¾Ð±Ð¾Ð´": 1646,
      "Ð»ÑıÐ´": 1647,
      "ĠÑģÑĤÐµÐ½": 1648,
      "ĠÐĶÐ½ÐµÐ²Ð½Ð¸Ðº": 1649,
      "ĠÐ°Ðº": 1650,
      "Ð¾Ð¿Ð¾Ð»": 1651,
      "ĠÐ³Ð¾ÑĤÐ¾Ð²": 1652,
      "ĠÑģÐ»ÑĥÑĩÐ°Ðµ": 1653,
      "..": 1654,
      "ĠÑİ": 1655,
      "ĠÐ¼Ð½": 1656,
      "Ð¿Ñĥ": 1657,
      "ĠÐ·Ð°Ð»": 1658,
      "ÐµÐ¹ÑĤ": 1659,
      "Ð¸Ð²Ð¾": 1660,
      "ĠÐ¿ÑĢÐ¾Ñģ": 1661,
      "ĠÐ²ÑģÐµÐ¼": 1662,
      "ĠÑģÐµÐºÑĥÐ½": 1663,
      "ĠÐ²Ð¾ÐºÑĢÑĥÐ³": 1664,
      "?!": 1665,
      "Ð¾ÑĢÐ¸": 1666,
      "Ð°Ð³Ð¾": 1667,
      "ĠÐ·ÐµÐ»ÑĮ": 1668,
      "ÑĨÐµÐ²": 1669,
      "ĠÐŁÐ¾Ð´": 1670,
      "Ð¢Ð¾Ð¶Ðµ": 1671,
      "ÐµÑĢÑĮÑĳÐ·": 1672,
      "ĠÑįÑĤÐ¾Ð¹": 1673,
      "ĠÐ·Ð°Ð²ÑĤÑĢÐ°": 1674,
      "ĠÐ´ÐµÐ²ÑĥÑĪÐºÐ°": 1675,
      "in": 1676,
      "ĠÐ¿ÑıÑĤ": 1677,
      "ĠÑģÐµÑģÑĤ": 1678,
      "ĠÐ¼Ð°ÑĤÑĮ": 1679,
      "ĠÐ¿ÑĢÐµÐ²": 1680,
      "ĠÐ¿ÑĢÐµÐº": 1681,
      "ĠÐ¾Ð±Ñĭ": 1682,
      "ĠÐŀÐ´": 1683,
      "Ð²Ð¾ÑģÑĤ": 1684,
      "ĠÐ½Ð¸ÐºÑĤÐ¾": 1685,
      "ĠÐ²Ð¾Ð»Ð¾Ñģ": 1686,
      "ÑıÐ»ÑģÑı": 1687,
      "ĠÐ¾ÑĤÐ¿ÑĢÐ°Ð²": 1688,
      "ĠÐ²Ð¼ÐµÑģÑĤÐµ": 1689,
      "Ð½ÐµÑĢ": 1690,
      "Ð»Ð°Ð³": 1691,
      "ĠÐ¿Ð°Ð¼": 1692,
      "ÑĪÐ»Ð°": 1693,
      "ĠÐºÐ¾Ñģ": 1694,
      "ĠÐ¼Ð¾Ð»Ð¾Ð´": 1695,
      "ĠÐ¼Ð°ÑĪÐ¸": 1696,
      "Ð¿ÑĢÐ¾": 1697,
      "Ð°Ð½Ð½ÑĭÐ¹": 1698,
      "Ð±Ð¸": 1699,
      "ÑīÐ¸ÑĤ": 1700,
      "Ð¾Ð±Ð¾Ð¹": 1701,
      "ĠÑħÐ²Ð°ÑĤ": 1702,
      "ÐĶÐ»Ñı": 1703,
      "Ð°Ð¹ÑĤÐµ": 1704,
      "Ð°ÐµÑĤÐµ": 1705,
      "ĠÐĺÐ½": 1706,
      "ĠÐ±ÑĥÐ´ÑĤÐ¾": 1707,
      "ĠÐ¾Ð¿ÑĢÐµÐ´ÐµÐ»": 1708,
      "ĠÐ§ÐµÑĢ": 1709,
      "ĠÐ·Ð½Ð°Ð»": 1710,
      "ĠÑģÑĤÐ¾ÑĢÐ¾Ð½Ñĥ": 1711,
      "ĠÐ¼Ð°Ð»ÐµÐ½ÑĮ": 1712,
      "ÑĤÐ²": 1713,
      "Ð¸Ð´Ð°": 1714,
      "ÑĢÐµÑĤ": 1715,
      "Ð»ÑĥÑĪ": 1716,
      "ĠÑģÐ¸Ð³": 1717,
      "Ð²Ð¸Ð´": 1718,
      "ĠÐ¾ÑĢÑĥÐ¶": 1719,
      "Ð±Ñĭ": 1720,
      "Ð¾Ð´Ñĥ": 1721,
      "ĠÐ¾ÑĤÑģ": 1722,
      "ÐļÐµÐ¼": 1723,
      "ĠÑģÐ²Ð¾ÐµÐ³Ð¾": 1724,
      "ÑĤÑĥÐ°Ð»ÑĮ": 1725,
      "ĠÐ¼ÐµÑģÑĤÐµ": 1726,
      "ĠÐ¶Ð¸Ð·Ð½Ð¸": 1727,
      "ĠÐ´ÑĥÑĪ": 1728,
      "ĠÑĢÐµÐ±": 1729,
      "Ð½Ð°ÑĢÑĥÐ¶": 1730,
      "Ð¸ÑĤÐ°Ð½": 1731,
      "Ð°Ð´Ð½Ð¾": 1732,
      "ĠÑħÐ¾ÑĢÐ¾": 1733,
      "ĠÑħÐ¾ÑĤÑĮ": 1734,
      "ĠÑģÐ²Ð¾Ð¹": 1735,
      "Ð°Ð½Ð¸ÐµÐ¼": 1736,
      "Ð¡Ð¾Ð³Ð»Ð°Ñģ": 1737,
      "ĠÐ´Ð²Ð¸Ð¶": 1738,
      "ĠÐ½Ð°ÐºÐ¾Ð½ÐµÑĨ": 1739,
      "ĠÑģÑĩ": 1740,
      "ĠÑģÑį": 1741,
      "ĠÐºÐ¾Ð³Ð¾": 1742,
      "ĠÐ¾ÑĤÐ´": 1743,
      "ĠÐ¿ÑĢÐ¸ÑħÐ¾Ð´": 1744,
      "ÐºÐ¾ÑĢÐ¾": 1745,
      "ĠÐ·Ð°Ñħ": 1746,
      "ĠÐ²Ð·Ð³Ð»Ñı": 1747,
      "ĠÑĤÑĢÑĥÐ´": 1748,
      "ÑıÐ½Ð¸": 1749,
      "ĠÐ¿Ð¾Ð¹": 1750,
      "ĠÐ²ÑĤÐ¾ÑĢ": 1751,
      "ĠÐ²Ð½Ð¸Ð·": 1752,
      "ĠÑĩÐ¸ÑĤ": 1753,
      "ĠÐ¿Ð¾Ð½": 1754,
      "Ð»Ð¸Ð¶": 1755,
      "ĠÐ³ÑĢ": 1756,
      "ĠÐ¿ÑĢÐ¾ÑĤÑı": 1757,
      "ĠÐ²ÑĭÐ´": 1758,
      "ĠÑĥÐ²ÐµÑĢ": 1759,
      "Ð¸ÑĢÐ¸Ð°Ð¼": 1760,
      "ÐĵÐ»Ð°Ð²Ð°": 1761,
      "Ð¤": 1762,
      "ĠÐºÐ°Ð·": 1763,
      "Ð½ÑĥÐ»Ð¸": 1764,
      "Ð°ÑĤÑĭ": 1765,
      "ĠÑģÑĤÑĢÐ°ÑĪ": 1766,
      "ĠÐ¼Ð¾Ð¼ÐµÐ½ÑĤ": 1767,
      "Ð¡Ð¾Ð³Ð»Ð°ÑģÐµÐ½": 1768,
      "),": 1769,
      "ĠÐ½Ð¾Ð²Ð¾": 1770,
      "ĠÐ½ÐµÐ¼Ñĥ": 1771,
      "ĠÐ¼Ð°Ð¼": 1772,
      "ĠÑĤÐ¾Ð±Ð¾Ð¹": 1773,
      "Ð»Ð¸ÑĩÐ½Ð¾": 1774,
      "ĠÐ¾Ð±ÑĢÐ°Ð·": 1775,
      "ĠÐ°Ð´": 1776,
      "Ð°Ð±ÐµÑĤ": 1777,
      "ĠÐ¸Ð½ÑĦÐ¾ÑĢÐ¼Ð°": 1778,
      "Ð´Ð¸Ð½Ð°": 1779,
      "Ð½ÑĥÑĤÑĮÑģÑı": 1780,
      "Ð»Ð¾ÑħÐ¾": 1781,
      "ĠÐ²Ð¸ÑĢ": 1782,
      "Ð¼ÐµÑĤ": 1783,
      "ĠÐ´Ð¾Ð²": 1784,
      "ĠÑĤÐ¾Ð¼Ñĥ": 1785,
      "Ð°Ð½ÑĤÐ¸": 1786,
      "Ð³Ñĥ": 1787,
      "Ð¾Ð±ÑīÐµ": 1788,
      "Ð¾Ð»ÑĮÐ·": 1789,
      "ĠÐ·Ð°ÑĤÐµÐ¼": 1790,
      "ĠÑģÐ¼Ð¾ÑĤÑĢÐµÐ»": 1791,
      "ÑģÐ¾Ð²": 1792,
      "Ð»Ð¾Ð²": 1793,
      "ĠÐ±ÑĭÐ²": 1794,
      "Ð¸Ð²Ð°ÑĤÑĮ": 1795,
      "Ð¸Ð²Ð°Ñı": 1796,
      "ÐĴÐ¾ÑĤ": 1797,
      "ÑĨÐ¸Ð¾Ð½": 1798,
      "ĠÐ±ÑĥÐ´Ñĥ": 1799,
      "ĠÐ¶Ð¸Ð·Ð½ÑĮ": 1800,
      "Ð¾Ð»Ð´ÐµÐ¼": 1801,
      "Ð¸ÑĢÑĥ": 1802,
      "ÑĢÐ°ÑĤÑĮ": 1803,
      "ĠÑģÐ¸Ð½": 1804,
      "ĠÐ²ÐµÑģ": 1805,
      "ĠÐ¾Ð¶": 1806,
      "ĠÑĤÐµÐ»Ð¾": 1807,
      "ĠÑĤÑĥÐ´Ð°": 1808,
      "ĠÐ¿Ð¾Ð½Ñı": 1809,
      "Ð¾Ð·Ð¼Ð¾Ð¶Ð½Ð¾": 1810,
      "ĠÐĴÐ¾Ð»Ð´ÐµÐ¼": 1811,
      "ĠÑģÐ²Ð¾Ð¸Ð¼": 1812,
      "ĠÑĨÐµÐ»": 1813,
      "ĠÐ¿Ð¾ÑĩÑĥÐ²ÑģÑĤÐ²": 1814,
      "ĠÐ´Ð¾Ð»Ð³Ð¾": 1815,
      "ĠÐ²Ð·Ð´Ð¾Ñħ": 1816,
      "ĠÐ¥Ð¾Ð³Ð²Ð°ÑĢÑĤ": 1817,
      "Ð¸Ð¿": 1818,
      "Ð½Ð°ÐºÐ¾": 1819,
      "ĠÐ¸Ð³ÑĢ": 1820,
      "Ð¿Ð¾Ð´": 1821,
      "Ð±Ð¸Ð½": 1822,
      "ĠÐ¿ÑĢÐ¸Ð²ÑĭÑĩ": 1823,
      "ĠÐ¿Ð¾Ð´Ð½ÑıÐ»": 1824,
      "Ð¾Ð»ÑĮÑĪ": 1825,
      "ÐµÑĩÐ°ÑĤ": 1826,
      "ĠÐ´Ð²ÑĥÑħ": 1827,
      "ĠÐ¼Ð¾Ð¸": 1828,
      "ĠÐ´ÑĥÐ¼Ð°ÐµÑĪÑĮ": 1829,
      "Ð¸ÑĨÐµÐ¹": 1830,
      "ĠÐĵÐµÑĢÐ¼Ð¸Ð¾Ð½Ñĭ": 1831,
      "ĠÐ½ÐµÐº": 1832,
      "ÑĩÑĤÐ¾": 1833,
      "ÐºÐ»Ð¸": 1834,
      "ÑĤÐ¾ÑĢÐ¸": 1835,
      "Ð¾Ð»ÐµÐ²": 1836,
      "Ð°ÐºÑĤÐ¸": 1837,
      "ĠÐ°ÑĢ": 1838,
      "Ð¾Ð·Ð²": 1839,
      "Ð°Ð½Ð¸Ð¸": 1840,
      "ĠÐ¢Ð¾Ð»ÑĮÐºÐ¾": 1841,
      "ĠÐłÐ¾Ð½Ð°": 1842,
      "ĠÐ·Ð°ÐºÑĢÑĭ": 1843,
      "Ð³ÑĢÑİ": 1844,
      "ĠÑħÐ¾ÑĩÐµÑĪÑĮ": 1845,
      "ĠÐºÐ¸Ð²Ð½ÑĥÐ»": 1846,
      "Ð½Ð¾Ðº": 1847,
      "ĠÐ¾Ð³": 1848,
      "ÑģÑĤÐµÑĢ": 1849,
      "ĠÐ±Ð°Ð±": 1850,
      "ĠÐ¾Ð±Ñī": 1851,
      "ĠÑħÐ¾Ð»Ð¾Ð´": 1852,
      "ĠÐ´ÑĢÑĥÐ³Ð°": 1853,
      "ĠÐ¸ÑģÐ¿ÑĥÐ³": 1854,
      "ĠÐºÐ¾ÑĤÐ¾ÑĢÐ¾Ð¹": 1855,
      "ĠÐ¼Ð¸Ð½ÑĥÑĤ": 1856,
      "ĠÐ¶ÐµÐ½ÑīÐ¸Ð½Ð°": 1857,
      "ÑĢÐµÐ¿Ð¿": 1858,
      "Ð½ÐµÐ³Ð¾": 1859,
      "ĠÐ¿Ð°": 1860,
      "ĠÐ½Ð°ÑģÑĤÑĢÐ¾": 1861,
      "Ð°Ð²Ð°Ñħ": 1862,
      "ĠÐ³ÑĢÐ¾Ð¼": 1863,
      "ĠÐ¿ÑĢÐ¸Ñģ": 1864,
      "Ð³Ð¾ÑĤÐ¾Ð²": 1865,
      "ÐŁÐ¾": 1866,
      "ÐŁÐ¾Ñģ": 1867,
      "Ð¢Ð°Ðº": 1868,
      "ÑĭÐ²Ð°ÐµÑĤ": 1869,
      "ÑĥÐ¶Ð´": 1870,
      "hon": 1871,
      "Ð»ÐµÐ³": 1872,
      "ĠÐ½ÐµÐ½": 1873,
      "ĠÑģÑĭ": 1874,
      "Ð¾Ð²Ð°Ð»Ð°": 1875,
      "ĠÐ¼Ð¸Ð»": 1876,
      "ĠÑĩÐµÑĤÑĭ": 1877,
      "ÑĨÐ¾Ð²": 1878,
      "ÐºÑĥÐ´Ð°": 1879,
      "ĠÑģÐ¿Ð¾ÑģÐ¾Ð±": 1880,
      "Ð¾ÑĩÐµÐ¼Ñĥ": 1881,
      "Ð¡Ð¿": 1882,
      "ĠÐŁÐ¾ÑįÑĤÐ¾Ð¼Ñĥ": 1883,
      "ĠÑģÑĤÐ¾ÑĢÐ¾Ð½Ñĭ": 1884,
      "ĠÐ´Ð¾Ð»Ð¶ÐµÐ½": 1885,
      "ĠÐ¿ÑĢÑıÐ¼Ð¾": 1886,
      "ÐµÑı": 1887,
      "ÐºÐ°Ð¼": 1888,
      "ÑĪÐ»Ð¸": 1889,
      "ÑĢÐ¸Ð´Ð¾ÑĢ": 1890,
      "ÑĢÐ¾Ð½": 1891,
      "ĠÑĥÑħ": 1892,
      "Ð·Ð²": 1893,
      "Ð½Ð¸ÑĤ": 1894,
      "ĠÐ¶Ð´": 1895,
      "ĠÑĤÐ°ÐºÐ¾Ð³Ð¾": 1896,
      "ĠÑĢÑĥÐºÐ°Ñħ": 1897,
      "ÑĩÐµÑģÐºÐ¸Ð¹": 1898,
      "ĠÐ¡Ð½ÐµÐ¹Ð¿Ð°": 1899,
      "ĠÐ²ÐµÑĩÐµÑĢÐ¾Ð¼": 1900,
      "ĠÐ¾Ð±ÑĬÑıÑģ": 1901,
      "ĠÐĸ": 1902,
      "ÐµÐµÑĤ": 1903,
      "ÐµÐ½Ð½ÑĭÐ¼": 1904,
      "Ð½Ð¸Ñħ": 1905,
      "ĠÑģÑĤÐ°Ð½": 1906,
      "ĠÑģÐ²ÐµÑĢ": 1907,
      "ÑģÐ»ÐµÐ´": 1908,
      "ĠÐ´Ð²Ð¸Ð³": 1909,
      "ĠÐ¿Ð¾Ð·Ð²Ð¾Ð»": 1910,
      "ĠÐ¿Ð¾ÑħÐ¾Ð¶": 1911,
      "ĠÐ¾Ð³ÑĢÐ¾Ð¼": 1912,
      "ÑıÑħ": 1913,
      "ĠÐ³Ð¾Ð²Ð¾ÑĢ": 1914,
      "ĠÐ¿Ð¾Ð´Ð½Ñı": 1915,
      "ÑĥÑĤÐ±": 1916,
      "ĠÐ¼Ð¾ÐµÐ¹": 1917,
      "ĠÑģÐ»ÐµÐ´ÑĥÑİ": 1918,
      "ĠÑģÐ¾Ð²ÐµÑĢÑĪÐµÐ½Ð½Ð¾": 1919,
      "Ð°Ð½Ð¾": 1920,
      "ĠÐ²Ð½Ñĥ": 1921,
      "Ð²Ð¾Ð´": 1922,
      "ÑĤÐ¾Ð»": 1923,
      "ÑĪÐ¸Ð¼": 1924,
      "ÑİÑģÑĮ": 1925,
      "ĠÐĵÑĢÐ¸ÑĦ": 1926,
      "ĠÑģÐºÐ°Ð¶": 1927,
      "ÐµÐ½Ð½Ð¾Ðµ": 1928,
      "ĠÐ¿ÑĢÐµÐ´Ð»Ð¾Ð¶": 1929,
      "ĠÐ¾ÑģÐ²": 1930,
      "ĠÐ±Ð¾Ð»ÐµÐ»": 1931,
      "ĠÑĥÑģÐ¿ÐµÐ»": 1932,
      "ĠÐ²ÑģÑĤÑĢÐµÑĤ": 1933,
      "ĠÑģÐ¾ÑģÑĤÐ¾": 1934,
      "Ð°Ð´ÑĨÐ°ÑĤÑĮ": 1935,
      "Ð¸Ð½Ñĭ": 1936,
      "ĠÐ½Ñĥ": 1937,
      "ĠÐ¾ÑĤÐ½Ð¾ÑĪ": 1938,
      "ĠÐ»Ð°Ð¼": 1939,
      "ĠÐľÐ¸ÑĢÐ¸Ð°Ð¼": 1940,
      "ĠÐ·Ð°ÐºÐ¾Ð½Ñĩ": 1941,
      "Ð¾Ð²Ð¾Ð»ÑĮÑģÑĤÐ²": 1942,
      "ĠÐ¾ÑĤÐ²ÐµÑĩ": 1943,
      "ĠÐ¿Ð»ÐµÑĩÐ°Ð¼Ð¸": 1944,
      "ÑģÑĳ": 1945,
      "ĠÐ¼Ð¸ÑĢ": 1946,
      "Ð°Ð½Ñĭ": 1947,
      "Ð±Ð°": 1948,
      "Ð¾Ð¹ÑĤÐ¸": 1949,
      "Ð°ÑĤÐ°": 1950,
      "ÑģÑĤÐ²ÑĥÐ¹": 1951,
      "ĠÑģÑĤÐµÐº": 1952,
      "ĠÑģÐ¼ÐµÑĢ": 1953,
      "ĠÐ³Ð¾Ð²Ð¾ÑĢÐ¸ÑĤÑĮ": 1954,
      "ĠÐ°Ð²ÑĤÐ¾Ð¼": 1955,
      "ÑĢÐµÐ½Ð´": 1956,
      "ĠÑĢÐ°Ð·Ð³Ð¾Ð²Ð¾ÑĢ": 1957,
      "Ð²Ð¾Ð·ÑĮ": 1958,
      "ĠÐ²Ð¸ÑĢÑĤÑĥÐ°Ð»ÑĮ": 1959,
      "ÐµÑĦ": 1960,
      "Ð»Ð¾Ð¼": 1961,
      "Ð»Ð°Ð½": 1962,
      "Ð°Ð»Ð»Ð¸": 1963,
      "ĠÐ´ÑĢÑĥÐ·": 1964,
      "ĠÐ¼Ð¾Ð¶": 1965,
      "ÑĢÐ¾Ñħ": 1966,
      "ĠÑħÐ¾ÑĢÐ¾ÑĪ": 1967,
      "ÐĶÐ¾Ð±": 1968,
      "Ð°Ð½Ð¸Ð¹": 1969,
      "ĠÐºÐ¾ÑĢÐ¸Ð´Ð¾ÑĢ": 1970,
      "ÑĥÑĤÑģÑĤÐ²": 1971,
      "ÑģÑĤÐ°Ð²Ð»Ñı": 1972,
      "ĠÐĽÑĥ": 1973,
      "ĠÑįÑĤÐ¸Ð¼": 1974,
      "ĠÐ²Ð¾Ð¾Ð±ÑīÐµ": 1975,
      "ĠÐ¿Ð¾ÑħÐ¾Ð¶Ðµ": 1976,
      "ĠÐĽÑİÐ¿Ð¸Ð½": 1977,
      "ÑıÐ»Ð°": 1978,
      "ĠÑģÐ¶": 1979,
      "Ð²Ð¸": 1980,
      "ĠÐ´Ð¾Ðº": 1981,
      "ĠÐ´Ð¾Ð²Ð¾Ð»ÑĮÐ½Ð¾": 1982,
      "Ð¾Ð¼ÐµÑĤ": 1983,
      "ĠÑĥÐºÐ°Ð·": 1984,
      "Ð·Ñı": 1985,
      "ĠÐ¾ÑĤÑĩ": 1986,
      "ĠÑģÑĤÐ°Ð»Ð¾": 1987,
      "ĠÐļÐ°Ð´Ð¼Ð¸": 1988,
      "ÐĴÑģÐµ": 1989,
      "ĠÐ¾Ð¿Ð°Ñģ": 1990,
      "ĠÐ¿Ð¾ÑģÐ»Ð°Ð½": 1991,
      "ĠÐºÐ¾ÑĤÐ¾ÑĢÑĥÑİ": 1992,
      "ĠÐ½Ð°ÑĩÐ°Ð»Ð°": 1993,
      "ĠÐ²Ð¿ÐµÑĢÐµÐ´": 1994,
      "ĠÐ²Ð·Ð³Ð»ÑıÐ´Ð¾Ð¼": 1995,
      "ĠÐ¾ÑħÑĢÐ°Ð½": 1996,
      "ĠÑĢÐ¸": 1997,
      "ÑĤÐ°Ð»": 1998,
      "ÑĢÐµÑĪ": 1999,
      "ĠÐ½ÐµÐ·": 2000,
      "ÑģÑĤÐ°Ð½Ð¾Ð²": 2001,
      "ÐµÐ½ÑĤÑĢ": 2002,
      "ĠÐ±ÐµÐ»": 2003,
      "ĠÐ±Ð»Ð¸Ð·": 2004,
      "ĠÐ±ÑĢÐµÐ½Ð´": 2005,
      "ÑĨÐµÐ»": 2006,
      "ÐµÐºÑĤÐ¾ÑĢ": 2007,
      "ĠÐĴÐ°Ðº": 2008,
      "ĠÑģÐ»ÑĥÑĪ": 2009,
      "Ð°ÑİÑīÐ¸Ð¹": 2010,
      "ĠÑĪÐºÐ¾Ð»": 2011,
      "ĠÐ´Ð²ÐµÑĢÐ¸": 2012,
      "Ð¾ÑĢÐ¾ÑĤ": 2013,
      "ÐµÐ¹ÑĤÐµÐ½": 2014,
      "ĠÑģÐµÑĢÑĮÑĳÐ·": 2015,
      "Ð´Ð¾": 2016,
      "ÐµÐ½ÐµÑĢ": 2017,
      "ĠÐ¼Ð¸ÑģÑģ": 2018,
      "Ð½Ð°ÑĤÑĮ": 2019,
      "ĠÐĴÐµÑĢ": 2020,
      "ĠÐ¸Ð·Ð¾Ð±": 2021,
      "ĠÑĤÐ°ÐºÐ¸Ðµ": 2022,
      "ÑĤÐ¸Ð³ÑĢÑİ": 2023,
      "ĠÐ·Ð°ÑīÐ¸ÑĤ": 2024,
      "ĠÐ¿Ð¾Ð»Ð¾Ð¶": 2025,
      "ÑħÐ¾Ð´Ñı": 2026,
      "ĠÑģÑĤÐ¾Ð¸ÑĤ": 2027,
      "ĠÐ¼ÑĭÑģÐ»Ð¸": 2028,
      "ĠÐ³ÑĢÑĥÐ´": 2029,
      "ĠÑįÐºÑĢÐ°Ð½": 2030,
      "Ð´ÑĢÐ°Ð²ÑģÑĤÐ²ÑĥÐ¹": 2031,
      "ĠÑģÐµÐºÑĥÐ½Ð´": 2032,
      "ĠÐĴÐ°ÐºÑĥÐ»": 2033,
      "thon": 2034,
      "ython": 2035,
      "ÑĥÐ·": 2036,
      "ĠÑģÐºÐ¾ÑĢÐ¾": 2037,
      "ĠÐºÐ°Ð¶ÐµÑĤÑģÑı": 2038,
      "ĠÑĤÑıÐ¶": 2039,
      "ĠÑĢÐ°Ð´Ð¾": 2040,
      "ĠÑıÐ·Ñĭ": 2041,
      "Ð¾Ð¶Ð¸Ð´": 2042,
      "ÑĢÑĥÑĪ": 2043,
      "ĠÐ¿ÑĢÐ¾ÑĨ": 2044,
      "ÑĢÐ°Ñħ": 2045,
      "ÐļÐ»Ð°Ñģ": 2046,
      "ÑĪÐµÐµ": 2047,
      "ĠÑģÐ°Ð¼Ð¾Ðµ": 2048,
      "ĠÐ·Ð½Ð°ÑĩÐ¸ÑĤ": 2049,
      "ĠÑĥÐ´Ð¾Ð²Ð¾Ð»ÑĮÑģÑĤÐ²": 2050,
      "ĠÑĢÐ¾Ð´Ð¸ÑĤ": 2051,
      "ĠPython": 2052,
      "ĠÐŁÐµÑĤÑĤÐ¸Ð³ÑĢÑİ": 2053,
      "ĠÑģÐ¸Ñħ": 2054,
      "ĠÐ²Ð°Ð¶": 2055,
      "ĠÐºÐ¾ÑĤ": 2056,
      "ĠÐ´Ð°Ð²": 2057,
      "Ð°Ð½Ð½ÑĭÑħ": 2058,
      "ĠÑıÐ²": 2059,
      "ĠÐ¾Ð±Ð½Ð°ÑĢÑĥÐ¶": 2060,
      "ÑģÑĤÐ²Ð¾Ð¼": 2061,
      "ĠÐ¿Ð¾Ð´Ð½Ð¸Ð¼": 2062,
      "Ð°Ð»ÑĮÐ½ÑĭÐ¹": 2063,
      "ĠÐĽÐ¸Ð»Ð¸": 2064,
      "ĠÐ³Ð»Ð°Ð·Ð°Ð¼Ð¸": 2065,
      "ÐĹÐ´ÑĢÐ°Ð²ÑģÑĤÐ²ÑĥÐ¹": 2066,
      "ĠÐ±Ð»Ð°Ð³": 2067,
      "ĠÐ¿ÑĢÐ¾Ð³ÑĢÐ°Ð¼": 2068,
      "ĠÑģÐ¾Ð·Ð½": 2069,
      "ÐµÑģÐºÐ¾ÑĤÑĤ": 2070,
      "ĠÑģÑĥÐ»": 2071,
      "ĠÑĤÑĢÐ°Ð½": 2072,
      "ĠÐ·Ð°Ð¶": 2073,
      "ĠÑĥÐ´Ð°": 2074,
      "ĠÑĩÑĥÑĤÑĮ": 2075,
      "ĠÐ¿Ð¾ÑĤÐµÑĢ": 2076,
      "Ð°Ð²ÐµÑĢ": 2077,
      "ĠÑĢÐ°Ð·Ð¼": 2078,
      "Ð°Ð»ÑĮÐ½ÑĭÐµ": 2079,
      "ÑģÐºÐ¾Ð³Ð¾": 2080,
      "ĠÐ¾Ð´Ð½Ð¾Ð¹": 2081,
      "ĠÐ²Ð¾Ð·Ð»Ðµ": 2082,
      "ÑĤÐ°ÐºÐ¸": 2083,
      "ĠÑģÑĤÑĢÐ°Ñħ": 2084,
      "ĠÐĵÐµÑĢÐ¼Ð¸Ð¾Ð½Ñĥ": 2085,
      "ĠÑģÐ¾Ð¾Ð±Ñī": 2086,
      "ĠÐ¼Ð¾Ð·": 2087,
      "ĠÑĥÑģÐ¼": 2088,
      "ĠÐ½ÐµÐ¾Ð±": 2089,
      "ĠÐļÐ°Ð²Ð°Ñħ": 2090,
      "ĠÐ¡ÑĤ": 2091,
      "ĠÐ¢ÑĢÐµÐ¿Ð¿": 2092,
      "ĠÐ³Ð»ÑĥÐ±": 2093,
      "ÑĢÑıÐ·": 2094,
      "ĠÐ¼Ð¾Ñı": 2095,
      "ĠÐºÐ¾Ð½ÑĨÐµ": 2096,
      "ĊĊĊĊ": 2097,
      "ĠÐ·Ð°ÐºÐ»Ð¸Ð½": 2098,
      "ÑĩÐµÑģÐºÐ¸Ðµ": 2099,
      "Ð»Ð¸Ð·Ð°Ð±ÐµÑĤ": 2100,
      "ĠÐ¿ÑĢÐ¸ÑĪÐ»Ð¾ÑģÑĮ": 2101,
      "ĠS": 2102,
      "Ð»Ð¾Ð¿": 2103,
      "ÑıÐ¼Ð¸": 2104,
      "ÑģÑĤÐ½Ð¾": 2105,
      "ĠÐ¸ÑģÑĤÐ¾": 2106,
      "Ð³Ð¾Ð²": 2107,
      "ĠÐ»ÐµÑģÑĤ": 2108,
      "ĠÐ¿ÑĢÐ¸Ð½Ñı": 2109,
      "ĠÑģÑĤÐ°ÑĢÐ¸": 2110,
      "ĠÑħÐ¾Ð´": 2111,
      "ĠÑĤÐ°ÐºÐ¸Ð¼": 2112,
      "ĠÐłÐµÐ¼Ñĥ": 2113,
      "ĠÐ´Ð¾ÑģÑĤ": 2114,
      "ĠÑĨÐ°ÑĢ": 2115,
      "ĠÐĳÐ°Ð½ÐºÑĢÐ¾ÑĦÑĤÐ°": 2116,
      "ĠÐ²Ð¾ÑģÐºÐ»Ð¸": 2117,
      "ĠÐ´Ð¾Ð±Ð°Ð²": 2118,
      "ÐµÑĨÐ¸": 2119,
      "ÑĢÐ°Ð´": 2120,
      "ÑıÐ¼": 2121,
      "ÑıÐ»Ð¸": 2122,
      "ĠÐ½Ð¾Ð³Ð¸": 2123,
      "ÐºÐ¾ÑĢ": 2124,
      "ÑĤÐ¾Ñĩ": 2125,
      "ÑĪÑĥÑİ": 2126,
      "ÐµÐ½Ð½Ð°Ñı": 2127,
      "ÐµÑĢÑĢÐ¸": 2128,
      "ĠÐ¼Ð°Ñħ": 2129,
      "ĠÑĥÑģÑĤÐ°Ð²": 2130,
      "Ð½Ð¸Ð²": 2131,
      "Ð¸ÑĤÐ¸": 2132,
      "ĠÐ³Ð¾Ð´": 2133,
      "Ð¾Ð¶Ð°Ð»": 2134,
      "Ð¸Ð²Ð°Ð»": 2135,
      "ÑĦÐ¸Ð½": 2136,
      "ÐµÐ»ÑĮÐ·Ñı": 2137,
      "ĠÐ´Ð²Ð¾ÑĢ": 2138,
      "ÐĵÐµÑĢÐ¼Ð¸": 2139,
      "ĠÐ²ÐµÑĢÐ½ÑĥÐ»ÑģÑı": 2140,
      "ĠÐ·Ð°Ð´ÑĥÐ¼": 2141,
      "ÑĩÐµÑģÐºÐ¸Ñħ": 2142,
      "ĠÑģÐ»ÑĥÑĩÐ°Ð¹": 2143,
      "ĠÐ¿ÑĢÐµÐºÑĢÐ°Ñģ": 2144,
      "ĠÐ¨": 2145,
      "ÑĢÐ¾Ð³": 2146,
      "ÑĩÐµÑĢÐ°": 2147,
      "ĠÐ´Ð°Ð²Ð½Ð¾": 2148,
      "ĠÐ±Ð°ÑĢ": 2149,
      "ĠÐ½ÐµÐµ": 2150,
      "ĠÐĶÐ¾Ð±": 2151,
      "Ð¢Ð¾Ð³Ð´Ð°": 2152,
      "ĠÐ¿ÐµÑĢÐµÑģÑĤ": 2153,
      "ĠÐ¾Ð´Ð½Ð¾Ð³Ð¾": 2154,
      "ĠÐ»ÑİÐ´Ð¸": 2155,
      "ÐľÑĭ": 2156,
      "ÑĥÑģÑĤÐ¸Ð»": 2157,
      "ĠÑģÐ¾Ð±ÑģÑĤÐ²ÐµÐ½": 2158,
      "ĠÑĢÐ°Ð±Ð¾ÑĤÐ°ÐµÑĤ": 2159,
      "ĠÐ¾ÑĤÐ²ÐµÑĤÐ¸Ð»Ð°": 2160,
      "Ð¸Ð¶Ñĥ": 2161,
      "ĠÐ±ÐµÑģÐ¿": 2162,
      "ĠÐŁÐ¾ÑģÐ»Ðµ": 2163,
      "ĠÐłÐ°Ð¹ÐºÐµÑĢ": 2164,
      "ĠÑģÑįÑĢ": 2165,
      "ĠÐ½Ð°ÑģÑĤÑĢÐ¾ÐµÐ½Ð¸Ðµ": 2166,
      "ĠÐ²Ð½ÑĥÑĤÑĢ": 2167,
      "ÑģÐ½Ð¾": 2168,
      "ĠÐ¿Ð»Ð°": 2169,
      "ÐºÐ½ÑĥÐ»Ð°": 2170,
      "ÐµÐ»Ñİ": 2171,
      "ĠÑĤÐµÐ»Ð°": 2172,
      "ĠÐ¾Ð±Ñģ": 2173,
      "ÐºÐ¾Ñĩ": 2174,
      "ÐµÐ¶Ð°Ð»": 2175,
      "ĠÐ³Ð»ÑĥÐ¿": 2176,
      "Ð¾Ð²Ð¾ÑĢÐ¸ÑĤÑĮ": 2177,
      "ĠÐ¿Ð¾Ð¿ÑĢÐ¾Ð±": 2178,
      "ĠÐ·Ð°Ð¼ÐµÑĤÐ¸Ð»": 2179,
      "ĠÐ»ÑİÐ´ÐµÐ¹": 2180,
      "ĠÐ»ÐµÑģÑĤÐ½Ð¸": 2181,
      "Ð¸ÐµÐ¼": 2182,
      "ĠÐ²Ð¸Ð½": 2183,
      "Ð²Ðµ": 2184,
      "ÐµÐ½Ð½Ð¾Ð³Ð¾": 2185,
      "ĠÐ¼Ð°Ñģ": 2186,
      "Ð¾ÑĤÑı": 2187,
      "ÐºÐ¸Ð¼": 2188,
      "ĠÐ»ÐµÑĩ": 2189,
      "ĠÑįÑĤÐ°": 2190,
      "ĠÐ¿ÑĢÐ¾Ð¼": 2191,
      "ĠÐ¿ÑĢÐ°ÐºÑĤÐ¸": 2192,
      "ĠÐ¾Ð±ÑĢÐ°Ñī": 2193,
      "ĠÑĤÐ¾Ð½": 2194,
      "ĠÑĤÐ¾Ñĩ": 2195,
      "ĠÐŀÐ±": 2196,
      "ÑĢÐ°ÑĪ": 2197,
      "ĠÑģÐ²Ð¾Ð±Ð¾Ð´": 2198,
      "ÑıÑĤÑģÑı": 2199,
      "ĠÐŃÐ»Ð¸Ð·Ð°Ð±ÐµÑĤ": 2200,
      "ÑĩÐµÑģÐºÐ¾Ð¹": 2201,
      "ĠÐ½Ð°Ð¿Ð¾Ð¼": 2202,
      "ĠÑģÐ´ÐµÐ»Ð°Ð»": 2203,
      "ĠÐ¼Ð°Ð³Ð³Ð»": 2204,
      "ÑģÐºÐ¸Ðµ": 2205,
      "ĠÐ¾ÑĢÐ³": 2206,
      "ÐĵÐµÑĢÐ¼Ð¸Ð¾Ð½Ð°": 2207,
      ").": 2208,
      "Ð¸Ð±": 2209,
      "ÑĥÑģÑĮ": 2210,
      "ĠÑģÐ¾ÑĢ": 2211,
      "ÐµÑĢÑĭ": 2212,
      "ÐµÑĢÐº": 2213,
      "ĠÐ¼Ð¸ÑģÑĤÐµÑĢ": 2214,
      "ÑĢÐ¸Ð±Ð¸Ð½": 2215,
      "ĠÐ¿ÑĢÐµÑģÑĤ": 2216,
      "ĠÐ¿ÑĢÐ¸Ð¶": 2217,
      "ĠÑģÑĤÐ°Ð»Ð¸": 2218,
      "ĠÑĤÐ°ÐºÐ¶Ðµ": 2219,
      "Ð¾ÑĩÑĮ": 2220,
      "ĠÑģÐºÐ¾Ð»ÑĮÐºÐ¾": 2221,
      "ĠÐ¿Ð¾Ð»Ð¸ÑĨÐµÐ¹": 2222,
      "ĠÐºÐ¾ÑĪ": 2223,
      "ĠÐĺÐ·": 2224,
      "ĠÐ»Ð¸ÑĨÐ°": 2225,
      "ĠÐ²Ð·ÑıÐ»": 2226,
      "ĠÐ´Ð¾ÑģÑĤÐ°ÑĤÐ¾ÑĩÐ½Ð¾": 2227,
      "ĠÐºÑĢÐµÑģ": 2228,
      "ĠÐĹÐµÐ¼": 2229,
      "ĠÐ¥Ð°ÑĢ": 2230,
      "ĠÐ³Ð¾Ð²Ð¾ÑĢÐ¸Ð»": 2231,
      "ĠÐºÐ¾ÑĤÐ¾ÑĢÐ¾Ð³Ð¾": 2232,
      "ĠÑĢÐµÑĪÐ¸Ð»": 2233,
      "Ð²ÑĭÑĩÐ°Ð¹": 2234,
      "ÑĢÐµÐ·Ð²ÑĭÑĩÐ°Ð¹": 2235,
      "ÑĥÐ»ÑıÑĢ": 2236,
      "ĠÐ¿ÑĢÐµÐ´ÑģÑĤÐ°Ð²Ð»Ñı": 2237,
      "ĠÐ´Ð¾Ð³Ð°Ð´": 2238,
      "ĠÐ½Ð¾Ð¼": 2239,
      "ĠÑģÑĢÐ¾Ðº": 2240,
      "ÐµÐ½Ð´": 2241,
      "ĠÐ¼Ð°Ð»ÑĮ": 2242,
      "ĠÐ¿Ð¾ÑĢÑıÐ´": 2243,
      "Ð°Ð²ÑĪÐ¸ÑģÑĮ": 2244,
      "ĠÑģÐ»Ð°Ð±": 2245,
      "ĠÐ¿ÐµÑĢÐµÑģ": 2246,
      "ĠÐ¿ÐµÑĢÐµÐ²": 2247,
      "ÑīÐ¸Ðº": 2248,
      "ÑıÑĤÐµÐ»ÑĮ": 2249,
      "ÑĢÐ¾ÑģÑĤÐ¾": 2250,
      "ĠÐ¾Ð¿ÑıÑĤÑĮ": 2251,
      "ĠÐºÐ¾ÑĤÐ¾ÑĢÐ°Ñı": 2252,
      "ĠÐ½ÐµÐ´Ð¾": 2253,
      "ĠÐ´ÐµÐ¹ÑģÑĤÐ²Ð¸ÑĤÐµÐ»ÑĮÐ½Ð¾": 2254,
      "ĠÑĤÐ¸ÑħÐ¾": 2255,
      "ĠÑģÐ¸Ð»ÑĮ": 2256,
      "ĠÐ²Ð½": 2257,
      "ĠÐ´Ð»Ð¸Ð½": 2258,
      "ĠÑĩÑĳÑĢ": 2259,
      "Ð°Ð½ÑĤÐ°": 2260,
      "Ð½Ð°ÑĩÐ¸ÑĤ": 2261,
      "Ð°ÑĤÐµÐ¼": 2262,
      "ĠÐ¿ÑĢÐ¾Ðº": 2263,
      "ĠÐ¿ÑĢÐ¸Ð³": 2264,
      "ĠÐºÐ°ÐºÐ¸Ðµ": 2265,
      "Ð¸Ð¼Ð¼Ð¸": 2266,
      "ĠÐ¿ÐµÑĢÐµÐ¶": 2267,
      "ĠÐºÐ¾Ðµ": 2268,
      "Ð¾Ð²Ð°ÑĢÐ¸Ð²": 2269,
      "ĠÐ³Ð»Ð°Ð²": 2270,
      "ĠÐ²Ð¾Ð·Ð²": 2271,
      "ĠÐĹÐ°": 2272,
      "ĠÐ¾ÑģÐ½Ð¾Ð²": 2273,
      "ĠÐ¿ÑĢÐ¾Ð²ÐµÑĢ": 2274,
      "ĠÑģÐ¾ÑģÐµÐ´": 2275,
      "Ð½Ð°ÑĩÐ°Ð»Ð°": 2276,
      "ÑĤÐµÐ»ÑĮÐ½Ð¾": 2277,
      "ĠÐºÐ°Ð¿Ð¸ÑĤÐ°Ð½": 2278,
      "ĠÐľÐ°Ð»ÑĦÐ¾Ð¹": 2279,
      "ĠÐĴÐ°ÐºÑĥÐ»Ð¾Ð²": 2280,
      "Ġ2": 2281,
      "Ð½ÐµÐ¼Ñĥ": 2282,
      "ÑĮÐµ": 2283,
      "ÑĭÑģ": 2284,
      "ĠÑģÐ¾Ð»Ð½": 2285,
      "Ð¾Ð²Ð¾Ð¹": 2286,
      "ĠÐ¼ÐµÑĪ": 2287,
      "ĠÑĤÐµ": 2288,
      "ĠÑĤÐ²": 2289,
      "ĠÑĩÑĥÐ´": 2290,
      "Ð°Ð½Ð½Ð¾Ð¹": 2291,
      "ĠÐ½ÐµÑģ": 2292,
      "Ð¾ÑĤÑĢÑı": 2293,
      "ĠÐºÐ°ÐºÐ¾Ðµ": 2294,
      "ĠÑĤÐ°ÐºÐ¾Ð¼": 2295,
      "Ð¾Ð¿ÑĭÑĤ": 2296,
      "Ð¾ÑĩÐºÐ¸": 2297,
      "ĠÐ¿Ð¾Ð»Ð¸": 2298,
      "ĠÐ³Ð¾ÑģÑĤÐ¸": 2299,
      "ĠÐºÐ¾Ð½ÑĤÑĢ": 2300,
      "ĠÐ¿Ð¾Ð¼Ð¾Ñī": 2301,
      "ÑĪÐ¸Ð¹ÑģÑı": 2302,
      "ĠÐ²Ð¿ÐµÑĩÐ°ÑĤ": 2303,
      "ĠÐ¿ÑĢÐ¾ÑĦÐµÑģÑģÐ¾ÑĢÐ°": 2304,
      "ĠÑĪÐ¸ÑĢÐ¾Ðº": 2305,
      "Ð°Ñī": 2306,
      "ÑĥÑĢÐ¸": 2307,
      "ÑĥÑģÐ°": 2308,
      "ĠÐ½Ð°Ð³": 2309,
      "ĠÑģÑİÐ´Ð°": 2310,
      "ĠÐ¸Ð´Ðµ": 2311,
      "ĠÐ±Ð¾Ð³": 2312,
      "ĠÑĥÑĤÑĢ": 2313,
      "ĠÐ³ÑĢÑıÐ·": 2314,
      "Ð¾Ð±Ð½Ð¾": 2315,
      "ĠÐ²ÑĭÑĪÐµÐ»": 2316,
      "ĠÐ¸Ð·ÑĥÑĩ": 2317,
      "ĠÑĤÐ°ÐºÐ¸Ñħ": 2318,
      "ĠÐļÑĢÐ°Ñģ": 2319,
      "ÐļÐ¾Ð½ÐµÑĩÐ½Ð¾": 2320,
      "ĠÐ½Ð¸Ð¼Ð¸": 2321,
      "ĠÐ¢ÐµÐ¿ÐµÑĢÑĮ": 2322,
      "ĠÑģÐ¼Ð¾ÑĤÑĢÐ¸": 2323,
      "ĠÑĢÐ°ÑģÑģ": 2324,
      "ÐļÐ°ÐºÐ°Ñı": 2325,
      "ĠÐŃÐ»Ð¸": 2326,
      "ĠÐ¿ÑĢÐ°Ð²Ð´Ð°": 2327,
      "ĠÐ¿ÑĢÐ¾Ð¸Ð·Ð¾ÑĪ": 2328,
      "ĠÐ³ÑĢÑĥÐ´Ð¸": 2329,
      "ĠÐ²ÐµÑĩÐµÑĢ": 2330,
      "ÑĥÐ»ÑĮÑĤ": 2331,
      "Ð¿ÑĢÐ¾ÑĩÐµÐ¼": 2332,
      "ĠA": 2333,
      "Ð¸ÑĪ": 2334,
      "ÑĤÐ¾ÑĢÐ°": 2335,
      "Ð¾Ð»Ð¾ÑĤ": 2336,
      "ĠÐ±Ð¾ÑĢ": 2337,
      "Ð°ÑģÐº": 2338,
      "ĠÑįÑĤÐ¾Ð¼Ñĥ": 2339,
      "ĠÐļÑĢ": 2340,
      "ĠÑģÐ»Ð¾Ð¶": 2341,
      "ĠÑģÐºÐ¾ÑĢ": 2342,
      "ĠÐ¿Ð¾Ð»Ñĥ": 2343,
      "ĠÐķÐ³Ð¾": 2344,
      "Ð¾ÑħÐ¾Ð¶Ðµ": 2345,
      "ÑĳÑĤÑģÑı": 2346,
      "ĠÑĩÐ°ÑģÑĤÑĮ": 2347,
      "ĠÑģÐµÑĢÐ´": 2348,
      "ĠÐ¿ÑĢÐ¾Ð¸ÑģÑħÐ¾Ð´Ð¸ÑĤ": 2349,
      "ÑĦÐ¸Ð½Ð´Ð¾ÑĢ": 2350,
      "ĠÐ½Ð°Ð»": 2351,
      "ĠÐ½Ð°Ð¼Ð¸": 2352,
      "ĠÐ¸Ð³": 2353,
      "Ð¸Ð»Ð¾ÑĤ": 2354,
      "ÑĢÐ¾ÑģÐ»": 2355,
      "ĠÐ·Ð´Ð¾ÑĢ": 2356,
      "ĠÑĩÑĢÐµÐ·Ð²ÑĭÑĩÐ°Ð¹": 2357,
      "ĠÑıÑĢ": 2358,
      "ĠÐ²ÑĭÐ·": 2359,
      "ÐļÑĢÐ°Ñģ": 2360,
      "ÐŁÐ¾Ð»": 2361,
      "Ð°Ð½Ð¸Ñİ": 2362,
      "ĠÑģÐ¿ÐµÑĨÐ¸": 2363,
      "ÑĥÑĪÐºÐ¸": 2364,
      "ĠÐ´Ð²ÐµÑĢ": 2365,
      "ĠÑĢÑĥÐºÐ°Ð¼Ð¸": 2366,
      "ÑģÑĤÐ°Ð²Ð¸Ð»": 2367,
      "ĠÐ¸Ð¼ÐµÑİ": 2368,
      "ĠÐ¥Ð²Ð¾ÑģÑĤ": 2369,
      "Ð¥Ð¾Ñĩ": 2370,
      "ÑģÐ¸ÐºÐ°": 2371,
      "ĠÐ²ÑĭÑģÐ¾Ðº": 2372,
      "ÑĢÐµÐ¶Ð´": 2373,
      "ĠÐ±Ð¾Ð»ÑĮÑĪÐ¾Ð¹": 2374,
      "ĠÐ·ÐµÐ¼Ð»Ñİ": 2375,
      "ĠÐ´Ð°Ð»ÐµÐº": 2376,
      "ĠÐºÐ°Ð·Ð°Ð»Ð¾ÑģÑĮ": 2377,
      "Ð½Ð°ÐºÐ¾Ð¼": 2378,
      "ĠÐ²Ð¸Ð·": 2379,
      "ĠÐ¼Ð°ÑĢ": 2380,
      "Ð¿ÑĥÑģ": 2381,
      "ÐµÐ»ÑģÑı": 2382,
      "ĠÑĤÐµÑĤ": 2383,
      "ĠÑĢÐ°Ð´": 2384,
      "ÑĨÐ°Ð¼Ð¸": 2385,
      "Ð°ÑĢÑĭ": 2386,
      "ÑĳÑģ": 2387,
      "Ð¸Ð²Ð°Ñİ": 2388,
      "ĠÐ¾Ð±ÐµÑĢ": 2389,
      "ĠÐ¾Ð±Ð¾ÑĢ": 2390,
      "ĠÐ¿Ð¾Ð´Ð±": 2391,
      "ĠÐĶÐµÐ²": 2392,
      "ÐµÑĩÑĮ": 2393,
      "ĠÑģÐ¿Ð°Ð»ÑĮ": 2394,
      "ÑĭÐ²Ð°Ð»Ð¸": 2395,
      "ĠÑģÐ¼ÑĥÑī": 2396,
      "ĠÑģÐ²Ð¾Ðµ": 2397,
      "ĠÐ¾Ð´Ð½Ð¾": 2398,
      "ĠÐºÑĢÐ°Ð¹": 2399,
      "ÑģÑĤÑĢÐ¾Ð¹": 2400,
      "ĠÐ¼Ð°Ð³ÑĢÐ¸Ð±Ð¸Ð½": 2401,
      "ĠÐºÑĢÐ°ÑģÐ¸Ð²": 2402,
      "ĠÐ¿Ð¾Ð´ÑĥÐ¼Ð°Ð»": 2403,
      "ĠÐ¿ÑĢÐ¾Ð¸Ð·Ð½ÐµÑģÐ»Ð°": 2404,
      "ĠÑħÐ¾ÑĤÐµÐ»Ð¾ÑģÑĮ": 2405,
      "ĠÐ³ÑĥÐ±Ñĭ": 2406,
      "ĠÐ´Ð¾ÑĢÐ¾Ð³Ð¾Ð¹": 2407,
      "ĠÐ¼Ð³Ð½Ð¾Ð²ÐµÐ½Ð¸Ðµ": 2408,
      "ĠÐ¿ÑıÑĤÑĮ": 2409,
      "ĠÑģÐ¾Ð¼": 2410,
      "ĠÑģÐ¾Ð¿": 2411,
      "ÑģÑĤÐµÐ¹": 2412,
      "ÐµÐ½Ð½ÑĥÑİ": 2413,
      "ĠÑĥÑģÑĤÑĢÐ¾": 2414,
      "ÐºÐ¸Ð²": 2415,
      "Ð¸Ð½Ñı": 2416,
      "ÑĦÐµ": 2417,
      "ĠÐ²ÑģÑİ": 2418,
      "ĠÐĶÐ°Ð¶Ðµ": 2419,
      "ĠÐ¡Ð¿": 2420,
      "ĠÐ·Ð°ÑģÑĤ": 2421,
      "ĠÑģÐ¿ÑĥÑģÑĤ": 2422,
      "ĠÑģÐºÐ²Ð¾Ð·ÑĮ": 2423,
      "Ð¡Ð»": 2424,
      "ĠÑĪÑĥÐ¼": 2425,
      "ÑĤÐ°Ñī": 2426,
      "ĠÐ¼Ð¾ÐµÐ³Ð¾": 2427,
      "ÐķÑģÐ»Ð¸": 2428,
      "ĠÐ¸ÑģÐºÑĥÑģ": 2429,
      "ĠÑĥÐ¿ÑĢÐ°Ð²": 2430,
      "ĠÐ¼ÐµÑĤÑĢÐ¾Ð²": 2431,
      "ĠÐ¼Ð¾ÑĢÐµ": 2432,
      "ĠÑĤÐ²Ð¾Ñİ": 2433,
      "Ð°ÑİÑīÐµÐ³Ð¾": 2434,
      "ĠÐ±ÐµÑĢÐµÐ³": 2435,
      "ĠÐ½ÐµÐ¾Ð±ÑħÐ¾Ð´": 2436,
      "ĠÐĶÐ¾Ð±Ð±Ð¸": 2437,
      "ÑĤÐ¾Ð¹": 2438,
      "Ð¸Ñī": 2439,
      "ÑĮÑĪÐµ": 2440,
      "ĠÑģÐ°Ð´": 2441,
      "ĠÐ²Ð¾Ð²": 2442,
      "ĠÐ²ÐµÐ»": 2443,
      "ĠÐ²ÑĩÐµÑĢÐ°": 2444,
      "Ð¼Ð¸ÑĤ": 2445,
      "ÑĤÐ¾Ð»ÐµÑĤ": 2446,
      "Ð½Ð¾Ð»": 2447,
      "ĠÐ·Ð»": 2448,
      "ĠÐ¿ÑĢÐ¸ÐºÐ°Ð·": 2449,
      "ĠÐ¿Ð¾Ð´Ð¾ÑĪ": 2450,
      "ÐµÐºÑĤÐ¸Ð²": 2451,
      "ÑĢÐ°ÑģÑĤ": 2452,
      "ĠÑģÐ»ÑĥÐ¶": 2453,
      "Ð½ÑıÐºÐ°": 2454,
      "ĠÐ¿ÐµÑĢÐµÐº": 2455,
      "ĠÐĳÐ¾Ð»": 2456,
      "ĠÐĶÐ¶ÐµÑĢÑĢÐ¸": 2457,
      "ĠÐ»ÑİÐ±Ð»Ñİ": 2458,
      "ĠÐ³Ð¾Ð²Ð¾ÑĢÐ¸ÑĤ": 2459,
      "ĠÑĩÐµÐ»Ð¾Ð²ÐµÐºÐ°": 2460,
      "ĠÑģÐ¸Ð´ÐµÐ»": 2461,
      "ĠÐļÐ¾ÑĢÐ¾Ð»ÐµÐ²": 2462,
      "ĠÑģÐ¿Ð¾ÐºÐ¾Ð¹Ð½Ð¾": 2463,
      "ĠÐŁÑĢÐµÑģÐºÐ¾ÑĤÑĤ": 2464,
      "ĠÐ¼Ð½Ð¾Ð³": 2465,
      "ĠÑģÑĥÐ»ÑĤÐ°Ð½": 2466,
      "ĠT": 2467,
      "ÑģÐ¸Ñħ": 2468,
      "ĠÐ½ÐµÐ»ÑĮÐ·Ñı": 2469,
      "ÐºÐ¾Ð½": 2470,
      "ÐºÐ¾Ð»ÑĮ": 2471,
      "ĠÐ²ÐµÑĤ": 2472,
      "ĠÐºÐµÐ¼": 2473,
      "Ð¸Ð»Ð¾Ð¼ÐµÑĤ": 2474,
      "ĠÐ¿Ð¾ÑĤÑĢ": 2475,
      "ĠÐŁÐ¾Ð¼": 2476,
      "ÑĭÐ²Ð°Ð»Ð°": 2477,
      "ĠÑģÐ¼ÐµÑħ": 2478,
      "ĠÐºÑĢÐµÐ¿": 2479,
      "ĠÐ·Ð½Ð°ÐµÑĤ": 2480,
      "Ð³Ð»ÑıÐ´ÐµÐ»": 2481,
      "ĠÐ³Ð¾Ð»Ð¾Ð²Ðµ": 2482,
      "ĠÐ¾ÑģÑĤÐ¾ÑĢ": 2483,
      "ĠÐ¸ÑģÐ¿ÑĭÑĤ": 2484,
      "ĠÑĥÐ»ÑĭÐ±Ð½ÑĥÐ»ÑģÑı": 2485,
      "ÑĥÐ¹ÑģÑĤÐ°": 2486,
      "ĠÑĩÐ°ÑģÐ¾Ð²": 2487,
      "ĠÐ¿Ð¾Ð´ÑĥÐ¼Ð°Ð»Ð°": 2488,
      "ĠÑįÑĤÐ¸Ñħ": 2489,
      "ĠÐºÑĥÐ¿Ð¸Ð»": 2490,
      "ĠÐ¿Ð°Ð¼ÑıÑĤÑĮ": 2491,
      "ÐµÐ¹ÑĤÐµÐ½Ð°Ð½ÑĤ": 2492,
      "ÑĭÑĢ": 2493,
      "ĠÑģÐ´": 2494,
      "ÑĩÐ°Ð»Ð°": 2495,
      "ĠÐ²ÐºÑĥÑģ": 2496,
      "ĠÐ´Ð¾Ð¶Ð´": 2497,
      "Ð±Ñĥ": 2498,
      "Ð¾Ð´Ð°ÑĢ": 2499,
      "Ð¾ÑĢÐ°": 2500,
      "ĠÐ±ÑĭÑģÑĤÑĢ": 2501,
      "ĠĊĠĠ": 2502,
      "ĠÑģÑĤÐ°Ð»Ð°": 2503,
      "ĠÐĶÐ°Ð²Ð°Ð¹": 2504,
      "ÐļÐ¾Ð³Ð´Ð°": 2505,
      "ÐĿÐµÐ¼": 2506,
      "ÑģÐºÐ°Ð¶": 2507,
      "ĠÑĪÑĥÑĤ": 2508,
      "ĠÑģÐ°Ð¼Ð°": 2509,
      "ĠÑģÐ°Ð¼Ð¾Ð¼": 2510,
      "ĠÐ²Ð¸Ð´Ñĥ": 2511,
      "ĠÐ·Ð½Ð°Ñĩ": 2512,
      "ÑıÑĤÑĮÑģÑı": 2513,
      "ĠÐ·Ð°Ð¼ÐµÑĩ": 2514,
      "ĠÑĤÑĢÐµÐ±": 2515,
      "ĠÐ¿ÑĢÐ¾ÑĦÐµÑģÑģÐ¸Ñı": 2516,
      "ĠÐ³ÑĢÑĥÐ¿Ð¿": 2517,
      "ÑĤÐµÑĢÐµÑģÐ½Ð¾": 2518,
      "ÑģÐºÐ¸Ñħ": 2519,
      "ĠÐ¿ÐµÑĢÐ²ÑĭÐ¹": 2520,
      "ĠÐ´Ð¾Ð¼Ð°": 2521,
      "ĠÐ¿Ð¾ÐºÐ°Ð·Ð°Ð»Ð¾ÑģÑĮ": 2522,
      "ĠÐĲÐ»Ð°Ð´Ð´Ð¸Ð½Ð°": 2523,
      "ĠÑģÑĥÑīÐµ": 2524,
      "ĠÐ¾Ð½Ð¾": 2525,
      "Ð¾Ð²Ð°Ð»ÑģÑı": 2526,
      "ÐµÑĢÐ¾": 2527,
      "ĠÐ¼ÐµÑģÑı": 2528,
      "Ð¾Ð»Ð¾Ð³Ð¸": 2529,
      "ĠÐ±Ð°Ð·": 2530,
      "ĠÑĥÐ³Ð»": 2531,
      "Ð¾ÑĢÑĤÐ°": 2532,
      "ĠÐ³Ð»ÑıÐ´": 2533,
      "ĠÐ¾ÑĤÐ´ÐµÐ»": 2534,
      "ĠÑįÐ½ÐµÑĢ": 2535,
      "Ð¸Ð²Ð°ÐµÑĤ": 2536,
      "ĠÐ²ÑĭÐ²": 2537,
      "ĠÐ¾Ð±Ð²": 2538,
      "ĠÐ²ÑģÐµÐ¼Ñĥ": 2539,
      "ĠÐ°Ð¿Ð¿": 2540,
      "Ð½ÑıÐ·": 2541,
      "ÑīÐ¸Ð¼Ð¸": 2542,
      "ÑĢÐ°Ð²Ð´Ð°": 2543,
      "ĠÐ³Ð¾ÑĢÑı": 2544,
      "ĠÐºÐ¾ÑĤÐ¾ÑĢÐ¾Ðµ": 2545,
      "ĠÑĥÑĩÐ¸Ð»": 2546,
      "ĠÑģÐ»ÑĥÑĩÐ¸Ð»Ð¾ÑģÑĮ": 2547,
      "ĠÑĥÑģÐ¿Ð¾ÐºÐ¾": 2548,
      "ÑĢÐ°Ð¶ÐµÐ½Ð¸Ðµ": 2549,
      "ĠÐ¼ÐµÑģÑĤÐ°": 2550,
      "ĠÐ¼ÐµÐ´Ð»ÐµÐ½Ð½Ð¾": 2551,
      "ĠÑģÐ²ÑıÐ·Ð¸": 2552,
      "ĠÐ¼Ð°Ð³Ð³Ð»Ð¾Ð²": 2553,
      "ÑĥÐ½Ð¸": 2554,
      "ĠÑģÐ¸Ð»ÑĮÐ½Ð¾": 2555,
      "ĠÐ²Ð¾Ð¹": 2556,
      "Ð¿ÐµÐ»": 2557,
      "Ð°ÐºÐ°": 2558,
      "Ð½Ð¸ÑĨÐ°": 2559,
      "ÑĳÑĪÑĮ": 2560,
      "Ð¸Ð²Ð°ÑıÑģÑĮ": 2561,
      "ÑģÑĤÐ²Ñĥ": 2562,
      "ĠÐŁÐ¾Ð»": 2563,
      "ĠÐĴÐ¿ÑĢÐ¾ÑĩÐµÐ¼": 2564,
      "ÐµÑĪÐ½Ð¾": 2565,
      "ÑĤÐ¸Ñı": 2566,
      "ÐļÑĤÐ¾": 2567,
      "ĠÑģÐ¿ÑĢÐ°Ð²": 2568,
      "ÑĭÐ²Ð°ÐµÑĤÑģÑı": 2569,
      "ĠÑĨÐµÐ½ÑĤÑĢ": 2570,
      "ĠÐ´ÑĥÐ¼Ð°Ñİ": 2571,
      "ĠÐ¿ÑĢÐ¾Ð±Ð»ÐµÐ¼": 2572,
      "ÑıÐ½Ð½Ð¾": 2573,
      "ĠÐ¶Ð¸Ð²Ð¾ÑĤ": 2574,
      "ĠÐºÐ»Ð°ÑģÑģ": 2575,
      "ĠÐ¾Ð±ÑĢÐ°ÑĤÐ½Ð¾": 2576,
      "ĠÐ½ÑĢÐ°Ð²Ð¸ÑĤÑģÑı": 2577,
      "ĠÐ¿Ð¾Ð½ÑĢÐ°Ð²": 2578,
      "ĠÐ¿Ð¾ÑĩÑĥÐ²ÑģÑĤÐ²Ð¾Ð²Ð°Ð»": 2579,
      "Ð¸ÑģÑĮ": 2580,
      "Ð½Ð°Ð¶": 2581,
      "ÑĭÑģÐ»": 2582,
      "Ð¼Ðµ": 2583,
      "ÑĤÐ¾Ðµ": 2584,
      "ÑĪÑĳÐ»": 2585,
      "ĠÐºÐ°Ñĩ": 2586,
      "ĠÐ¼Ð¸Ð¼Ð¾": 2587,
      "ĠÐ¼ÑıÐ³": 2588,
      "ĠÐ¼Ð°Ð½ÑĤÐ¸": 2589,
      "ĠÑĥÐº": 2590,
      "ĠÐµÐ´Ð¸Ð½": 2591,
      "Ð½ÑĥÐ»Ð¸ÑģÑĮ": 2592,
      "ĠÐ²ÑĭÑģÑĤÑĢ": 2593,
      "Ð°Ð»ÑĮÐ½Ð¾Ðµ": 2594,
      "ĠÐ¿Ð¾Ð»ÐµÐ·": 2595,
      "ÐĲÐ»Ð¸": 2596,
      "Ð¡Ð¾Ð²": 2597,
      "ĠÑģÑĤÐ¾ÑıÐ»": 2598,
      "ĠÐ¿Ð¾ÐºÐ°Ñĩ": 2599,
      "Ð½Ð¸ÐºÐµ": 2600,
      "ÐļÐ°ÐºÐ¾Ð¹": 2601,
      "ĠÐ²Ð¸Ð´Ðµ": 2602,
      "ĠÑĨÐ²ÐµÑĤ": 2603,
      "ĠÑģÐ¾Ð±Ð¸ÑĢÐ°": 2604,
      "Ð¥Ð¾ÑĢÐ¾": 2605,
      "ĠÐºÐ¾ÑĤÐ¾ÑĢÑĭÑħ": 2606,
      "ĠÐ¿Ð¾ÑģÐ¼Ð¾ÑĤÑĢÐµÐ»Ð°": 2607,
      "ĠÐ½ÐµÐ±Ð¾Ð»ÑĮÑĪ": 2608,
      "ĠÐ½Ð°Ð±Ð»ÑİÐ´": 2609,
      "ĠÐ²Ð·Ð´Ð¾ÑħÐ½ÑĥÐ»": 2610,
      "!!": 2611,
      "ĠM": 2612,
      "Ð»ÐµÐ¹": 2613,
      "ÑĩÑĥ": 2614,
      "ĠÐ²ÐµÐ´": 2615,
      "ĠÐ²Ð»Ð°Ð´": 2616,
      "ĠÐ²ÑĢÐ°Ñĩ": 2617,
      "ĠÐ¾Ð·": 2618,
      "ĠÐ¾Ð³Ð¾": 2619,
      "ĠÐºÑĢÑĥÐ³": 2620,
      "ĠÐ¼ÐµÐ»": 2621,
      "ĠÐ·ÑĥÐ±": 2622,
      "ĠÑĢÐ¾Ð±": 2623,
      "Ð³Ð¾Ð»": 2624,
      "Ð¾ÑĢÐ¾Ð´": 2625,
      "ÑĢÑĥÐ´": 2626,
      "ĠÐ¶Ð°Ð»": 2627,
      "Ð¸Ð¼ÑģÑı": 2628,
      "Ð»Ð¾Ñī": 2629,
      "ĠÑĤÐ°ÐºÐ°Ñı": 2630,
      "Ð¾Ð¿Ð°Ñģ": 2631,
      "Ð°Ð»ÑĮÐ½Ð¾Ð³Ð¾": 2632,
      "ĠÐ¿Ð¾Ð»Ð°Ð³": 2633,
      "ĠÐ¿Ð¾Ð»Ð½Ð¾ÑģÑĤÑĮÑİ": 2634,
      "ĠÐ»Ð¸ÑĪ": 2635,
      "ĠÐ´Ð²Ðµ": 2636,
      "Ð½Ð¸ÐºÐ¾Ð¼": 2637,
      "ÑĢÐµÐ¼Ñı": 2638,
      "ÑĢÐµÐ¼ÐµÐ½Ð½Ð¾": 2639,
      "ĠÐ»ÑİÐ±Ð¾Ð¿ÑĭÑĤ": 2640,
      "ÑĢÐ¾Ð´Ðµ": 2641,
      "ĠÐ·Ð°Ð²ÐµÐ´": 2642,
      "ĠÐ¸ÑģÐ¿Ð¾Ð»ÑĮÐ·Ð¾Ð²": 2643,
      "ĠÐ´ÑĥÐ¼Ð°Ð»": 2644,
      "ĠÐ¸Ð·Ð²ÐµÑģÑĤÐ½Ð¾": 2645,
      "ĠÐ²Ð½Ð¸Ð¼Ð°Ð½Ð¸Ñı": 2646,
      "ĠÐ½Ð°Ð²ÐµÑĢÐ½Ð¾Ðµ": 2647,
      "ĠÑĥÑģÐ»ÑĭÑĪÐ°Ð»": 2648,
      "Ð¦": 2649,
      "Ð¾ÑģÑĤÐ¸": 2650,
      "Ð¸Ñİ": 2651,
      "ÑĢÐ°Ð±Ð¾ÑĤ": 2652,
      "ĠÐ¿Ð»Ð¾ÑħÐ¾": 2653,
      "ĠÑģÑħÐ²Ð°ÑĤ": 2654,
      "Ð¼ÑĥÑĤ": 2655,
      "ÑģÑĤÐ°ÑĤÐ¸": 2656,
      "ÐµÑĢÐ¾Ð²": 2657,
      "ĠÐ´Ð½Ñı": 2658,
      "ĠÐ´ÑĭÐ¼": 2659,
      "ÐµÑĤÑĥ": 2660,
      "ĠÑĤÑĥ": 2661,
      "ĠÐ±ÑĢÐ°ÑĤ": 2662,
      "Ð»Ð¸ÑģÑĤ": 2663,
      "Ð¹ÑĤÐ¸": 2664,
      "ÑĪÐ¸Ð±": 2665,
      "ÐĿÐ¾ÑĢÐ¼": 2666,
      "Ð½ÑıÑı": 2667,
      "ĠÐ¿ÐµÑĢÐµÐ¿": 2668,
      "ÐŀÑĢÑĤÐµÐ³": 2669,
      "ÑĢÑıÑģ": 2670,
      "ĠÐĶÐ¶Ð¸Ð¼Ð¼Ð¸": 2671,
      "ĠÐ½Ð¾Ð²ÑĥÑİ": 2672,
      "ĠÑĩÐµÐ»Ð¾Ð²ÐµÑĩ": 2673,
      "ĠÐ°Ð²ÑĤÐ¾": 2674,
      "ĠÐ¿Ð¾Ð²ÐµÑĢÐ½ÑĥÐ»ÑģÑı": 2675,
      "ĠÑĢÐµÐ·ÐºÐ¾": 2676,
      "ĠÐ¾ÑĤÐºÑĢÑĭÐ²": 2677,
      "ĠÐ¼Ð¸Ð½ÑĥÑĤÑĥ": 2678,
      "ÐµÑİÑģÑĮ": 2679,
      "ĠÐ½Ð¸ÐºÐ°ÐºÐ¸Ñħ": 2680,
      "ĠÐºÐ¾Ð¼Ð½Ð°ÑĤÑĥ": 2681,
      "ĠÐºÐ°Ð¶Ð´ÑĭÐ¹": 2682,
      "ĠÑģÐ¸ÑģÑĤÐµÐ¼Ñĭ": 2683,
      "ĠÐŀÐ´Ð½Ð°ÐºÐ¾": 2684,
      "ĠÐ´ÑĢÑĥÐ·ÑĮÑı": 2685,
      "ĠÐ¿Ð¾ÑģÐ»Ð°Ð½Ð½Ð¸ÐºÐ¾Ð²": 2686,
      "!Â»": 2687,
      "Ð¸ÑģÐº": 2688,
      "ÑĢÐ°Ð³": 2689,
      "Ð°Ð»Ðµ": 2690,
      "ĠÐºÑĥÑģ": 2691,
      "ĠÐ½ÐµÐ¾Ð¶Ð¸Ð´": 2692,
      "ĠÐ³Ð¾Ð´Ð°": 2693,
      "ĠÐ¿ÑĢÐµÐ¶": 2694,
      "ĠÐĿÐ¸Ðº": 2695,
      "ĠÐĶÐ°Ð´": 2696,
      "ÐµÐºÑĤ": 2697,
      "ĠÐļÐ¾Ð½ÐµÑĩÐ½Ð¾": 2698,
      "Ð¾ÑĩÐºÑĥ": 2699,
      "ÑĥÐ¶ÐµÐ»Ð¸": 2700,
      "ĠÐ¾Ð´Ð½Ð°": 2701,
      "ĠÐ¾Ð´Ð½Ñĥ": 2702,
      "Ð§ÐµÐ¼": 2703,
      "ĠÐ´ÐµÐ»Ðµ": 2704,
      "Ð°ÑĢÐ¸Ð¹": 2705,
      "ÑĢÐ¾ÑĦÐµÑģÑģ": 2706,
      "ĠÐ¼Ð¾Ð³Ð»Ð°": 2707,
      "ĠÐ·Ð°Ð¿Ð¸Ñģ": 2708,
      "Ð¿Ð¾Ð¼Ð¸Ð½": 2709,
      "ĠÐºÑĢÐ¾Ð²Ð°ÑĤÐ¸": 2710,
      "ĠÐ¾Ð±Ð¾Ð»Ð¾ÑĩÐºÑĥ": 2711,
      "ĠÑĩÐ°ÑģÑĤÐ¸": 2712,
      "ĠÐ´ÑĢÐ¾Ð¶": 2713,
      "ĠÐ¾ÑĢÑĥÐ¶Ð¸Ðµ": 2714,
      "Ð¡Ð¿Ð°ÑģÐ¸Ð±Ð¾": 2715,
      "ĠÐłÐµÐ¼ÑĥÑģ": 2716,
      "ÐŀÑĢÑĤÐµÐ³Ð°": 2717,
      "ÐĻ": 2718,
      "Ð¾Ñı": 2719,
      "ÑĤÑģÑı": 2720,
      "ÑĢÐµÐ²": 2721,
      "ĠÐ¿ÑģÐ¸Ñħ": 2722,
      "ĠÐ²ÐµÐ»Ð¸": 2723,
      "ĠÐºÐ°ÑĤ": 2724,
      "ĠÐ´ÑĢÑĥÐ¶": 2725,
      "ĠÐ´ÑĥÑħ": 2726,
      "ĠÐ¼ÐµÐ½ÑĮ": 2727,
      "ÐµÐ»ÐµÐ¼": 2728,
      "ĠÑĩÐµÑģÑĤÐ½Ð¾": 2729,
      "ĠÐ¾ÑĤÐµÑĨ": 2730,
      "ĠÐ¾ÑĤÐ»Ð¸Ñĩ": 2731,
      "ĠÐ¿ÑĢÐ¸Ð½": 2732,
      "ĠÐ¾Ð±ÑıÐ·": 2733,
      "ĠÐĿÐ°Ð´": 2734,
      "ĠÐĿÐ°Ð²ÐµÑĢ": 2735,
      "ĠÑģÐ¿Ð°Ñģ": 2736,
      "Ð¡Ð¸ÑĤÐ¸": 2737,
      "ÑĭÐ²Ð°Ñİ": 2738,
      "ĠÐĳÐµÐ¹": 2739,
      "Ð¾Ð²Ð¾ÑĢÐ¸Ð»": 2740,
      "ĠÐ¸Ð½ÑģÑĤ": 2741,
      "ĠÐ³Ð¾Ð»Ð¾Ð²Ñĭ": 2742,
      "ĠÐŀÑĢÑĤÐµÐ³Ð¸": 2743,
      "ĠÐ¿Ð¾Ð²ÐµÑĢÑħ": 2744,
      "ĠÑĢÐµÐ·ÐµÑĢÐ²": 2745,
      "ĠÐ¿ÑĭÑĤÐ°ÑıÑģÑĮ": 2746,
      "ĠÑĢÐµÐ°Ðº": 2747,
      "ÐŀÑĤÐ»Ð¸ÑĩÐ½Ð¾": 2748,
      "ĠÐ»ÐµÐ³ÐºÐ¾": 2749,
      "ĠÑĢÐ°Ð½ÑĮÑĪÐµ": 2750,
      "ĠÐ¿ÑĢÐµÐ²ÑĢÐ°ÑĤ": 2751,
      "ĠÑĤÑĢÐ°Ð½ÑģÐ¿": 2752,
      "ĠÑĥÑģÐ¼ÐµÑħ": 2753,
      "ĠÐ½Ð¾Ð¼ÐµÑĢ": 2754,
      "ri": 2755,
      "Ð¾Ð½Ñĭ": 2756,
      "Ð°ÑģÑĤÐ¸": 2757,
      "ÑĢÑıÑĤ": 2758,
      "ÑĢÐ°ÑĤÑĮÑģÑı": 2759,
      "ĠÐ²ÑħÐ¾Ð´": 2760,
      "Ð´ÑĨ": 2761,
      "ĠÐºÐ¸Ð»Ð¾Ð¼ÐµÑĤ": 2762,
      "ÐµÐ½ÑĤÐ¾Ð²": 2763,
      "ÐµÐ½Ð½ÑĭÐ¼Ð¸": 2764,
      "ĠÑĤÐ¾Ð¹": 2765,
      "ĠÑĩÐ¸ÑģÑĤ": 2766,
      "Ð·Ð´": 2767,
      "ÐµÐ´Ð¸Ð½": 2768,
      "ÑĳÐ²": 2769,
      "ĠÐ¿ÑĢÐ¸Ð½ÑıÐ»": 2770,
      "ĠÐ²ÑģÐ¿": 2771,
      "ĠÐŁÐ¾ÑħÐ¾Ð¶Ðµ": 2772,
      "ĠÐ¿ÐµÑĢÐµÐ±": 2773,
      "ÐŀÐº": 2774,
      "ĠÐ¼Ð¾Ñİ": 2775,
      "ĠÑĨÐµÐ½Ð°": 2776,
      "ĠÑĥÐ´Ð°Ð»Ð¾ÑģÑĮ": 2777,
      "ĠÐºÐ¾Ð¼Ð°Ð½Ð´": 2778,
      "ĠÑģÐ¾Ð±Ð¸ÑĢ": 2779,
      "ĠÑĢÐ°Ð±Ð¾ÑĤÐ°ÐµÑĪÑĮ": 2780,
      "ĠÐ½Ð°Ð·Ð½Ð°Ñĩ": 2781,
      "ĠÑħÐ¾ÑĩÐµÑĤ": 2782,
      "ĠÐ´ÐµÐ²ÑĥÑĪÐºÐ¸": 2783,
      "ĠÐ´ÐµÐ²ÑĥÑĪÐºÑĥ": 2784,
      "ĠÐ²ÑĤÐ¾ÑĢÐ¾Ð¹": 2785,
      "ĠÑģÐ¸Ð½ÑĤ": 2786,
      "ĠÐĴÐ¾Ð»Ð´ÐµÐ¼Ð¾ÑĢÑĤ": 2787,
      "ĠÐ»Ð°Ð¼Ð¿": 2788,
      "HP": 2789,
      "Ġ'": 2790,
      "ĠR": 2791,
      "Ð¸ÐºÐ°": 2792,
      "ÑĥÑı": 2793,
      "ĠÐ²Ð°ÑĢÐ¸": 2794,
      "ĠÐºÐ¸": 2795,
      "ĠÐ´Ð¾Ñģ": 2796,
      "ÐµÐ»ÐµÐ½": 2797,
      "ĠÐ±Ð°Ð½Ð´": 2798,
      "ĠÑĥÑħÐ¾Ð´": 2799,
      "Ð±Ð¸ÑĤ": 2800,
      "ĠÐ¿Ð¾ÑģÑĤÐ¾": 2801,
      "ĠÐ¿Ð¾ÑģÑĤÑĥÐ¿": 2802,
      "ÑĨÐµÐ¼": 2803,
      "Ð¾Ð³ÑĢÐ°ÑĦ": 2804,
      "ÐµÐ¹Ð½": 2805,
      "ĠÐ¿ÑĢÐµÐ¿": 2806,
      "ÐµÑģÐ¿": 2807,
      "ÑĢÑĥÐº": 2808,
      "ĠÐ¿ÑĢÐ¾Ñĩ": 2809,
      "ĠÐ¿ÑĢÐ¸Ð²Ñĭ": 2810,
      "ĠÐ¿ÑĢÐ¸ÑıÑĤÐ½Ð¾": 2811,
      "ĠÑģÑĤÑĢÐ¾": 2812,
      "ÐºÐ¾Ñģ": 2813,
      "ĠÑĢÐ°Ð·Ð³Ð»ÑıÐ´": 2814,
      "ÐŁÐ¾ÑĩÐµÐ¼Ñĥ": 2815,
      "Ð¡ÑĤ": 2816,
      "ÑĥÐ¶Ðµ": 2817,
      "ÑĨÐ¸Ð¹": 2818,
      "ĠÐ¿Ð¾ÐºÑĥÐ¿": 2819,
      "ĠÑģÐ°Ð¼Ð¾Ð³Ð¾": 2820,
      "ĠÐĽÐ¾ÑĢ": 2821,
      "ÐľÐ½Ðµ": 2822,
      "ĠÐ¿Ð¾Ð¼ÐµÑī": 2823,
      "ĠÐĹÐ°ÑĤÐµÐ¼": 2824,
      "ĠÐ»ÑİÐ±Ð¸ÑĪÑĮ": 2825,
      "ĠÐºÐ°ÑĢÐ¼Ð°Ð½": 2826,
      "ĠÐ¿Ð¸ÑģÑĤÐ¾Ð»ÐµÑĤ": 2827,
      "ĠÐ¼Ð°ÑĪÐ¸Ð½Ñĭ": 2828,
      "ĠÐ½ÐµÐ½Ð°Ð²": 2829,
      "ĠÐ³ÑĢÑĥÐ´ÑĮ": 2830,
      "ĠÐ²Ð¾Ð·Ð²ÑĢÐ°Ñī": 2831,
      "ÐĲÐ»Ð¸ÑģÐ°": 2832,
      "ÑĭÐ»Ð°": 2833,
      "ĠÑģÐ¾ÑĤ": 2834,
      "Ð¾Ð²Ð°Ð½Ð¸Ðµ": 2835,
      "ĠÐ¼Ð¸Ð³": 2836,
      "ĠÐ·ÐµÑĢÐº": 2837,
      "ĠÐ½Ð°ÑĥÑĩ": 2838,
      "Ð°Ð·Ð¸": 2839,
      "Ð¸ÑĤÐµÐ»Ñı": 2840,
      "ÑĳÐ¶": 2841,
      "ĠÑįÐ»ÐµÐº": 2842,
      "Ð¸Ð´Ð½Ð¾": 2843,
      "ĠÐ¢Ð¾": 2844,
      "ĠÐĵÐµÑĢÐ¼Ð¸Ð¾Ð½Ðµ": 2845,
      "ĠÐ¿ÑĢÐµÐ´Ð»Ð°Ð³": 2846,
      "ĠÐºÐ¾Ð½ÑĨÐ¾Ð²": 2847,
      "ĠÐºÑĢÐ¾Ð¼": 2848,
      "ĠÑĥÐ´Ð°ÑĢ": 2849,
      "ĠÐºÐ¾Ð¼Ð°Ð½": 2850,
      "ĠÑĢÐ°Ð±Ð¾ÑĤÑĥ": 2851,
      "ĠÐ¾ÑīÑĥÑĤ": 2852,
      "ĠÑĥÑĢÐ¾ÐºÐ¸": 2853,
      "ĠÐ¾ÑģÐ¾Ð±ÐµÐ½Ð½Ð¾": 2854,
      "ĠÐ¾Ð±ÑĭÑĩ": 2855,
      "Ð»ÑĥÑĪÐ°Ð¹": 2856,
      "ĠÐ½Ð¾Ð²Ð¾ÑģÑĤÐ¸": 2857,
      "ĠÐ¿ÑĢÐµÑģÑĤÑĥÐ¿": 2858,
      "Ð¥Ð¾ÑĩÑĥ": 2859,
      "ĠÐĳÐ¾Ð»Ð²Ð°Ð½": 2860,
      "va": 2861,
      "ĠJ": 2862,
      "Ð¾ÑĪÐµÐ»": 2863,
      "ĠÐ¿ÑĥÑĤ": 2864,
      "ĠÐ¾ÑĦ": 2865,
      "ÐµÐ½ÑĤÐ°": 2866,
      "Ð¾Ð²ÑĭÐµ": 2867,
      "ĠÐ´Ð½ÐµÐ¹": 2868,
      "Ð¿ÑĢÐµÐ¶": 2869,
      "ĠÐ±ÐµÐ³": 2870,
      "Ð°ÐºÐ¾Ð½ÐµÑĨ": 2871,
      "ĠÐ¾ÑĤÐ±": 2872,
      "ÐºÐ¸Ð¼Ð¸": 2873,
      "ĠÐ»ÐµÐ²": 2874,
      "Ð¾Ð½Ð¾Ð¼": 2875,
      "ĠĊĊĊ": 2876,
      "ĠÐ²ÑĭÐ³": 2877,
      "Ð»ÑıÐµÑĤÑģÑı": 2878,
      "ÑĦÐµÑĢ": 2879,
      "Ð°Ð»ÑĮÐ½ÑĭÑħ": 2880,
      "ÐµÐ³ÑĥÐ»ÑıÑĢ": 2881,
      "ĠÐºÐ¾ÑĢÐ¾ÑĤ": 2882,
      "ĠÐľÐ°ÑĢ": 2883,
      "ÑĢÐ¾Ð²Ð°ÑĤÑĮ": 2884,
      "ÑĥÐ¿ÐµÑĢ": 2885,
      "ĠÐ´Ð¾ÑģÑĤÑĥÐ¿": 2886,
      "ĠÐ³Ð¾ÑģÐ¿": 2887,
      "ĠÐĽÐ¸Ð´": 2888,
      "ÐĹÐ°ÑĤÐ¾": 2889,
      "ĠÑĥÑĩÐµÐ±": 2890,
      "ÑİÑĤÑģÑı": 2891,
      "ĠÑĤÐµÐ»ÐµÑĦ": 2892,
      "ĠÐ±Ð¾ÐµÐ²": 2893,
      "ĠÐ¿Ð»Ð°Ð½ÑĪ": 2894,
      "ĠÑīÐµÐº": 2895,
      "ĠÐ¿ÑĢÐ¾Ð¸ÑģÑħÐ¾Ð´": 2896,
      "ĠÐ²ÑģÐ¿Ð¾Ð¼Ð½Ð¸Ð»": 2897,
      "ĠÐ´ÐµÑģÑıÑĤÑĮ": 2898,
      "ĠÑħÐ¾ÑĢÐ¾ÑĪÐ¸Ð¹": 2899,
      "ĠÐļÐ°Ð²Ð°ÑħÐ°ÑĢÐ°": 2900,
      "ĠÐ¥Ð°ÑĢÐ»Ð°Ð½": 2901,
      "ĠÐĶÐ°Ð´Ð»Ð¸": 2902,
      "la": 2903,
      "ta": 2904,
      "Ð°Ñĥ": 2905,
      "ÑĤÐ¾Ð¶": 2906,
      "Ð»ÐµÑĩ": 2907,
      "ÑıÐ»Ð¾": 2908,
      "ÑıÐ½Ð¸Ðµ": 2909,
      "ĠÐ¿ÐµÑģ": 2910,
      "ĠÑģÐ¾Ð½": 2911,
      "ÑĩÐ°ÑĤ": 2912,
      "ÑĩÐ¸Ð½": 2913,
      "ĠÐ²Ð¸Ñģ": 2914,
      "Ð´Ñĭ": 2915,
      "ÑĤÐ¾ÑĢÑĭ": 2916,
      "ĠÐ¼Ð°ÑĪ": 2917,
      "ĠÐ·Ð¾Ð»Ð¾ÑĤ": 2918,
      "ĠÑĩÑĥÐ¶": 2919,
      "ĠÐ¿Ð¾ÑģÐ¿": 2920,
      "Ð»Ð¸Ð±Ð¾": 2921,
      "Ð½Ð¸ÑĤÐµÐ»ÑĮ": 2922,
      "ĠÐ¾ÑĤÐ²ÐµÑĢ": 2923,
      "ĠÐ¾ÑĤÐºÑĥÐ´Ð°": 2924,
      "Ð°ÑĤÐ¸Ð²": 2925,
      "ĠÐŁÑĢÐ¾": 2926,
      "ÐĶÐ¶": 2927,
      "ĠÐļÐ²": 2928,
      "ĠÑĢÐ°Ð·ÑĢÐµÑĪ": 2929,
      "Ð°Ð¹ÑģÑı": 2930,
      "Ð¢ÑĥÑĤ": 2931,
      "Ð¾ÑĩÐºÐ°": 2932,
      "ĠÑģÐºÐ»Ð°Ð´": 2933,
      "Ð¸Ð·Ð²": 2934,
      "ĠÐ²Ð¾Ð·Ð½Ð¸Ðº": 2935,
      "ĠÐ±ÑĥÐ´ÑĥÑĤ": 2936,
      "ĠÑĦÐ¾ÑĢÐ¼": 2937,
      "ĠÐ¼Ð¾Ñĳ": 2938,
      "ĠÐ¾Ð¿ÑĥÑģÑĤ": 2939,
      "ĠÐ¶ÐµÐ½Ñī": 2940,
      "ĠÐ¿ÑĢÐ¾Ð²Ð¾Ð´": 2941,
      "ĠÐ´Ð¾Ð»Ð¶Ð½Ð¾": 2942,
      "ĠÐ¿Ð¾Ð³Ð¾Ð²Ð¾ÑĢÐ¸ÑĤÑĮ": 2943,
      "ĠÑĥÑģÑĤÐ°Ð½Ð¾Ð²": 2944,
      "ĠÐ¾ÐºÐ°Ð·Ð°Ð»ÑģÑı": 2945,
      "ĠÐºÐ¾Ð¼Ð½Ð°ÑĤÐµ": 2946,
      "ĠÐļÐ¾ÑĢÐ¾Ð»ÑĮ": 2947,
      "Ð½ÑĥÑĤÑĢÐ¸": 2948,
      "Ð¾Ð¹Ð´Ñı": 2949,
      "ĠÐ¿ÑĢÐ¸Ð·Ð½": 2950,
      "ĠÑģÐµÐ¼ÑĮ": 2951,
      "ĠÐ¿Ð¸ÑĪ": 2952,
      "ĠÑģÑĢÐµÐ´Ð¸": 2953,
      "Ð½Ð¸ÑĩÑĤÐ¾Ð¶": 2954,
      "ĠÐ¸ÑģÑĤÐ¾ÑĢÐ¸": 2955,
      "ĠÑĥÑĤÑĢÐ¾Ð¼": 2956,
      "ĠÐ¿ÑĢÐ¾Ð¸Ð·Ð¾ÑĪÐ»Ð¾": 2957,
      "ÑĢÐ¾ÑĦÐµÑģÑģÐ¾ÑĢ": 2958,
      "Ð¿ÑĢÐµÐ¶Ð½ÐµÐ¼Ñĥ": 2959,
      "ÑĢÐ°Ð»ÑģÑı": 2960,
      "ÑĥÐµÑĤÑģÑı": 2961,
      "Ð²Ð¾ÑĢ": 2962,
      "ĠÐºÐ¾Ð¿": 2963,
      "ĠÐ¼Ð°Ð»Ð¾": 2964,
      "Ð¾Ð»Ð³Ð¾": 2965,
      "ÑİÐ±": 2966,
      "ĠÐ±ÑĢ": 2967,
      "ĠÐ±Ð¾Ð¹": 2968,
      "Ð¸Ð»Ð»": 2969,
      "ĠÑĩÑĳÐ¼": 2970,
      "Ð°Ð²Ð»Ð¸Ð²": 2971,
      "Ð¾Ð±ÑĢÐ°Ð·": 2972,
      "ĠÐ¿ÑĢÐ¸ÑģÑĤ": 2973,
      "ĠÑģÑĤÐ°": 2974,
      "ĠÑģÑĤÐ°Ð²": 2975,
      "Ð¾Ð»ÑĮÐ½Ð¾": 2976,
      "ĠÐĴÐ¾": 2977,
      "ĠÐ¡Ð°Ð¼": 2978,
      "ÑĢÑĭÐ·": 2979,
      "ĠÐľÐ¾Ð¶ÐµÑĤ": 2980,
      "ÑĥÐ¼Ð°Ñİ": 2981,
      "ĠÐĳÐ»ÐµÐº": 2982,
      "ÑĩÐµÑģÐºÐ°Ñı": 2983,
      "ĠÐ¸Ð¼Ð¿Ð»": 2984,
      "ĠÐ·Ð°ÐºÑĢÐ¸": 2985,
      "ĠÐĶÐ¶ÐµÐ¹Ð¼ÑģÐ¾Ð¼": 2986,
      "ĠÐ¿Ð¾Ð»ÑĥÑĩÐ¸Ð»": 2987,
      "ÑĳÑĢÑĤÐ¸": 2988,
      "ĠPHP": 2989,
      "ĠÐ¸Ð´ÑĤÐ¸": 2990,
      "ĠÐ½Ð¾ÑĩÑĮ": 2991,
      "ĠÐ½ÐµÐ¿ÑĢÐ¸ÑıÑĤ": 2992,
      "ĠÐ¼ÐµÑĢÐµ": 2993,
      "ĠÐ½ÐµÐºÐ¾ÑĤÐ¾": 2994,
      "ĠÑĩÐµÑĤÑĭÑĢÐµ": 2995,
      "ĠÐ¼Ð°Ð³ÑĢÐ¸Ð±Ð¸Ð½ÐµÑĨ": 2996,
      "ĠÐ³Ð»ÑıÐ´Ñı": 2997,
      "ĠÐºÑĢÐ¾Ð¼Ðµ": 2998,
      "ava": 2999,
      "id": 3000,
      "ĠC": 3001,
      "ÑĢÐµÑģ": 3002,
      "Ð»Ð°Ðº": 3003,
      "Ð»Ð¾ÑĤ": 3004,
      "ÑĭÑĤÑĮ": 3005,
      "ĠÑģÐµÐ»": 3006,
      "ĠÑģÑĬ": 3007,
      "ĠÐ²Ð°Ð¼Ð¸": 3008,
      "ÑĢÐ¸Ð¿": 3009,
      "ĠÐ±ÑĥÐº": 3010,
      "Ð°Ð½Ð½ÑĥÑİ": 3011,
      "ĠÐ½Ð°ÑĪÐµÐ»": 3012,
      "ĠÐ¿ÑĢÐ¾Ð·Ð²": 3013,
      "ÑĢÑĥÑĤ": 3014,
      "ĠÐ¿ÑĢÐ¾ÑħÐ¾Ð´": 3015,
      "Ð¾Ð·Ð½": 3016,
      "Ð¾Ð·Ð´": 3017,
      "ÑĢÑĭÐµ": 3018,
      "ĠÑĢÐ°Ð·Ð²ÐµÑĢ": 3019,
      "ÐŁÐ¾Ð´": 3020,
      "ĠÐ¿ÐµÑĢÐµ": 3021,
      "ÑģÐºÐ¾Ð»ÑĮ": 3022,
      "Ð°Ð³Ð°Ð»": 3023,
      "Ð²ÐµÑĤÑģÑĤÐ²": 3024,
      "ĠÑģÐ°Ð¼ÑĭÐ¹": 3025,
      "ĠÐ¿ÑĢÐµÐ´Ð¿Ð¾Ð»": 3026,
      "ĠÐ¿Ð¾Ð¼Ð¾ÑĩÑĮ": 3027,
      "ĠÑĢÐ°Ð±Ð¾ÑĤÑĭ": 3028,
      "ĠÑĥÑĩÐµÐ½Ð¸": 3029,
      "ĠÐ³ÑĢÑĥÐ·Ð¾Ð²": 3030,
      "ÐłÐ°Ð·": 3031,
      "ĠÐ½Ð°ÐºÐ°Ð·": 3032,
      "ĠÐĶÐ°Ð¼Ð±Ð»Ð´Ð¾ÑĢÐ°": 3033,
      "ĠÑĢÐµÐ·ÑĥÐ»ÑĮÑĤ": 3034,
      "ĠÑĢÑĭÐ±": 3035,
      "ĠÐ¼ÑĭÑģÐ»ÑĮ": 3036,
      "ĠÐ²Ð¾Ð»Ð¾ÑģÑĭ": 3037,
      "ĠÐ§ÐµÑĢÐµÐ·": 3038,
      "ĠÑģÐµÑĢÑĮÑĳÐ·Ð½Ð¾": 3039,
      "ĠÐ¾ÑĢÐ³Ð°Ð½Ð¸": 3040,
      "ĠÑĩÑĢÐµÐ·Ð²ÑĭÑĩÐ°Ð¹Ð½ÑĭÑħ": 3041,
      "ĠÐ´Ð°Ð»ÐµÐºÐ¾": 3042,
      "ÐĿÐ¾ÑĢÐ¼Ð°Ð»ÑĮÐ½Ð¾": 3043,
      "ĠJava": 3044,
      "ĠÐļÐ²Ð°Ð·Ð¸": 3045,
      "es": 3046,
      "Ð¸ÑĩÐµÐ³Ð¾": 3047,
      "ĠÑģÑĩÐ°": 3048,
      "ÑģÑĤÐµ": 3049,
      "ĠÐ¼Ð¾Ð´": 3050,
      "ĠÑĤÐ¾Ð¿": 3051,
      "ĠÐ±ÑĢÐ¾": 3052,
      "ĠÑĥÐ½Ð¸ÑĩÑĤÐ¾Ð¶": 3053,
      "Ð½Ð¸ÑĨÑĭ": 3054,
      "Ð¾ÑĤÐ°Ð»": 3055,
      "Ð¾ÑĤÐ¾Ð¼": 3056,
      "ĠÐ¾ÑĤÑĨÐ°": 3057,
      "ĠÐ¾ÑĤÐ½Ð¾Ñģ": 3058,
      "Ð°ÑĤÑĥ": 3059,
      "Ð°ÑĤÑĭÐ¹": 3060,
      "ĠÐ¿ÑĢÐ¾Ð»": 3061,
      "ÑĦÑĢÐ¸": 3062,
      "Ð°ÑıÐ½": 3063,
      "ĠÐĶÐ¾": 3064,
      "ĠÐļÑĤÐ¾": 3065,
      "ĠÑģÐ¿ÑĢÑıÑĤ": 3066,
      "ÑģÐºÐ¾ÑĢ": 3067,
      "ĠÐľÐ°Ðº": 3068,
      "ÑĥÐ¼Ðµ": 3069,
      "ĠÐĺÐ»Ð¸": 3070,
      "ÐµÑĪÑĮÑģÑı": 3071,
      "ĠÑģÐ²Ð¾Ñĳ": 3072,
      "ĠÑĢÐ°ÑģÑģÐ¼": 3073,
      "ĠÐ¼Ð¾Ñī": 3074,
      "ĠÐ²Ð¸Ð´ÐµÑĤÑĮ": 3075,
      "ÐºÐ¾Ð¼Ñĥ": 3076,
      "ÐĹÐ°": 3077,
      "ĠÐ¥Ð¾ÑĢÐ¾ÑĪÐ¾": 3078,
      "ĠÐ»ÑİÐ±Ð¾Ð²": 3079,
      "ĠÑĥÐ±ÐµÐ¶": 3080,
      "ĠÐ·Ð°Ð±ÑĭÐ»": 3081,
      "ĠÐ¿ÑĢÐ¾Ð´Ð¾Ð»Ð¶Ð°Ð»": 3082,
      "ĠÑĢÐ°Ð·Ð²Ðµ": 3083,
      "ĠÐ°Ð½Ð³": 3084,
      "ĠÐ¿Ð¾Ð¿ÑĭÑĤÐ°Ð»ÑģÑı": 3085,
      "ĠÐ·ÐµÐ»ÑĮÐµ": 3086,
      "ÑıÐ½Ð¸Ð¸": 3087,
      "Ð»Ð¸Ð¶Ð°Ð¹": 3088,
      "ĠÐ¿ÑĢÐ¸Ð²ÑĭÑĩÐºÐ°": 3089,
      "ĠÐ¾ÑģÑĤÐ¾ÑĢÐ¾Ð¶Ð½Ð¾": 3090,
      "pt": 3091,
      "Ð²Ð°Ð´": 3092,
      "Ð´ÐµÐ²": 3093,
      "ÐµÐ½ÐµÐ¼": 3094,
      "ĠÐ¼ÑĥÑĩ": 3095,
      "Ð¾Ð»Ñı": 3096,
      "ĠÐ·Ð´": 3097,
      "ĠÐ½Ð°ÑĪÐ¸": 3098,
      "ĠÐ½Ð°ÑĩÐ¸Ð½Ð°": 3099,
      "ÐµÐ¼Ð¾Ð½": 3100,
      "ĠÐ¾ÑĤÐº": 3101,
      "ĠÐ¾ÑĤÐºÐ°Ð·": 3102,
      "Ð°Ð´Ð°Ð¼": 3103,
      "ÑĢÑĥÑĩ": 3104,
      "ÐµÐ²ÐµÑĢ": 3105,
      "ĠÑģÑĤÐ°Ð½Ð¾Ð²": 3106,
      "ĠÐŁÐ°ÑĢ": 3107,
      "ĠÐĿÑĥÐ¶": 3108,
      "ĠÐºÐ°ÐºÐ°Ñı": 3109,
      "ĠÐºÐ°ÐºÐ¸Ð¼": 3110,
      "Ð°ÑİÑīÐ¸Ñħ": 3111,
      "Ð¸ÑħÐ°": 3112,
      "ĠÑĢÑĥÐºÐµ": 3113,
      "ĠÐ´ÐµÐ»Ð°ÐµÑĤ": 3114,
      "ĠÐ¸Ð½Ð¾Ð³Ð´Ð°": 3115,
      "ĠÐ¸Ð½ÑĤÐµÑĢ": 3116,
      "ĠÐºÐ¾ÑĤÐ¾ÑĢÑĭÐ¼": 3117,
      "ĠÐ½Ð°Ð·Ð²": 3118,
      "ÑģÑĤÐ²ÐµÐ½Ð½ÑĭÐ¹": 3119,
      "ĠÐ¾ÑĩÐµÑĢÐµÐ´": 3120,
      "ĠÑģÑĤÑĢÐ°Ð´": 3121,
      "ÑĪÐµÐ³Ð¾ÑģÑı": 3122,
      "ĠÐ¿Ð¸ÑģÑĮ": 3123,
      "ĠÐ¸Ð´ÐµÑı": 3124,
      "ĠÐļÑĢÐ°ÑģÐ¾ÑĤ": 3125,
      "Ð½Ð¾Ð»Ð¾Ð³Ð¸": 3126,
      "Ð½ÑıÐ·ÑĮ": 3127,
      "Sc": 3128,
      "Ð¨": 3129,
      "Ð¾Ð½Ð¸": 3130,
      "ÑģÐºÐ°Ñı": 3131,
      "ĠÑģÐ¸Ð¼": 3132,
      "ÑĩÐ¾Ð½": 3133,
      "Ð²Ð¾Ðº": 3134,
      "ÑħÑĢÐ°Ð½": 3135,
      "Ð¾Ð²ÐµÑĢ": 3136,
      "ĠÐ´Ñĥ": 3137,
      "ĠÑĤÐµÐ¿": 3138,
      "ĠÐ±Ð¾Ðº": 3139,
      "ĠÑĩÐµÑĤ": 3140,
      "Ð°Ð½Ð½Ð¾Ð³Ð¾": 3141,
      "ÑīÐ°": 3142,
      "ÑĨÐµÐ¹": 3143,
      "ĠÐ¿ÑĢÐµ": 3144,
      "Ð¾Ð½Ð¾Ð¹": 3145,
      "ĠÐ¿ÑĢÐ¸ÐºÑĢÑĭ": 3146,
      "Ð»Ð°ÑĪ": 3147,
      "Ð³Ð¾Ð½": 3148,
      "ĠÐ¸Ð·Ð¼ÐµÐ½": 3149,
      "ĠÐ¡Ðº": 3150,
      "ĠÑģÐ»Ð¾Ð²Ð¾": 3151,
      "ÐŁÑĢÐ¾": 3152,
      "ĠÑģÐ¿Ð¸Ð½Ð¾Ð¹": 3153,
      "Ð°Ð»ÑĮÐ½Ð¾Ð¹": 3154,
      "ĠÐ¿Ð¾Ð»Ð¾Ð²": 3155,
      "ÑĭÐ²Ð°ÑİÑĤ": 3156,
      "ĠÐ´Ð²Ð°Ð´ÑĨÐ°ÑĤÑĮ": 3157,
      "ĠÑģÐ²Ð¾Ð¸Ð¼Ð¸": 3158,
      "ĠÑĤÑĭÑģÑı": 3159,
      "ĠÐĵÐµÑĢÐ¼Ð¸Ð¾Ð½Ð¾Ð¹": 3160,
      "ĠÑĦÐ¸Ð»ÑĮ": 3161,
      "ĠÐºÐ¾Ð¼Ñĥ": 3162,
      "ĠÐķÑĳ": 3163,
      "ĠÐ²ÐµÑĢÐ½Ð¾": 3164,
      "ĠÐ¥Ð¾ÑĤÑı": 3165,
      "ĠÐ¿ÑĢÐ°Ð²Ð¸Ð»ÑĮÐ½Ð¾": 3166,
      "ĠÐ²Ð¾ÑģÐ¿Ð¾Ð¼Ð¸Ð½": 3167,
      "Ð¾Ð³Ð¸Ð±": 3168,
      "ĠÐ½ÐµÐ´Ð°Ð²Ð½Ð¾": 3169,
      "ĠÐºÐ°ÑĢÑĤ": 3170,
      "ĠÑĩÐ°ÑģÑĤÐ¾": 3171,
      "ĠÑĥÐ·Ð½Ð°ÑĤÑĮ": 3172,
      "ĠÐ¸Ð½ÑĤÐµÑĢÐµÑģÐ½Ð¾": 3173,
      "ĠÐ¿ÑĢÐ¾ÑģÑĤÑĢÐ°Ð½": 3174,
      "ĠÑģÐ¸Ð³Ð°ÑĢ": 3175,
      "ÑĥÑĤÐ±Ð¾Ð»": 3176,
      "ĠÐ¼Ð¾Ð¶ÐµÑĪÑĮ": 3177,
      "ĠÐ¿ÑĢÐ°ÐºÑĤÐ¸ÑĩÐµÑģÐºÐ¸": 3178,
      "ĠÑĢÐµÐ·ÐµÑĢÐ²Ñĥ": 3179,
      "ript": 3180,
      "Script": 3181,
      "Ġ5": 3182,
      "Ð°ÑģÑĤÑĮ": 3183,
      "Ð¸ÐºÐ¸": 3184,
      "ÑģÐºÑĥÑİ": 3185,
      "Ð»Ð°Ð·": 3186,
      "ÑıÑīÐ¸Ð¹": 3187,
      "ĠÐ¿Ð¸ÑĤ": 3188,
      "ĠÑģÐ½Ð°": 3189,
      "ĠÐ²ÑģÑĤ": 3190,
      "ÑĤÐ¾Ð½": 3191,
      "ĠÐºÐ¾Ð»ÑĮ": 3192,
      "ĠÑĥÑĢÐ¾Ð²": 3193,
      "ĠÐ¿Ð¾ÑĤÐ¾Ð»": 3194,
      "Ð¾ÑĢÐ°Ñĩ": 3195,
      "ĠÐ»Ð¾Ð²": 3196,
      "Ð¸Ð²Ð°ÑĤÑĮÑģÑı": 3197,
      "ĠÐĵÑĢ": 3198,
      "ĠÐ¿Ð¾Ð´Ð·": 3199,
      "ĠÐŁÑĢÐ°Ð²Ð´Ð°": 3200,
      "ĠÐ¸Ð·Ð±": 3201,
      "ĠÐ·Ð°ÑĤÐ¾": 3202,
      "Ð¾ÑĩÑĥÐ²ÑģÑĤÐ²": 3203,
      "ĠÐ¿Ð¾Ð»ÑĥÑĪ": 3204,
      "ÑĥÑĪÐºÑĥ": 3205,
      "ÑĢÐ¾ÑģÐ¸Ð»": 3206,
      "Ð´ÐµÑģÑı": 3207,
      "ĠÐ¿ÑĢÐµÐ´ÑĥÐ¿": 3208,
      "ĠÐ¸Ð¼ÐµÐµÑĤ": 3209,
      "ĠÐ¾ÑģÑĤÐ°Ð»Ð¾ÑģÑĮ": 3210,
      "ĠÐ¼Ð¾Ð³Ð»Ð¸": 3211,
      "ĠÑģÐ¿ÑĢÐ¾ÑģÐ¸ÑĤÑĮ": 3212,
      "ĠÑĥÐ¼ÐµÑĢ": 3213,
      "ĠÐ¿ÑĢÐ¾ÑĪÐ»Ð¾": 3214,
      "ĠÐ´Ð¾Ð»Ð¶Ð½Ñĭ": 3215,
      "ĠÐ½Ð¸ÐºÐ°ÐºÐ¾Ð³Ð¾": 3216,
      "ÑĩÐ¸Ð²Ð¾": 3217,
      "ĠÑģÐ¾Ð·Ð´": 3218,
      "ĠÑĢÐ°Ð·Ð³Ð¾Ð²Ð°ÑĢÐ¸Ð²": 3219,
      "ĠÐ¿Ð¾Ð½Ð¸Ð¼Ð°Ñİ": 3220,
      "Ð°Ð»Ð»Ð¸Ð²Ð°Ð½": 3221,
      "ÐĶÐ¾Ð±ÑĢÑĭÐ¹": 3222,
      "ĠÑıÐ·ÑĭÐº": 3223,
      "ÐºÐ¾ÑĩÐ¸Ð»": 3224,
      "ĠÐ¼Ð°Ð»ÑĮÑĩÐ¸": 3225,
      "ĠÐļÐ¾ÑĢÐ¾Ð»ÐµÐ²Ð°": 3226,
      "do": 3227,
      "Ð¾ÑģÑĤ": 3228,
      "ĠÐ¿Ð¾Ð³Ð¸Ð±": 3229,
      "ĠÐ½ÐµÐ³": 3230,
      "ÑĩÐµÑĤ": 3231,
      "ĠÐ²Ð»Ñİ": 3232,
      "ĠÐ²Ð¸Ð¶Ñĥ": 3233,
      "Ð´ÑĢÑĥÐ³": 3234,
      "Ð¼Ð¾ÑĤÑĢ": 3235,
      "ĠÐ¾ÑĪÐ¸Ð±": 3236,
      "ÑħÐ¾Ð¶": 3237,
      "ĠÑĤÐ°": 3238,
      "Ð°ÐºÐ¸": 3239,
      "Ð°Ð½Ð½Ð¾Ðµ": 3240,
      "ĠÑĢÐ°Ð²": 3241,
      "ĠÑĢÐ°Ð±": 3242,
      "ĠÐ¿Ð¾ÑģÐ¼": 3243,
      "ÑĨÐµÐ½": 3244,
      "Ð°ÑĢÐ°Ðº": 3245,
      "Ð°ÑĤÑĢÐ¸Ð²": 3246,
      "Ð»ÑıÑİ": 3247,
      "ĠÐ¶ÐµÑģÑĤ": 3248,
      "ĠÐ¿Ð¾Ð»Ð¾Ñģ": 3249,
      "ÐŀÐ¿": 3250,
      "ĠÐ¢Ð°Ð¼": 3251,
      "ĠÑģÑĤÐ¾Ð»Ð¸": 3252,
      "ĠÐ³Ð¾ÑģÑĤ": 3253,
      "ĠÑģÐ°Ð¼Ð¾": 3254,
      "ÐĵÐ´Ðµ": 3255,
      "ÑĥÑģÐºÐ°": 3256,
      "Ð²ÐµÑĢÑħ": 3257,
      "ĠÐ³Ð¾Ð²Ð¾ÑĢÐ¸Ð»Ð°": 3258,
      "ĠÑĤÐµÐ¼Ð½Ð¾": 3259,
      "ĠÑĩÑĥÐ²ÑģÑĤÐ²Ð¾Ð²Ð°Ð»": 3260,
      "ĠÑģÐ¼Ð¾ÑĤÑĢÐµÐ»Ð°": 3261,
      "ĠÐ¶ÐµÐ½ÑīÐ¸Ð½Ñĭ": 3262,
      "ĠÑĤÐµÑĢÐ¿": 3263,
      "ĠÐ¿Ð¾ÑģÑĤÐ°ÑĢ": 3264,
      "ĊĊĊĊĉ": 3265,
      "ĠÑģÑĤÑĢÐ°Ð½Ð½Ð¾": 3266,
      "ĠÐ¼Ð°ÑĤÐµÑĢÐ¸": 3267,
      "ĠÐ¼Ð°ÑħÐ½ÑĥÐ»": 3268,
      "ÐµÐ½Ð´ÑĢÐ¸Ðº": 3269,
      "ĠÐ¼ÐµÐ½ÑĮÑĪÐµ": 3270,
      "ĠÑĢÐ¾ÑĤ": 3271,
      "ĠÐ½ÐµÐ¶": 3272,
      "ĠÐºÑĥÑħ": 3273,
      "ÐµÑĢÑĨ": 3274,
      "ĠÐ´Ð¾Ð¿": 3275,
      "ĠÐ´ÑıÐ´": 3276,
      "ÑĢÐ¸ÑģÑĤ": 3277,
      "ÐµÐ»ÑĭÐ¹": 3278,
      "ÑĨÐµÐ¿": 3279,
      "Ð¾ÑĢÑĥÐ¶": 3280,
      "ÑĳÑģÑĤ": 3281,
      "Ð°ÑĤÐµÐ»Ñı": 3282,
      "ĠÐ¿ÑĢÐµÐ·": 3283,
      "Ð¾Ð½Ð´": 3284,
      "ĠÑģÑĤÑĥÐ¿": 3285,
      "ĠÐĴÐ¸Ð´": 3286,
      "ĠÐŀÑģ": 3287,
      "ĠÐļÑĳÑĢÑĤÐ¸": 3288,
      "ÑĪÐ¸ÐµÑģÑı": 3289,
      "Ð°Ð¿Ð°": 3290,
      "ÑĭÐ²Ð°Ð¹": 3291,
      "ĠÐ»Ð¸ÑĨÐµ": 3292,
      "ÑĥÑİÑĤ": 3293,
      "ĠÑĢÐ°ÑģÐº": 3294,
      "ÑįÑĤÐ¾": 3295,
      "ĠÐ»ÑİÐ±Ð¸Ð¼": 3296,
      "Ð¥ÐµÐ½Ð´ÑĢÐ¸Ðº": 3297,
      "ĠÐ²Ð¾ÑģÐ¿": 3298,
      "ÐłÐµÐ³ÑĥÐ»ÑıÑĢ": 3299,
      "ĠÑģÐ¼Ð¾ÑĤÑĢÐµÑĤÑĮ": 3300,
      "ĠÐ¾ÑĤÐºÑĢÑĭÐ»": 3301,
      "Ð²Ð°ÑĢÑĤÐ¸": 3302,
      "ĠÐ·Ð°Ð¼ÐµÑĤÐ¸Ð»Ð°": 3303,
      "ĠÑģÐ¸Ð»Ñĭ": 3304,
      "ĠÐºÐ°Ð¶Ð´Ð¾Ð³Ð¾": 3305,
      "ĠÐ¿ÑĢÐµÐºÑĢÐ°ÑģÐ½Ð¾": 3306,
      "ĠÐĶÐµÐ²ÑĥÑĪÐºÐ°": 3307,
      "ÐµÐ¹Ð½Ð´Ð¶": 3308,
      "Ð¾Ð½Ñĥ": 3309,
      "Ð½Ð°Ð»Ð¸": 3310,
      "Ð½Ð¸Ð»Ð°": 3311,
      "Ð½ÑĳÑģ": 3312,
      "Ð»Ñĥ": 3313,
      "ĠÐ¿Ð»Ñİ": 3314,
      "ĠÑģÐ´ÐµÑĢÐ¶": 3315,
      "ĠÐ²ÐºÐ»ÑİÑĩ": 3316,
      "Ð²Ð¸Ð³": 3317,
      "ÐµÑĢÐ³": 3318,
      "ÑĢÐ¸Ð»ÑģÑı": 3319,
      "Ð¿Ð¾Ñĩ": 3320,
      "ĠÑĤÐ¸Ð¿": 3321,
      "ĠÐ±Ð¸": 3322,
      "ĠÐ±Ð°Ð½": 3323,
      "ĠÐ±Ð»Ð°": 3324,
      "ĠÐ¿Ð¾ÑĨÐµÐ»": 3325,
      "Ð°ÑĢÐ¾Ð²": 3326,
      "ĠÐµÐ·Ð´": 3327,
      "ÐµÐ´Ñĥ": 3328,
      "ĠÐĵÐ´Ðµ": 3329,
      "ĠÐ¿ÑĢÐ¸Ðº": 3330,
      "ĠÐ²ÑĭÐ³Ð»ÑıÐ´": 3331,
      "ĠÐ¶ÑĥÑĢ": 3332,
      "ÑĦÐ¾ÑĢ": 3333,
      "ÑĦÑĦ": 3334,
      "ĠÐ¿Ð¾Ð´Ð°ÑĢ": 3335,
      "ĠÐĴÐµÐ´ÑĮ": 3336,
      "ĠÑģÐ»ÐµÐ³": 3337,
      "ĠÑģÐºÑĢÑĭ": 3338,
      "ĠÐ¢Ð¾Ð³Ð´Ð°": 3339,
      "ĠÑĪÑĤ": 3340,
      "ĠÑģÐ¼ÐµÑĪ": 3341,
      "ĠÐ³Ð¾ÑĢÐ°Ð·": 3342,
      "ĠÐ¾Ð¿ÐµÑĢÐ°": 3343,
      "ĠÐ½Ð°Ð¿ÑĢÑı": 3344,
      "ĠÐ¾ÐºÑĢÑĥÐ¶": 3345,
      "ĠÐ·Ð°Ð´ÐµÑĢÐ¶": 3346,
      "Ð°Ð¶Ð´Ñĭ": 3347,
      "ĠÐºÐ¾ÑĤÐ¾ÑĢÐ¾Ð¼": 3348,
      "ĠÐ¼Ð°Ð³Ð°Ð·": 3349,
      "ĠÐ»Ð¸ÑĨÐ¾Ð¼": 3350,
      "ÑģÐºÐ¸Ð¼": 3351,
      "ĠÐ·Ð°Ð½ÑıÑĤ": 3352,
      "ĠÐ¿ÑĢÐ¾ÑĪÐµÐ¿": 3353,
      "ĠÐ´Ð¾Ð¼Ð¾Ð¹": 3354,
      "ĠÐ´Ð¾Ð¼Ð°ÑĪ": 3355,
      "ĠÐ¿Ð¾ÑıÐ²Ð¸Ð»Ð°ÑģÑĮ": 3356,
      "ĠÐ´Ð¾ÑĢÐ¾Ð³Ð¾": 3357,
      "Ð¾ÑĤÐ¾Ñĩ": 3358,
      "ĠÐ¾ÑħÐ¾ÑĤ": 3359,
      "ĠÐ¿Ð°Ð»ÑĮÑĨÑĭ": 3360,
      "ĠÐºÑĥÑĢÑĤ": 3361,
      "ĠÐ²Ð¾Ð·Ð´ÑĥÑħÐµ": 3362,
      "ĠÐ¿ÑĢÐ¾ÑĤÑıÐ½ÑĥÐ»": 3363,
      "ĠÐ°ÑĢÑħ": 3364,
      "ĠÐ²Ð¾ÑģÐºÐ»Ð¸ÐºÐ½ÑĥÐ»": 3365,
      "ĠÐ»ÐµÑģÑĤÐ½Ð¸ÑĨÐµ": 3366,
      "ĠÐ½ÐµÐ¾Ð±ÑħÐ¾Ð´Ð¸Ð¼Ð¾": 3367,
      "ĠÐĳÐ¾Ð»Ð²Ð°Ð½ÑīÐ¸Ðº": 3368,
      "ĠÐ¿ÑĢÐ¾Ð·Ð²ÑĥÑĩ": 3369,
      "ÑĥÐ¼ÐµÐµÑĤÑģÑı": 3370,
      "ĠÐĵÑĢÐµÐ¹Ð½Ð´Ð¶": 3371,
      "ĠÑģÐ»ÐµÐ³ÐºÐ°": 3372,
      "ĠÐ³Ð¾ÑĢÐ°Ð·Ð´Ð¾": 3373,
      "ws": 3374,
      "Ð°ÐµÐ²": 3375,
      "ÑĮÐ¼Ð¸": 3376,
      "ĠÐ½Ð¾Ð¶": 3377,
      "ĠÐ²ÐµÑī": 3378,
      "ĠÐ´Ð¸ÑĢ": 3379,
      "ĠÐ¼Ñĥ": 3380,
      "ÑĢÐ¸ÑĤ": 3381,
      "ÑĢÐ¸Ð·": 3382,
      "Ð¾Ð»Ð¸Ðº": 3383,
      "ĠÐ·Ð°Ñı": 3384,
      "Ð¾Ð´Ð½Ð¾": 3385,
      "Ð°Ð¼Ð°": 3386,
      "Ð½ÑĥÐ¶": 3387,
      "Ð¾ÑĢÑĭ": 3388,
      "Ð¾Ð½ÑĮ": 3389,
      "ĠÐ¿ÑĢÐ¾ÑĩÐ¸ÑĤ": 3390,
      "ĠÐ¿ÑĢÐ¸ÑıÑĤ": 3391,
      "ĠÐ¿ÑĢÐ¸Ð½Ð¸Ð¼": 3392,
      "ĠÐ¿ÑĢÐ¸ÐºÐ¾Ñģ": 3393,
      "ĠÐ²ÑĭÐ¶": 3394,
      "ĠÑģÑĤÑĢÐµÐ¼": 3395,
      "ĠÐ¿Ð¾Ð´Ð´ÐµÑĢÐ¶": 3396,
      "ĠÐŁÑĢÐ¾ÑĦÐµÑģÑģÐ¾ÑĢ": 3397,
      "ĠÐĶÐ»Ñı": 3398,
      "ĠÐ¡Ð°Ð»Ð»Ð¸Ð²Ð°Ð½": 3399,
      "ĠÑģÐ¿Ð°ÑĤÑĮ": 3400,
      "ĠÑģÐ¿ÑĥÑģÐº": 3401,
      "ÑģÐ»ÑĥÑĪ": 3402,
      "ĠÐ¿ÐµÑĢÐµÐ¼": 3403,
      "ĠÐĳÑĥÐ´": 3404,
      "ĠÐ²Ð·ÑĢÐ¾ÑģÐ»": 3405,
      "ĠÑĢÐ°ÑģÐºÑĢÑĭ": 3406,
      "ĠÑĢÑĥÐºÐ°": 3407,
      "Ð¾Ð²Ð°ÑĤÐ¾": 3408,
      "ÑįÑĤ": 3409,
      "ĠÐ½Ð°Ð´ÐµÐ¶": 3410,
      "ĠÐ·Ð°ÐºÐ¾Ð½": 3411,
      "ĠÑĥÐ´Ð¾Ð±": 3412,
      "ÐĹÐ½Ð°ÑĩÐ¸ÑĤ": 3413,
      "ĠÑħÐ¾ÑĤÐ¸ÑĤÐµ": 3414,
      "Ð½Ð¾Ð²ÑĢÐµÐ¼ÐµÐ½Ð½Ð¾": 3415,
      "ĠÐ·Ð°Ð¿Ð°Ñħ": 3416,
      "ĠÐ½Ð°ÑĩÐ°ÑĤÑĮ": 3417,
      "ĠÐ²Ð¿Ð¾Ð»": 3418,
      "ĠÐ¿ÑĥÑģÑĤÑĮ": 3419,
      "ĠÐ¿ÑĢÐ¾ÑĪÐ»": 3420,
      "Ð½ÑİÑİ": 3421,
      "ĠÑĤÑĢÐ¸Ð´ÑĨ": 3422,
      "ĠÐ¼ÑĥÐ¶ÑĩÐ¸Ð½Ð°": 3423,
      "ĠÐ²Ð·Ð´ÑĢÐ¾Ð³": 3424,
      "ĠÑĤÐ¾ÑĢÐ³Ð¾Ð²": 3425,
      "ĠÐºÐ½Ð¸Ð³Ñĥ": 3426,
      "ĠÐ¾ÑĤÐ´ÑĭÑħ": 3427,
      "ĠÑĤÑĢÑĥÐ´Ð¾Ð¼": 3428,
      "ĠÐ¾Ð±ÑīÐµÐ¼": 3429,
      "ĠÐ¼Ð¸Ð»ÑĭÐ¹": 3430,
      "ĠÑĤÑıÐ¶ÐµÐ»Ð¾": 3431,
      "ĠÑģÐºÐ¾ÑĢÐµÐµ": 3432,
      "ĠRu": 3433,
      "ĠÐĿÑĥÐ¶Ð½Ð¾": 3434,
      "ĠÐ¿Ð¾Ð»ÑĥÑĪÐ°ÑĢÐ¸Ð¹": 3435,
      "Win": 3436,
      "ĊĊĉ": 3437,
      "ĠâĢ¦": 3438,
      "ÑĢÐµÑģÑĤ": 3439,
      "Ð»ÐµÐ½Ð¸ÐµÐ¼": 3440,
      "ĠÐ¿Ð°Ð´": 3441,
      "ĠÐ½Ð°Ð½": 3442,
      "ĠÑģÐ¾Ðº": 3443,
      "ĠÑģÐºÑĥ": 3444,
      "ÐºÐ°Ð½": 3445,
      "ĠÐ¾ÑĤÐ¾ÑĢ": 3446,
      "ĠÐ´Ð¾Ð¿Ð¾Ð»": 3447,
      "ÑĢÐ¸ÑĤÐµÐ»ÑĮÐ½Ð¾": 3448,
      "ĠÐ±ÑĥÑĢ": 3449,
      "Ð°ÐºÐ¾Ð²": 3450,
      "ÑĢÐ¾ÑĤÐ¸Ð²": 3451,
      "ÐµÐ¼ÑģÑı": 3452,
      "ĠÐ¿Ð¾ÑıÑģ": 3453,
      "ĠÐ¿Ð¾Ð½ÑıÑĤÑĮ": 3454,
      "ĠÐ¿Ð¾ÐµÐ·Ð´": 3455,
      "Ð½ÑĥÐ»Ð¾": 3456,
      "Ð¾Ð³Ð°": 3457,
      "ÑĳÐ³": 3458,
      "ĠÐ»ÐµÐ¹ÑĤÐµÐ½Ð°Ð½ÑĤ": 3459,
      "ÑĢÑĥÐ³Ð¾": 3460,
      "ĠÐĴÑģÑĳ": 3461,
      "ÑĥÐ´Ñı": 3462,
      "ĠÐ½Ð¾ÑĥÑĤÐ±": 3463,
      "ĠÐĺÐ¼": 3464,
      "ĠÑĪÐµÐ¿": 3465,
      "ĠÐłÐ°Ñģ": 3466,
      "ĠÐ±ÑĥÐ´ÐµÑĪÑĮ": 3467,
      "ĠÑĦÐ°Ðº": 3468,
      "ĠÑĦÐ¸Ð³": 3469,
      "ĠÐºÐ¾Ð½ÑĨÐ°": 3470,
      "ÑĢÐµÐ´Ð¾ÑĤÐ¾Ñĩ": 3471,
      "ĠÐ½Ð¸ÐºÐ¾Ð³Ð¾": 3472,
      "ĠÐ´ÐµÐ²ÑĩÐ¾Ð½": 3473,
      "ĠÐ½Ð¾Ð²ÑĭÐµ": 3474,
      "ĠÑĥÐ²Ð¸Ð´ÐµÑĤÑĮ": 3475,
      "ĠÐ½Ð°ÑĪÐµÐ¹": 3476,
      "ĠÐ³Ð¾Ð»Ð¾ÑģÐµ": 3477,
      "ĠÐ´Ð¾Ð»Ð¶Ð½Ð°": 3478,
      "ĠÐ¿Ð¾ÑģÐ»ÐµÐ´Ð½Ð¸Ð¹": 3479,
      "Ð¾Ð¶Ð´ÐµÐ½Ð¸Ñı": 3480,
      "ĠÐ¿ÑĭÑĤÐ°Ð»ÑģÑı": 3481,
      "ĠÐ½Ð°Ð¹Ð´": 3482,
      "ĠÐºÐ½Ð¸Ð¶": 3483,
      "ĠÐ½Ð°ÑģÑĤÐ¾Ð»ÑĮÐºÐ¾": 3484,
      "ĠÐ½ÐµÐ¿ÑĢÐ¸ÑıÑĤÐ½Ð¾": 3485,
      "ĠÐ°ÐºÐºÑĥ": 3486,
      "ĠÐ¿Ð¾Ð¹Ð¼": 3487,
      "ĠÐ¾Ð¶Ð¸Ð´": 3488,
      "ĠÑģÐ»ÐµÐ´ÑĥÑİÑīÐ¸Ð¹": 3489,
      "ĠÐĵÑĢÐ¸ÑĦÐ¾Ð½": 3490,
      "ĠÐ·Ð°ÐºÐ»Ð¸Ð½Ð°Ð½Ð¸Ðµ": 3491,
      "ĠÐ²Ð½ÐµÑĪ": 3492,
      "ĠÑĤÐ²Ð¾Ð¹": 3493,
      "ĠÐ¾Ð±Ð¾ÑĢÑĥÐ´": 3494,
      "ĠÐŁÐ¾Ð¼ÑĦÑĢÐ¸": 3495,
      "ĠÐ±ÑĭÑģÑĤÑĢÐµÐµ": 3496,
      "dows": 3497,
      "Windows": 3498,
      "ÑĢÑĥÐ³Ð¾Ðµ": 3499,
      "ro": 3500,
      "Ġ3": 3501,
      "ÑĢÐ²": 3502,
      "ĠÑģÐ¾Ð´": 3503,
      "ĠÑģÐ°Ð¼Ð¸": 3504,
      "ĠÑģÑĥÐ¼": 3505,
      "ĠÑģÐ½Ð°ÑĩÐ°Ð»Ð°": 3506,
      "ÐºÐ°Ðº": 3507,
      "ĠÐ²ÑĢÐ¾Ð´Ðµ": 3508,
      "Ð¼Ð¾Ñģ": 3509,
      "ĠÐºÐ²Ð¸Ð´": 3510,
      "ĠÐºÐ²Ð°ÑĢÑĤÐ¸": 3511,
      "ĠÐ¼ÐµÐ½": 3512,
      "ĠÐ¼Ð°Ð´Ð°Ð¼": 3513,
      "Ð¿Ð¾Ñģ": 3514,
      "ÐµÐ»Ðµ": 3515,
      "ÐµÐ»Ð¾ÑģÑĮ": 3516,
      "ĠÑĤÐ°Ð¹": 3517,
      "ĠÑĤÐµÑģÑĤ": 3518,
      "Ð¹ÑĦ": 3519,
      "Ð°ÑĢÑĮ": 3520,
      "Ð¸ÑĤÐ°": 3521,
      "ÐºÐ¸Ð¿": 3522,
      "ĠÐ¿ÑĢÐ¸Ð¼": 3523,
      "ĠÐ¶Ð¸ÑĤÑĮ": 3524,
      "ĠÑģÑĤÐ°Ðº": 3525,
      "Ð¸Ð¼ÑĭÐµ": 3526,
      "ĠÐ¸Ð·Ð¼": 3527,
      "ÐµÑĩÐ°ÐµÐ²": 3528,
      "ĠÐ¡Ð°Ð»": 3529,
      "ĠÐ¡ÐµÐ¹ÑĩÐ°Ñģ": 3530,
      "ÐµÐ¿Ð°Ñħ": 3531,
      "ÑģÐºÐ¾Ð¼": 3532,
      "ĠÐºÐ¾ÑĦÐµ": 3533,
      "ÑĢÐ¾Ð²Ð°Ð»": 3534,
      "ĠÑĪÑĤÑĥ": 3535,
      "Ð¸Ð·Ð¸": 3536,
      "ĠÑĢÑĥÐº": 3537,
      "ĠÐ¿Ð»Ð¾ÑĤ": 3538,
      "ÑĩÐµÑģÐºÐ¾Ð³Ð¾": 3539,
      "ĠÐ·Ð½Ð°ÑĤÑĮ": 3540,
      "ĠÐ½Ð°Ð¿Ð¸Ñģ": 3541,
      "ĠÐ¿Ð°ÑĢÐµÐ½ÑĮ": 3542,
      "ĠÐ±ÐµÐ·Ð¾Ð¿Ð°Ñģ": 3543,
      "ĠÐ±Ð¾Ð»Ð¸": 3544,
      "ĠÑĥÐ±Ð¸Ð¹": 3545,
      "ĠÑĥÐ¼Ð°": 3546,
      "ĠÑĥÐ²Ð¸Ð´ÐµÐ»Ð°": 3547,
      "ĠÐºÐ¾Ð»Ð»ÐµÐ³": 3548,
      "ĠÐ¿ÑĢÐ¾Ð±Ð¾ÑĢÐ¼": 3549,
      "ĠÐ¿Ð¾ÑıÐ²Ð¸Ð»ÑģÑı": 3550,
      "ÐµÑĢÐ²ÑĭÐµ": 3551,
      "ÑıÑīÐµÐ¹": 3552,
      "ĠÐ¾Ð±Ð¾Ð»Ð¾ÑĩÐºÐ¸": 3553,
      "ÑĩÐµÑģÑĤÐ²Ð¾": 3554,
      "ÑĢÐ¾ÑģÑĤÑĢÐ°Ð½": 3555,
      "ĠÐ¿ÑĢÐ¸Ð´ÑĥÐ¼": 3556,
      "ĠÑĥÐ¶Ð°ÑģÐ½Ð¾": 3557,
      "ÐŁÐ¾ÑģÐ»Ðµ": 3558,
      "ÑĢÐ¾ÑħÐ¸Ð¼Ð¸": 3559,
      "ÐµÐ½ÐµÑĢÐ°Ð»": 3560,
      "ÐļÐ»Ð°ÑģÑģÐ¸ÐºÐ°": 3561,
      "ĠÑĢÐ¾Ð´Ð¸ÑĤÐµÐ»ÐµÐ¹": 3562,
      "ĠÑģÐ¼Ð¾ÑĤÑĢÐ¸ÑĪÑĮ": 3563,
      "ĠÑĥÑģÐ¼ÐµÑħÐ½ÑĥÐ»ÑģÑı": 3564,
      "ac": 3565,
      "ĠL": 3566,
      "Ð½Ð°Ð»Ð°": 3567,
      "ĠÑģÐ»Ð¸Ð·": 3568,
      "ÑĩÐºÐ¸": 3569,
      "Ð¼Ð¾Ð²": 3570,
      "ĠÐ¾ÑģÐ¼Ð¾ÑĤÑĢ": 3571,
      "ÐµÐ½Ñĩ": 3572,
      "ÑħÑĥ": 3573,
      "Ð¾Ð²Ð°Ð»Ð¸": 3574,
      "Ð¾Ð²Ð°Ð»Ð¾": 3575,
      "ĠÐ´Ðµ": 3576,
      "ÑĢÐ¸Ð¼ÐµÑĢ": 3577,
      "ĠÐ±Ð»Ð¸Ð¶Ð°Ð¹": 3578,
      "ĠÐ·Ð»Ð¾": 3579,
      "ĠÑĩÐµÐº": 3580,
      "ĠÑĢÐµÐ²": 3581,
      "ÐµÐ¼ÑĮ": 3582,
      "ĠÐ½ÐµÑĩÑĤÐ¾": 3583,
      "ĠÐ¿Ð¾ÑģÑĤÐ°Ð²": 3584,
      "Ð»Ð¸Ð¿": 3585,
      "ÑīÐµÐ¹": 3586,
      "Ð³Ð½ÑĥÐ»": 3587,
      "ĠÐ³Ð°ÑĢ": 3588,
      "ĠÐ³ÑĢÐ¸ÑĦ": 3589,
      "ĠÐ¾ÑĤÐ´Ð°Ð»": 3590,
      "ĠÐ¾Ð±Ð¾": 3591,
      "ĠÐ¿Ð¾Ð´Ð¾ÑĪÐµÐ»": 3592,
      "ÐµÐ·Ð°Ð¿": 3593,
      "Ð¾Ð·Ñı": 3594,
      "ĠÐĴÐ¾Ð·Ð¼Ð¾Ð¶Ð½Ð¾": 3595,
      "ĠÑģÐ²Ð¸Ð´": 3596,
      "ÑĨÐ¸ÐµÐ¹": 3597,
      "ĠÑģÐ²Ð¾ÐµÐ¼": 3598,
      "ĠÐ´Ð¾ÑģÑĤÐ°Ð²": 3599,
      "ĠÐ³Ð¾Ð»Ð¾Ð²Ð°": 3600,
      "ĠÐ²Ð¾Ð·ÑĢÐ°Ð·": 3601,
      "ĠÐ¼ÑĭÑĪ": 3602,
      "ĠÐ¾Ð¿Ð¸Ñģ": 3603,
      "ĠÐ»ÑİÐ±Ð¸ÑĤ": 3604,
      "ĠÑģÐ¾Ð²ÐµÑĤ": 3605,
      "ĠÑħÐ¾ÑĤÐµÐ»Ð°": 3606,
      "ĠÐ±Ð¾Ð»ÐµÐ·": 3607,
      "ÐĳÑĥÐ´": 3608,
      "ĠÐ¿ÑĥÑĤÐ¸": 3609,
      "ĠÐ¿ÐµÑĢÐ²Ð¾Ð¹": 3610,
      "ĠÐ´ÐµÐ½ÑĮÐ³Ð¸": 3611,
      "ĠÑĥÑģÐ»Ð¾Ð²": 3612,
      "ĠÐºÐ¾Ð¼Ð½Ð°ÑĤÑĭ": 3613,
      "ĠÐ½Ð¾ÑĩÑĮÑİ": 3614,
      "ĠÐ¾ÑīÑĥÑīÐµÐ½Ð¸Ðµ": 3615,
      "ĠÐ¾ÑīÑĥÑīÐµÐ½Ð¸Ñı": 3616,
      "ĠÐºÑĢÑĥÐ¿": 3617,
      "ĠÐ½Ð°Ð²ÐµÑĢÐ½ÑıÐºÐ°": 3618,
      "ĠÐºÑĥÑĢÑģ": 3619,
      "ĠÐºÐ¾ÑĢÐ°Ð±Ð»Ñı": 3620,
      "ĠÐ°ÐºÑĤÐ¸Ð²": 3621,
      "ĠÑģÐ¸Ð³Ð½Ð°Ð»": 3622,
      "ĠÑģÑĩÐ°ÑģÑĤ": 3623,
      "ĠÐ¸Ð³ÑĢÐ°Ð»": 3624,
      "ĠÐ¿ÑĢÐ¸ÑģÑĥÑĤÑģÑĤÐ²": 3625,
      "ĠÐ¾ÑĤÐ½Ð¾ÑĪÐµÐ½Ð¸Ñı": 3626,
      "ĠÐ¼Ð¸ÑģÑģÐ¸Ñģ": 3627,
      "ÐµÑĢÑĨÐ¾Ð³": 3628,
      "ĠÐºÐ²Ð¸Ð´Ð´Ð¸": 3629,
      "st": 3630,
      "Ð½Ð°Ð¼": 3631,
      "ÑĥÐºÐ¸": 3632,
      "ĠÐ¿ÐµÑĩ": 3633,
      "ĠÑģÐºÐ¸": 3634,
      "ĠÑģÐµÑĢÐ¸": 3635,
      "ÑĩÐ°ÑģÑĤ": 3636,
      "Ð¼Ð¾Ð¶": 3637,
      "Ð¼Ð°Ñħ": 3638,
      "Ð¾Ð²Ð°Ð½Ð¸Ñı": 3639,
      "ÐµÑĢÐµÐ·": 3640,
      "ĠÐ´Ð¶": 3641,
      "ĠÐ´Ð¸Ð²": 3642,
      "ĠÐ´Ð°Ð²Ð°Ð¹": 3643,
      "ĠÐ¼ÑĥÑģ": 3644,
      "ĠÑĤÑĢÐ¾": 3645,
      "Ð¾Ð»Ð¾": 3646,
      "Ð°Ð½Ð°Ð²Ð»Ð¸Ð²": 3647,
      "ĠÐ¿Ð¾ÑĪÐµÐ»": 3648,
      "Ð¾ÑĤÑĭ": 3649,
      "Ð°ÑĤÐµ": 3650,
      "Ð°ÑĤÐ¾Ð²": 3651,
      "ĠÐ»Ð°Ð´": 3652,
      "ÐµÐ½Ð¸ÑĤÑĮ": 3653,
      "ĠÐ¿ÑĢÐ¾Ð½Ð¸Ðº": 3654,
      "ĠÐ¿ÑĢÐ¸Ð½ÐµÑģ": 3655,
      "ĠÐ²ÑĭÑĤÐ°Ñī": 3656,
      "Ð»ÑıÑĤÑĮ": 3657,
      "ĠÐĶÑĥÑĢ": 3658,
      "ĠÑħÐ»Ð¾Ð¿": 3659,
      "Ð¸Ð´Ð¸Ð¼": 3660,
      "ĠÐ¡Ð¼Ð¸ÑĤ": 3661,
      "ĠÐ·Ð°ÑģÑĤÐ°Ð²": 3662,
      "ÑĪÐ¸Ð¼Ð¸": 3663,
      "Ð°Ð»ÑĮÑĪÐµ": 3664,
      "ÐµÐ¿ÑĤÑĥ": 3665,
      "ĠÑģÐºÐ»Ð¾Ð½": 3666,
      "ÐŀÐ³Ð¾": 3667,
      "ĠÐľÐµÐ½Ñı": 3668,
      "ÐĴÑģÑĳ": 3669,
      "ĠÑģÑĤÐ¾Ð»ÑĮÐºÐ¾": 3670,
      "ĠÑĦÑĥÑĤÐ±Ð¾Ð»": 3671,
      "ĠÐ²Ð¸Ð´Ð½Ð¾": 3672,
      "ĠÑģÐ¾Ð¾ÑĤ": 3673,
      "ĠÑģÐ¾ÑħÑĢÐ°Ð½": 3674,
      "ĠÐ´ÑĢÑĥÐ³Ð¾Ð¼": 3675,
      "ĠÐ´ÑĢÑĥÐ³Ð¸Ñħ": 3676,
      "Ð½Ð¾Ð²ÑĮ": 3677,
      "ĠÐ½Ð°ÑĩÐ°Ð»Ð¸": 3678,
      "ĠÐ±Ð»ÐµÐ´": 3679,
      "ĠÑģÐ¾ÑģÑĢÐµÐ´Ð¾ÑĤÐ¾Ñĩ": 3680,
      "ĠÐ¿ÑĢÐ¾Ð´Ð¾Ð»Ð¶Ð¸Ð»": 3681,
      "ĠÐºÑĢÐ¾Ð²Ð°ÑĤÑĮ": 3682,
      "ĠÐ·Ð°Ð³ÑĢÑĥÐ·": 3683,
      "ĠÐ²Ð¼ÐµÑģÑĤÐ¾": 3684,
      "ĠÐ²Ð½Ð¸Ð¼Ð°Ð½Ð¸Ðµ": 3685,
      "ĠÐ¿Ð¾ÑĤÑĢÑıÑģ": 3686,
      "ĠÐ¾Ð±ÑĢÐ°Ð·Ð¾Ð¼": 3687,
      "ĠÐ¸Ð½ÑĦÐ¾ÑĢÐ¼Ð°ÑĨÐ¸Ñİ": 3688,
      "ĠÐ±Ð°Ð±ÑĥÑĪÐºÐ°": 3689,
      "ĠÐ¼Ð¾Ð·Ð³": 3690,
      "ĠÑģÐ¾ÑĢÐ¾Ðº": 3691,
      "ĠÐ¿Ð¾ÑĤÑĢÐµÐ±": 3692,
      "ĠÐ²ÑĭÑģÑĤÑĢÐµÐ»": 3693,
      "ĠÐ¿ÑĢÐµÐ¶Ð´Ðµ": 3694,
      "ĠÐ¿ÑĢÐ¸Ð½ÑıÐ»ÑģÑı": 3695,
      "ĠÐ¿Ð»Ð°Ð½ÑĪÐµÑĤ": 3696,
      "ĠÐ¥Ð°ÑĢÐ»Ð°Ð½Ðµ": 3697,
      "ĠÐĵÑĢÐµÐ¹Ð½Ð´Ð¶ÐµÑĢ": 3698,
      "ĠÐ°ÐºÐºÑĥÑĢÐ°ÑĤ": 3699,
      "?Â»": 3700,
      "ĠG": 3701,
      "ĠN": 3702,
      "ÐµÑıÐ»ÑģÑı": 3703,
      "ÑĢÐ°Ð»Ð°": 3704,
      "ÑĢÐµÐº": 3705,
      "Ð½Ð°Ð´ÑĨ": 3706,
      "Ð»ÐµÐ¶": 3707,
      "Ð»ÑĥÐ±": 3708,
      "ĠÐ²Ð²ÐµÑĢÑħ": 3709,
      "ÑĪÐµÐ¼Ñĥ": 3710,
      "ÐµÐ½Ð½Ð¾Ð¼": 3711,
      "ĠÐ´ÑĭÑĪ": 3712,
      "Ð°Ð½Ð½Ð°Ñı": 3713,
      "ĠÑĢÐµÐº": 3714,
      "Ð¾Ð³Ð¾Ð²Ð¾ÑĢÐ¸": 3715,
      "ĠÑıÑģÐ½Ð¾": 3716,
      "ĠÐ¿ÑĢÐ¸Ð³Ð¾ÑĤÐ¾Ð²": 3717,
      "ÑģÑĤÐ²Ð¸Ñı": 3718,
      "ĠÐ¿Ð¾Ð´Ð¿": 3719,
      "ĠÐĿÐ°ÐºÐ¾Ð½ÐµÑĨ": 3720,
      "ĠÐ°Ð¿": 3721,
      "ÐĶÐ°Ð²Ð°Ð¹": 3722,
      "ĠÑģÐ²ÐµÑĤÐµ": 3723,
      "ÑĥÐ´Ð¸": 3724,
      "Ð¡ÐµÐ¹ÑĩÐ°Ñģ": 3725,
      "ÐµÐ¶Ð°ÑĤÑĮ": 3726,
      "ĠÐ»Ð¸ÑĩÐ½Ð¾": 3727,
      "ÐµÐ»Ð°ÑģÑĮ": 3728,
      "ĠÐ¼Ð¾Ð¸Ñħ": 3729,
      "ĠÐ¿Ð»Ð°ÑĤ": 3730,
      "ÑįÐ´": 3731,
      "ÑĩÐµÑģÐºÐ¾Ðµ": 3732,
      "ĠÐ·Ð°ÐºÐ°Ð·": 3733,
      "ĠÐ¿Ð¾Ð²ÑĢÐµÐ¶Ð´": 3734,
      "ĠÑĥÐ´ÐµÑĢÐ¶": 3735,
      "ĠÐ³Ð»Ð°Ð·Ð°Ñħ": 3736,
      "Ð¥Ð°": 3737,
      "ÐĳÐ°Ð½ÐºÑĢÐ¾ÑĦ": 3738,
      "ÑģÑĤÐ²ÐµÐ½Ð½ÑĭÑħ": 3739,
      "ÑĮÑİÑĤÐµÑĢ": 3740,
      "ĠÑĥÑģÐ¿ÐµÑħ": 3741,
      "ĠÐ½Ð°ÑĪÐµÐ³Ð¾": 3742,
      "Ð½Ð°ÑĩÐµ": 3743,
      "ĠÐ½ÐµÐ²Ð¾Ð·Ð¼Ð¾Ð¶Ð½Ð¾": 3744,
      "ĠÑĤÐµÑħÐ½Ð¾Ð»Ð¾Ð³Ð¸": 3745,
      "ĠÐ¿ÑĢÐ¸Ð±Ð»Ð¸Ð¶": 3746,
      "ĠÐ¡Ð¸ÑĢÐ¸ÑĥÑģÐ°": 3747,
      "ĠÐ¿Ð¾ÑĤÐ¾Ðº": 3748,
      "Ð¿ÐµÑĢÐ°ÑĤ": 3749,
      "ĠÐ¸ÑģÑĩÐµÐ·Ð»Ð°": 3750,
      "ĠÑģÐµÑģÑĤÑĢÐ°": 3751,
      "ĠÐ¾Ð±ÑĭÑĩÐ½Ð¾": 3752,
      "ĠÐ¿Ð°Ð¼ÑıÑĤÐ¸": 3753,
      "ĠÐ¼Ð°Ð¼Ð°": 3754,
      "ĠÐ¼Ð¾Ð¶ÐµÐ¼": 3755,
      "ĠÐ±Ð»Ð°Ð³Ð¾Ð´Ð°ÑĢ": 3756,
      "ĠÐ²Ð½ÑĥÑĤÑĢÑĮ": 3757,
      "ÐĿÐµÐ¼ÐµÐº": 3758,
      "ĠÐºÐ°ÑĩÐµ": 3759,
      "ĠÐĿÐ°Ð²ÐµÑĢÐ½Ð¾Ðµ": 3760,
      "ĠÐ¾ÑīÑĥÑĤÐ¸Ð»": 3761,
      "ĠÐ½Ð¾ÑĥÑĤÐ±ÑĥÐº": 3762,
      "!?": 3763,
      "ÑĤÑĢÐ¸": 3764,
      "Ð¸ÑīÐµ": 3765,
      "Ð»Ð°Ð¹": 3766,
      "ÑıÐµÑĤ": 3767,
      "ÑĭÐ½": 3768,
      "ÑĭÐ¿": 3769,
      "ÑĭÐ»Ð¸": 3770,
      "ĠÑģÑĢÐ°Ð²": 3771,
      "ĠÐ²Ð¾ÑĢÐ¾": 3772,
      "ĠÐ²Ð½ÑĥÑĤÑĢÐ¸": 3773,
      "Ð²Ð¸Ð¶": 3774,
      "Ð´Ð½Ð¾": 3775,
      "Ð°Ð»ÐµÐº": 3776,
      "ÐµÐ½ÑĤÑĭ": 3777,
      "ÐµÑĢÐ¸Ð½": 3778,
      "ĠÐ´ÑĢÑĥÐ³Ð¾Ðµ": 3779,
      "ĠÐ¼ÐµÐ»ÑĮ": 3780,
      "ĠÑĤÑī": 3781,
      "Ð°Ð½Ð½ÑĭÐ¼": 3782,
      "ĠÐ½Ð°ÑģÑĤ": 3783,
      "ĠÑĢÑĥÑĩ": 3784,
      "ĠÐ¿Ð¾Ð¾Ð±": 3785,
      "Ð°Ð¼ÐµÑĤ": 3786,
      "Ð°Ð²Ð°": 3787,
      "Ð¾ÑĢÑī": 3788,
      "ÐµÐ´Ð»ÐµÐ½Ð½Ð¾": 3789,
      "ĠÐ»ÐµÑģ": 3790,
      "ÑĢÑĥÐ±": 3791,
      "ĠÐ¿ÑĢÐ¾ÑĪÐµÐ»": 3792,
      "ĠÐĵÐµÑĢÑĨÐ¾Ð³": 3793,
      "ĠÐ¾Ð±Ð°": 3794,
      "ĠÐ¾Ð±Ðµ": 3795,
      "ĠÐ¾Ð±ÐµÑģÐ¿": 3796,
      "ĠÐŁÐ¾ÐºÐ°": 3797,
      "ĠÐŁÑĢÐ¾ÑģÑĤÐ¾": 3798,
      "ĠÐºÐ°ÐºÑĥÑİ": 3799,
      "ĠÐĶÐµÐ½Ð¸": 3800,
      "ĠÐ°Ð±": 3801,
      "Ð¾Ð»ÑĮÑĪÐµ": 3802,
      "ĠÐŀÑĩÐµÐ½ÑĮ": 3803,
      "ĠÐļÐ°Ð¶ÐµÑĤÑģÑı": 3804,
      "ÐĿÐ°Ð´": 3805,
      "Ð¾ÑĩÐ½Ð¾": 3806,
      "ĠÐĲÐ½": 3807,
      "Ð¡Ðº": 3808,
      "ÑīÐ¸ÐºÐ°": 3809,
      "ÑīÐ¸ÐµÑģÑı": 3810,
      "ÑĥÑĪÐºÐµ": 3811,
      "ĠÑĪÐµÑģÑĤÑĮ": 3812,
      "ĠÑģÐ²Ð¾ÐµÐ¼Ñĥ": 3813,
      "ĠÐ¾Ð´Ð½Ð¾Ð²ÑĢÐµÐ¼ÐµÐ½Ð½Ð¾": 3814,
      "ĠÐĽÐ°Ð´Ð½Ð¾": 3815,
      "ĠÐ´ÐµÐ»Ð°Ð»": 3816,
      "ĠÐ±Ð¾Ð»ÑĮÐ½Ð¾": 3817,
      "ĠÑĥÐ²Ð°Ð¶": 3818,
      "ĠÐ²ÑĢÐµÐ¼ÐµÐ½ÐµÐ¼": 3819,
      "ĠÐķÐ¼Ñĥ": 3820,
      "ĠÐ¾ÐºÐ¾Ð½Ñĩ": 3821,
      "ĠÐ¿ÑĥÑĤÑĮ": 3822,
      "Ð¸ÑĢÐ¾Ð²Ð°Ð»": 3823,
      "ĠÐ¼ÐµÑĤÐ°Ð»Ð»Ð¸": 3824,
      "ĠÑĤÐ²Ð¾ÐµÐ¹": 3825,
      "Ð°ÑİÑīÐ°Ñı": 3826,
      "ĠÐºÑĢÐ¾Ð²Ð¸": 3827,
      "ĠÐ·Ð²ÐµÐ·Ð´": 3828,
      "ĠÐ²Ð¾Ð´Ñĭ": 3829,
      "ĠÑįÐºÐ·": 3830,
      "ÑıÐ¶ÐµÐ»Ð¾": 3831,
      "ĠÐļÐ¾ÑĢÐ¿ÑĥÑģ": 3832,
      "Ð¾Ð¹Ð´ÐµÑĤ": 3833,
      "ĠÑĢÐ°ÑģÑģÐºÐ°Ð·Ð°ÑĤÑĮ": 3834,
      "ĠÐ¼Ð¾Ð»Ñĩ": 3835,
      "ĠÐºÐ¾Ð¼Ð¿Ð»ÐµÐº": 3836,
      "ĠÑĥÐ³Ð¾Ð»": 3837,
      "ĠÐ²ÑĭÐ´Ð¾Ñħ": 3838,
      "ĠÐ°Ð²ÑĤÐ¾Ð¼Ð°ÑĤÐ¸": 3839,
      "ĠÑĪÐºÐ¾Ð»Ðµ": 3840,
      "ĠÐŃÐ»Ð¸Ð¾ÑĤÑĤ": 3841,
      "ĠÐ¼Ð°ÑĪÐ¸Ð½": 3842,
      "ĠÐµÐ·Ð´Ð¸Ð»": 3843,
      "ĠÐ·Ð°ÑıÐ²": 3844,
      "ĠK": 3845,
      "ÐµÐµÑĪÑĮ": 3846,
      "Ð»Ð°Ð¶": 3847,
      "ĠÐ¿Ð°ÑĤ": 3848,
      "ĠÐ²ÐµÑģÑĤÐ¸": 3849,
      "Ð¼Ð¾Ð¼": 3850,
      "ĠÐºÐ¾Ð¶": 3851,
      "ĠÐºÑĥÑĩ": 3852,
      "ĠÐ´ÐµÑĪ": 3853,
      "ĠÐ±ÑĥÑĤ": 3854,
      "Ð³Ð²Ð¸": 3855,
      "ÑĳÐ´": 3856,
      "ĠÑģÑĤÐ¾Ð¹": 3857,
      "ĠÑģÑĤÐ°ÑĤÑĮ": 3858,
      "ĠÐ¿Ð¾Ð´ÑħÐ¾Ð´": 3859,
      "Ð¾ÑģÐº": 3860,
      "Ð°Ð»ÑĮÐ½ÑĭÐ¼": 3861,
      "ÐµÐ³Ð¸Ð½": 3862,
      "ÐĲÐ³Ð°": 3863,
      "Ð»ÑĮÑĦ": 3864,
      "ÑīÐ¸Ð½Ð°": 3865,
      "ĠÑĢÐ°ÑģÑģÑĤ": 3866,
      "ÑĢÑıÑħ": 3867,
      "ÑĩÐ¸ÑģÑĤ": 3868,
      "ĠÐºÐ¾Ð½ÑĤÐ°Ðº": 3869,
      "ĠÐ¿Ð¾ÑģÐ»ÑĥÑĪ": 3870,
      "ÐľÐµÐ½Ñı": 3871,
      "ĠÐ¿Ð¾Ð²Ð¾Ð´Ñĥ": 3872,
      "ÑĥÑģÐµÐ½Ð¸": 3873,
      "Ð°ÑĤÐµÐ»ÑĮÐ½ÑĭÐ¹": 3874,
      "ĠÑĥÑĩÐ°ÑģÑĤ": 3875,
      "ĠÐ³Ð¾Ð²Ð¾ÑĢÐ¸Ð»Ð¸": 3876,
      "Ð¼Ð¾ÐµÐ¼Ñĥ": 3877,
      "ĠÐ¾ÑĩÐµÑĢ": 3878,
      "ĠÑĤÐ²Ð¾Ñı": 3879,
      "Ð°ÑİÑīÐµÐ¹": 3880,
      "ĠÐ¿Ð»ÐµÑĩÐ¸": 3881,
      "ĠÑĩÐ°ÑģÐ°": 3882,
      "ĠÑĢÐ°ÑģÐ¿Ð¾Ð»": 3883,
      "ĠÐ¿Ð¾Ð´ÑĥÐ¼Ð°ÑĤÑĮ": 3884,
      "ĠÐ·Ð°Ð³Ð»Ñı": 3885,
      "ĠÑĥÐ·Ð½Ð°Ð»": 3886,
      "ĠÐ¤Ð¸Ð»": 3887,
      "ĠÐ¾ÐºÐ°Ð·Ð°Ð»Ð¾ÑģÑĮ": 3888,
      "ĠÐ½Ð°ÑħÐ¾Ð´Ð¸ÑĤÑģÑı": 3889,
      "ĠÐºÐ¸Ð²Ð½ÑĥÐ»Ð°": 3890,
      "ĠÐ¿Ð¾Ð¶Ð°Ð»ÑĥÐ¹ÑģÑĤÐ°": 3891,
      "ĠÐºÐ¾Ð¼Ð¿ÑĮÑİÑĤÐµÑĢ": 3892,
      "ĠÐłÐ°Ð¹ÐºÐµÑĢÐ°": 3893,
      "ÐĺÐ½Ð¾Ð³Ð´Ð°": 3894,
      "ĠÐĺÐ½Ð³Ð²Ð¸": 3895,
      "ĠÐ¾ÑĤÑģÑĥÑĤÑģÑĤÐ²": 3896,
      "ĠÑĢÐµÐ±ÑıÑĤ": 3897,
      "ĠÐ²ÐµÑģÐµÐ»Ð¾": 3898,
      "ĠÐ¥Ð¾Ð³Ð²Ð°ÑĢÑĤÑģÐµ": 3899,
      "ĠÐ³ÑĢÐ¾Ð¼ÐºÐ¾": 3900,
      "ÑĥÐ¶Ð´ÐµÐ½Ð¸Ðµ": 3901,
      "ĠÐ¶Ð´Ð°ÑĤÑĮ": 3902,
      "ĠÐĵÑĢÐ¸ÑĦÑĦÐ¸Ð½Ð´Ð¾ÑĢ": 3903,
      "ĠÐļÐ°Ð´Ð¼Ð¸Ð½": 3904,
      "ĠÑĢÐ°Ð´Ð¾ÑģÑĤÐ½Ð¾": 3905,
      "ĠÑĥÑģÑĤÐ°Ð²Ð¸Ð»ÑģÑı": 3906,
      "ĠÐ¿Ð¾ÑĢÑıÐ´ÐºÐµ": 3907,
      "ĠÑģÐ¾Ð¼Ð½ÐµÐ²": 3908,
      "ĠÐ²Ð»Ð°Ð´Ñĭ": 3909,
      "ÑģÑĤÐµÑģÑĤÐ²ÐµÐ½Ð½Ð¾": 3910,
      "Ð³Ð¾Ð½Ð°Ð³Ð°Ð»": 3911,
      "Ð´ÐµÑģÑıÑĤ": 3912,
      "ĠÐ²Ð¿Ð¾Ð»Ð½Ðµ": 3913,
      "ĠÐ´Ð¶Ð¸Ð½": 3914,
      "ÑĤÐ¾Ð±": 3915,
      "ÑģÐ»Ñı": 3916,
      "ĠÐ¿Ð»Ð¾Ñħ": 3917,
      "ĠÐ¿Ð»Ð¾Ñī": 3918,
      "ÑĩÑĮ": 3919,
      "ÑĩÑĳÑĤ": 3920,
      "ÐºÑĤ": 3921,
      "ĠÐ²Ð½Ð¾Ð²ÑĮ": 3922,
      "ÐµÐ½Ñģ": 3923,
      "ĠÐ´ÐµÐ´": 3924,
      "ĠÐ´Ð¾Ð½": 3925,
      "ÑĢÐ¸Ð»": 3926,
      "ÑİÑīÐ¸Ð¹": 3927,
      "Ð¸Ð»ÐµÑĤ": 3928,
      "Ð°Ð½ÑĤÑĭ": 3929,
      "ĠÐ½Ð°ÑĪÐ¸Ñħ": 3930,
      "ĠÐ¿Ð¾ÑĢÑĤ": 3931,
      "ĠÐ¿Ð¾Ð¸ÑģÐº": 3932,
      "Ð¹Ð´": 3933,
      "Ð°Ð¼ÐµÐ½": 3934,
      "Ð³Ð°Ð»": 3935,
      "Ð°Ð²Ð°ÑĤÑĮ": 3936,
      "Ð½Ð¸ÐºÑĥ": 3937,
      "ĠÐ³ÑĥÐ»Ñı": 3938,
      "ÐµÐ²Ð¸Ð´Ð½Ð¾": 3939,
      "ĠÐ¾Ð±Ð¸Ð´": 3940,
      "Ð»ÑıÑı": 3941,
      "ĠÐ¶ÑĳÑģÑĤ": 3942,
      "ĠÐ¿Ð¾Ð´Ð³Ð¾ÑĤÐ¾Ð²": 3943,
      "ĠÐŁÑĥ": 3944,
      "ĠÐ°Ð»": 3945,
      "ĠÑħÐ¾Ð·Ñı": 3946,
      "ÑĤÐ¸Ðµ": 3947,
      "ĠÐ·Ð°ÑĩÐµÐ¼": 3948,
      "ĠÑģÐ¿ÑĥÑĤ": 3949,
      "Ð°ÑİÑīÐ¸Ðµ": 3950,
      "ĠÐ¢ÐµÐ¼": 3951,
      "ĠÐ¢ÐµÐ±Ðµ": 3952,
      "ÑĭÐ²Ð°Ð»ÑģÑı": 3953,
      "ÑĨÐ¸Ð¿": 3954,
      "ÑĨÐ¸ÑĦ": 3955,
      "ĠÑģÐ¼ÑĭÑģÐ»": 3956,
      "ĠÑĢÐ°ÑģÑģÑĤÐ¾": 3957,
      "ĠÐ¿Ð»Ð°Ð½Ð¸": 3958,
      "ĠÐ¸Ð¼ÐµÐ»": 3959,
      "ĠÐ´ÑĢÑĥÐ³Ñĥ": 3960,
      "ÑīÑĳÐ½": 3961,
      "ĠÐ²ÐµÑĢÑħ": 3962,
      "ĠÐ¿Ð°ÑĢÐ½Ñı": 3963,
      "ĠÑĢÐ°Ð±Ð¾ÑĤÐ°": 3964,
      "Ð£Ð´": 3965,
      "ĠÐ·Ð½Ð°Ð»Ð°": 3966,
      "ÑĩÐµÑģÐºÐ¸Ð¼": 3967,
      "ĠÐ¿Ð¾Ð»ÑĥÑĩÐ¸ÑĤÑĮ": 3968,
      "Ð»ÐµÐ½Ð½ÑĭÐ¹": 3969,
      "ĠÐ½ÐµÐ´ÐµÐ»Ñİ": 3970,
      "ĠÐºÐ°ÑĢÑĤÐ¸": 3971,
      "ĠÐ³Ð¾Ð»Ð¾ÑģÐ¾Ð¼": 3972,
      "ĠÐ¾ÑĩÐºÐ¾Ð²": 3973,
      "ĠÑĢÐ¾Ð´Ð°": 3974,
      "ĠÐ²ÑĭÐ¿Ð¾Ð»": 3975,
      "ÑıÑīÐµÐ³Ð¾": 3976,
      "ĠÑģÑĤÑĢÐ¾Ð³Ð¾": 3977,
      "ĠÐ¸Ð´ÑĳÑĪÑĮ": 3978,
      "ĠÐ¸ÑģÐºÑĢÐµÐ½": 3979,
      "ÐŀÐ±Ðµ": 3980,
      "ĠÐ¾ÑģÑĤÐ°Ð½Ð¾Ð²Ð¸Ð»ÑģÑı": 3981,
      "ĠÐ´ÐµÑģÑıÑĤ": 3982,
      "ĠÐłÐ°Ð·Ð²Ðµ": 3983,
      "ĠÑĥÐ»Ð¸ÑĨÑĥ": 3984,
      "ĠÐ¿ÑĢÐ¸ÑħÐ¾Ð´Ð¸Ð»Ð¾ÑģÑĮ": 3985,
      "ĠÐ·Ð°ÑħÐ¾ÑĤ": 3986,
      "ĠÑģÐ¼ÐµÑĢÑĤÐ¸": 3987,
      "ĠÐĽÑĥÐ½Ð°": 3988,
      "ĠÐ¿ÑĢÐ¾ÑĨÐµÑģÑģ": 3989,
      "ĠÑģÐ¾Ð·Ð½Ð°Ð½Ð¸Ðµ": 3990,
      "ĠÐ²Ð½ÑĥÑĤÑĢÐµÐ½": 3991,
      "ĠÑģÐ»Ð°Ð±Ð¾": 3992,
      "ĠÑģÐ¼ÐµÑħÐ°": 3993,
      "ĠÐ¿Ð¾ÐºÐ°ÑĩÐ°Ð»": 3994,
      "ĠÐ¾Ð³Ð¾Ð½ÑĮ": 3995,
      "ĠÐĽÐ¸Ð´Ð¸Ñı": 3996,
      "ĠÐ´Ð¾Ð¿Ð¾Ð»Ð½Ð¸ÑĤÐµÐ»ÑĮ": 3997,
      "ÐĳÐ°Ð½ÐºÑĢÐ¾ÑĦÑĤ": 3998,
      "nd": 3999,
      "Ġi": 4000,
      "Ð¸ÑĨÐ¸": 4001,
      "ĠÑĤÑĢÐ°Ð²": 4002,
      "Ð¾Ð»ÐµÐ½": 4003,
      "ĠÑĥÑģÑĤÑĢÐ¾Ð¹": 4004,
      "ĠÐ½Ð°ÑĢÑĥÑĪ": 4005,
      "ÑīÐ°Ñı": 4006,
      "Ð³Ðµ": 4007,
      "ĠÐ¾ÑĤÑĢÑĭÐ²": 4008,
      "ĠÐ»ÑĮ": 4009,
      "ĠÐ¿ÑĢÐ¾Ñī": 4010,
      "ĠÐ²ÑĭÑĤÑı": 4011,
      "ĠÐ²ÑĭÑıÑģ": 4012,
      "Ð¸Ð½ÑĤÐµÑĢÐµÑģ": 4013,
      "ĠÐ¾Ð±ÐµÐ´": 4014,
      "ĠÐ¿Ð¾Ð´ÐºÐ»ÑİÑĩ": 4015,
      "ĠÐĿÐµÑĩÐ°ÐµÐ²": 4016,
      "ÐµÐ·Ð»Ð¾": 4017,
      "ĠÑħÑĥÐ´": 4018,
      "ĠÐ¡ÑĥÐ´Ñı": 4019,
      "Ð½ÐµÑģÑĤÐ¸": 4020,
      "ĠÑģÐ¿Ð°Ð»": 4021,
      "ĠÑģÐ¿Ð¾ÑĢ": 4022,
      "ÑĥÑĩÐ¸ÑĤ": 4023,
      "Ð°Ð¿Ñĭ": 4024,
      "ĠÐ¿ÐµÑĢÐµÐ³": 4025,
      "ĠÐºÐ¾ÑģÑĤ": 4026,
      "Ð¸Ð·Ð°Ð¹": 4027,
      "ĠÑģÐ¼Ð¾Ð¶ÐµÑĤ": 4028,
      "ĠÐ²Ð·ÑıÑĤÑĮ": 4029,
      "Ð¾Ð²Ð¾Ðµ": 4030,
      "ĠÐ¾Ð´ÐµÐ¶": 4031,
      "ĠÐ¿Ð¾ÐºÑĢÑĭ": 4032,
      "ĠÐŃÐ´": 4033,
      "ĠÐ¿ÑĢÐµÐ´Ð¿Ð¾Ñĩ": 4034,
      "ĠÐ¿Ð¾Ð²ÑĤÐ¾ÑĢÐ¸": 4035,
      "ĠÐĹÐ°Ð¿": 4036,
      "ĠÐ¾ÑģÑĤÑĢÐ¾Ð²": 4037,
      "Ð°ÑĩÐµÐ¼": 4038,
      "ĠÐ¿ÑĢÐ¾Ð¸Ð·Ð½ÑĳÑģ": 4039,
      "ĠÑĥÐ±Ð¸ÑĤÑĮ": 4040,
      "ĠÐ¿Ð¾Ð»ÑĥÑĩÐ¸Ð»Ð¾ÑģÑĮ": 4041,
      "ĠÑģÑĤÐ°ÑĢÑĥÑħ": 4042,
      "ĠÐ¿Ð¾ÑģÐ¼Ð¾ÑĤÑĢÐµÑĤÑĮ": 4043,
      "Ð¸ÑĢÐ¾Ð²Ð°ÑĤÑĮ": 4044,
      "ĠÑĥÐ»ÑĭÐ±Ð½ÑĥÐ»Ð°ÑģÑĮ": 4045,
      "ĠÑĢÐµÑĦÐµÑĢ": 4046,
      "ĠÐ¾Ð±Ð¾Ð»Ð¾ÑĩÐºÐ°": 4047,
      "ĠÐ½Ð°Ð±Ð»Ñİ": 4048,
      "ĠÐ²ÐµÑīÐ¸": 4049,
      "ĠÐ¿ÑĢÐ¸Ð±Ð»Ð¸Ð·": 4050,
      "ĠÐ²ÑģÑĤÑĢÐµÑĩÐ°ÑĤÑĮÑģÑı": 4051,
      "ĠÑĥÑĤÑĢÐ¾": 4052,
      "ĠÑĢÐ°ÑģÑĤÐµÑĢ": 4053,
      "ĠÑģÑĤÐµÐ½Ðµ": 4054,
      "ĠÐ§ÐµÑĢÐµÐ¿Ð°Ñħ": 4055,
      "ĠÑģÑĤÑĢÐ°ÑĪÐ½Ð¾": 4056,
      "ĠÐ°Ð´Ð²Ð¾Ðº": 4057,
      "ĠÐ¿ÑĢÐ¾Ð³ÑĢÐ°Ð¼Ð¼Ð¸": 4058,
      "ÐļÑĢÐ°ÑģÐ¸Ð²": 4059,
      "ĠÐ²Ð¾Ð²ÑĢÐµÐ¼Ñı": 4060,
      "ĠÐºÑĢÐµÐ¿ÐºÐ¾": 4061,
      "ĠÑģÑĥÑīÐµÑģÑĤÐ²": 4062,
      "ĠÐ½ÐµÐ¾Ð¶Ð¸Ð´Ð°Ð½Ð½Ð¾": 4063,
      "ĠÐºÐ¸Ð»Ð¾Ð¼ÐµÑĤÑĢÐ¾Ð²": 4064,
      "ÐŀÐºÐµÐ¹": 4065,
      "ĠÐ±Ð°Ð½Ð´Ð¸ÑĤ": 4066,
      "ĠÐ±ÑĥÐºÐ²": 4067,
      "Ð°ÑĢÐ°ÐºÑĤÐµÑĢ": 4068,
      "ĠÐ³Ð¾ÑģÑĤÐ¸Ð½Ð¾Ð¹": 4069,
      "ÑĤÐµÑĤ": 4070,
      "Ð½ÐµÐ½Ð¸Ñı": 4071,
      "Ð½Ð°Ð´ÑĨÐ°ÑĤÑĮ": 4072,
      "ÑĮÑĤÐµ": 4073,
      "ĠÑģÐ½Ñı": 4074,
      "ĠÑģÑħÐ¾Ð´": 4075,
      "ĠÑģÐ¾Ð±Ñĭ": 4076,
      "ĠÑģÐ¾Ð»Ð´": 4077,
      "ĠÐ²ÑģÑĤÐ°Ð»": 4078,
      "Ð¼Ð°ÑĢ": 4079,
      "ÑģÑĤÐ¾Ð²": 4080,
      "ÑĪÐºÐ°": 4081,
      "ÐµÐ½ÐºÐ°": 4082,
      "ÐµÐ½ÑīÐ¸Ð½Ð°": 4083,
      "Ð¾Ð²Ð°ÑĤ": 4084,
      "ĠÐ±Ð°Ð»": 4085,
      "ĠÐ·Ð¾Ð²": 4086,
      "ĠÐ½Ð°Ñħ": 4087,
      "Ð¾Ð´Ñĭ": 4088,
      "Ð¾Ð´Ð¸Ð½": 4089,
      "ĠÑĢÐ°": 4090,
      "ĠÐ¿Ð¾ÑĤÑı": 4091,
      "Ð½Ð¸ÑĨÑĥ": 4092,
      "ÑĳÐº": 4093,
      "ĠÑįÐºÐ¸Ð¿": 4094,
      "ĠÐ¿ÑĢÐ¾Ð¹ÑĤÐ¸": 4095,
      "ĠÐ²ÑĭÐ½ÑĥÐ¶": 4096,
      "ÐµÐ²Ð°ÑĤÑĮ": 4097,
      "Ð¸Ð½Ð½Ð¸": 4098,
      "ĠÑģÑĤÐµÐ½Ñĭ": 4099,
      "ĠÐ¿Ð¾Ð´Ð¾Ð¶Ð´": 4100,
      "ĠÐŁÐ¾ÑĩÐµÐ¼Ñĥ": 4101,
      "ÐµÐ·Ð½Ð¾": 4102,
      "ĠÑģÐ²ÐµÐ¶": 4103,
      "Ð¾ÑĩÐµÐº": 4104,
      "ĠÑĪÐµÐ»": 4105,
      "ĠÐłÐµÐ·": 4106,
      "ĠÑĢÐ°ÑģÑģÐºÐ°Ð¶": 4107,
      "ĠÐ´Ð¾ÑģÑĤÐ¸": 4108,
      "ĠÐ´Ð¾ÑģÑĤÐ°Ð»": 4109,
      "ĠÑģÐ°Ð¼ÑĭÐ¼": 4110,
      "ĠÐ²Ð¾Ð·Ð´": 4111,
      "ÑĩÐ¸Ð½Ñĭ": 4112,
      "ĠÐ´ÑĢÑĥÐ³Ð¾Ð³Ð¾": 4113,
      "ĠÑĨÐµÐ¿": 4114,
      "ĠÑĨÐ°ÑĢÐ¸": 4115,
      "ĠÐ±Ð¾Ð»ÑĮÑĪÐ¸Ñħ": 4116,
      "ĠÐ¿Ð¾Ð²ÑĤÐ¾ÑĢ": 4117,
      "ĠÐ¿Ð¾Ð¼Ð½Ñİ": 4118,
      "ĠÐķÑīÑĳ": 4119,
      "ĠÐ²ÐµÑĢÐ½ÑĥÑĤÑĮÑģÑı": 4120,
      "ÐĹÐ°Ðº": 4121,
      "ĠÐ¾ÐºÐ¾Ð»Ð¾": 4122,
      "ĠÐ½ÑĥÐ¶ÐµÐ½": 4123,
      "ĠÐ²Ð¿ÐµÑĢÐ²ÑĭÐµ": 4124,
      "ĠÐ´ÑĥÐ¼Ð°Ð»Ð°": 4125,
      "ÐłÐ¾Ð½": 4126,
      "ĠÐ¿ÑĥÐ»ÑĮ": 4127,
      "ĠÑĢÐµÑĪÐ¸ÑĤÐµÐ»ÑĮÐ½Ð¾": 4128,
      "ĠÐ·Ð°Ð½ÑıÑĤÐ¸": 4129,
      "ĠÐ¼Ð¾ÑĢÑı": 4130,
      "ĠÐ´Ð¾Ð±ÑĢ": 4131,
      "ĠÐ´Ð¾Ð»Ð³": 4132,
      "ĠÑĥÑģÑĤÐ°Ð»Ð¾": 4133,
      "ĠÐ¿ÑĢÐ¸Ð´ÐµÑĤÑģÑı": 4134,
      "ĠÑĤÐ¾ÑĢÐ¾Ð¿": 4135,
      "ĠÐ²Ð½Ð¸Ð¼Ð°ÑĤÐµÐ»ÑĮÐ½Ð¾": 4136,
      "ĠÐ±ÑĢÐ¾ÑģÐ¸Ð»": 4137,
      "ĠÐºÑĢÑĥÑĤ": 4138,
      "ĠÐ½Ð°Ð¿ÑĢÐ°Ð²Ð¸Ð»ÑģÑı": 4139,
      "Ð¾Ð»ÑĮÐ·Ð¾Ð²Ð°ÑĤÑĮÑģÑı": 4140,
      "ĠÑĥÐ»Ð¸ÑĨÐµ": 4141,
      "Ð¾Ð¿Ð¾Ð»Ð¾Ð¶": 4142,
      "ĠÐ´ÑĥÑĪÐµ": 4143,
      "ĠÑģÑĩÐµÑĤ": 4144,
      "ĠÐ´Ð¾Ð²ÐµÑĢ": 4145,
      "ĠÐ·Ð°ÐºÑĢÑĭÐ»": 4146,
      "ĠÑģÑĤÐ°Ð½ÐµÑĤ": 4147,
      "ĠÐ³Ð¾Ð²Ð¾ÑĢÑı": 4148,
      "ĠÐ¼Ð¸ÑĢÐµ": 4149,
      "ĠÑĥÐ´Ð¾Ð²Ð¾Ð»ÑĮÑģÑĤÐ²Ð¸ÐµÐ¼": 4150,
      "ĠÐ¿ÑĢÐ¸Ð½ÑıÐ»Ð°ÑģÑĮ": 4151,
      "ĠÐ²Ð¿ÐµÑĩÐ°ÑĤÐ»ÐµÐ½Ð¸Ñı": 4152,
      "ĠÐ·Ð´Ð¾ÑĢÐ¾Ð²": 4153,
      "Ð¡Ð»Ð¾Ð¶Ð½Ð¾": 4154,
      "ĠMac": 4155,
      "ĠÐ¸ÑģÐ¿Ð¾Ð»ÑĮÐ·Ð¾Ð²Ð°ÑĤÑĮ": 4156,
      "ĠÑĤÑĢÐ°Ð½ÑģÐ¿Ð¾ÑĢÑĤ": 4157,
      "Ð°ÑĥÑĤÐ¸": 4158,
      "ĠÐ¿ÑĢÐµÐ´Ð¿Ð¾Ð»Ð¾Ð¶": 4159,
      "ĠÐľÐ°ÐºÐ³Ð¾Ð½Ð°Ð³Ð°Ð»": 4160,
      "ĠÐ¿Ð¾Ð´Ð·ÐµÐ¼": 4161,
      "ĠÑĤÐµÑģÑĤÐ¸ÑĢÐ¾Ð²": 4162,
      "ÐµÐ·Ð°Ð¿Ð½Ð¾": 4163,
      "ĠÑģÐ¾Ð¾ÑĤÐ²ÐµÑĤÑģÑĤÐ²": 4164,
      "ĠÐ®": 4165,
      "ĠÐ¿Ð¸Ð»": 4166,
      "ÑĪÐºÐ¸": 4167,
      "ÐµÐ½Ð¾Ðº": 4168,
      "ÑĢÐ¸ÐºÐ¸": 4169,
      "Ð°ÐºÑģ": 4170,
      "ÑĢÐ¾Ñĩ": 4171,
      "ÑĢÐ¾Ð½Ñĥ": 4172,
      "ĠÑĩÐµÐ¼Ñĥ": 4173,
      "ĠÑĩÐ»ÐµÐ½": 4174,
      "ĠÑĢÐµÐ´": 4175,
      "ĠÑĢÐ°Ð½Ð¾": 4176,
      "Ð³Ð»Ð¸": 4177,
      "Ð°ÑĢÑĥ": 4178,
      "ĠÐµÐ»Ðµ": 4179,
      "ÐµÐ´ÐµÐ½Ð¸Ñı": 4180,
      "Ð°ÑģÐºÐ¸": 4181,
      "ÑĳÑĢÑĤ": 4182,
      "ĠÐ»Ð°Ð´Ð½Ð¾": 4183,
      "ĠÐ²ÑĭÑĥÑĩ": 4184,
      "Ð´Ð°Ñı": 4185,
      "Ð´Ð°ÐµÑĤ": 4186,
      "Ð»ÑıÐ½": 4187,
      "ĠÐ²ÑģÐµÐ¹": 4188,
      "ĠÐ¿Ð¾Ð´Ð²": 4189,
      "ĠÐŁÑĢÐµÐ´": 4190,
      "ĠÐĿÐ°Ð¿": 4191,
      "ĠÑħÐ°ÑĢÐ°ÐºÑĤÐµÑĢ": 4192,
      "Ð¾ÑģÐ¿Ð¾Ð´": 4193,
      "ÐĶÐ¾ÑĢ": 4194,
      "ĠÐļÐ°ÑĢ": 4195,
      "ĠÐļÑįÐ´": 4196,
      "ĠÐ¡Ð¾Ð½": 4197,
      "ĠÐ¡Ð¾Ñħ": 4198,
      "ĠÐ·Ð°ÑĪ": 4199,
      "ÐŁÐ¸Ð»Ð¾ÑĤ": 4200,
      "Ð°Ð½Ð¸Ñĩ": 4201,
      "ĠÑģÐ¿Ð¸Ñģ": 4202,
      "Ð¢ÑıÐ¶ÐµÐ»Ð¾": 4203,
      "ĠÐ¢ÑĥÑĤ": 4204,
      "ĠÑĪÑĢÐ°Ð¼": 4205,
      "Â»?": 4206,
      "ÐµÐ½Ð½Ð¾ÑģÑĤÑĮ": 4207,
      "ĠÐ»Ð¸Ñĩ": 4208,
      "ĠÑĢÑĥÐ±": 4209,
      "ĠÐ²Ð¾Ð·Ð±": 4210,
      "ÑĩÐ¸ÑģÐ»": 4211,
      "ĠÑĦÐ¸Ð·Ð¸": 4212,
      "ĠÐ¼Ð¾Ð¸Ð¼": 4213,
      "ĠÐºÐ¾Ð½Ñĩ": 4214,
      "ÑĭÑĪÑĮ": 4215,
      "ÐµÑħÐ°Ð½Ð¸": 4216,
      "ĠÐ¼Ð¾Ð³ÑĥÑĤ": 4217,
      "ĠÑĥÐ±ÐµÐ´": 4218,
      "ĠÐĶÐ¶ÐµÐ¹Ð¼ÑģÑĥ": 4219,
      "ĠÐ¿ÑĢÐ¾ÑĦÐµÑģÑģÐ¸Ð¸": 4220,
      "Ð²ÐµÑĢÐ´": 4221,
      "ĠÐ½ÐµÐ¹ÑĢÐ¾ÑħÐ¸Ð¼Ð¸": 4222,
      "ÐĽÑİÐ±": 4223,
      "ĠÐĿÐµÑĥÐ¶ÐµÐ»Ð¸": 4224,
      "ĠÐ¿ÑĥÐ½": 4225,
      "ÑĢÐ°Ð¶ÐµÐ½Ð¸Ñı": 4226,
      "ĠÑĤÑĢÑĥÐ±": 4227,
      "ĠÑĥÑģÑĤÐ°Ð»": 4228,
      "ĠÑģÐ¸Ð»Ñĥ": 4229,
      "ĠÐ´ÐµÑĤÐµÐ¹": 4230,
      "ĠÑħÑĢÐ°Ð½ÐµÐ½Ð¸Ñı": 4231,
      "ĠÐ¿Ð¸ÑģÐ°Ð»": 4232,
      "ĠÑģÑĥÐ´Ñı": 4233,
      "ĠÐºÐ°Ð±Ð¸Ð½ÐµÑĤ": 4234,
      "Ð¿ÑĥÑģÐ°": 4235,
      "ĠÐ±ÑĭÐ²Ð°ÐµÑĤ": 4236,
      "ĠÐ¿Ð¾Ð´Ð½ÑıÐ»ÑģÑı": 4237,
      "ĠÐ¸ÑģÐ¿ÑĥÐ³Ð°Ð½Ð½Ð¾": 4238,
      "ĠÐ¾ÑģÐ²ÐµÑī": 4239,
      "ĠÑĨÐ°ÑĢÐµÐ²": 4240,
      "ĠÐ¿Ð¾Ð¿ÑĢÐ¾Ð±Ð¾Ð²Ð°ÑĤÑĮ": 4241,
      "ĠÐļÑĢÐ¾Ð»Ð¸Ðº": 4242,
      "ĠÐ¿ÑĢÐ¸Ð²ÑĭÐº": 4243,
      "ĠÐ¿Ð¾ÑĨÐµÐ»Ñĥ": 4244,
      "ĠÑģÑĤÐ°ÐºÐ°Ð½": 4245,
      "Ð¿ÐµÑĢÐ°ÑĤÑĥÑĢÐ°": 4246,
      "ĠÐļÑįÐ´Ð¾Ð³": 4247,
      "ft": 4248,
      "ĠÐ¦": 4249,
      "Ð°ÑĦ": 4250,
      "ÑģÐ¾ÑĤ": 4251,
      "ÑģÐ¾Ð½": 4252,
      "Ð½Ð°Ð¶Ð´Ñĭ": 4253,
      "Ð»ÑĳÐ½": 4254,
      "ÑĭÑģÐº": 4255,
      "ĠÐ½ÐµÑĢÐ²": 4256,
      "ÑĩÐµÐ»": 4257,
      "Ð¼Ð¾ÑĤÑĢÐ¸": 4258,
      "ĠÐ¸Ð½Ð°ÑĩÐµ": 4259,
      "ĠÐºÐ°Ð½": 4260,
      "ĠÐºÐ°Ñģ": 4261,
      "ĠÐ´ÐµÑģ": 4262,
      "ĠÐ´ÑĭÑħ": 4263,
      "ĠÐ¼Ð¾Ðµ": 4264,
      "ĠÐ±ÑĥÐ¼": 4265,
      "ĠÐ±Ð°ÑĪ": 4266,
      "ĠÑĥÐ³ÑĢ": 4267,
      "ĠÑĩÐ°ÑģÑĤ": 4268,
      "Ð°Ð½Ð½Ð¾Ð¼": 4269,
      "ĠÑĢÐ°Ð´Ð¸": 4270,
      "ÑīÑĥ": 4271,
      "Ð¾ÑĢÐ²": 4272,
      "Ð¾ÑĢÐ´Ð¸Ð½Ð°": 4273,
      "Ð¸ÑĤÑĥ": 4274,
      "ĠÐ³Ð°Ð·": 4275,
      "ĠÐ¾ÑĤÐºÐ»ÑİÑĩ": 4276,
      "ĠÐ»ÑĳÐ³": 4277,
      "ĠÐ¿ÑĢÐ¸Ð¼ÐµÑĢ": 4278,
      "ĠÐ²ÑĭÑĪÐµ": 4279,
      "ĠÐ²ÑĭÐ´ÐµÑĢÐ¶": 4280,
      "Ð¼Ð¸Ð½Ð°": 4281,
      "ĠÐ¶Ð´Ð°Ð»": 4282,
      "ĠÐºÐ°ÐºÐ¸Ñħ": 4283,
      "ĠÑĤÐ¾Ð½Ð¾Ð¼": 4284,
      "ĠÑħÐ¾Ð»": 4285,
      "ÐĶÑĥÐ¼Ð°Ñİ": 4286,
      "ĠÐŀÐŀ": 4287,
      "ĠÐ¡Ð²": 4288,
      "ĠÐ·Ð°ÑħÐ²Ð°ÑĤ": 4289,
      "ĠÑģÐ»Ð°Ð²": 4290,
      "ĠÑģÐ»Ð°Ð´": 4291,
      "ÑģÐ»Ð°Ð±": 4292,
      "ÐµÐ¶ÑĥÑĢ": 4293,
      "ÑĭÐ²Ð°ÑĤÑĮÑģÑı": 4294,
      "ĠÑĪÐºÐ¾Ð»ÑĮ": 4295,
      "ĠÑģÑĤÐ¾ÑıÐ»Ð°": 4296,
      "Ð½Ð¸ÐºÐ°Ð¼Ð¸": 4297,
      "ĠÐ²Ð¾Ð·Ð¼ÑĥÑĤ": 4298,
      "ÐµÐ»Ð¸ÑģÑĮ": 4299,
      "ĠÐĶÐ¶Ð¸Ð½Ð½Ð¸": 4300,
      "ĠÐ½Ð°Ð´Ð¿": 4301,
      "ĠÐ´ÑĢÑĥÐ³Ð¸Ðµ": 4302,
      "ĠÐ·Ð°ÐºÑĢÑĭÐ²": 4303,
      "ĠÐĹÐ°Ð²": 4304,
      "ĠÐ¿Ð°ÑĢÐ½Ð¸": 4305,
      "Ð¾ÑħÑĢÐ°Ð½": 4306,
      "ĠÐ·Ð°Ð²Ð¸Ñģ": 4307,
      "ĠÐ´ÑĥÐ¼Ð°ÑĤÑĮ": 4308,
      "ÐµÑĤÐµÑģÑĮ": 4309,
      "ĠÐºÑĢÐ°ÑģÐ°Ð²": 4310,
      "ÑīÐ¸ÑħÑģÑı": 4311,
      "ĠÐ´ÐµÐ¹ÑģÑĤÐ²Ð¸Ñı": 4312,
      "ĠÑĥÐ´Ð¸Ð²Ð¸Ð»ÑģÑı": 4313,
      "ĠÐ¿Ð»Ð°Ð½ÐµÑĤÑĭ": 4314,
      "ĠÐ´ÐµÐ»Ð°ÐµÑĪÑĮ": 4315,
      "ĠÑģÐ¸ÑģÑĤÐµÐ¼Ð°": 4316,
      "ĠÐ¼Ð¾Ð»ÑĩÐ°": 4317,
      "ÐŀÐ±Ð°": 4318,
      "ĠÐ¿Ð¾ÑģÑĤÐµÐ»Ð¸": 4319,
      "ĠÐ»ÐµÐ¶Ð°Ð»": 4320,
      "ĠÐºÑĢÑĭÑĪ": 4321,
      "ĠÐ±Ð»Ð¾ÐºÐ¾Ð»Ð¾Ð³Ð¸": 4322,
      "ĠÐ¼ÐµÑĩÑĤÐ°Ð»": 4323,
      "ĠÐ½Ð¾ÑĢÐ¼Ð°Ð»ÑĮÐ½Ð¾": 4324,
      "ĠÐ¾Ð±ÑĬÑıÑģÐ½Ð¸ÑĤÑĮ": 4325,
      "ĠÐ»Ð°Ð¼Ð¿Ñĥ": 4326,
      "ĠÑģÐ¼ÐµÑĢÑĤÑĮ": 4327,
      "ÐĶÐ¾Ð±ÑĢÐ¾Ðµ": 4328,
      "ĠÑĥÐºÐ°Ð·Ð°Ð»": 4329,
      "ĠÐļÐ°Ð´Ð¼Ð¸Ð½Ð°": 4330,
      "ĠÐ¿Ð¾Ð¼Ð¾ÑīÑĮÑİ": 4331,
      "Ð¿ÐµÐ»Ð¸Ð²Ð¾": 4332,
      "esla": 4333,
      "Ð°ÑıÐ½Ð½Ð¾": 4334,
      "Ð¸ÑħÐ°Ð¸Ð»": 4335,
      "ĠÐ¿Ð¾ÑģÐ¼Ð¾ÑĤÑĢÐ¸": 4336,
      "ĠÐ¾ÑĤÐ¾ÑĢÐ²": 4337,
      "ĠÐ¾ÑĩÐµÑĢÐµÐ´ÑĮ": 4338,
      "ĠÐ²ÑĭÐ½ÑĥÐ¶Ð´": 4339,
      "Ð¾ÑĦ": 4340,
      "ÑĢÐ°Ð»Ð¸": 4341,
      "ÑĢÐ¾Ð¿": 4342,
      "Ð½Ð¾Ð²Ð°": 4343,
      "ÑıÑı": 4344,
      "Ð²Ð¾ÑĤ": 4345,
      "Ð°Ð»Ð¸Ð»ÑģÑı": 4346,
      "ÐµÑĢÑĥ": 4347,
      "ÐµÑĢÐµÐ¶": 4348,
      "ĠÐ´Ð°ÑĤ": 4349,
      "ĠÐ¼Ð¸Ðº": 4350,
      "ÑĢÐ¾ÑĩÐ½Ð¾": 4351,
      "Ð°Ð½Ñģ": 4352,
      "ĠÐ½Ð°ÑĢÐ¾Ð´": 4353,
      "ĠÐ½ÐµÑĩÐµÐ³Ð¾": 4354,
      "ĠÐ¿Ð¾ÑĨ": 4355,
      "Ð»Ð¸Ð¶Ðµ": 4356,
      "Ð°Ð·Ð°Ð»Ð¾ÑģÑĮ": 4357,
      "ÐµÐ´Ñı": 4358,
      "Ð¾Ð³Ð¾Ð¹": 4359,
      "ĠÐ»Ð°ÑģÐº": 4360,
      "ĠÐ¿ÑĢÐ¾Ð¶": 4361,
      "Ð¸Ð²Ð°Ð»Ð°": 4362,
      "Ð¸Ð²Ð°Ð»Ð¸": 4363,
      "ĠÐ¿ÑĢÐ¾Ñħ": 4364,
      "ĠÐ¾Ð±Ð»ÐµÐ³": 4365,
      "ĠÐ¶Ð¸Ð»": 4366,
      "ĠÐ¿Ð¾Ð´Ñģ": 4367,
      "ĠÐ¸Ð·ÑĥÐ¼": 4368,
      "ĠÐ¡ÐµÐ²ÐµÑĢ": 4369,
      "ÑĤÐ¸Ñħ": 4370,
      "ÐļÐ¾ÑĢ": 4371,
      "ĠÑĢÐ°Ð·Ð´ÐµÐ»": 4372,
      "Ð°Ð»ÑĮÐ½Ð¾Ð¼": 4373,
      "Ð°ÑİÑīÐµÐµ": 4374,
      "ÐµÐ½ÑĮÐºÐ¾": 4375,
      "ĠÐ¿ÐµÑĢÐµÐ½": 4376,
      "ĠÐ»Ð¸ÑĦ": 4377,
      "ĠÐĳÐµÐ³Ð¸Ð½": 4378,
      "Ð¸ÑħÐ¸Ðº": 4379,
      "ĠÑĢÐ°ÑģÑģÐµ": 4380,
      "ĠÑģÑĤÐ¾ÑıÐ»Ð¸": 4381,
      "ĠÐ¾Ð´Ð½Ð¸Ð¼": 4382,
      "ĠÐ³Ð»Ð°Ð´": 4383,
      "ÐĺÐ·": 4384,
      "ÑįÐ½": 4385,
      "ĠÐ¸Ð¼Ñı": 4386,
      "ĠÐ´ÑĢÑĥÐ³Ð¸Ð¼": 4387,
      "ĠÑĨÐµÐ»Ð¸": 4388,
      "ĠÐ¾ÑģÑĤÐ°Ð»ÑģÑı": 4389,
      "ĠÐ¼Ð¾Ð³Ð»Ð¾": 4390,
      "ÑĢÐ¾Ð´Ð¾Ð»Ð¶": 4391,
      "ĠÑĤÑĢÐµÐ½Ð¸": 4392,
      "ĠÑĤÑĢÐµÑĤÑĮ": 4393,
      "ĠÐ½ÐµÐ¿Ð»Ð¾ÑħÐ¾": 4394,
      "ĠÐ½ÐµÐ¹ÑĢÐ¾Ñģ": 4395,
      "ĠÐºÐ¾Ð»Ð¸": 4396,
      "ĠÐºÐ¾Ð»Ð¾Ð½": 4397,
      "ĠÐ¿ÑĢÐ¾ÑĪÐ»Ð¸": 4398,
      "ĠÑĥÐ»ÑĭÐ±ÐºÐµ": 4399,
      "ĠÐ¿Ð¾ÑģÐ»ÐµÐ´Ð½Ð¸Ðµ": 4400,
      "Ð°ÑİÑīÐ¸Ð¼": 4401,
      "ĠÐ¿Ð»ÐµÑĩÐ¾": 4402,
      "ĠÑĥÐ·Ð½Ð°": 4403,
      "Ð°ÑĤÐ¾Ð½": 4404,
      "ĠÐ´ÑĢÐµÐ²": 4405,
      "ĠÐ´ÐµÑģÑıÑĤÐ¸": 4406,
      "ÐĺÐ½ÑĤÐµÑĢÐµÑģÐ½Ð¾": 4407,
      "ĠÑħÐ²Ð°ÑĤÐ¸ÑĤ": 4408,
      "ĠÑĤÑĢÑĥÐ´Ð½Ð¾": 4409,
      "ĠÐ¿Ð¾Ð½ÑıÐ»Ð°": 4410,
      "ĠÐĴÐ¾Ð»Ð´ÐµÐ¼Ð¾ÑĢÑĤÐ°": 4411,
      "ĠÑģÐ¾ÑģÑĤÐ¾ÑıÐ½Ð¸Ð¸": 4412,
      "ĠÐ¾ÑĤÐ²ÐµÑĩÐ°Ð»Ð°": 4413,
      "ĠÐĴÐµÑĢÐ½Ð¾": 4414,
      "ĠÐ´Ð²Ð¾ÑĢÐµÑĨ": 4415,
      "ĠÐºÑĢÐµÑģÐ»Ð¾": 4416,
      "ĠÐ·Ð´Ð¾ÑĢÐ¾Ð²Ð¾": 4417,
      "ĠÑģÐ¿Ð°Ð»ÑĮÐ½Ñİ": 4418,
      "ĠÑįÐ½ÐµÑĢÐ³": 4419,
      "ĠÐ³Ð¾ÑĢÑıÑĩ": 4420,
      "Ð¥Ð¾ÑĢÐ¾ÑĪÐ¸Ð¹": 4421,
      "ĠÐ²ÑģÐ¿ÑĭÑħ": 4422,
      "ĠÐ¿ÑĢÐµÐ´Ð»Ð°Ð³Ð°Ñİ": 4423,
      "ĠÑĤÐµÐ»ÐµÑĦÐ¾Ð½": 4424,
      "ĠÑĩÐµÑĤÐ²ÐµÑĢ": 4425,
      "ĠÑĦÐ¸Ð»ÑĮÐ¼": 4426,
      "ĠÐ²Ð·Ð´ÑĢÐ¾Ð³Ð½ÑĥÐ»": 4427,
      "ĠÐ¿ÑĢÐ¾Ð±Ð¾ÑĢÐ¼Ð¾ÑĤÐ°Ð»": 4428,
      "ĠÐ³ÑĢÐ¸ÑĦÑĦÐ¸Ð½Ð´Ð¾ÑĢ": 4429,
      "ĠGo": 4430,
      "ĠÐĶÐµÐ½Ð¸Ñģ": 4431,
      "00": 4432,
      "Ð°ÑĨÐ¸Ð¸": 4433,
      "ÑĤÑĭÐ¹": 4434,
      "ÑĢÐµÐ»": 4435,
      "Ð½Ð¾Ð¶": 4436,
      "Ð½ÐµÐ½Ð½Ð¾": 4437,
      "Ð»Ð°ÑĤ": 4438,
      "ĠÐ¿Ð°Ñĩ": 4439,
      "ĠÑģÐ½Ð¸Ð¼": 4440,
      "ĠÐ²Ð°": 4441,
      "ĠÐ´Ð°ÑĤÑĮ": 4442,
      "ĠÐ´Ð¸Ð·Ð°Ð¹": 4443,
      "ÑĢÐ¸Ð»Ð°ÑģÑĮ": 4444,
      "Ð¾Ð»Ð¸": 4445,
      "ĠÐ±Ð°ÑĤÐ¾Ð½": 4446,
      "Ð°ÐºÐµÑĤ": 4447,
      "ĠÑĥÑĤÑĢÐ°": 4448,
      "ĠÐ½ÐµÑģÐ¼": 4449,
      "Ð¶ÐµÐ½ÐµÑĢ": 4450,
      "ĠÐ¿Ð¾ÑĪ": 4451,
      "Ð½Ð°Ñħ": 4452,
      "Ð°ÑĢÑĤ": 4453,
      "Ð°ÑĢÐ°ÑĤ": 4454,
      "Ð¸ÑĤÐµÐ»ÐµÐ¹": 4455,
      "ĠÐ³ÑĢÐ°Ð½": 4456,
      "ĠÐ»Ð¾Ð¶": 4457,
      "ĠÐ»ÐµÐº": 4458,
      "ĠÑįÐ»ÑĮÑĦ": 4459,
      "Ð¸Ð²Ð°Ð»ÑģÑı": 4460,
      "ĠÐ¿ÑĢÐ¾ÑīÐµ": 4461,
      "ĠÐ¿ÑĢÐ¸Ñĩ": 4462,
      "ĠÐ¿ÑĢÐ¸Ð¿": 4463,
      "ĠÐ¿ÑĢÐ¸ÑģÐ»": 4464,
      "ĠÐ¿ÑĢÐ¸ÑĪÐµÐ»": 4465,
      "ĠÐ²ÑĭÑĢÐ²": 4466,
      "ÐºÐ°ÑĦ": 4467,
      "Ð¸Ð½Ð¾Ð²": 4468,
      "ĠÐ¾Ð±ÐµÑī": 4469,
      "ĠÐ¾Ð±Ð½Ð°Ð¶": 4470,
      "ĠÐ¶Ð°ÑĢ": 4471,
      "ĠÐ²ÑģÐº": 4472,
      "Ð¸Ð¼Ð¾Ð¹": 4473,
      "ĠÑħÑĥÐ¶Ðµ": 4474,
      "ĠÐ¸Ð·Ð¼ÐµÑĢ": 4475,
      "ÐµÑĩÐµÐ½Ð¸Ðµ": 4476,
      "ĠÐļÑģÑĤÐ°ÑĤÐ¸": 4477,
      "ÑĢÐ°Ñİ": 4478,
      "ĠÐ¡Ð»": 4479,
      "ÐŁÐ¾ÑĤ": 4480,
      "ÐŁÐ¾Ð½": 4481,
      "ĠÑģÐ¿Ð°ÑģÐ¸Ð±Ð¾": 4482,
      "ĠÑģÐ¿ÑĢÐ°ÑĪ": 4483,
      "ÑĥÑĩÑĪÐµ": 4484,
      "ĠÑģÐºÐ¾Ð»ÑĮÐ·": 4485,
      "ĠÑĪÐµÑİ": 4486,
      "Ð¸ÑģÑĤÐ¾": 4487,
      "ĠÑģÐ¼ÑĥÑĤ": 4488,
      "ĠÐ¾Ð´Ð½Ð¾Ð¼": 4489,
      "ĠÑģÐ°Ð¼Ð¾Ð¼Ñĥ": 4490,
      "ÑĢÑıÐ¼": 4491,
      "ĠÐ±ÑĥÐ´ÐµÐ¼": 4492,
      "ÑĩÐ¸Ðµ": 4493,
      "ĠÐ²Ð¸Ð´ÐµÐ»Ð°": 4494,
      "Ð»Ð°ÑģÑģ": 4495,
      "ĠÐ·Ð°Ð²ÑĤÑĢ": 4496,
      "ĠÑĤÑĢÐµÐ²": 4497,
      "ĠÐ²Ð¾ÑģÐµÐ¼ÑĮ": 4498,
      "ĠÑģÐ´ÐµÐ»Ð°Ð»Ð°": 4499,
      "ĠÑĥÐ²Ð¸Ð´ÐµÐ²": 4500,
      "ĠÑĥÑģÐ¿ÐµÐ»Ð°": 4501,
      "ĠÑģÑĤÐ°ÑĢÑĭÐ¹": 4502,
      "ÑıÑīÐ°Ñı": 4503,
      "ĠÐ¾ÐºÐ°Ð·Ð°Ð»Ð°ÑģÑĮ": 4504,
      "ĠÐ¿ÑĢÐ¾ÑĤÐ¸Ð²Ð¾Ð¿Ð¾Ð»Ð¾Ð¶": 4505,
      "ĠÐ³Ð¾ÑĢÐ¾Ð´Ð°": 4506,
      "ĠÐ¿Ð°Ð»ÑĥÐ±": 4507,
      "ĠÐ¸Ð·Ð²ÐµÑģÑĤ": 4508,
      "ĠÑģÑĩÐ¸ÑĤÐ°ÑĤÑĮ": 4509,
      "ĠÐºÑĢÑĥÑĤÐ¾": 4510,
      "ĠÐ´Ð¾Ð³Ð¾Ð²Ð¾ÑĢÐ¸": 4511,
      "ĠÑĥÐ³Ð¾Ð´Ð½Ð¾": 4512,
      "ĠÐ²ÐµÑģÑĮÐ¼Ð°": 4513,
      "ĠÐ¼ÐµÑĩÑĤ": 4514,
      "ĠÐľÐ°Ð»ÑĦÐ¾Ñı": 4515,
      "ĠÑİÑĢÐ¸": 4516,
      "ĠÐ²Ð·Ð³Ð»ÑıÐ½ÑĥÐ»": 4517,
      "ÑıÐ½Ð¸Ñı": 4518,
      "ĠÑĩÐ¸ÑĤÐ°ÑĤÑĮ": 4519,
      "Ð¸ÑĢÑĥÑĢ": 4520,
      "ÐµÑıÐ»Ð°ÑģÑĮ": 4521,
      "ĠÑĥÐ´Ð¾Ð²Ð¾Ð»ÑĮÑģÑĤÐ²Ð¸Ðµ": 4522,
      "ĠÐ¾Ð±Ð½Ð°ÑĢÑĥÐ¶Ð¸Ð»": 4523,
      "ĠÐ±ÐµÑģÐ¿Ð¾ÐºÐ¾Ð¹": 4524,
      "ĠÐ¿Ð¾Ð»Ð¸ÑĨÐ¸Ñı": 4525,
      "ĠÑĪÐ¸ÑĢÐ¾ÐºÐ¾": 4526,
      "ĠÑģÐ¿ÐµÑĨÐ¸Ð°Ð»Ð¸": 4527,
      "ĠTesla": 4528,
      "ĠÑĩÐµÐ»Ð¾Ð²ÐµÑĩÐµÑģ": 4529,
      "ĠÐ¾Ð±ÑıÐ·Ð°ÑĤÐµÐ»ÑĮÐ½Ð¾": 4530,
      "ĠÐĳÑĥÐ´ÑĥÑĢ": 4531,
      "ĠÑģÐ¾Ð´ÐµÑĢÐ¶": 4532,
      "ĠÑģÐ²Ð¸Ð´ÐµÑĤ": 4533,
      "ĠÐĵÐµÑĢÑĨÐ¾Ð³Ð¸Ð½Ñı": 4534,
      "ĠÐºÐ¾Ð½ÑĤÐ°ÐºÑĤ": 4535,
      "ĠÐ¿Ð»Ð¾ÑīÐ°Ð´": 4536,
      "ĠÐ½ÐµÑģÐ¼Ð¾ÑĤÑĢÑı": 4537,
      "!..": 4538,
      "Ġ4": 4539,
      "ÑĤÐ¾Ð³Ð¾": 4540,
      "Ð¸ÑĪÐ¸": 4541,
      "Ð¸Ð¿ÐµÑĢ": 4542,
      "ÑĢÑĮ": 4543,
      "ÑĢÐµÑī": 4544,
      "ÑıÑİ": 4545,
      "ÐºÐ½ÑĥÐ»ÑģÑı": 4546,
      "ĠÐ¸ÑģÑĤ": 4547,
      "ÑĪÐµÐº": 4548,
      "ĠÐºÐ¾Ð´": 4549,
      "Ð¾Ð²Ð°Ð²": 4550,
      "ÐµÑĢÐ´": 4551,
      "ĠÐ´Ð°Ð½Ð½ÑĭÑħ": 4552,
      "ĠÑĥÐ»Ð¾Ð¶": 4553,
      "ĠÐ½Ð°ÑģÑĤÑĥÐ¿": 4554,
      "ĠÐ¿Ð¾ÑĢÐ°": 4555,
      "ÑīÐµÐ³Ð¾": 4556,
      "ÑīÑĥÑİ": 4557,
      "ÑĨÐ¾": 4558,
      "Ð½Ð¸Ð¸": 4559,
      "ĠÐµÑħ": 4560,
      "Ð¾Ð³Ñĥ": 4561,
      "ĠÐ»Ð¾Ð±": 4562,
      "Ð¾ÐºÐ¸": 4563,
      "Ð¾ÐºÐ¾Ð»": 4564,
      "ĠÑįÐ¼Ð¾": 4565,
      "ĠÐ¿ÑĢÐ¸ÑģÑĤÑĥÐ¿": 4566,
      "ĠÐ²ÑĭÑĪÐ»Ð¸": 4567,
      "ĠÐ¾Ð±ÑīÐµ": 4568,
      "Ð»ÑıÑĤÑĮÑģÑı": 4569,
      "ĠÑģÑĤÑĭ": 4570,
      "ĠÑģÑĤÐ²Ð¾Ð»": 4571,
      "ĠÐŁÐ¸ÑĤ": 4572,
      "Ð¸Ð¼Ð°Ñı": 4573,
      "ĠÑĤÐ¾ÑĪ": 4574,
      "ÐµÑĪÐµ": 4575,
      "ĠÐļÐ¾ÑĤ": 4576,
      "ÐµÐ»ÑĮÐµ": 4577,
      "ĠÐ¡ÐµÐ¿ÑĤÑĥ": 4578,
      "ĠÑģÐ¿Ð¾ÑĢÑĤ": 4579,
      "ÑģÐ»ÑĭÑĪ": 4580,
      "ĠÐľÑĥÐ½Ð¸": 4581,
      "ÐµÐ¶Ð°Ð»Ð°": 4582,
      "ÑĤÐ¾ÑĢÐ¾Ð¶": 4583,
      "ĠÑĢÐ°ÑģÑģÐ»ÐµÐ´": 4584,
      "ĠÐ¿Ð»Ð°Ðº": 4585,
      "ĠÐ¾Ð¿ÑĭÑĤ": 4586,
      "Ð¸ÑĤÐµÐ»ÑĮÐ½Ð¾ÑģÑĤÑĮ": 4587,
      "ĠÐ¿Ð¾Ð¼Ð¾ÑĢÑī": 4588,
      "ĠÐĹÐ°Ñı": 4589,
      "ĠÐĹÐ´ÐµÑģÑĮ": 4590,
      "ÑĢÐµÐ´Ð¸": 4591,
      "ÑĤÐµÑģÑĮ": 4592,
      "ĠÑĢÐ°Ð±Ð¾ÑĤÐ°ÑĤÑĮ": 4593,
      "ÐµÑĢÐ°ÑĨÐ¸Ð¸": 4594,
      "ĠÐ±Ð»Ð°Ð³Ð¾": 4595,
      "Ð»ÐµÐ½Ñĭ": 4596,
      "ÑİÑĤÐ½Ð¾": 4597,
      "ĠÑĤÐµÐ»Ð¾Ð¼": 4598,
      "ĠÐ²ÐµÑĩÐµÑĢÐ°": 4599,
      "ÑĥÐ½Ðº": 4600,
      "ĠÐ¿ÑĢÐ¸ÑĪÐ»Ð°": 4601,
      "ĠÐ¶ÐµÐ»ÐµÐ·": 4602,
      "ĠÑģÐ²ÑıÐ·ÑĮ": 4603,
      "ĠÐ¸ÑģÐºÐ°ÑĤÑĮ": 4604,
      "ĠÐ¸ÑģÐºÐ»ÑİÑĩ": 4605,
      "ÑģÑĤÐ²ÐµÐ½Ð½Ð¾Ðµ": 4606,
      "ĠÐ·Ð½Ð°ÐºÐ¾Ð¼ÑĭÑħ": 4607,
      "ĠÑģÑĤÐ¾Ð»Ð¾Ð¼": 4608,
      "ĠÐ¼ÑĭÑģÐ»ÐµÐ½Ð½Ð¾": 4609,
      "...": 4610,
      "ĠÐ¿ÑĢÐµÐ²ÑĢÐ°Ñī": 4611,
      "ĠÐ¼Ð°ÑĪÐ¸Ð½Ñĥ": 4612,
      "ĠÐĺÐ½ÑĤÐµÑĢÐµÑģÐ½Ð¾": 4613,
      "ĠÐ¾ÑĤÑģÑİÐ´Ð°": 4614,
      "ĠÐ´Ð²Ð¸Ð¶ÐµÐ½Ð¸Ðµ": 4615,
      "ĠÐ¸Ð½ÑĦÐ¾ÑĢÐ¼Ð°ÑĨÐ¸Ð¸": 4616,
      "ĠÐ´Ð¾Ð²Ð¾Ð»ÐµÐ½": 4617,
      "ĠÐ¿Ð¾Ð½ÑıÑĤ": 4618,
      "ĠÐ¥Ð¾Ð³Ð²Ð°ÑĢÑĤÑģÐ°": 4619,
      "ĠÐ³Ð¾Ð²Ð¾ÑĢÑİ": 4620,
      "ÑĪÐ¸Ð¼ÑģÑı": 4621,
      "ĠÐ±Ð»Ð¸Ð·Ð½Ðµ": 4622,
      "ĠÐ¾Ð±ÑģÑĥÐ¶Ð´ÐµÐ½Ð¸Ðµ": 4623,
      "ĠÐ½Ð°Ð¿Ð¾Ð¼Ð¸Ð½Ð°": 4624,
      "ĠÐĹÐµÐ¼Ð»Ðµ": 4625,
      "ĠÐ±Ð¾Ð³Ð°ÑĤ": 4626,
      "ĠÑģÐµÑĢÐ´ÑĨÐµ": 4627,
      "ĠÐ¾Ð±ÐµÑĢÐ½ÑĥÐ»ÑģÑı": 4628,
      "ĠÐºÑĢÐ°ÑģÐ¸Ð²ÑĭÐ¹": 4629,
      "ĠÑģÐ¿ÑĥÑģÑĤÑı": 4630,
      "ĠÐ²Ð¾Ð²ÑģÐµ": 4631,
      "ĠÐ¼ÐµÑģÑıÑĨ": 4632,
      "ĠÐĿÐ°Ð´ÐµÑİÑģÑĮ": 4633,
      "Ð¾Ð³ÑĢÐ°ÑĦÐ¸": 4634,
      "ĠÐ·Ð°ÐºÑĢÐ¸ÑĩÐ°Ð»": 4635,
      "ĠÐļÑĳÑĢÑĤÐ¸Ñģ": 4636,
      "ĠÐ´Ð¸ÑĢÐµÐºÑĤÐ¾ÑĢ": 4637,
      "ĠÐ¿Ð¾ÐµÐ·Ð´ÐºÐ°": 4638,
      "roid": 4639,
      "ĠÐ¼ÐµÐ½ÐµÐµ": 4640,
      "ndroid": 4641,
      "ĠÐŀÐŀÐĿ": 4642,
      "ĠÐ¡ÐµÐ²ÐµÑĢÑĥÑģ": 4643,
      "ik": 4644,
      "ot": 4645,
      "ux": 4646,
      "Ð½ÐµÑĤÑģÑı": 4647,
      "Ð»ÐµÐ½Ð¸Ð¸": 4648,
      "ÑĥÐ½ÑĮ": 4649,
      "ÑıÐ»Ð°ÑģÑĮ": 4650,
      "ĠÐ¿Ð°Ð½": 4651,
      "ĠÐ½ÐµÑĢ": 4652,
      "ĠÐ½ÐµÐ»Ð¾Ð²": 4653,
      "ĠÑģÑĥÑħ": 4654,
      "ĠÑģÑĥÐ¿ÐµÑĢ": 4655,
      "ÑĩÐµÑĢ": 4656,
      "ĠÐ²ÑĢÐ°Ñī": 4657,
      "ÑģÑĤÐ°ÑĢ": 4658,
      "ÑģÑĤÑĢÐ°": 4659,
      "ÑĪÑĤ": 4660,
      "ĠÐºÐ¾Ð²": 4661,
      "ĠÐºÑĢÑĥÐ¶": 4662,
      "ĠÐ´ÐµÐ½": 4663,
      "ĠÐ´ÐµÐ¶ÑĥÑĢ": 4664,
      "ĠÐ¼Ð°Ñı": 4665,
      "ĠÐ¼ÐµÑħÐ°Ð½Ð¸": 4666,
      "Ð¿ÑĢÐ¾ÑģÑĤÑĢÐ°Ð½": 4667,
      "Ð¾Ð»Ðº": 4668,
      "Ð¾Ð»Ð²": 4669,
      "ĠÑĥÑĩÐ¸ÑĤ": 4670,
      "ĠÑĢÐµÑģ": 4671,
      "ĠÐ¿Ð¾ÑģÐºÐ¾Ð»ÑĮ": 4672,
      "ÑĨÐ¾Ð¼": 4673,
      "Ð½Ð¸Ñı": 4674,
      "Ð¸ÑĤÐµÐ»Ð¸": 4675,
      "ĠÐ³Ð¸Ð¿ÐµÑĢ": 4676,
      "ĠÐ¿ÑĢÐµÑģ": 4677,
      "ÑĢÑĥÑĤÐ¾": 4678,
      "ÐµÐ²Ð°": 4679,
      "Ð´Ð°Ñİ": 4680,
      "Ð»Ð°Ñı": 4681,
      "ĠÐ¾Ð±Ð¾ÑĢÐ¾ÑĤ": 4682,
      "ĠÐ¶Ð°Ð»ÑĮ": 4683,
      "ĠÐ²ÑģÐºÐ¾ÑĢ": 4684,
      "ĠÐŁÐµÑĢ": 4685,
      "ĠÐĿÐµÐ²": 4686,
      "ĠÐĶÑĢ": 4687,
      "ĠÐĴÐ·": 4688,
      "ÑĤÐ¸ÑĢÐ¾Ð²": 4689,
      "ĠÑĢÐ°Ð·Ð¼ÐµÑĢ": 4690,
      "ÐŁÐ¾Ð¼": 4691,
      "Ð°Ð»ÑĮÐ½Ð°Ñı": 4692,
      "Ð½ÑıÐ²": 4693,
      "Ð½ÑıÐ¼Ð¸": 4694,
      "Ð¢ÐµÐ¼": 4695,
      "ÑĢÐ¾Ð²Ð¾Ð¹": 4696,
      "Ð°Ð³Ð°Ñİ": 4697,
      "ĠÐ¢Ð¾ÑĤ": 4698,
      "âĢ¦Â»": 4699,
      "ĠÐ´Ð²ÑĥÐ¼": 4700,
      "ĠÑģÐ°Ð¼ÑĭÐµ": 4701,
      "ÐĵÐ¾Ð»": 4702,
      "ĠÐ¼Ð¾ÐµÐ¼Ñĥ": 4703,
      "Ð¸ÑĤÐµÐ»ÑĮÐ½ÑĭÐ¹": 4704,
      "ĠÑĨÐµÐ»Ð¾Ð²": 4705,
      "ÑģÑĤÑĢÐ°Ð´": 4706,
      "ĠÑĥÐ´Ð°Ð»": 4707,
      "ĠÐ²ÐµÑĢÐ¾": 4708,
      "ÐĹÐ²": 4709,
      "ÐĹÐ°Ð²": 4710,
      "ĠÐ²Ð¾Ð¾ÑĢÑĥÐ¶": 4711,
      "ĠÐ¿Ð¾Ð¿Ð°Ð´": 4712,
      "ĠÐ½Ð¾Ð²Ð¾Ð¹": 4713,
      "Ð¸ÑĤÐµÑģÑĮ": 4714,
      "ĠÐ¿ÑĢÐ¾Ð´ÐµÐ»": 4715,
      "ĠÐ²Ð¾ÑģÑĤÐ¾ÑĢ": 4716,
      "ĠÐ¿Ð¾Ð·Ð²": 4717,
      "ĠÐ¿Ð¾Ð·Ð½Ð°ÐºÐ¾Ð¼": 4718,
      "ÑģÑĤÐ²ÐµÐ½Ð½ÑĭÐ¼": 4719,
      "Ð°ÐµÑĪÑĮÑģÑı": 4720,
      "ĠÐ¾ÑĩÐºÐ¸": 4721,
      "ĠÐ¾ÑĩÐµÐ²Ð¸Ð´Ð½Ð¾": 4722,
      "ĠÐ¾ÑĤÐ²ÑĢÐ°Ñī": 4723,
      "ĠÐ¿Ð¾Ð²ÐµÑĢÐ½ÑĥÐ»Ð°ÑģÑĮ": 4724,
      "ÑıÑīÑĥÑİ": 4725,
      "ĠÑĤÐµÐ»Ðµ": 4726,
      "ĠÐ½ÐµÐ±ÑĢÐµÐ¶": 4727,
      "ĠÐ¿ÑĢÐ¸ÑĪÑĳÐ»": 4728,
      "ĠÑĢÐµÐ°Ð»ÑĮÐ½Ð¾": 4729,
      "ĠÐ¤ÐµÐ´": 4730,
      "ĠÐ¾ÐºÐ°Ð·Ð°Ð»Ð¸ÑģÑĮ": 4731,
      "ĠÐºÑĢÐ¸ÐºÐ½ÑĥÐ»": 4732,
      "ĠÐ²Ð¾Ð»ÑĪÐµÐ±Ð½Ð¸ÐºÐ¾Ð²": 4733,
      "ĠÐ¿ÑĢÐµÐ´ÑģÑĤÐ°Ð²Ð¸ÑĤÑĮ": 4734,
      "ÐĵÐ»Ð°Ð²Ð½Ð¾Ðµ": 4735,
      "ĠÐ²Ð¾Ð·Ð´ÑĥÑħÐ°": 4736,
      "ĠÐ²Ð¾Ð·Ð¼Ð¾Ð¶Ð½Ð¾ÑģÑĤÑĮ": 4737,
      "ÑİÑīÐµÐ³Ð¾": 4738,
      "ĠÑģÑĥÐ´Ð¾ÑĢ": 4739,
      "ĠÐ¼Ð³Ð½Ð¾Ð²ÐµÐ½Ð½Ð¾": 4740,
      "ĠÑģÐ¼Ð¾Ð³Ñĥ": 4741,
      "inux": 4742,
      "ĠÑĥÑħÐ¾": 4743,
      "ĠÑĢÐ¸ÑģÐº": 4744,
      "ÐļÐ»Ð°ÑģÑģ": 4745,
      "ĠÑĢÐ°Ð·Ð¼ÑĭÑĪ": 4746,
      "Ð¾Ð¶Ð°Ð»ÑĥÐ¹ÑģÑĤÐ°": 4747,
      "ĠÐ¿Ð¾Ð¼Ð¾ÑīÑĮ": 4748,
      "ĠAndroid": 4749,
      "Ð°ÑģÐºÐ¾Ð»ÑĮÐºÐ¾": 4750,
      "ĠÐ¼Ð½Ð¾Ð³Ð¸Ðµ": 4751,
      "ĠÐ´Ð¾Ð¶Ð´ÑĮ": 4752,
      "ĠÐ½ÐµÐ±Ð¾Ð»ÑĮÑĪÐ¾Ð¹": 4753,
      "!!!": 4754,
      "ĠÐ¶ÑĥÑĢÐ½Ð°Ð»": 4755,
      "ĠÑģÐºÐ¸Ð½ÑĥÑĤÑĮ": 4756,
      "ĠÐ°ÐºÐºÑĥÑĢÐ°ÑĤÐ½Ð¾": 4757,
      "ĠÐ¿Ð¾Ð¾Ð±ÐµÑī": 4758,
      "ĠÐ¸ÑģÐºÑĢÐµÐ½Ð½Ðµ": 4759,
      "ĠÐ¾Ð±Ð»ÐµÐ³Ñĩ": 4760,
      "ĠÐĹÐ°ÑıÑĨ": 4761,
      "ĠÐ¿Ð¾ÑģÐºÐ¾Ð»ÑĮÐºÑĥ": 4762,
      "ĠÐ²ÑģÐºÐ¾ÑĢÐµ": 4763,
      "er": 4764,
      "wi": 4765,
      "Ð®": 4766,
      "Ð¸Ð¾Ð½": 4767,
      "ÑĢÐ°Ðº": 4768,
      "ÑĢÐ¾Ð¹": 4769,
      "Ð»ÑĭÐ¹": 4770,
      "Ð»Ð»Ñİ": 4771,
      "ÑĥÐºÐ°": 4772,
      "ĠÐ¿Ð¸ÑĤÑĮ": 4773,
      "ĠÑģÐ¾Ð³": 4774,
      "ÑĩÐ¾Ðº": 4775,
      "Ð¼ÐµÐ½ÑĤ": 4776,
      "ÑĤÐ¾ÑĢÐ¾Ð²": 4777,
      "ĠÐ¾ÑģÐº": 4778,
      "ĠÐ¾Ð´Ðµ": 4779,
      "ĠÐºÑĥ": 4780,
      "ĠÐºÑĢÐ¾ÑĪ": 4781,
      "ĠÐºÐ²Ð°Ð´": 4782,
      "Ð¾Ð²ÑĭÑħ": 4783,
      "ĠÐ´ÑĥÑĢ": 4784,
      "ĠÐ¼Ð°Ð½": 4785,
      "ĠÐ¼Ð¾Ð½": 4786,
      "Ð¾Ð»Ñİ": 4787,
      "ĠÐ±Ð»ÑİÐ´": 4788,
      "ĠÐ·ÑĢ": 4789,
      "ÑģÑıÐ¶": 4790,
      "ÑīÐµÐ¼": 4791,
      "ÑīÑĥÐ¿": 4792,
      "Ð°Ð²Ð°Ñı": 4793,
      "Ð°Ð²ÑĪÐ¸Ð¹": 4794,
      "Ð¾ÑĢÐ¾Ð¼": 4795,
      "ĠÐ³ÐµÐ½": 4796,
      "ĠÐ³Ð¾Ð´Ñĥ": 4797,
      "Ð°ÑģÑģ": 4798,
      "ĠÑıÑĢÐ¾": 4799,
      "ĠÐ¾ÑĤÑģÑĤÑĥÐ¿": 4800,
      "Ð°Ð´Ð¾Ð±": 4801,
      "ÐµÑģÐ¸": 4802,
      "Ð¾Ð½Ð¾Ð²": 4803,
      "ĠÐ²ÑĭÐ³Ð»ÑıÐ´ÐµÐ»": 4804,
      "Ð¸Ð½ÐºÑĥ": 4805,
      "ĠÐ¾Ð±ÑģÑĤÐ°Ð½Ð¾Ð²": 4806,
      "ĠÐ¾Ð±ÑĢÐ°Ð´": 4807,
      "ĠÐºÐ°ÐºÐ¾Ð³Ð¾": 4808,
      "ÐµÐ·Ð¶": 4809,
      "Ð¾ÑģÐ¿": 4810,
      "ĠÐĴÑģ": 4811,
      "ĠÐŀÐ´Ð¸Ð½": 4812,
      "ĠÑģÐ»Ð¾Ð¶Ð½Ð¾": 4813,
      "ĠÑĢÐ°Ð·Ð¾Ð±": 4814,
      "ÐŁÐµÑĢ": 4815,
      "ĠÐ½Ð¸Ð·": 4816,
      "ĠÑģÑĤÐ¾Ð»Ðµ": 4817,
      "ĠÐ¾Ð´Ð½Ð°ÐºÐ¾": 4818,
      "ĠÐ¿Ð¾ÐºÐ»Ð¾Ð½": 4819,
      "Ð¾Ð²Ð°ÑĢÐ¸": 4820,
      "Ð¼ÑĥÑī": 4821,
      "ĠÑĦÐ¾ÑĢ": 4822,
      "ĠÐ¼Ð¾Ð½Ð¸": 4823,
      "ĠÐ²Ð¸Ð´Ð¸Ð¼Ð¾": 4824,
      "ĠÐºÑĢÐµÑģÑĤ": 4825,
      "ĠÐ±Ð¾Ð»ÑĮÐ½Ð¸Ñĩ": 4826,
      "ĠÑĥÐ´Ð¾Ð±Ð½Ð¾": 4827,
      "ĠÐ£Ð¸Ð·": 4828,
      "ĠÐ¿Ð°ÑĢÐ°": 4829,
      "ĠÐ½Ð°ÑģÑĩÑĳÑĤ": 4830,
      "ĠÐ¿ÑĢÐ°Ð²Ð¸Ð»ÑĮ": 4831,
      "ĠÐ½Ð¾Ð²Ð¾Ð³Ð¾": 4832,
      "ĠÑĤÑĢÐ¾Ð³": 4833,
      "Ð£Ñĩ": 4834,
      "ĠÐ¿Ð¾Ð»ÑĥÑĩÐ¸ÑĤÑģÑı": 4835,
      "ĠÐºÐ¾ÑĤÐ¾ÑĢÐ¾Ð¼Ñĥ": 4836,
      "ĠÐ¿ÑĢÐ¾ÑĪÐ»Ð¾Ð¼": 4837,
      "ĠÐ¿ÐµÑĢÐ²Ð¾Ð³Ð¾": 4838,
      "ĠÐ²Ð´Ð¾Ð»ÑĮ": 4839,
      "ĠÐ·Ð°ÑĤÑı": 4840,
      "Ð¸ÑĪÑĮÑģÑı": 4841,
      "ĠÐ¿ÑĢÐ¾Ð´Ð¾Ð»Ð¶Ð°Ð»Ð°": 4842,
      "ĠÐ½ÐµÐ²ÐµÑĢÐ¾": 4843,
      "Ð°ÑİÑīÑĥÑİ": 4844,
      "ĠÑĤÐ¾ÑĤÑĩÐ°Ñģ": 4845,
      "ĠÐ¾Ð±ÑĬÐµÐº": 4846,
      "ĠÐ½ÐµÐ±Ð¾": 4847,
      "ĠÐ·Ð²ÑĥÐº": 4848,
      "ĠÐºÑĢÐ¸Ðº": 4849,
      "ĠÐ¿ÑĢÐ¸Ð²Ð»ÐµÐº": 4850,
      "ĠÐ¿ÑĢÐ¸Ð´ÑĳÑĤÑģÑı": 4851,
      "ĠÐ¿Ð°Ð»Ð¾ÑĩÐºÐ¸": 4852,
      "ĠÐ±ÐµÑĢÐµÐ¼": 4853,
      "ĠÐ³ÑĥÐ±Ð°Ð¼Ð¸": 4854,
      "ĠÐ½Ð¾Ð³Ñĥ": 4855,
      "ĠÐŁÐµÑĤÑĥÐ½ÑĮ": 4856,
      "ĠÑħÑĢÐ°Ð½ÐµÐ½Ð¸Ðµ": 4857,
      "ĠÐºÐ¾ÑĢÐ°Ð±Ð»ÑĮ": 4858,
      "ĠÑĥÐ²ÐµÑĢÐµÐ½": 4859,
      "ĠÐ·Ð°ÐºÐ¾Ð½ÑĩÐ¸Ð»": 4860,
      "ĠÑģÑĤÐµÐºÐ»Ð¾": 4861,
      "ĠÐ´ÑĢÑĥÐ·ÐµÐ¹": 4862,
      "ĠSwi": 4863,
      "ĠÐ½ÐµÐ´Ð¾ÑĥÐ¼": 4864,
      "ĠÐºÑĢÐ°Ð¹Ð½ÐµÐ¹": 4865,
      "ĠÑĥÐ¿ÑĢÐ°Ð²Ð»ÐµÐ½Ð¸Ñı": 4866,
      "ĠÑĥÐ³Ð»Ñĥ": 4867,
      "ĠÐ¿Ð¾Ð½ÑĢÐ°Ð²Ð¸Ð»Ð¾ÑģÑĮ": 4868,
      "ĠÐ·ÑĥÐ±Ñĭ": 4869,
      "ĠÐľÐ°ÑĢÑĤÐ¾Ð²": 4870,
      "ĠJavaScript": 4871,
      "ĠÑģÐ¸Ð¼Ð²Ð¾Ð»": 4872,
      "ÐłÐµÐ³ÑĥÐ»ÑıÑĢÐ½Ð¾Ðµ": 4873,
      "ĠRust": 4874,
      "ĠÑĥÑģÐ»Ð¾Ð²Ð¸Ñı": 4875,
      "ĠÑģÑĩÐ°ÑģÑĤÐ»Ð¸Ð²": 4876,
      "ĠÐŃÐ´Ð³": 4877,
      "ÐļÑĢÐ°ÑģÐ¸Ð²ÑĭÐ¹": 4878,
      "ĠÐ½Ð°Ð´Ð¿Ð¸ÑģÑĮ": 4879,
      "ĠÐ¿Ð¾ÑĨÐµÐ»Ð¾Ð²": 4880,
      ".)": 4881,
      "OS": 4882,
      "lin": 4883,
      "ĠÑĢÐ¾": 4884,
      "Ð¾Ñİ": 4885,
      "ÐµÑİÑĤ": 4886,
      "ÑĤÐµÐ¹": 4887,
      "ÑģÐ¾Ð»": 4888,
      "ÑģÐºÐ¾Ðµ": 4889,
      "ÑĢÐµÐ±": 4890,
      "ĠÐ½Ð°Ð¶": 4891,
      "ĠÑģÑĥÐ´ÑĮ": 4892,
      "ĠÑģÐ¸ÑĤÑĥ": 4893,
      "ÑĩÐ½ÑĭÐ¹": 4894,
      "ÐºÐ°ÑĤ": 4895,
      "ÐºÐ°Ð»Ð¸": 4896,
      "ĠÐ²Ð¾Ð½": 4897,
      "ĠÐ²Ð»Ð°": 4898,
      "ĠÐ²ÐµÐ¶": 4899,
      "Ð´ÑĥÐ¼": 4900,
      "ĠÐ¸Ð»Ð»Ñİ": 4901,
      "ĠÐºÑĢÐ¾Ñģ": 4902,
      "ĠÐºÐ°ÑĪ": 4903,
      "ĠÐºÐ½ÑıÐ·ÑĮ": 4904,
      "ÐµÐ½Ñĥ": 4905,
      "Ð¾Ð²Ð°Ð»Ð°ÑģÑĮ": 4906,
      "ÐµÑĢÐ²Ð°": 4907,
      "ÐµÑĢÑĦÐ¾ÑĢ": 4908,
      "ĠÐ´Ð¾Ð¿ÑĢÐ¾Ñģ": 4909,
      "ĠÑĤÑı": 4910,
      "ĠÑĤÐµÑĢÐ¼Ð¸": 4911,
      "ĠÐ·ÐµÐ»": 4912,
      "ĠÑĥÑħÐ²Ð°ÑĤ": 4913,
      "Ð°Ð½Ðµ": 4914,
      "ĠÐ½Ð°ÑĢÑĥÐ¶": 4915,
      "ĠÑĢÐµÐ¶": 4916,
      "ĠÐ¿Ð¾Ð¸Ñģ": 4917,
      "ÑĨÐ°Ð¼": 4918,
      "ÐµÐ´Ð¸": 4919,
      "Ð¾ÑĤÐ¾Ð²": 4920,
      "ĠÐ³Ð°Ð´": 4921,
      "ĠÐ¾ÑĤÑģÑĤ": 4922,
      "ĠÐ¾ÑĤÐ³Ð¾": 4923,
      "Ð°Ð´Ð»ÐµÐ¶": 4924,
      "ĠÐ±ÑĭÑģÑĤ": 4925,
      "ĠÐ¿ÑĢÑĭ": 4926,
      "Ð¸Ð²ÑĪÐ¸Ð¹ÑģÑı": 4927,
      "ĠÐ¿ÑĢÐ¾ÐµÐº": 4928,
      "ÐµÐ²ÐµÐ»": 4929,
      "Ð¸Ð½Ð³": 4930,
      "ĠÐŁÐµÑĢÐµÐ´": 4931,
      "ĠÐĿÑĮÑİ": 4932,
      "ĠÐºÐ°ÐºÐ¾Ð¼": 4933,
      "Ð¸Ð¼ÐµÑĤ": 4934,
      "Ð¸Ð¼ÑĥÐ·": 4935,
      "ĠÐĴÐ¾Ð·": 4936,
      "ĠÐĴÐ¸Ð´Ð°": 4937,
      "Ð°Ð¶Ð¸": 4938,
      "Ð°Ð±Ð°ÑĤ": 4939,
      "ĠÑĤÐ°ÐºÑĥÑİ": 4940,
      "ĠÐŀÑģÑĤ": 4941,
      "ĠÑĢÐ°Ð·ÑĥÐ¼": 4942,
      "ÐĿÐ°Ð´Ð¾": 4943,
      "ĠÐľÐ¸Ð»Ð»": 4944,
      "ĠÐľÑĥÐ´Ð¸": 4945,
      "ĠÐľÑĭÑĪÑĮ": 4946,
      "Ð¡ÐºÐ¸": 4947,
      "ÐĴÐ¾": 4948,
      "ÐµÐ½Ð½Ð¾ÑģÑĤÐ¸": 4949,
      "ĠÐ»Ð¸Ð±Ð¾": 4950,
      "ĠÐĳÐ°ÑĢ": 4951,
      "ĠÐĳÐ°ÑĥÑĤÐ¸": 4952,
      "ÐµÐ½Ð¸ÑıÐ¼Ð¸": 4953,
      "ĠÑĢÐ°ÑģÑģÑĤÐ°Ð²": 4954,
      "ĠÐ¾Ð´ÐµÐ¶Ð´Ñĥ": 4955,
      "ĠÐ³Ð»Ð¾ÑĤ": 4956,
      "ĠÐ²Ð¸Ð´Ð¾Ð¼": 4957,
      "ĠÐ¾Ð¿ÑĢÐ°Ð²": 4958,
      "Ð¸ÑĢÑĮ": 4959,
      "Ð¸ÑĢÐ°ÑĤÑĮ": 4960,
      "ÐľÐ¾Ð¶ÐµÑĤ": 4961,
      "ĠÐ½Ð°Ð´Ðµ": 4962,
      "ÐµÑħÐ²Ð°ÑĤ": 4963,
      "ĠÐĹÐ½Ð°ÑĩÐ¸ÑĤ": 4964,
      "ÐŁÑĢÐ¸Ð½Ñı": 4965,
      "ĠÐ½Ð°Ð¿ÑĢÐ¾ÑĤÐ¸Ð²": 4966,
      "ĠÐ·Ð°Ð¼ÐµÑĢ": 4967,
      "ĠÐ½ÐµÑĤÐµÑĢ": 4968,
      "ĠÐ½ÑĥÐ¶Ð½Ñĭ": 4969,
      "ĠÐĲÐ»Ð¸ÑģÐµ": 4970,
      "ĠÑĤÑĢÐµÐ½": 4971,
      "ÑıÐ·Ð°ÑĤÐµÐ»ÑĮÐ½Ð¾": 4972,
      "ĠÐ½ÐµÐ¿Ð¾Ð´": 4973,
      "ĠÐ±Ð»ÐµÑģÑĤ": 4974,
      "ÑĩÐµÑģÐºÐ¸Ð¼Ð¸": 4975,
      "ĠÐ½ÐµÐ¼ÐµÐ´Ð»ÐµÐ½Ð½Ð¾": 4976,
      "ĠÐºÐ¾Ð»ÐµÐ½Ð¸": 4977,
      "Ð»ÐµÑĤÐµÐ»": 4978,
      "ĠÐ´Ð¾Ð¼Ðµ": 4979,
      "ĠÐ·Ð²Ð¾Ð½": 4980,
      "ĠÑĤÐµÑħÐ½Ð¸": 4981,
      "ĠÐ·Ð°Ð¼ÐµÑĤÐ½Ð¾": 4982,
      "ĠÐŁÐ¾ÑģÐ»ÐµÐ´": 4983,
      "ĠÐ½Ð¾ÑĩÐ¸": 4984,
      "ĠÐ¿Ð°Ð»ÐµÑĨ": 4985,
      "ĠÐ¿Ð°Ð»ÑĮÑĨÐµÐ¼": 4986,
      "ĠÐ½Ð¾ÑģÐ¾Ð¼": 4987,
      "ĠÑĢÐ°Ð·Ð±Ð¸ÑĤÑĮ": 4988,
      "ĠÑĤÐ¾Ð»Ð¿": 4989,
      "ÑİÑīÐµÐ¹": 4990,
      "ÑĤÐ²ÐµÑĢÐ¶": 4991,
      "ĠÐ¾ÑĢÑĥÐ¶Ð¸Ñı": 4992,
      "ĠÐ´Ð²Ð¸Ð¶ÐµÐ½Ð¸Ñı": 4993,
      "ĠÐ¼Ð°Ð¼Ñĭ": 4994,
      "ĠÐ°Ð´ÑĢÐµÑģ": 4995,
      "ĠÐ¿Ð°Ñĥ": 4996,
      "ĠÐ´Ð¾ÐºÑĥÐ¼": 4997,
      "ĠÑĪÐºÐ¾Ð»Ñĭ": 4998,
      "ĠÐ¸Ð·Ð¾Ð±ÑĢÐ°Ð¶ÐµÐ½Ð¸Ðµ": 4999,
      "ĠÑģÑĤÐ°ÑĢÐ¸Ðº": 5000,
      "ÑĪÑĥÑİÑģÑı": 5001,
      "ĠÐ·Ð°Ð´ÑĥÐ¼ÑĩÐ¸Ð²Ð¾": 5002,
      "ĠÐ¿Ð¾Ð»Ð¸ÑĨÐµÐ¹ÑģÐºÐ¸Ð¹": 5003,
      "Ð°Ð½ÑĤÐ°ÑģÑĤÐ¸": 5004,
      "ĠÐ¿Ð¾Ð»Ð¸ÑĨÐ¸Ð¸": 5005,
      "ĠÐ²ÐµÐ»ÐµÐ»": 5006,
      "ĠÐ¿Ð¾Ð´Ð¾ÑĪÐ»Ð°": 5007,
      "ĠÑįÐ½ÐµÑĢÐ³Ð¸": 5008,
      "ĠÑģÐ¸Ð½ÑĤÐµÐ·": 5009,
      "ĠÐ¿ÑĢÐµÐ¿Ð¾Ð´": 5010,
      "ĠÑĢÐµÐ·ÐµÑĢÐ²ÑĥÐ°ÑĢ": 5011,
      "ĠÐ¿ÑĢÐ¾ÑĪÐµÐ¿ÑĤÐ°Ð»": 5012,
      "Ð½Ð°Ð´ÑĨÐ°ÑĤ": 5013,
      "ĠÐ½Ð°ÑģÑĤÐ¾Ð¹": 5014,
      "ĠÐ±ÑĥÑĤÑĭÐ»": 5015,
      "ĠÐ§ÐµÑĢÐµÐ¿Ð°ÑħÐ°": 5016,
      "ÐĽÑİÐ±Ð»Ñİ": 5017,
      "ĠÐĶÑĢÐ°ÐºÐ¾": 5018,
      "ĠÐ¤ÐµÐ´ÐµÑĢÐ°ÑĨÐ¸Ð¸": 5019,
      "ĠSwift": 5020,
      "**": 5021,
      "Ð¾ÑģÑĤÐ°Ð²": 5022,
      "Ð¸Ð½ÑĥÐ»": 5023,
      "Ð»Ð°Ð¼": 5024,
      "ÑĭÐ»Ð¾": 5025,
      "ĠÐ¿Ð¾Ð¹Ð´": 5026,
      "ĠÑģÑħ": 5027,
      "Ð´Ð²Ð°": 5028,
      "ĠÐºÑĥÐ»": 5029,
      "ĠÐºÐ»Ð¾Ð½": 5030,
      "ÑħÐ°": 5031,
      "ÑħÐ¾Ð¹": 5032,
      "ĠÐ´Ð°Ð¼": 5033,
      "ĠÐ´ÑĥÑĢÐ°": 5034,
      "Ð½Ð¾Ñĩ": 5035,
      "Ð¿Ð¾": 5036,
      "ĠÑĤÑĥÐ¼": 5037,
      "ĠÐ±ÑĢÐ¾Ð²": 5038,
      "ĠÑĥÐ½Ð¸": 5039,
      "Ð°Ð½Ð¾Ð¼": 5040,
      "Ð¾Ð´Ð¸": 5041,
      "ĠÐ½ÐµÐ¸Ð·": 5042,
      "ĠÐ¿Ð¾ÑģÑĤÑĢÐ¾": 5043,
      "Ð°Ð·Ð´": 5044,
      "Ð°Ð²ÑĪÐ¸Ñħ": 5045,
      "Ð°Ð²ÑĪÐ¸Ðµ": 5046,
      "ÑĨÐ°Ñħ": 5047,
      "Ð¾Ð³Ð¾Ð¼": 5048,
      "Ð¾Ð±ÐµÐ½Ð½Ð¾": 5049,
      "ĠÐ»ÐµÐ·": 5050,
      "ĠÐĵÑĥÑģÐµÐ½Ð¸": 5051,
      "ĠÐ¿ÑĢÐ¸Ð¾Ð±": 5052,
      "ĠÐ²ÑĭÑĢÐ°Ð·": 5053,
      "ÐµÐ²Ð¾": 5054,
      "ĠÐ¾Ð±Ð¼": 5055,
      "ĠÐ¾Ð±ÑģÑĤÐ¾": 5056,
      "Ð»ÑıÐµÑĤ": 5057,
      "ĠÑģÑĤÑĢÑĥ": 5058,
      "ĠÑģÑĤÐ¸Ð»ÑĮ": 5059,
      "ÑĦÐµÐ¹": 5060,
      "ĠÐ²ÑģÑħ": 5061,
      "ĠÐĿÐ¸ÑĩÐµÐ³Ð¾": 5062,
      "ĠÑħÐ²Ð¾ÑģÑĤ": 5063,
      "Ð¾ÑģÑĤÐ¾": 5064,
      "ĠÐĴÐ°Ð¼": 5065,
      "ÐĶÐ¾Ð¼": 5066,
      "ÐĶÐ¾Ð³Ð¾Ð²Ð¾ÑĢÐ¸": 5067,
      "ĠÐļÑĢÐ°ÑĦ": 5068,
      "ĠÐ·Ð°ÑģÑĤÐ°Ð²Ð»Ñı": 5069,
      "ĠÑģÐ»ÐµÐ·": 5070,
      "ÑĢÑĭÐ¼": 5071,
      "ÐļÑĢÑĥÑĤÐ¾": 5072,
      "ĠÑĢÐ°Ð·Ð»Ð¸Ñĩ": 5073,
      "ÐĿÑĥÐ¶": 5074,
      "ÐŁÐ¾ÐºÐ°": 5075,
      "ÑģÐ»Ð¾Ð²": 5076,
      "ÑĥÐ¼Ñĥ": 5077,
      "ÑĭÐ²Ð°ÐµÐ¼": 5078,
      "ĠÐĳÐ°Ð±": 5079,
      "ĠÐĳÑĢÐ¾Ð´": 5080,
      "ÑĪÐµÐµÑģÑı": 5081,
      "ĠÐ²Ð·ÑĢÑĭÐ²": 5082,
      "ĠÑģÑĤÐ¾Ð»Ð°": 5083,
      "ĠÐ¿Ð¾ÐºÑĢÐ°Ñģ": 5084,
      "ĠÑģÐ°Ð¼Ð¾Ð¹": 5085,
      "ÑĩÐ¸ÐºÐ¸": 5086,
      "ĠÑĦÑĭÑĢ": 5087,
      "Ð¸ÑĢÐ´Ð¶": 5088,
      "ĠÐ½Ð°Ð´ÐµÐ»": 5089,
      "ĠÐ·Ð°ÐºÐ»ÑİÑĩ": 5090,
      "ÑģÑĤÑĢÐµÑĩ": 5091,
      "ĠÐ¿Ð¾Ð²ÐµÐ´": 5092,
      "ĠÐĹÐ°Ðº": 5093,
      "ĠÑħÐ¾ÑĤÑıÑĤ": 5094,
      "Ð¾ÑħÐ¾ÑĤ": 5095,
      "ĠÐ½Ð°ÑĩÐ¸Ð½": 5096,
      "ĠÑĢÐ°Ð±Ð¾ÑĤÐ°Ð»": 5097,
      "Ð²ÑĭÑĢ": 5098,
      "ĠÐ¿ÑĢÐ¾Ð¸Ð·Ð²Ð¾Ð´": 5099,
      "ĠÑĥÐ±ÑĢÐ°ÑĤÑĮ": 5100,
      "ĠÐ¸ÑģÐ¿Ð¾Ð»ÑĮÐ·": 5101,
      "ĠÐ·Ð½Ð°Ð»Ð¸": 5102,
      "ĠÑħÐ¾ÑĩÐµÑĤÑģÑı": 5103,
      "ĠÐŁÐ¾Ð½Ð¸Ð¼": 5104,
      "ĠÐºÐ¾ÑĢÐ¾Ð±": 5105,
      "ĠÑģÐ»ÐµÐ´Ñĭ": 5106,
      "ĠÐ·Ð°ÑĤÑĭÐ»": 5107,
      "ĠÐ¼ÐµÑĤÑĢÐ¸ÐºÐ¸": 5108,
      "ĠÐ¿Ð¾ÑģÐ»ÐµÐ´Ð½ÐµÐµ": 5109,
      "ĠÑģÐ¸Ð´ÐµÐ»Ð°": 5110,
      "ĠÐ¿Ð¾ÑıÐ²Ð¸Ð»Ð¾ÑģÑĮ": 5111,
      "Ð³Ð»ÑĥÑĪ": 5112,
      "Ð¸ÑĨÐ¾": 5113,
      "ĠÑĥÑģÐ¸Ð»Ð¸": 5114,
      "ĠÐ¿Ð¾Ð½Ð¸Ð¼Ð°ÐµÑĪÑĮ": 5115,
      "ĠÐ¿Ð°Ð»ÑĮÑĨÐ°Ð¼Ð¸": 5116,
      "ĠÐºÐ½Ð¸Ð³Ð¸": 5117,
      "ÑĪÐµÐ¹ÑģÑı": 5118,
      "Ð¸Ð½Ð¸ÑģÑĤÐµÑĢ": 5119,
      "ĠÑħÑĢÐ°Ð½Ð¸Ð»Ð¸": 5120,
      "ĠÐ´Ð¸ÑģÐ¿": 5121,
      "ĠÐºÐ°Ð±Ð¸Ð½ÐµÑĤÐ°": 5122,
      "ĠÑħÐ¾ÑĢÐ¾ÑĪÐ¸Ðµ": 5123,
      "ĠÐ¿ÑĢÐ¾ÑĤÑıÐ½ÑĥÐ»Ð°": 5124,
      "ĠÑĢÐ¾Ð´Ð¸ÑĤÐµÐ»Ð¸": 5125,
      "ĠÐ²Ð°Ð¶Ð½Ð¾": 5126,
      "ĠÑģÑĤÑĢÐ°ÑħÐ°": 5127,
      "ĠÐ³Ð»ÑĥÐ±Ð¾Ðº": 5128,
      "ĠÐ³Ð»ÑĥÐ±Ð¾ÐºÐ¾": 5129,
      "ĠÐ·Ð°ÐºÐ»Ð¸Ð½Ð°Ð½Ð¸Ñı": 5130,
      "ĠÐ´Ð¾Ð±Ð°Ð²Ð¸Ð»": 5131,
      "ĠÐ³Ð»Ð°Ð²Ð½Ð¾Ðµ": 5132,
      "ĠÑģÐ¾Ð»Ð½ÑĨÐµ": 5133,
      "ĠÐ³ÑĢÑĥÐ¿Ð¿Ñĭ": 5134,
      "ĠÐ¿ÑĢÐ¾Ð±Ð»ÐµÐ¼Ñĭ": 5135,
      "ĠÑĤÑĥÐ°Ð»": 5136,
      "ĠÐ¿ÑĢÐ¸Ð½Ð°Ð´Ð»ÐµÐ¶": 5137,
      "ĠÑģÐ¸Ð½ÑĤÐµÑĤÐ¸": 5138,
      "ĠÐ¿Ð¸ÑĪÐµÑĪÑĮ": 5139,
      "ĠÑģÑĩÐ°ÑģÑĤÑĮÑİ": 5140,
      "ĠÐ²Ð¾ÑģÐ¿Ð¾Ð¼Ð¸Ð½Ð°Ð½Ð¸Ñı": 5141,
      "ĠÐ²Ð»ÑİÐ±Ð»": 5142,
      "ĠÐ½Ð°Ð¿ÑĢÑıÐ¶": 5143,
      "ĠÑĤÐµÑħÐ½Ð¾Ð»Ð¾Ð³Ð¸Ð¸": 5144,
      "ĠKot": 5145,
      "ĠiOS": 5146,
      "ĠÐ±ÑĥÐºÐ²Ð°Ð»ÑĮÐ½Ð¾": 5147,
      "ĠÑĤÑĢÐµÐ½Ð¸ÑĢÐ¾Ð²": 5148,
      "ĠÑįÐ½ÐµÑĢÐ³ÐµÑĤÐ¸": 5149,
      "ÐŁÑĢÐ¸Ð½ÑıÑĤÐ¾": 5150,
      "ĠÑĤÑĢÐµÐ½Ð°Ð¶": 5151,
      "Ð¸ÑĢÐ´Ð¶Ð¸Ð½Ð¸": 5152,
      "ĠKotlin": 5153,
      "as": 5154,
      "en": 5155,
      "ÑĤÐµÐ»": 5156,
      "Ð¸ÑĨÐ°": 5157,
      "ÑģÐ¾Ð¼": 5158,
      "ÑĢÐ°Ð¹": 5159,
      "Ð½Ð·": 5160,
      "Ð½ÑĳÐ¼": 5161,
      "ÑĥÑĢÑĭ": 5162,
      "ĠÐ¿Ð¸Ð»Ð¾ÑĤ": 5163,
      "ĠÐ²Ð°Ð»": 5164,
      "ĠÐ²Ð°ÑĪÐ¸": 5165,
      "Ð²ÑĪÐ¸ÑģÑĮ": 5166,
      "Ð¼Ð¾ÑĤÑĢÑı": 5167,
      "ÑĪÐµÐ¼": 5168,
      "Ð¾Ð²ÑĭÐ¼": 5169,
      "ĠÐ´Ð½ÐµÐ²Ð½Ð¸Ðº": 5170,
      "ĠÐ¼Ð»Ð°Ð´": 5171,
      "ÑĢÐ¸ÑģÑĤÐ¸": 5172,
      "ĠÑĤÐ°Ð½": 5173,
      "ĠÐ±Ð°Ð½Ðº": 5174,
      "ĠÐ±Ð»Ð¸Ð¶Ðµ": 5175,
      "ÑĢÐ¾Ð¸Ð´": 5176,
      "ĠÑĥÐ¼Ð¸": 5177,
      "ĠÑĥÑĪÐ¸": 5178,
      "ĠÑĩÐ°Ð¹": 5179,
      "Ð·Ð°Ð»": 5180,
      "Ð°Ð½Ð½ÑĭÐ¼Ð¸": 5181,
      "ĠÐ½Ð°ÑģÐºÐ¾Ð»ÑĮÐºÐ¾": 5182,
      "ĠÑĢÐ¾Ð¼": 5183,
      "Ð½ÑĥÐ»Ð¾ÑģÑĮ": 5184,
      "Ð¾ÑĤÑĥ": 5185,
      "Ð¸ÑĤÑĭ": 5186,
      "ĠÐ³ÑĢÐ¸": 5187,
      "ĠÐ¾ÑĤÐ»Ð¸ÑĩÐ½Ð¾": 5188,
      "ĠÐ¾ÑĤÐ¼ÐµÑĤ": 5189,
      "Ð¸Ð²Ð°ÐµÑĤÑģÑı": 5190,
      "ĠÐĵÐ¾Ð¹": 5191,
      "ĠÐĵÐ²Ð¸Ð´": 5192,
      "ĠÐ¿ÑĢÐ¸Ð»Ð¾Ð¶": 5193,
      "ĠÐ²ÑĭÑĪÐ»Ð°": 5194,
      "ÐºÐ°Ñĩ": 5195,
      "ÐµÐ²Ð¸Ñĩ": 5196,
      "ĠÐ¶ÐµÑĢ": 5197,
      "ĠÐ¿Ð¾Ð´Ð°Ð²": 5198,
      "ĠÐ¿Ð¾Ð´ÑģÐºÐ°Ð·": 5199,
      "ĠÐŁÐ¾Ð¿": 5200,
      "ĠÐĿÐ°Ð¹": 5201,
      "Ð¸Ð¼Ð¾Ðµ": 5202,
      "ĠÐ°ÑĤ": 5203,
      "ĠÑħÐ¼Ñĭ": 5204,
      "ÐºÑĥÑĢ": 5205,
      "Ð¸Ð´ÐµÑģÑı": 5206,
      "ĠÐŀÑĢ": 5207,
      "ĠÐ¡ÐµÐ³Ð¾Ð´Ð½Ñı": 5208,
      "ÑĢÑĭÑħ": 5209,
      "ÑĥÐ´Ð¸ÑĤÑĮ": 5210,
      "ÐļÐ°Ð¶ÐµÑĤÑģÑı": 5211,
      "ĠÑĢÐ°Ð·Ð½ÑĭÐµ": 5212,
      "ÐĿÐ°Ð±": 5213,
      "ÐĿÐ¸ÑĩÐµÐ³Ð¾": 5214,
      "ÐŁÑĢ": 5215,
      "ÐŁÐµÑĢÐµÐ´": 5216,
      "ÐŁÑĢÐ¾ÑģÑĤ": 5217,
      "ĠÑģÐ¿ÐµÑĪ": 5218,
      "ÑģÑĤÑĮÑı": 5219,
      "Ð°Ð¿Ð¸ÑĤÐ°Ð½": 5220,
      "ĠÐ¿Ð¾Ð»Ñı": 5221,
      "ĠÐĲÑħ": 5222,
      "ĠÐºÐ¾Ð¾ÑĢÐ´Ð¸Ð½Ð°": 5223,
      "ĠÐľÐ¸Ð»": 5224,
      "ĠÐľÐ¸ÑħÐ°Ð¸Ð»": 5225,
      "ÑĭÐ²Ð°ÑıÑģÑĮ": 5226,
      "ÑĢÐ¾ÑģÐ¸ÑĤÑĮ": 5227,
      "ĠÐĳÐµÑĢ": 5228,
      "ĠÐĳÐµÐ·": 5229,
      "ĠÐĳÐ¾Ð»ÑĮÑĪ": 5230,
      "ÐµÐ½Ð¸ÑıÑħ": 5231,
      "ĠÐ²Ð·Ð²": 5232,
      "ĠÐ²Ð·ÑıÐ»Ð°": 5233,
      "ÑĤÐ¾ÑĢÐ¾Ð¿": 5234,
      "ĠÑģÑĤÐ¾Ð»ÑĮ": 5235,
      "ĠÐ¿Ð¾ÐºÑĢÑĭÐ²": 5236,
      "ĠÐĽÐ¸Ð·": 5237,
      "ÑģÐ¼Ð°ÑĤÑĢÐ¸Ð²": 5238,
      "ĠÐ¿ÑĢÐµÐ´ÑģÑĤÐ¾": 5239,
      "ÑįÐ»": 5240,
      "ÑĩÐµÑģÐºÑĥÑİ": 5241,
      "Ð¸ÑĢÐ°Ñı": 5242,
      "ÐľÐ¾Ð¶Ð½Ð¾": 5243,
      "ÐľÐ¾Ð»Ð¾Ð´": 5244,
      "ĠÐ¿Ð¾Ð¼Ð¾": 5245,
      "ĠÐ¿Ð¾Ð¿Ð°Ð»": 5246,
      "ĠÐ·Ð°Ð¿ÑĢÐµÑī": 5247,
      "ĠÐ¿ÑĢÐ°Ð²Ð¾": 5248,
      "ĠÐ¿ÑĢÐ°Ð²Ð°": 5249,
      "Ð¸ÐºÐ¾Ð²": 5250,
      "ÑĤÑĭÐ¼Ð¸": 5251,
      "ĠÐ·Ð°Ð´Ð°Ñĩ": 5252,
      "ĠÐ²Ð¾ÑģÑħ": 5253,
      "Ð¾Ð³Ð¸Ð¹": 5254,
      "Ð°Ð¶Ð´Ð°Ð½": 5255,
      "ÑĤÑıÐ³": 5256,
      "ĠÐ¼Ð°Ð³Ð¸Ð¸": 5257,
      "ĠÐ»Ð¸ÑĨÑĥ": 5258,
      "ĠÑĢÐµÑĪÐ¸Ð»Ð¸": 5259,
      "ĠÐ¿ÑĢÐ¾ÑĪÑĳÐ»": 5260,
      "ĠÑģÐ»ÐµÐ´Ð¾Ð¼": 5261,
      "ĠÐ¿ÑĢÐ¾Ð±Ð¾Ð²Ð°Ð»": 5262,
      "Ð»Ð¸Ð²ÑĭÐ¹": 5263,
      "ÑĢÐ¸Ð²ÑĪÐ¸ÑģÑĮ": 5264,
      "ĠÑĩÐµÐ»Ð¾Ð²ÐµÐºÐ¾Ð¼": 5265,
      "ĠÑĢÐ¾Ð´ÑģÑĤÐ²ÐµÐ½": 5266,
      "ĠÑģÐ¸Ð´ÐµÐ»Ð¸": 5267,
      "ĠÐ¾ÑĤÐºÑĢÑĭÑĤ": 5268,
      "ĠÐ¼Ð¸Ð½ÑĥÑĤÑĭ": 5269,
      "ĠÐ¾ÑģÑĤÐ°Ð²Ð¸Ð»": 5270,
      "ĠÐ½Ð¸ÐºÐ°ÐºÐ¾Ð¹": 5271,
      "ĠÐ¶ÐµÐ»Ð°Ð½Ð¸Ñı": 5272,
      "ĠÐ·Ð°ÑĢÑıÐ´": 5273,
      "ĠÐ¸Ð´ÐµÑĤ": 5274,
      "ĠÑĥÑĢÐ¾ÐºÐ¾Ð²": 5275,
      "ĠÐ²ÑģÑĤÑĢÐµÑĩÐ¸": 5276,
      "ĠÑģÐµÑĢÐµÐ±": 5277,
      "ĠÐºÐ»Ð°ÑģÑģÐ¸ÐºÐ°": 5278,
      "ÐŀÐ±ÑıÐ·Ð°ÑĤÐµÐ»ÑĮÐ½Ð¾": 5279,
      "ĠÐ¿Ð¾Ð´Ð¾Ð±Ð½ÑĭÐµ": 5280,
      "ĠÐŁÐµÑĤÑĥÐ½Ð¸": 5281,
      "ĠÐĽÑİÐ¿Ð¸Ð½Ð°": 5282,
      "ĠÐ¼Ð¾Ð»Ð¾Ð´Ð¾Ð¹": 5283,
      "ĠÐ¾Ð¿ÑĢÐµÐ´ÐµÐ»Ð¸Ð¼": 5284,
      "ĠÐ¼Ð°Ð»ÐµÐ½ÑĮÐºÐ¸Ð¹": 5285,
      "ĠÑĨÐµÐ»ÑĭÐ¹": 5286,
      "ĠÑĩÐµÑĤÑĭÑĢ": 5287,
      "ĠÐ³Ð¾Ð²Ð¾ÑĢÑıÑĤ": 5288,
      "ĠÑģÐºÐ°Ð¶Ñĥ": 5289,
      "ĠÐ¿ÑĢÐµÐ´Ð»Ð¾Ð¶Ð¸Ð»": 5290,
      "ĠÑĢÐ°Ð´Ð¾ÑģÑĤÐ¸": 5291,
      "ĠÑģÐ²Ð¾Ð±Ð¾Ð´ÐµÐ½": 5292,
      "ĠÐ¼Ð°Ð»ÑĮÑĩÐ¸Ðº": 5293,
      "ĠÑģÐ¸Ð»ÑĮÐ½ÐµÐµ": 5294,
      "ĠÑĩÑĥÐ´ÐµÑģ": 5295,
      "ĠÐ±ÐµÑĢÐµÐ³Ñĥ": 5296,
      "ĠÐ¼ÑıÐ³ÐºÐ¾": 5297,
      "ĠÐ½Ð°Ð·Ð½Ð°ÑĩÐ¸ÑĤÑĮ": 5298,
      "ĠÐ¿Ð¾ÐºÑĥÐ¿ÐºÐ°": 5299,
      "ĠÐ¿Ð¾ÑģÐ¿ÐµÑĪ": 5300,
      "ĠÐ¿ÑĢÐµÐ¾Ð´": 5301,
      "ĠÐ´ÑıÐ´Ñı": 5302,
      "ĠÐŀÑģÐ¾Ð±ÐµÐ½Ð½Ð¾": 5303,
      "ĠÐ±Ð»Ð°ÑģÑĤ": 5304,
      "ĠÑĤÑĢÐ¸Ð´ÑĨÐ°ÑĤÑĮ": 5305,
      "ĠÐ¡Ð°Ð»ÑĤÐ°Ð½": 5306,
      "ĠÑģÐ»Ð¸Ð·ÐµÑĢÐ¸Ð½": 5307,
      "ĠÐ¿Ð¾Ð²ÑĢÐµÐ¶Ð´ÐµÐ½Ð¸Ð¹": 5308,
      "ĠÐ´ÐµÑĪÑĳÐ²": 5309,
      "ĠÐ¿ÑĢÐµÐ´Ð¿Ð¾ÑĩÐ¸ÑĤ": 5310,
      "ĠÑĤÐµÑģÑĤÐ¸ÑĢÐ¾Ð²ÑīÐ¸ÐºÐ°": 5311,
      "ĠÐ¿ÑĥÐ½Ðº": 5312,
      "ĠÐ¸Ð·Ð¼ÐµÑĢÐ¸Ð¼ÑĭÐµ": 5313,
      "ĠÐ½ÐµÐ»Ð¾Ð²ÐºÐ¾": 5314,
      "ĠÐĵÑĥÑģÐµÐ½Ð¸ÑĨÐ°": 5315,
      "ÐĶÐ¾Ð³Ð¾Ð²Ð¾ÑĢÐ¸Ð»Ð¸ÑģÑĮ": 5316,
      "pe": 5317,
      "Ð¬": 5318,
      "ÐµÑĤÐ¾": 5319,
      "ÑĤÐ°Ð½Ð°": 5320,
      "ÑģÐ°Ð¼": 5321,
      "Ð»ÐµÐ½Ð¸Ð¹": 5322,
      "ĠÑģÐ¸Ð»Ð°": 5323,
      "ĠÑģÐµÑĢÐ¶": 5324,
      "ĠÐ²ÑĤÐ¾": 5325,
      "ĠÐ²ÐµÐº": 5326,
      "ĠÐ²ÐµÐ·": 5327,
      "ĠÐ²ÑĢÑıÐ´": 5328,
      "Ð²ÐµÑĢÐ¶": 5329,
      "Ð´ÐµÐ¹ÑĤ": 5330,
      "Ð°Ð»Ð°ÑĤ": 5331,
      "ÑģÑĤÑĢÐ¸": 5332,
      "ĠÐºÑģÑĤÐ°ÑĤÐ¸": 5333,
      "Ð¾Ð²ÐµÑĤ": 5334,
      "Ð¾Ð²Ð¾Ð³Ð¾": 5335,
      "Ð¾Ð²Ð°Ñı": 5336,
      "Ð¾Ð²Ð»ÐµÑĤ": 5337,
      "ĠÐ´Ð°Ð½Ð½ÑĭÐµ": 5338,
      "ĠÐ¼Ð¸ÑĢÐ°": 5339,
      "ÑĢÐ¸ÑĤÐµÐ»ÑĮ": 5340,
      "ĠÑĤÐµÑģ": 5341,
      "ÑİÐº": 5342,
      "ĠÐ·Ð°Ð¹": 5343,
      "Ð°Ð½Ñĥ": 5344,
      "Ð±Ðµ": 5345,
      "ĠÑĢÐ°Ð¹": 5346,
      "ĠÐ½ÐµÑħ": 5347,
      "ĠÐ½ÐµÐ¾Ð¿": 5348,
      "ĠÐ½ÐµÐ¸Ð·Ð²": 5349,
      "ĠÐ¿Ð¾ÑģÑĤÐ°Ð²Ð¸Ð»": 5350,
      "Ð¾ÑĢÐ³": 5351,
      "ĠÐ³ÐµÐ½ÐµÑĢÐ°Ð»": 5352,
      "ĠÐ¾ÑĤÐºÐ¸": 5353,
      "Ð¾Ð¶ÐµÑĪÑĮ": 5354,
      "Ð°ÑĤÐ¾Ð¼": 5355,
      "Ð°ÑĤÐµÐ»ÐµÐ¹": 5356,
      "ĠÐ»Ð°Ð¿": 5357,
      "ĠÐ»Ð°Ð´Ð¾": 5358,
      "ĠÑįÑĦÑĦ": 5359,
      "ĠÐ¿ÑĢÐ¾ÑĤ": 5360,
      "ĠÐ¿ÑĢÐ¸Ð¾ÑĢÐ¸": 5361,
      "ĠÐ²ÑĭÑĢÐ¾Ñģ": 5362,
      "Ð¸Ð½ÐºÐ¸": 5363,
      "ĠÐ¾Ð±Ð¸ÑĤ": 5364,
      "ĠÐ¾Ð±Ð»Ð°": 5365,
      "ĠÐ¾Ð±Ð¼Ð°Ð½": 5366,
      "Ð»ÑıÐ»": 5367,
      "ÑģÑĤÐ²Ð¸Ðµ": 5368,
      "ĠÐ¿Ð¾Ð´ÑģÐºÐ°Ð¶": 5369,
      "Ð¸Ð¼Ð°": 5370,
      "Ð°Ð¶Ð°": 5371,
      "ÐļÐ¾Ð²Ð°Ñĩ": 5372,
      "ĠÑģÐ¿Ð¸Ð½Ñĥ": 5373,
      "Ð¢Ð¾": 5374,
      "Ð¢Ð¾Ð»ÑĮÐºÐ¾": 5375,
      "ĠÐ½Ð¸ÑĩÐµÐ¼": 5376,
      "ĠÐ½Ð¸ÐºÐ¾Ð¼Ñĥ": 5377,
      "ĠÐ¿Ð¾Ð»ÐµÑĤ": 5378,
      "ĠÐ¿Ð¾Ð»Ð½Ð¾Ð¹": 5379,
      "ÐµÑģÑĤÐ¸ÑĤÑĮ": 5380,
      "ÐµÐ½ÑĮÐºÐ¸Ð¹": 5381,
      "ÐŀÐ´": 5382,
      "Ð¡ÑĥÐ¿ÐµÑĢ": 5383,
      "ĊĠĠĠĊĠĠ": 5384,
      "ĠÐĺÑħ": 5385,
      "ĠÐĺÑģÐºÐ¸": 5386,
      "ÑĨÐ¸Ðº": 5387,
      "ĠÑĪÐµÑģÑĤ": 5388,
      "ÑģÐ¿ÐµÑĢ": 5389,
      "ÑģÐ¿ÐµÐºÑĤÐ¸Ð²": 5390,
      "ÑĢÐ¾ÑģÐ°Ð»Ð°": 5391,
      "ĠÐ´Ð²Ð¾Ðµ": 5392,
      "ĠÐ³Ð¾Ð»Ð¾Ð³ÑĢÐ°ÑĦÐ¸": 5393,
      "ĠÐ¿Ð¾ÐºÐ¾Ñģ": 5394,
      "Ð§ÐµÑĢÐµÐ·": 5395,
      "ĠÐ¼ÑĭÑģÐ»Ñı": 5396,
      "ĠÑģÐ¾ÑģÑĤÐ°Ð²": 5397,
      "ĠÐ¸Ð¼ÐµÑĤÑĮ": 5398,
      "ĠÐ·Ð½Ð°ÐµÑĤÐµ": 5399,
      "ĠÐ´ÐµÐ»Ð¾Ð¼": 5400,
      "Ð¾Ð²Ð¾ÑĢÐ¸Ð»Ð°": 5401,
      "ĠÑįÑĤÐ°Ð¿Ñĭ": 5402,
      "ÑĥÑģÐºÐ°Ñı": 5403,
      "Ð´Ð¸Ð½Ñĥ": 5404,
      "ĠÐ¾ÑģÑĤÐ°ÑĤ": 5405,
      "ĠÐ¾ÑģÑĤÐ°Ð»ÑĮÐ½ÑĭÐµ": 5406,
      "ĠÐ¾ÑģÑĤÐ°Ð½Ð°Ð²Ð»Ð¸Ð²": 5407,
      "ÑĥÑģÑĤÐ¸ÑĤÑĮ": 5408,
      "ĠÐ¾ÐºÐ½Ð¾": 5409,
      "ĠÐ¾ÐºÐ½Ð°": 5410,
      "ĠÑħÐ¾ÑĤÐµÐ»Ð¸": 5411,
      "ĠÐ¿Ð¾Ð¿Ð°ÑģÑĤÑĮ": 5412,
      "ĠÐ²Ð¾Ð»Ð½Ð°": 5413,
      "ĠÐ¾ÑĤÐ²ÐµÑĤÑģÑĤÐ²ÐµÐ½Ð½ÑĭÑħ": 5414,
      "ÐºÑĢÑĭÐ²": 5415,
      "ĠÐĲÐ»Ð¸ÑģÑĥ": 5416,
      "ĠÐĳÐ°Ð½ÐºÑĢÐ¾ÑĦÑĤÑĥ": 5417,
      "ĠÐ¿Ð¾Ð·Ð´Ð½Ð¾": 5418,
      "Ð»ÐµÐ½Ð½Ð¾Ð¹": 5419,
      "ĠÐ¼Ð¾Ð¶ÐµÑĤÐµ": 5420,
      "ĠÐ´ÐµÐ²ÑĥÑĪÐºÐ¾Ð¹": 5421,
      "ĠÑĢÐµÑĪÐ¸Ð»Ð°": 5422,
      "ÑĢÐ¾Ð¼Ðµ": 5423,
      "ĠÑģÐ¼Ð¾ÑĤÑĢÐµÐ»Ð¸": 5424,
      "ĠÐ¿Ð¾Ð³Ð»Ð°Ð´": 5425,
      "ÑĪÐ¸ÑħÑģÑı": 5426,
      "ĠÐºÑĢÐ¾Ð²ÑĮ": 5427,
      "ĠÐ¿ÑĢÐ¸ÑĪÐ»Ð¸": 5428,
      "ĠÐ²Ð¾Ð´Ð¸ÑĤÐµÐ»ÑĮ": 5429,
      "ĠÐ²Ð¾Ð»ÑĪÐµÐ±Ð½Ð¾Ð¹": 5430,
      "ĠÐ¼ÑĥÐ¶Ð°": 5431,
      "ĠÐ±Ð¾Ð»ÑĮÑĪÐ¸Ð½": 5432,
      "ĠÐŁÐ¾ÑĤÐ¾Ð¼": 5433,
      "ĠÑģÐ¸ÑģÑĤÐµÐ¼Ñĥ": 5434,
      "ĠÐºÐ°Ð¼ÐµÑĢÑĭ": 5435,
      "ĠÐ¿Ð¾ÑģÐ°Ð´": 5436,
      "ĠÐ·ÐµÐ¼Ð»Ðµ": 5437,
      "ĠÐºÐ»Ð°ÑģÑģÐµ": 5438,
      "ĠÐ´ÐµÑĢÐ¶Ð°ÑĤÑĮ": 5439,
      "ĠÐ¿ÑĢÐ¾ÑģÑĤÑĥÐ´": 5440,
      "ĠÐ½Ð°ÑģÑĤÐ¾Ñı": 5441,
      "ĠÐ½Ð°ÑģÑĤÐ¾ÑıÑīÐ¸Ð¹": 5442,
      "ĠÐ²Ð°ÑĪÑĥ": 5443,
      "ĠÐ´ÐµÑĤÑģÑĤÐ²Ðµ": 5444,
      "ĠÐ¾ÑģÐ¾Ð±Ð¾": 5445,
      "ÑİÑīÑĥÑİ": 5446,
      "ĠÑģÐµÐºÑĥÐ½Ð´Ñĥ": 5447,
      "Ð»Ð°Ð³Ð¾Ð´Ð°ÑĢ": 5448,
      "ÑĤÐ²Ð¾ÑĢ": 5449,
      "ĠÐ²Ð·Ð³Ð»ÑıÐ´Ð°": 5450,
      "ĠÐ¿Ð¾Ð¹Ð´Ñĥ": 5451,
      "ĠÐ²Ð½Ð¸Ð·Ñĥ": 5452,
      "ĠÐ¿Ð¾Ð½Ð°Ð´Ð¾Ð±": 5453,
      "ĠÐ³ÑĢÐ¾Ð·": 5454,
      "Ð¤Ð¸Ð»Ð¸": 5455,
      "ĠÑģÑĭÐ½": 5456,
      "ĠÐ¾ÑĤÑĩÑĳÑĤ": 5457,
      "ĠÐ·Ð°ÑīÐ¸ÑĤÑĭ": 5458,
      "ĠÐ·Ð°Ð¶Ð¼Ñĥ": 5459,
      "ĠÐ±ÐµÑģÐ¿Ð¾ÐºÐ¾": 5460,
      "ĠÐ²Ð¸Ð½Ð¾Ð²Ð°ÑĤÐ¾": 5461,
      "ÐļÑĢÐ°ÑģÐ¸Ð²Ð¾": 5462,
      "ĠÐ²Ð¸Ð·Ð¸ÑĢÑĮ": 5463,
      "ÐĿÐµÐ¼Ð½Ð¾Ð³Ð¾": 5464,
      "ĠÐ°Ð¿Ð¿Ð°ÑĢÐ¸": 5465,
      "ĠÐ½Ð°Ð±Ð»ÑİÐ´Ð°ÑĤÑĮ": 5466,
      "Ð¦Ð°ÑĢÑĮ": 5467,
      "ĠÐ´ÑĢÑĥÐ·ÑĮÑıÐ¼Ð¸": 5468,
      "ĠÐ¿ÑĥÑĤÐµÑĪÐµ": 5469,
      "ĠÐ¾ÑĦÐ¸ÑĨ": 5470,
      "ĠÐ¶ÐµÐ½ÑīÐ¸Ð½": 5471,
      "ĠÐ¸Ð½ÑĤÐµÑĢÐ½ÐµÑĤ": 5472,
      "ĠÑĤÑĭÑģÑıÑĩ": 5473,
      "ÐŀÐ¿ÑıÑĤÑĮ": 5474,
      "ĠÐ¿Ð»ÑİÑģÑĭ": 5475,
      "ĠÑĤÐ¸Ð¿Ð°": 5476,
      "ĠÐ¼ÑĥÐ·Ñĭ": 5477,
      "ÑĢÐ¸Ð·Ð¾Ð½": 5478,
      "ĠÑģÑĤÑĢÐµÐ¼Ð¸ÑĤÐµÐ»ÑĮÐ½Ð¾": 5479,
      "ĠLinux": 5480,
      "ĠÐ°Ð¿Ð´ÐµÐ¹ÑĤ": 5481,
      "ĠÐºÐ¾ÑģÑĤÑİ": 5482,
      "ĠÐłÐµÐ·ÐµÑĢÑĦÐ¾ÑĢ": 5483,
      "ĠÐ¡Ð¾ÑħÐ°ÑĤÑĭÐ¹": 5484,
      "ĠÐ´ÐµÐ½ÐµÐ³": 5485,
      "ĠÐľÐ°ÑĢÑĤÐ¾Ð²ÑģÐºÐ¸Ð¹": 5486,
      "ĠÐ¸Ð»Ð»ÑİÐ¼Ð¸Ð½Ð°": 5487,
      "ĠÐ²ÑģÑħÐ»Ð¸Ð¿": 5488,
      "ÐĿÐ°Ð±ÑĢÐ¾ÑģÐ°Ð»Ð°": 5489,
      "ĠÑĢÐ¾Ñģ": 5490,
      "Ð¾Ð¸": 5491,
      "ÑĤÐ°Ð»Ð°": 5492,
      "ÑĢÐ°Ñı": 5493,
      "Ð½Ð¾Ð³": 5494,
      "Ð½ÐµÐ½Ð¸": 5495,
      "Ð½Ð°Ð¼Ð¸": 5496,
      "Ð»Ð¾Ðº": 5497,
      "ÑĥÐµÑĪÑĮ": 5498,
      "ĠÑģÑİ": 5499,
      "ĠÑģÑĥÑĤ": 5500,
      "ĠÑģÐ¾ÑĩÑĥÐ²ÑģÑĤÐ²": 5501,
      "ÑĩÐºÐ°": 5502,
      "ÐºÐ½ÑĥÐ²": 5503,
      "ĠÐ²Ð¶": 5504,
      "ĠÐ²Ð»Ð¸": 5505,
      "ĠÐ²Ð¾ÑĢÐ¾ÑĤ": 5506,
      "Ð¼Ð°Ñģ": 5507,
      "ĠÐ¾ÑĦÐ¾ÑĢÐ¼": 5508,
      "ÑģÑĤÑĭ": 5509,
      "ÑģÑĤÑģÑı": 5510,
      "ÑĪÐ»Ð¾": 5511,
      "ĠÐºÑĥÑĢÐ¸": 5512,
      "ÐµÐ½Ð·": 5513,
      "Ð¾Ð²ÑĭÐ¹": 5514,
      "ĠÐ´Ð»Ð¸": 5515,
      "ĠÐ´ÑĳÑĢ": 5516,
      "ĠÐ´ÐµÐ¼Ð¾Ð½": 5517,
      "ĠÐ¼Ð¸Ð»Ð¾": 5518,
      "ĠÐ·ÑĢÑı": 5519,
      "ĠÐ½Ð°ÑģÐ»": 5520,
      "ĠÑĢÐ¾Ð²": 5521,
      "ĠÑĢÑıÐ´": 5522,
      "ĠÑĢÐµÑĩÑĮ": 5523,
      "ĠÑĢÐ¾Ð¶Ð´ÐµÐ½Ð¸Ñı": 5524,
      "ĠÐ½ÐµÑģÐºÐ¾Ð»ÑĮ": 5525,
      "ĠÐ¿Ð¾ÑĪÐ»Ð°": 5526,
      "Ð½Ð°ÐµÑĪÑĮ": 5527,
      "Ð°ÑĢÐ¾Ð¼": 5528,
      "Ð½Ð¸ÑĨÐµÐ¹": 5529,
      "Ð¾ÑĢÑĥ": 5530,
      "Ð¸ÑĤÐ°Ð½Ð°": 5531,
      "ĠÐ³Ð½ÐµÐ²": 5532,
      "ĠÐ¾ÑĤÐ¼": 5533,
      "ĠÐ¾ÑĤÐµÐ»Ñı": 5534,
      "Ð°ÑĤÐµÐ»Ð¸": 5535,
      "ÐµÐ½Ð¸Ð²": 5536,
      "ÐµÑģÐ¼Ð¾ÑĤÑĢÑı": 5537,
      "Ð¸Ð²Ð°Ð½Ð¸Ñı": 5538,
      "ĠÐ¿ÑĢÐ¸ÑģÑıÐ¶": 5539,
      "ĠÐ²ÑĭÐº": 5540,
      "ĠÐ²ÑĭÑģÑĤÐ°Ð²": 5541,
      "ĠÐ²ÑĭÑģÑĤÑĥÐ¿": 5542,
      "ĠÐ²ÑĭÐ·Ð²": 5543,
      "ĠÐ²ÑĭÐ¹Ð´": 5544,
      "ÐµÐ²Ð¸Ð·": 5545,
      "ĠÐ¾Ð±Ð»Ð°Ðº": 5546,
      "ĠÐ²ÑģÐºÐ¾ÑĩÐ¸Ð»": 5547,
      "ĠÐ¿Ð¾Ð´ÐµÐ»": 5548,
      "ĠÐ¿Ð¾Ð´Ð¶": 5549,
      "ĠÐ¿Ð¾Ð´Ð¾Ð·": 5550,
      "ĠÐ¿Ð¾Ð´ÑĢÐ¾ÑģÑĤ": 5551,
      "ĠÐŁÐ°ÑĤ": 5552,
      "ĠÑħÐ¸Ð¼Ð¸": 5553,
      "Ð¾Ð·Ð½Ð°Ñĩ": 5554,
      "Ð¾Ð·ÑĢÐ°Ñĩ": 5555,
      "ĠÐ¸Ð·Ð´": 5556,
      "ÐµÑĩÐ½Ð¾Ð¹": 5557,
      "ĠÑĤÐ°ÐºÑģÐ¸": 5558,
      "ĠÐŀÐ¿": 5559,
      "ĠÐŀÐºÐ°Ð·": 5560,
      "ÐļÐ½ÑıÐ·ÑĮ": 5561,
      "Ð°ÑİÑīÐµ": 5562,
      "ĠÐ¿Ð¾Ð»Ð½ÑĭÐ¹": 5563,
      "ĠÐ¿ÐµÑĢÑĩÐ°ÑĤ": 5564,
      "ĠÐľÐ¾Ð¹": 5565,
      "Ð¡ÑĤÐ¾": 5566,
      "Ð¡ÑĤÑĢ": 5567,
      "ÐĴÐµÑĢ": 5568,
      "ĠÑĪÑĳÐ»": 5569,
      "ĠÑĪÑĤÐ°Ð½": 5570,
      "ÑĢÐ¾ÑģÐ¸Ð»Ð°": 5571,
      "ĠÐ³Ð¾ÑĢÐ¸Ð·Ð¾Ð½": 5572,
      "ĠÑģÐºÐ°Ð·Ð°Ð»Ð¸": 5573,
      "ĠÑģÐ°Ð¼ÑĭÑħ": 5574,
      "ĠÐ²Ð¾Ð·ÑĮ": 5575,
      "ĠÐ²Ð¾Ð·Ð¼ÑĥÑī": 5576,
      "ÐµÐ»Ð¸Ñĩ": 5577,
      "ÑĩÐ¸ÐºÐ¾Ð²": 5578,
      "ĠÐ¿ÑĢÐµÐ´Ð¿ÑĢÐ¸": 5579,
      "ĠÐ¾Ð¿ÑĥÑģÑĤÐ¸Ð»": 5580,
      "ÑĭÑĪÐ°Ð»ÑģÑı": 5581,
      "ĠÐĶÐ¶Ð¾ÑĢ": 5582,
      "ÐµÑħÐ°Ð»Ð¸": 5583,
      "ĠÐ¸Ð½Ð¶ÐµÐ½ÐµÑĢ": 5584,
      "ĠÐķÑģÑĤÑĮ": 5585,
      "ĠÐ½Ð°Ð¿Ð¾Ð»Ð½": 5586,
      "ÐĹÐ°Ð¿": 5587,
      "ÑĥÐ²ÐµÑĢ": 5588,
      "ĠÐ¿Ð¾Ð¿ÑĢÐ°Ð²": 5589,
      "ĠÐ¿Ð°ÑĢÐ½ÐµÐ¹": 5590,
      "ĠÑĢÐ°Ð±Ð¾ÑĤÐµ": 5591,
      "ĠÑĢÐ°Ð±Ð¾ÑĤÐ°Ñİ": 5592,
      "ĠÐ·Ð°Ð²ÐµÑĢÑĪ": 5593,
      "ĠÐ½Ð¾Ð²ÑĭÑħ": 5594,
      "ĠÐ¸ÑģÐ¿ÑĢÐ°Ð²": 5595,
      "ĠÑģÐ»Ð¾Ð²Ð°Ð¼Ð¸": 5596,
      "ĠÐŀÑĢÑĤÐµÐ³Ñĥ": 5597,
      "ĠÐ¿Ð¾Ð·Ð¶Ðµ": 5598,
      "ÑģÑĤÐ²ÐµÐ½Ð½Ð¾Ð¹": 5599,
      "ĠÐ¿ÑĢÐ¾Ð²ÐµÐ´": 5600,
      "ĠÑĩÑĥÐ²ÑģÑĤÐ²Ð¾": 5601,
      "Ð¾Ð²Ð¾ÑĢÑıÑĤ": 5602,
      "ĠÑģÑĤÐ¾ÑĢÐ¾Ð½Ðµ": 5603,
      "ĠÐ¿Ð¾Ð¶ÐµÐ»": 5604,
      "ĠÑĤÐ²Ð¾Ð¸": 5605,
      "ĠÐ¿Ð¾ÑıÐ²Ð¸Ð»Ð¸ÑģÑĮ": 5606,
      "ĠÐ¾ÑĤÐ²ÑĢÐ°ÑĤ": 5607,
      "ĠÐ²ÑĭÐ¿Ð¾Ð»Ð½": 5608,
      "Ð¸ÑĨÐ¸Ð½": 5609,
      "ĠÑģÐµÐºÑĢÐµÑĤ": 5610,
      "ĠÐ¿Ð»Ð°Ð½ÐµÑĤÐµ": 5611,
      "ĠÐ»ÐµÐ³ÑĩÐµ": 5612,
      "ĠÐ¿Ð°Ð»ÑĮÑĨÐµÐ²": 5613,
      "ĠÐ´ÐµÑĢÐ¶Ð°": 5614,
      "ĠÐ´ÐµÑĢÐ¶Ð°Ð»": 5615,
      "ĠÐ±ÑĢÐ¾ÑģÐ¸Ð»ÑģÑı": 5616,
      "ĠÐ¾ÑĢÐ±Ð¸ÑĤ": 5617,
      "ĠÐ¿ÑĢÐ¸Ð·ÐµÐ¼": 5618,
      "ĠÐºÑĥÑĢÑģÐµ": 5619,
      "Ġ17": 5620,
      "ĠÑĥÑģÐ»ÑĭÑĪÐ°Ð»Ð°": 5621,
      "ÐĺÐ½ÑĤÐµÑĢÐµÑģ": 5622,
      "ĠÑĢÐ°Ð·Ð´ÑĢÐ°Ð¶": 5623,
      "ĠÐ¼Ð½Ð¾Ð¶Ðµ": 5624,
      "ĠÐ·ÐµÐ»ÑĮÑı": 5625,
      "ĠÑģÐµÑģÑĤÑĢÐµÐ½": 5626,
      "ĠÐ¿ÑĢÐµÐºÑĢÐ°ÑĤ": 5627,
      "ĠÐºÐ¾ÑģÐ¼": 5628,
      "ĠÐ³ÑĢÐ°Ð¶Ð´Ð°Ð½": 5629,
      "ĠÐ¥Ð¾Ð³Ð²Ð°ÑĢÑĤÑģ": 5630,
      "Ð½Ð¾ÐºÑĢÐ¾Ð²": 5631,
      "ĠÑĥÑħÐ¼Ñĭ": 5632,
      "ĠÐ¿Ð¾Ð´Ð½ÑıÐ»Ð°": 5633,
      "ĠÐ¾ÑĤÑĩÐ°Ñı": 5634,
      "ĠÐ²Ð¿ÐµÑĢÐµÐ´Ð¸": 5635,
      "ĠÐ½ÐµÐ·Ð½Ð°ÐºÐ¾Ð¼": 5636,
      "ĠÑĥÑģÐ¼ÐµÑĪ": 5637,
      "ĠÐ³Ð¾ÑģÑĤÐ¸Ð½ÑĥÑİ": 5638,
      "ĠÑĢÐ°ÑģÑģÑĩÐ¸ÑĤ": 5639,
      "ĠÐ¸Ð³ÑĢÐ°": 5640,
      "ĠÑıÑĢÐºÐ¾": 5641,
      "ĠÐ¿Ð¾Ð´Ð±Ð¾ÑĢÐ¾Ð´": 5642,
      "ĠÑģÐ¼ÑĥÑīÐµÐ½Ð½Ð¾": 5643,
      "ĠÑģÐ¾Ð¿ÑĢÐ¾Ð²": 5644,
      "ĠÐ¼Ð°Ð½ÑĤÐ¸Ð¸": 5645,
      "ĠÐ¼Ð°Ð½ÑĤÐ¸Ñİ": 5646,
      "Ð¡Ð¾Ð²ÑĢÐµÐ¼": 5647,
      "ĠÐ¿ÑĢÐ¸Ð½ÑĨÐ¸Ð¿": 5648,
      "ĠÐ¿Ð¾Ð²ÐµÑĢÑħÐ½Ð¾ÑģÑĤÐ¸": 5649,
      "ĠÑģÐ¾Ð±Ð¸ÑĢÐ°Ð»ÑģÑı": 5650,
      "ĠÐ²Ð°ÑĢÐ¸Ð°Ð½ÑĤÑĭ": 5651,
      "ĠÐ¾ÑĤÐ²ÐµÑĢÑģÑĤÐ¸": 5652,
      "ĠÐ¸Ð¼Ð¿Ð»Ð°Ð½ÑĤ": 5653,
      "ĠÑĢÐ°Ð·Ð²ÐµÑĢÐ½ÑĥÐ»ÑģÑı": 5654,
      "ĠÐºÐ¾Ð»ÑĮÑĨÐ¾": 5655,
      "ĠÐ¿ÑĢÐµÐ´ÑĥÐ¿ÑĢÐµÐ´": 5656,
      "ĠÐ¼Ð°Ð³Ð°Ð·Ð¸Ð½": 5657,
      "ĠÐ²Ð¾Ð·ÑĢÐ°Ð·Ð¸Ð»": 5658,
      "ĠÑģÐµÑĢÐ¸Ð°Ð»": 5659,
      "ĠÐĶÑĥÑĢÑģÐ»": 5660,
      "ĠNik": 5661,
      "ĠÐ²ÑĭÐ´Ð¾ÑħÐ½ÑĥÐ»": 5662,
      "ĠÐ´Ð¾Ð½ÐµÑģ": 5663,
      "ĠÐŁÑĥÑģÑĤÑĮ": 5664,
      "ÑĨÐ¸ÑĦÑĢÐ¾Ð²": 5665,
      "ĠÐ½Ð°ÑħÐ¼Ñĥ": 5666,
      "ĠÐ¿Ð¸Ð»Ð¾ÑĤÐ°": 5667,
      "Ð¸Ð´ÐµÑģÑıÑĤÐ¸": 5668,
      "ti": 5669,
      "ÐµÐ¸": 5670,
      "ÑģÐ²Ð¾": 5671,
      "Ð½ÐµÐ»": 5672,
      "Ð½Ð¾Ð¿": 5673,
      "Ð»ÑĥÑĩ": 5674,
      "ĠÐ¿ÑĩÐµÐ»": 5675,
      "ĠÑģÐµÐ»Ð°": 5676,
      "ĠÑģÐ¾Ð¶Ð°Ð»": 5677,
      "ÑĩÑĥÑĢ": 5678,
      "ĠÐ²Ð²": 5679,
      "Ð²ÐµÑĢÑĮ": 5680,
      "Ð¼Ð±": 5681,
      "Ð¼Ð¾Ð¹": 5682,
      "Ð¼ÐµÐ¹": 5683,
      "Ð¼ÐµÑģÑĤ": 5684,
      "ĠÐ¸Ð´Ð¸": 5685,
      "ĠÐºÐ²Ð°ÑĢÑĤ": 5686,
      "ĠÐºÐ¾ÑĤÐ°": 5687,
      "ÐµÐ½ÑĤÐ¸": 5688,
      "Ð¾Ð²Ð°Ð»Ð¾ÑģÑĮ": 5689,
      "ĠÐ´Ð¾Ñĩ": 5690,
      "ĠÐ¼Ð¸": 5691,
      "Ð¿ÑĢÐ°Ð²": 5692,
      "ÐµÐ»Ð½Ð¾Ðº": 5693,
      "Ð¾Ð»ÐµÑĤ": 5694,
      "Ð¾Ð»Ð·": 5695,
      "Ð¾Ð»ÑĩÐ°Ð»": 5696,
      "ÑĢÐ¾ÑĤÐ¸": 5697,
      "ĠÑĥÐ¹ÑĤÐ¸": 5698,
      "Ð·Ð¸": 5699,
      "Ð·Ð°Ð´Ð¸": 5700,
      "Ð°Ð½ÑĢ": 5701,
      "Ð°Ð½ÐµÑĤ": 5702,
      "Ð±Ð¾Ð¼": 5703,
      "ĠÑĢÑĤÑĥ": 5704,
      "ĠÐ½ÐµÑģÐ¿": 5705,
      "ĠÐ¿Ð¾ÑĪÐ»Ð¸": 5706,
      "Ð°ÑĢÑģÑĤÐ²Ð°": 5707,
      "Ð½Ð¸ÑĨ": 5708,
      "ĠÐµÐ´Ð¸": 5709,
      "Ð¸ÑĤÑı": 5710,
      "Ð°ÑĤÐ¸Ð½": 5711,
      "Ð¸Ð²Ð°Ð»Ð°ÑģÑĮ": 5712,
      "ĠÐ²ÑĭÐ²Ð¾Ð´": 5713,
      "Ð»ÑıÐ»ÑģÑı": 5714,
      "ĠÐ¿Ð¾Ð´ÑĤ": 5715,
      "ĠÐĿÐ°Ð´Ð¾": 5716,
      "ÐµÐºÐ°": 5717,
      "ĠÐ°Ð¼Ñĥ": 5718,
      "ĠÑħÑĢ": 5719,
      "Ð°Ð¶Ñĥ": 5720,
      "ÐµÑĩÐ½ÑĭÐ¹": 5721,
      "ĠÐļÐ°Ð·Ð°Ð»Ð¾ÑģÑĮ": 5722,
      "ĠÐ¡Ð½Ð°ÑĩÐ°Ð»Ð°": 5723,
      "ĠÐ·Ð°ÑħÐ¾Ð´": 5724,
      "ÐļÐ°ÑĢ": 5725,
      "ĠÑĢÐ°Ð·ÑĢÑĥÑĪ": 5726,
      "ÐŁÐ¾Ð²": 5727,
      "Ð°Ð»ÑĮÐ½ÑĥÑİ": 5728,
      "ÑĥÑĩÐ½Ð¾": 5729,
      "ĠÑģÐºÑĢÐ¾Ð¼": 5730,
      "ÑĭÐ²Ð°Ð»Ð¸ÑģÑĮ": 5731,
      "ÐĴÐ¸Ð´": 5732,
      "ĠÐłÐµÐ¹": 5733,
      "ĠÐłÐ°Ð´Ð¸": 5734,
      "ĠÐłÐ¾Ð½Ñĥ": 5735,
      "ÑĤÐ¾ÑĢÐ¾Ð¼": 5736,
      "ĠÑĢÐ°ÑģÑģÐ»Ð°Ð±": 5737,
      "ĠÐ³Ð»ÑĥÑħ": 5738,
      "ĠÐ·Ð°ÐºÐ°ÑĤ": 5739,
      "ĠÑĥÐ´Ð¾Ð²Ð»ÐµÑĤ": 5740,
      "ĠÐ¸Ð½ÑĦ": 5741,
      "ÑĥÑĢÑģ": 5742,
      "ĠÐ½Ð°Ð¿ÑĢÐ¸Ð¼ÐµÑĢ": 5743,
      "Ð°ÑĢÐ¸Ð»": 5744,
      "ÑĤÐ¾Ð²Ð¾Ð¹": 5745,
      "ĠÐ²Ð¾Ð»Ð½Ñĥ": 5746,
      "ĠÐ±ÑĥÐ´ÐµÑĤÐµ": 5747,
      "ÐĳÐ¾Ð»": 5748,
      "ÐĳÐµÐ·": 5749,
      "ĠÐ½ÑĥÐ¶Ð½Ð°": 5750,
      "ĠÐ³ÑĢÑĥÑģÑĤÐ½Ð¾": 5751,
      "ĠÑĥÐ¼ÐµÐµÑĤ": 5752,
      "ĠÐ²Ð¾ÑģÑģÑĤÐ°Ð½Ð¾Ð²": 5753,
      "ĠÑģÐ´ÐµÐ»Ð°Ð»Ð¸": 5754,
      "ĠÐ·Ð°Ð±ÑĭÐ»Ð°": 5755,
      "ĠÐļÐ°ÐºÐ°Ñı": 5756,
      "ĠÐ¸ÑģÑħÐ¾Ð´": 5757,
      "ĠÑĩÑĥÐ²ÑģÑĤÐ²Ð°": 5758,
      "ĠÑĩÑĥÐ²ÑģÑĤÐ²Ð¾Ð²Ð°ÑĤÑĮ": 5759,
      "ĠÑĥÐ¿Ð°Ð»Ð°": 5760,
      "ĠÐ¿ÐµÑĢÐ²ÑĥÑİ": 5761,
      "ĠÐ¿ÐµÑĢÐ²ÑĭÐ¼": 5762,
      "ĠÐ¿Ð¾Ð¶Ð°Ð»Ð°": 5763,
      "ĠÑĤÐ²Ð¾ÐµÐ³Ð¾": 5764,
      "ĠÑģÐ»ÑĭÑĪÐ°Ð»Ð°": 5765,
      "ĠÐºÑĢÐ¾Ð²ÑĮÑİ": 5766,
      "ĠÐ³Ð¾ÑĢÐ»Ðµ": 5767,
      "ĠÑĥÐ´Ð¸Ð²Ð»ÐµÐ½Ð½Ð¾": 5768,
      "ĠÐ²Ð¾Ð´Ð°": 5769,
      "ĠÐ²Ð¾Ð´Ñĥ": 5770,
      "ĠÐ¤ÑĢÐµÐ´": 5771,
      "ĠÐ¤ÑĢÐ°Ð³": 5772,
      "ĠÐ¼ÐµÐ´Ð¸ÑĨÐ¸Ð½": 5773,
      "ĠÐ¿ÑĢÐ¾Ð³Ð¾Ð²Ð¾ÑĢÐ¸Ð»": 5774,
      "ĠÑģÐ¸Ð»Ð¾Ð¹": 5775,
      "ĠÐ±ÐµÑĢÑĥ": 5776,
      "ĠÑģÐ¸ÑģÑĤÐµÐ¼Ðµ": 5777,
      "ĠÐ½Ð¾Ð³Ð°Ð¼Ð¸": 5778,
      "ĠÐ±ÑĢÐ¾ÑģÐ¸Ð»Ð°": 5779,
      "ĠÑģÑĩÐ¸ÑĤÐ°Ð»": 5780,
      "ĠÑģÐ¾Ð³Ð»Ð°ÑģÐµÐ½": 5781,
      "ĠÑģÐ¾Ð³Ð»Ð°ÑģÐ¸Ð»ÑģÑı": 5782,
      "ĠÑĤÐ¸ÑħÐ¾Ð½ÑĮ": 5783,
      "ĠÐºÐ»Ð¸Ð½Ð¸ÐºÐµ": 5784,
      "ĠÐ²Ð¾Ð·Ð¼Ð¾Ð¶Ð½Ð¾ÑģÑĤÐ¸": 5785,
      "ĠÑĢÐ°ÑģÑĤÑı": 5786,
      "ĠÐ´Ð¸ÑģÐº": 5787,
      "ĠÑģÑĤÐµÐ½Ñĥ": 5788,
      "ĠÐ·ÐµÐ»ÑĮÐµÐ²": 5789,
      "ĠÐ¾Ð¿ÑĢÐµÐ´ÐµÐ»Ð¸ÑĤÑĮÑģÑı": 5790,
      "ĠÑĢÐµÐ±ÑĳÐ½": 5791,
      "ĠÑĩÐ¸ÑĤÐ°Ð»": 5792,
      "ĠÑģÑĭÐ½Ð°": 5793,
      "ĠÑĢÐ¸Ñģ": 5794,
      "ĠÑģÐ»ÑĥÑĪÐ°ÑĤÑĮ": 5795,
      "Ð°ÑİÑīÐ¸Ð¹ÑģÑı": 5796,
      "ĠÑįÐºÑĢÐ°Ð½Ðµ": 5797,
      "ĠÑĥÐ´Ð°ÑģÑĤÑģÑı": 5798,
      "ĠÐ²Ð¾ÑģÐºÐ»Ð¸ÐºÐ½ÑĥÐ»Ð°": 5799,
      "ĠÐ¼Ð°ÑģÑģ": 5800,
      "ĠÐ½ÐµÐ´Ð¾ÑģÑĤÐ°ÑĤÐ¾ÑĩÐ½Ð¾": 5801,
      "ĠÐļÑĢÐµÐ±": 5802,
      "ĠÐ¿ÑĢÐ¸ÐºÐ°Ð·Ð°Ð»": 5803,
      "ĠÑĨÐ²ÐµÑĤÐ°": 5804,
      "ĠÑĢÐ¾Ð±ÐºÐ¾": 5805,
      "ÐĻÐ¾": 5806,
      "ĠÐ¿Ð¾ÑģÑĤÐ¾ÑıÐ½Ð½Ð¾": 5807,
      "Ð¡ÑĤÐ°ÑĢ": 5808,
      "ĠÐ¿Ð¾Ð¼ÐµÑīÐµÐ½Ð¸Ñı": 5809,
      "ĠÑįÐ»ÐµÐºÑĤ": 5810,
      "ĠÐ¾ÑĢÐ³Ð°Ð½Ð¸ÑĩÐµÑģÐºÐ¸Ñħ": 5811,
      "ĠÐ°Ð½Ð³Ð¸Ð½Ð¾Ð¹": 5812,
      "ĠÐļÑĢÐ°ÑģÐ¾ÑĤÐºÐ°": 5813,
      "ĠÐ¸Ð·Ð±Ð°Ð²": 5814,
      "ĠÐ±ÐµÐ·Ð¾Ð¿Ð°ÑģÐ½Ð¾ÑģÑĤÐ¸": 5815,
      "ĠÐºÐ¾Ð»Ð»ÐµÐ³Ð°": 5816,
      "ĠÐ»Ð°Ð´Ð¾Ð½": 5817,
      "ĠÐļÐ¾ÑĢÐ¿ÑĥÑģÐµ": 5818,
      "ĠÐ¶ÑĳÑģÑĤÐºÐ¾": 5819,
      "ĠÑģÑĤÐ°ÑĢÑĥÑħÐ°": 5820,
      "ĠÐ¡Ð¾Ð½Ñı": 5821,
      "ĠÐ²Ð¾Ð·Ð±ÑĥÐ¶Ð´": 5822,
      "ĠÐ²Ð¾Ð·Ð¼ÑĥÑĤÐ¸Ð»ÑģÑı": 5823,
      "ĠÐ±Ð»Ð¾ÐºÐ¾Ð»Ð¾Ð³Ð¸Ð¸": 5824,
      "ĠÑĢÐ°ÑģÑģÐµÑıÐ½Ð½Ð¾": 5825,
      "ĠÑİÑĢÐ¸ÑģÑĤÐ°": 5826,
      "ÑĪÑĤÐ°Ð±": 5827,
      "ĠÐ´Ð²ÑĥÐ¼Ñı": 5828,
      "ĠÐ½ÐµÐ±ÑĢÐµÐ¶Ð½Ð¾": 5829,
      "ĠÐºÑĢÐ¾ÑģÑģÐ¾Ð²": 5830,
      "ĠÐĵÐ²Ð¸Ð´Ð¾Ð½": 5831,
      "ĠÐ¿ÑĢÐ¸Ð¾ÑĢÐ¸ÑĤÐµÑĤ": 5832,
      "ÑģÐ¿ÐµÑĢÐ¸Ð¼": 5833,
      "Ð¤Ð¸Ð»Ð¸Ð¿": 5834,
      "ĠÐĶÐ¶Ð¾ÑĢÐ´Ð¶": 5835,
      "ĠÑĤÐ¸ÑħÐ¾Ð½ÑĮÐºÐ¾": 5836,
      "ype": 5837,
      "ĠÑĢÐ¾ÑģÑĤ": 5838,
      "Ð°ÑĨÐ¸Ñı": 5839,
      "ÐµÑģÑĮ": 5840,
      "ÑĢÐµÐ³": 5841,
      "Ð½Ð°Ð·": 5842,
      "Ð»ÐµÐ±": 5843,
      "Ð»ÐµÐ¿": 5844,
      "Ð»ÑĥÐ¿": 5845,
      "Ð»ÐµÐ½Ð¸Ñİ": 5846,
      "ÑıÑģÐ°": 5847,
      "ĠÑģÐ¾Ð¶": 5848,
      "ĠÐ²Ð¾Ð¿": 5849,
      "Ð¼Ð¿": 5850,
      "ĠÐ´Ð½Ð¸": 5851,
      "ĠÐ¼Ð°Ð¹": 5852,
      "ÑĢÐ¸Ð¸": 5853,
      "ÑĢÐ¸ÑĤÐ¾ÑĢÐ¸": 5854,
      "Ð½Ð¾ÑģÑı": 5855,
      "ĠÑĤÑĥÑĢ": 5856,
      "ĠÑĤÐµÑĩÐµÐ½Ð¸Ðµ": 5857,
      "ĠÐ±Ð¾Ð¼": 5858,
      "ĠÐ±Ð¸Ð»": 5859,
      "ĠÐ±ÐµÑģÑģ": 5860,
      "ĠÐ·Ð°Ð·": 5861,
      "ĠÐ·ÐµÐ»ÐµÐ½": 5862,
      "ĠÑĥÑĪÐµÐ»": 5863,
      "ĠÑĩÐ°ÑĢ": 5864,
      "Ð°Ð½ÑĩÐ¸Ð²": 5865,
      "Ð»Ð¸Ð½Ð°": 5866,
      "Ð½Ð°Ñİ": 5867,
      "ÑīÐ¸Ð¼": 5868,
      "ĠÐµÐ»": 5869,
      "ĠÐµÐ¶": 5870,
      "Ð¾ÑĢÐ¾Ð²": 5871,
      "Ð¾ÑĤÐµ": 5872,
      "Ð¾ÑĤÐ¾Ð³ÑĢÐ°ÑĦ": 5873,
      "ĠÐ³ÑĢÐ¾Ñħ": 5874,
      "ĠÐ»Ð¸Ð¼ÑĥÐ·": 5875,
      "ÑĢÑĥÑı": 5876,
      "ÑĢÑĥÐµÑĪÑĮ": 5877,
      "Ð¸Ð²ÑĪÐ¸Ð¹": 5878,
      "ĠÐĵÐ¾Ð»": 5879,
      "ĠÐĵÐ¾ÑĢ": 5880,
      "ĠÐ²ÑĭÑĤ": 5881,
      "ĠÐ²ÑĭÐ¸Ð³": 5882,
      "Ð»Ð°Ñħ": 5883,
      "Ð»Ð°ÑĩÐ¸Ð²": 5884,
      "ĠÐ¾Ð±ÑĥÑĩ": 5885,
      "ĠÑģÑĤÐµÑĢ": 5886,
      "ĠÑģÑĤÐµÑģ": 5887,
      "ĠÐ²ÑģÐ»ÐµÐ´": 5888,
      "ĠÐ¿Ð¾Ð´ÑĬ": 5889,
      "ĠÐ¿Ð¾Ð´ÑĢÐ¾Ð±": 5890,
      "ĠÐ¿Ð¾Ð´ÑħÐ¾Ð´Ñı": 5891,
      "ĠÐŁÐµÑĢÐ²": 5892,
      "ĠÐĶÐ¸Ð¹": 5893,
      "ÐµÐºÐ¾Ð¼": 5894,
      "ÐµÐºÐ¾ÑĤÐ¾": 5895,
      "ĠÐ°ÑĢÐ°Ñħ": 5896,
      "ÐµÐ·Ð´Ð°": 5897,
      "ĠÐĴÐ¸ÑĢÐ´Ð¶Ð¸Ð½Ð¸": 5898,
      "ÐºÑĥÐ¿": 5899,
      "Ð»Ð¾Ð½Ð¸Ð²": 5900,
      "ĠÐŀÑĥÐ¼Ñĥ": 5901,
      "ĠÐļÐ¾Ð½": 5902,
      "ÐļÑĥÐ´Ð°": 5903,
      "Ð¾Ð¿ÐµÑĢ": 5904,
      "ĠÑģÐ¿ÐµÑĨ": 5905,
      "Ð½ÑıÐµÑĤ": 5906,
      "Ð¢Ð°Ð¼": 5907,
      "ĠÐ½Ð¸ÐºÑĥÐ´Ð°": 5908,
      "ĠÑģÐºÐ°Ð¼": 5909,
      "ĠÑģÐºÑĢÑĭÐ²": 5910,
      "ĠÐ¿ÐµÑĢÑģÐ¿ÐµÐºÑĤÐ¸Ð²": 5911,
      "ÐŀÐ½Ð¸": 5912,
      "ĠÐľÐ¸Ð½": 5913,
      "ÐµÐ½ÑıÑħ": 5914,
      "ÑĥÐ¼Ð½Ð¾": 5915,
      "ÑĢÐ¾Ð²Ð°Ð½Ð¸Ñı": 5916,
      "Ð°Ð³Ð¸": 5917,
      "Ð°Ð³ÑĢÐ¸": 5918,
      "ÑĥÑĪÐ½Ð¾": 5919,
      "ĠÑĪÐ»Ð°": 5920,
      "Â»!": 5921,
      "ĠÐłÑıÐ´Ð¾Ð¼": 5922,
      "ÑĥÑİÑīÐ¸Ñħ": 5923,
      "Ð¸Ð·Ð½ÐµÑģ": 5924,
      "ĠÑģÑĤÐ¾Ð»ÐµÑĤ": 5925,
      "ĠÐ¾Ð´Ð½Ð¾Ð¼Ñĥ": 5926,
      "ÑĩÐ¸ÐºÐ°": 5927,
      "ÑģÐ¼ÑĭÑģÐ»": 5928,
      "ÑįÐº": 5929,
      "ĠÐºÐ¾Ð½ÑĦ": 5930,
      "Ð¸ÑĤÐµÐ»ÑĮÐ½ÑĭÐµ": 5931,
      "Ð¸ÑĤÐµÐ»ÑĮÐ½ÑĭÑħ": 5932,
      "Ð¸ÑĤÐµÐ»ÑĮÐ½ÑĭÐ¼": 5933,
      "ÐµÑħÐ°Ð»": 5934,
      "Ð¾Ð²Ð¾ÑĢÐ¸ÑĤ": 5935,
      "ÑĥÐ±Ð¸Ð¹": 5936,
      "ĠÐ²ÐµÑĢÐ¸ÑĤÑĮ": 5937,
      "ĠÐ¾ÑģÑĤÐ°Ð»Ð°ÑģÑĮ": 5938,
      "ÐµÑĤÑĮÑģÑı": 5939,
      "ĠÐ§ÑĤÐ¾Ð±Ñĭ": 5940,
      "ĠÐ»ÑİÐ±Ð¾Ð¹": 5941,
      "ÑĥÑģÑĤÐ¸Ð»Ð°": 5942,
      "ĠÐ¾ÑģÐ¾Ð·Ð½": 5943,
      "ĠÐ´ÐµÐ²Ð¾ÑĩÐºÐ°": 5944,
      "ĠÑĩÐµÑĢÑĤ": 5945,
      "ĠÑĤÑĢÐµÑħ": 5946,
      "ĠÐ¸ÑģÐ¿Ð¾Ð»Ð½": 5947,
      "ĠÑĥÐ¼ÑĥÐ´": 5948,
      "ÑģÑĤÐ²ÐµÐ½Ð½Ð¾Ð³Ð¾": 5949,
      "ĠÑĥÑģÐ¿ÐµÐ»Ð¸": 5950,
      "ĠÑģÑĤÐ°ÑĢÐ°ÑıÑģÑĮ": 5951,
      "Ð½ÐµÐ²Ð¸Ð´Ð¸Ð¼": 5952,
      "ĠÐºÐ¾ÑĢÐ¿ÑĥÑģ": 5953,
      "ĠÑĢÐµÑĪÐµÐ½Ð¸Ðµ": 5954,
      "ĠÑĥÐ»ÑĭÐ±ÐºÐ¾Ð¹": 5955,
      "ĠÑĥÐ¿Ð°Ð»": 5956,
      "ĠÐ¿ÐµÑĢÐ²Ð°Ñı": 5957,
      "ĠÐ¼Ð¾ÑĢÑİ": 5958,
      "ÑģÐ¸Ð¸": 5959,
      "ĠÐ°Ð²ÑĢÐ¾": 5960,
      "ĠÐ¿Ð¾Ð³ÑĢÑĥÐ·": 5961,
      "ĠÑģÐ¸Ð´Ð¸ÑĤ": 5962,
      "ÑıÑīÐ¸Ð¼": 5963,
      "ĠÑĤÑĢÑĥÐ¿": 5964,
      "ĠÐ±Ð¾ÑİÑģÑĮ": 5965,
      "ĠÐ¾ÑģÑĤÐ°Ð²Ð°Ð»Ð¾ÑģÑĮ": 5966,
      "ĠÐ¾Ð±Ð¾Ð»Ð¾ÑĩÐºÐµ": 5967,
      "ÑĢÐµÐ°Ð³": 5968,
      "ĠÐŁÐ¾ÑĤÐ¾Ð¼Ñĥ": 5969,
      "ĠÐ¼Ð°Ð»ÑĭÑĪ": 5970,
      "ĠÐ½Ð°ÑħÐ¾Ð´Ð¸Ð»Ð¸ÑģÑĮ": 5971,
      "ĠÑĥÑģÐ¸Ð»": 5972,
      "ĠÐ²ÑĭÐ±Ð¾ÑĢ": 5973,
      "ĠÐ¶ÐµÐ½ÑīÐ¸Ð½Ñĥ": 5974,
      "ĠÑģÐ²ÐµÑĤÐ°": 5975,
      "ĠÑĤÐµÑĢÑĢÐ¸ÑĤÐ¾ÑĢÐ¸": 5976,
      "ĠÐºÐ»Ð°ÑģÑģÐ°": 5977,
      "ĠÐ¾Ð³ÑĢÐ°Ð½Ð¸Ñĩ": 5978,
      "ĠÐºÐ¾Ð¼Ð¿Ð°Ð½Ð¸Ð¸": 5979,
      "ĠÑĥÑĤÐ²ÐµÑĢÐ¶": 5980,
      "Ġ10": 5981,
      "ĠÑģÐ¾Ð³Ð»Ð°ÑģÐ¸Ð»Ð°ÑģÑĮ": 5982,
      "ĠÐ¿Ð¾Ð¿ÑĭÑĤÐºÐ¸": 5983,
      "ĠÐ·Ð½Ð°ÐºÐ¾Ð¼ÑĭÐ¹": 5984,
      "ĠÐ¼ÐµÑĢÑĤÐ²": 5985,
      "ÐĸÐ°Ð»ÑĮ": 5986,
      "ĠÐºÐ¾ÑĢÐ°Ð±Ð»Ð¸": 5987,
      "ĠÐ´Ð¸Ð°Ð±ÐµÑĤ": 5988,
      "Ð¾ÑĢÐ¸ÑĤÑĮ": 5989,
      "ĠÐ¼Ð°ÑĪÐ¸Ð½Ð°": 5990,
      "ĠÑħÐ²Ð°ÑĤÐ°ÐµÑĤ": 5991,
      "ĠÐ¿ÑĢÐ¸ÑħÐ¾Ð´Ð¸ÑĤÑģÑı": 5992,
      "ĠÐĸÐµÐ½ÑīÐ¸Ð½Ð°": 5993,
      "ĠÐ¾ÑĤÐ²ÐµÑĩÐ°ÐµÑĤ": 5994,
      "ĠÐ°Ð²ÑĤÐ¾Ð¼Ð°ÑĤ": 5995,
      "ĠÑģÐ»ÑĥÑĪÐ°Ð»": 5996,
      "ĠÐ¸Ð·Ð¾Ð±ÑĢÐµÑĤ": 5997,
      "ĠÑģÐºÐ¾ÑĢÐ¾ÑģÑĤÑĮ": 5998,
      "ĠÐ»ÐµÑĩÐ¸ÑĤÑĮ": 5999,
      "ĠÑģÑĢÐ¾ÐºÐ°Ð¼Ð¸": 6000,
      "ĠÐ½Ð°Ð»Ð¾Ð¶": 6001,
      "ĠÐ¡Ð¿Ð°ÑģÐ¸Ð±Ð¾": 6002,
      "ĠÐ¿Ð¾Ð´Ð¾ÑĪÑĳÐ»": 6003,
      "ĠType": 6004,
      "ĠÑĨÐµÐ½ÑĤÑĢÐµ": 6005,
      "ĠÐµÐ´Ð¸Ð½ÑģÑĤÐ²ÐµÐ½Ð½ÑĭÐ¹": 6006,
      "ĠÑģÐ¾Ð±Ð¸ÑĢÐ°ÑİÑģÑĮ": 6007,
      "ĠÐ»ÑİÐ±Ð¾Ð¿ÑĭÑĤÑģÑĤÐ²Ð¾Ð¼": 6008,
      "ĠÑģÑħÐ²Ð°ÑĤÐ¸Ð»": 6009,
      "ĠÐ´ÑĥÑħÐµ": 6010,
      "ĠÐ¸Ð½ÑģÑĤÑĢÑĥÐº": 6011,
      "ĠÑįÐ»ÐµÐºÑĤÑĢ": 6012,
      "ĠÐ¿ÑĢÐ¾Ð¸ÑģÑħÐ¾Ð´Ð¸Ð»Ð¾": 6013,
      "ÐĶÐ¶ÐµÐ¹Ð¼": 6014,
      "ĠÐ¿ÑĢÐ¸ÑģÑĤÐ°Ð»ÑĮÐ½Ð¾": 6015,
      "ĠÑģÑĤÐ°Ð²Ð¸ÑĤÑĮ": 6016,
      "ĠÐ¿ÑĢÐ¸ÐºÐ¾ÑģÐ½Ð¾Ð²": 6017,
      "ĠÐºÐ½Ð¸Ð¶ÐµÑĩ": 6018,
      "ĠÑĪÑĤÑĥÑĢ": 6019,
      "ĠÑĤÑīÐ°ÑĤÐµÐ»ÑĮÐ½Ð¾": 6020,
      "ĠÐ°Ð±ÑģÐ¾Ð»": 6021,
      "ĠÑįÐºÐ·Ð°Ð¼ÐµÐ½": 6022,
      "ĠÑĢÐ°ÑģÐ¿Ð¾Ð»Ð¾Ð¶": 6023,
      "ĠÐ´Ð¶Ð¸Ð½Ð½": 6024,
      "ĠÐºÐ°Ð½Ð°Ð»": 6025,
      "ĠÐ²ÑĭÐ½ÑĥÐ¶Ð´ÐµÐ½": 6026,
      "ÑįÐ½ÑģÐ¸": 6027,
      "ĠÐĴÐµÑĢÐ½Ð¾Ð½": 6028,
      "ÐŁÐ¾ÑĤÐ¾Ð¼Ñĥ": 6029,
      "ĠÑĤÐ¾ÑĪÐ½Ð¾": 6030,
      "ĠÐ¡ÐµÐ¿ÑĤÑĥÑģ": 6031,
      "Ð¢ÐµÐ¼Ð¿ÐµÑĢÐ°ÑĤÑĥÑĢÐ°": 6032,
      "ĠÑģÐ¾Ð³Ð»Ð°ÑĪ": 6033,
      "ĠÑĢÐµÐ¶Ð¸Ð¼": 6034,
      "ĠÐ¿ÑĢÐµÐ¿Ð¾Ð´Ð°Ð²": 6035,
      "ĠÐ¿Ð¾Ð¼Ð¾ÑīÐ¸": 6036,
      "ĠÐ»Ð°Ð´Ð¾Ð½Ð¸": 6037,
      "ĠÐ¿ÑĢÐ¸Ð¾ÑĢÐ¸ÑĤÐµÑĤÐ°Ð¼Ð¸": 6038,
      "ĠTypeScript": 6039,
      "did": 6040,
      "ĠH": 6041,
      "ÑĤÐ°Ñı": 6042,
      "ÑģÐ¼Ð¸": 6043,
      "ÑģÑĥÐ´": 6044,
      "ÑĢÐ°Ð¼Ð¸": 6045,
      "Ð½Ð°Ð²": 6046,
      "ÑĥÐµÐ¼": 6047,
      "ÑĥÐ»Ð¸": 6048,
      "ÑĮÐµÑĤ": 6049,
      "ÑĭÐ»ÑĮ": 6050,
      "ĠÐ¿Ð°Ñħ": 6051,
      "ĠÐ¿Ð¸ÑĢ": 6052,
      "ĠÐ¿Ð¾Ð»ÑĮÐ·Ð¾Ð²Ð°ÑĤÑĮÑģÑı": 6053,
      "ĠÑģÐ¾Ð»": 6054,
      "ĠÑģÑĥÐ¿": 6055,
      "ĠÑģÑĥÐ±": 6056,
      "ĠÑģÐ½Ð¸ÑĤ": 6057,
      "ĠÐ²ÑģÑĤÐ°Ð²": 6058,
      "ĠÐ²ÑĢÐµÐ´": 6059,
      "Ð²ÑģÐµ": 6060,
      "Ð²ÑĢÐ¾Ð¿": 6061,
      "ÑĤÐ¾Ð½Ð°": 6062,
      "ÑĤÐ¾ÑĢÑĥ": 6063,
      "ÑģÑĤÐ°Ð½": 6064,
      "ÑĪÑĥ": 6065,
      "ĠÐºÐ°Ð¼Ð¸": 6066,
      "ĠÐºÐ»ÑĥÐ±": 6067,
      "ÐµÐ½ÑĤÑĥ": 6068,
      "ĠÐ´Ñĭ": 6069,
      "ĠÐ¼ÐµÐ¶": 6070,
      "ĠÑĤÐ°Ð±": 6071,
      "ĠÑĤÐºÐ°Ð½": 6072,
      "ÑİÑīÐ¸Ðµ": 6073,
      "Ð°ÐºÑĤ": 6074,
      "Ð¸Ð»Ðµ": 6075,
      "ĠÑĥÑĪ": 6076,
      "ĠÑĩÐµÑģÑĤ": 6077,
      "ĠÑĩÐ°ÑĪ": 6078,
      "ĠÐ½Ð°ÑĤ": 6079,
      "ĠÐ½Ð°ÑģÐ¼": 6080,
      "ĠÑĢÑı": 6081,
      "ĠÑĢÐµÐ³": 6082,
      "ĠÐ½ÐµÑĩ": 6083,
      "ĠÐ½ÐµÐ¾Ð±Ñĭ": 6084,
      "Ð¶ÐµÑĤ": 6085,
      "ĠÐ¿Ð¾ÑħÐ¾Ð´": 6086,
      "ĠÐ¿Ð¾ÑĢÑĥÑĩ": 6087,
      "Ð°Ð¼ÐµÑĩ": 6088,
      "ÑĨÐ°ÑĢ": 6089,
      "Ð½Ð¸Ñģ": 6090,
      "Ð¾ÑĢÐµ": 6091,
      "ÐµÐ´Ð¾Ð¼": 6092,
      "Ð¾Ð³Ðµ": 6093,
      "Ð¸ÑĤÐ¾Ð¹": 6094,
      "ĠÐ³Ð¸Ð±": 6095,
      "Ð¾Ð±Ð½ÑĭÐµ": 6096,
      "ÑĳÑħ": 6097,
      "ĠÐ¾ÑĤÐ¾Ð·Ð²": 6098,
      "ÐºÐ¸Ð½": 6099,
      "Ð¾Ð¶Ð´Ðµ": 6100,
      "Ð°ÑĤÐµÐ»ÐµÐ¼": 6101,
      "ĠÐ»Ð°Ñģ": 6102,
      "ĠÐ»ÐµÐ¹ÑĤÐµÐ½": 6103,
      "Ð¾ÐºÐ°Ñı": 6104,
      "ĠÐ¿ÑĢÑıÑĤ": 6105,
      "ĠÐ¿ÑĢÑĭÑģ": 6106,
      "ÐµÑģÑĩÑĥÑĢ": 6107,
      "Ð¸Ð²Ð¸Ð»Ð¸": 6108,
      "Ð¸Ð²ÑĪÐ°Ñı": 6109,
      "ĠÐ¿ÑĢÐ¾ÑıÐ²": 6110,
      "ĠÐ¿ÑĢÐ¾ÐµÐºÑĤ": 6111,
      "ĠÐ²ÑĭÐ¹ÑĤÐ¸": 6112,
      "ÐµÐ²Ð¾Ð¹": 6113,
      "Ð¼Ð¸Ð³": 6114,
      "ĠÐ¾Ð±Ð»Ð°Ð´": 6115,
      "ĠÐ¾Ð±ÑĢÑıÐ´": 6116,
      "ĠÑģÑĤÐ¸Ñħ": 6117,
      "ĠÑģÑĤÑĥÐ»": 6118,
      "ĠÐŁÑĢÐ¾ÑĤ": 6119,
      "ĠÐŁÑįÐ½ÑģÐ¸": 6120,
      "ĠÐĿÐµÑģÐ¼Ð¾ÑĤÑĢÑı": 6121,
      "Ð¾Ð»ÑĮÑĪÐ°Ñı": 6122,
      "ĠÐĴÐ¾Ð»": 6123,
      "ĠÐĴÐ°ÑĢ": 6124,
      "Ð»Ð¾ÑĤÑĮ": 6125,
      "ĠÐ¸Ð·Ð¾": 6126,
      "ĠÐļÐ¾Ð¼": 6127,
      "ÑĢÐ°ÐµÐ¼": 6128,
      "ĠÐ¡Ð»ÑĥÑĪÐ°Ð¹": 6129,
      "ĠÑģÐ»ÑĥÑħ": 6130,
      "ĠÑģÐ²Ð¾Ð´": 6131,
      "ÑĢÑĭÐ³": 6132,
      "ÐĿÐ°Ð²ÐµÑĢ": 6133,
      "Ð°Ð»ÑĮÐ½ÑĭÐ¼Ð¸": 6134,
      "ÑģÐ»ÑĥÐ¶": 6135,
      "ĠÐ¿ÐµÑĢÐµÑħÐ²Ð°ÑĤ": 6136,
      "ÐĶÐ°ÑĪÑĮ": 6137,
      "ÐĲÐ»Ð°Ð´": 6138,
      "Ð¡Ð½ÐµÐ¹Ð¿": 6139,
      "ÑĥÑĤÑģÑı": 6140,
      "ÑĭÐ²Ð°ÑİÑĤÑģÑı": 6141,
      "ĠÐ´Ð²Ð°Ð´ÑĨ": 6142,
      "ĠÑĢÑĥÑħ": 6143,
      "Ð»ÑİÑģÑĮ": 6144,
      "ĠÐ²Ð¾Ð·Ð¼Ð¾Ð¶": 6145,
      "ĠÐ±ÑĥÐ´ÑĥÑī": 6146,
      "ÑĩÐ¸ÐºÐ¾Ð¼": 6147,
      "ÑįÑĢ": 6148,
      "Ð¸ÑĤÐµÐ»ÑĮÐ½Ð¾Ðµ": 6149,
      "ÐľÐ¸ÑģÑĤÐµÑĢ": 6150,
      "ÐľÐ°Ð¼Ð°": 6151,
      "ĠÐ½Ð°Ð´ÑĳÐ¶": 6152,
      "ĠÑĨÐµÐ½ÑĤ": 6153,
      "ĠÐ¿Ð¾Ð¼ÐµÑĪ": 6154,
      "ĠÐ£Ð¶Ðµ": 6155,
      "ĠÐķÐ¹": 6156,
      "ĠÐ²ÐµÑĢÐµÐ²": 6157,
      "ĠÐ²ÐµÑĢÐ½ÑĥÐ»Ð°ÑģÑĮ": 6158,
      "ĠÐ¥Ð¾ÑĤ": 6159,
      "ĠÐ¾ÑģÑĤÐ°Ð»Ð¸ÑģÑĮ": 6160,
      "ĠÐ²Ð¾ÑĪÐµÐ»": 6161,
      "ĠÐ²Ð¾ÑĪÐ»Ð°": 6162,
      "ĠÑģÐ¾Ð²ÑĢÐµÐ¼": 6163,
      "ĠÐ±ÐµÐ·Ñĥ": 6164,
      "ĠÑĩÐµÐ¼Ð¾Ð´": 6165,
      "ĠÑĩÐµÑĢÐµÑģÑĩÑĥÑĢ": 6166,
      "ĠÑĥÐ±ÑĢÐ°Ð»": 6167,
      "ĠÑĥÑĩÐ¸ÑĤÑĮ": 6168,
      "ĠÐ¿ÑĢÐ¾ÑĦÐµÑģÑģÐ¸Ð¾Ð½": 6169,
      "ĠÑĥÐ¼ÐµÐ½ÑĮ": 6170,
      "ĠÑĥÐ¼Ð¾Ð»Ðº": 6171,
      "ĠÐ½ÐµÐ¿Ð¾Ð½": 6172,
      "ĠÐŃÑĤÐ¾ÑĤ": 6173,
      "ĠÑĤÐµÐ¼Ð½ÑĭÑħ": 6174,
      "ĠÐ¿Ð¾Ð»ÑĥÑĩÐ°ÐµÑĤÑģÑı": 6175,
      "Ð»ÐµÐ½Ð½ÑĭÑħ": 6176,
      "ĠÐ½ÐµÐ´Ð¾Ð²Ð¾Ð»ÑĮÐ½Ð¾": 6177,
      "ĠÐºÐ¾Ð»Ð´Ñĥ": 6178,
      "ĠÐºÐ¾Ð»ÐµÐ½ÑıÑħ": 6179,
      "ĠÐ´ÐµÐ²ÑĥÑĪÐµÐº": 6180,
      "ĠÐ´ÐµÐ²ÑĥÑĪÐºÐµ": 6181,
      "ĠÐ½Ð°ÑĪÐ°": 6182,
      "ĠÐ½Ð°ÑĪÐ»Ð¸": 6183,
      "ĠÐ½Ð°ÑĪÑĳÐ»": 6184,
      "ĠÑĥÐ¶Ð¸Ð½": 6185,
      "ĠÑĥÐ¿Ð¾ÑĢ": 6186,
      "ĠÐ¾ÑĩÑĥÑĤ": 6187,
      "ĠÑģÐ»ÑĭÑĪÐ°ÑĤÑĮ": 6188,
      "ÑıÑīÐµÐ¼Ñĥ": 6189,
      "ĠÐ¼Ð¸Ð½ÑĥÑģÑĭ": 6190,
      "ĠÐ±Ð¾Ñı": 6191,
      "ĠÐ¿Ð¾Ð±ÐµÐ´": 6192,
      "ĠÐ¿Ð»Ð°Ð½ÐµÑĤ": 6193,
      "ĠÐ±Ð¾Ð»ÑĮÑĪÐ¸Ð¼": 6194,
      "ĠÐ½Ð°ÑħÐ¾Ð´Ð¸Ð»ÑģÑı": 6195,
      "Ð½Ð¸Ð·Ñĥ": 6196,
      "ĠÑĢÐ°ÑģÑģÐºÐ°Ð·Ð°Ð»": 6197,
      "Ð°ÐµÐ¼ÑģÑı": 6198,
      "ĠÐ½Ð¾Ð³Ð¾Ð¹": 6199,
      "ĠÐ²Ð¾Ð¿ÑĢÐ¾ÑģÑĭ": 6200,
      "ĠÐ¼ÐµÑĢÐ·": 6201,
      "ĠÐ¼ÐµÑĩÑĤÑĭ": 6202,
      "Ð°ÐµÑĤÐµÑģÑĮ": 6203,
      "ĠÐ·Ð°ÑħÐ¾Ñĩ": 6204,
      "ĠÐ¾ÑĤÐ½Ð¾ÑĪÐµÐ½Ð¸Ðµ": 6205,
      "ĠÑģÑĤÐµÐºÐ»ÑıÐ½": 6206,
      "ĠÑħÐ¾ÑĢÐ¾ÑĪÐ°Ñı": 6207,
      "ĠÐĽÑĥÐ¸Ð·": 6208,
      "ĠÐ¸Ð·Ð¾Ð±ÑĢÐ°Ð¶": 6209,
      "ĠÑıÐ²Ð»ÑıÐµÑĤÑģÑı": 6210,
      "ĠÑģÐ¾Ð·Ð½Ð°Ð½Ð¸Ñı": 6211,
      "ĠÐ¡ÑĤÐ°ÑĢ": 6212,
      "ĠÑĤÐ¾ÑĩÐºÐ¸": 6213,
      "ĠÐ¿ÑĢÐ¸Ð³Ð»Ð°Ñģ": 6214,
      "ĠÑĩÑĥÐ´Ð¾": 6215,
      "ĠÐ½ÐµÑģÑĩÐ°ÑģÑĤ": 6216,
      "ĠAdid": 6217,
      "ĠÐ¾Ð±Ð²ÐµÐ½Ñĩ": 6218,
      "ĠÐ¼ÐµÐ»ÐºÐ¸Ñħ": 6219,
      "ĠÐ¿ÑģÐ¸ÑħÐ¸": 6220,
      "ĠÐºÐ¸Ð½Ð¾": 6221,
      "ĠÐ½ÐµÐ½Ð°Ð²Ð¸Ð´": 6222,
      "ĠÐ³Ð¾ÑģÐ¿Ð¾Ð´Ð¸Ð½": 6223,
      "ĠÑĢÑĭÐ±ÐºÐ°": 6224,
      "ĠÐ¿Ð¾ÑĤÐ¾Ð»Ð¾Ðº": 6225,
      "ĠÐ²Ð»ÑİÐ±": 6226,
      "ĠÐ¿ÑĢÐµÐ·ÑĢÐ¸ÑĤÐµÐ»ÑĮÐ½Ð¾": 6227,
      "ĠÑģÑĤÑĥÐ¿ÐµÐ½ÑĮ": 6228,
      "ĠÐ±Ð»Ð°ÑģÑĤÐµÑĢ": 6229,
      "ĠÐ¿ÑĢÐ¾Ð·Ð²ÑĥÑĩÐ°Ð»": 6230,
      "ĠÐ¾Ð±Ð¾ÑĢÑĥÐ´Ð¾Ð²Ð°Ð½Ð¸Ðµ": 6231,
      "ÐĳÑĥÐ´Ñĥ": 6232,
      "ĠÑģÐ¾Ð¼Ð½ÐµÐ²Ð°ÑİÑģÑĮ": 6233,
      "ĠÐ²Ð»Ð°Ð´ÑĭÐºÐ°": 6234,
      "ĠÑģÐ¾Ð»Ð´Ð°ÑĤ": 6235,
      "ĠÐļÐ°ÑĢÐ½Ð°Ð¶": 6236,
      "ĠÐ¿ÑĢÐ¾ÑħÐ»Ð°Ð´": 6237,
      "Ð¸ÑĪÐ¸Ð½Ð°": 6238,
      "ĠÐ¿Ð¾Ð½ÑıÑĤÐ½Ð¾": 6239,
      "ĠÐ½ÐµÐ²ÐµÑĢÐ¾ÑıÑĤÐ½Ð¾": 6240,
      "ĠÐ²ÐµÐ¶Ð»Ð¸Ð²Ð¾": 6241,
      "ĠÐ·ÐµÐ»Ñĳ": 6242,
      "ĠÐ½Ð°ÑĢÑĥÐ¶Ñĥ": 6243,
      "ĠÐ½ÐµÑĤÐµÑĢÐ¿ÐµÐ»Ð¸Ð²Ð¾": 6244,
      "ĠÐ¾Ð±ÑģÑĤÐ¾ÑıÑĤÐµÐ»ÑĮ": 6245,
      "ĠÐĳÑĢÐ¾Ð´Ñı": 6246,
      "ĠÐŁÐ¾Ð½Ð¸Ð¼Ð°ÐµÑĪÑĮ": 6247,
      "ĠÐ¿ÑĢÐ¾ÑģÑĤÑĥÐ´Ð¾Ð¹": 6248,
      "ĠAdidas": 6249,
      "oy": 6250,
      "ota": 6251,
      "Ð«": 6252,
      "ĠB": 6253,
      "ĠD": 6254,
      "ĠWindows": 6255,
      "Ð¾ÑģÑĤÑĮ": 6256,
      "Ð°ÑĨÐ¸Ñİ": 6257,
      "ÑĤÑĭÐ¼": 6258,
      "ÑĢÐ¾Ð¶": 6259,
      "ÑĢÐµÑĩ": 6260,
      "Ð½Ð¸Ð»Ð¾ÑģÑĮ": 6261,
      "Ð»ÑĥÐ¶": 6262,
      "ÑĥÑĢÑĥ": 6263,
      "ÑĮÐ¸": 6264,
      "ĠÐ¿Ð°Ð¿Ð°": 6265,
      "ĠÑģÑģ": 6266,
      "ĠÑģÐ·Ð°Ð´Ð¸": 6267,
      "ÑĩÐ½ÑĭÐµ": 6268,
      "ÑĩÑĥÑĤÑĮ": 6269,
      "ÐºÑģ": 6270,
      "ĠÐ²Ð¸ÑĤ": 6271,
      "ĠÐ²ÑĢÐ°": 6272,
      "ĠÐ²Ð¾ÑģÑĮ": 6273,
      "ĠÐ²ÑıÐ·": 6274,
      "ĠÐ²ÑģÑĤÑĥÐ¿": 6275,
      "ĠÐ²Ð¸ÑĢÑĥ": 6276,
      "ĠÐ²ÑĢÐ°Ð³": 6277,
      "Ð²Ð¾Ð¹": 6278,
      "Ð²ÐµÑĩ": 6279,
      "Ð²Ð¸Ð½Ñĥ": 6280,
      "Ð´Ð¾Ð¹": 6281,
      "ÑĤÐ¾Ð»ÑĮÐºÐ¾": 6282,
      "ĠÐ¾Ð³Ð»Ñı": 6283,
      "ĠÐ¾Ð³Ð»ÑıÐ´": 6284,
      "ĠÐ¾Ð³Ð»ÑıÐ´ÐµÐ»": 6285,
      "ÑģÑĤÑıÐ¼Ð¸": 6286,
      "ĠÐ¸Ð´Ñĥ": 6287,
      "ĠÐºÐ¸ÑĤ": 6288,
      "ĠÐºÐ»Ð°Ð´": 6289,
      "ÐµÐ½Ð½Ð°": 6290,
      "Ð¾Ð²ÑĥÑİ": 6291,
      "Ð¾Ð²Ð°ÑĤÑĮÑģÑı": 6292,
      "ĠÐ´Ð¾Ð¶": 6293,
      "Ð¿Ð°Ð½": 6294,
      "Ð¿Ð¾Ð½": 6295,
      "Ð¿ÑĢÐµÐ´": 6296,
      "Ð¿ÐµÑĢÐ²": 6297,
      "ĠÑĤÐ°Ð»Ð¸": 6298,
      "ĠÐ±ÑĢÐµÐ´": 6299,
      "ĠÑĥÐ»ÑĮ": 6300,
      "ĠÐ½Ð°ÑĤÑı": 6301,
      "Ð¾Ð´Ðµ": 6302,
      "ĠÑĢÐ²Ð°Ð½": 6303,
      "ĠÐ½ÐµÑĥÐ´": 6304,
      "Ð°Ð²Ð°Ð»": 6305,
      "Ð°Ð²Ð¸Ð»": 6306,
      "Ð°Ð²ÑĪÐµÐ³Ð¾": 6307,
      "Ð°Ð²ÑĪÐ°Ñı": 6308,
      "Ð½Ð¸Ñİ": 6309,
      "Ð½Ð¸ÑĤÐµ": 6310,
      "Ð½Ð¸ÑĨÐµ": 6311,
      "ĠÐµÑİ": 6312,
      "Ð¾ÑĢÑĩ": 6313,
      "Ð¾ÑĤÐºÐ¸": 6314,
      "Ð¾Ð³ÑĢÐ°Ð¼": 6315,
      "ĠÐ³Ð»Ñı": 6316,
      "ĠÐ³Ð¸Ð³": 6317,
      "ÑĳÑĤÐµ": 6318,
      "ĠÐ¾ÑĤÐµÐ»ÑĮ": 6319,
      "Ð°ÑĤÐ°ÑĢ": 6320,
      "ĠÐ¿ÑĢÐ°Ð·Ð´": 6321,
      "ĠÐ¿ÑĢÐ¾ÑģÑĮ": 6322,
      "ĠÐ¿ÑĢÐ¾Ð¸Ð³": 6323,
      "ĠÐ¿ÑĢÐ¾Ð½Ð·": 6324,
      "ĠÐĵÐ¾ÑĤÐ¾Ð²": 6325,
      "ĠÐ²ÑĭÐ´ÐµÐ»": 6326,
      "ĠÐ²ÑĭÐ»ÐµÑĤ": 6327,
      "ĠÐ²ÑĭÑĢÐ°Ð¶": 6328,
      "ĠÐ¾Ð±Ð¸Ð¶": 6329,
      "Ð»ÑıÑİÑĤÑģÑı": 6330,
      "ĠÐ¿Ð¾Ð´ÑħÐ²Ð°ÑĤ": 6331,
      "ĠÐŁÐ¾Ð²": 6332,
      "ĠÐŁÐ°Ð½": 6333,
      "ĠÐĿÐ¸": 6334,
      "ĠÐĿÐ°Ð¼": 6335,
      "ĠÑħÐ¸ÑħÐ¸Ðº": 6336,
      "ÐĶÐµÐ²": 6337,
      "ĠÐ¸Ð·ÑıÑī": 6338,
      "ĠÐļÑĢÑĥ": 6339,
      "ĠÐ·Ð°ÑīÐ¸": 6340,
      "ĠÐ·Ð°ÑģÑĤÐ°Ð²Ð¸Ð»": 6341,
      "ĠÑģÐ»Ð¾Ð¼": 6342,
      "ĠÑĢÐ°Ð·Ð°": 6343,
      "Ð¾ÑĩÐºÐ¾Ð¹": 6344,
      "ĠÑģÐºÑĢÐ¸Ð²": 6345,
      "ĠÐ¿Ð¾Ð»Ð°": 6346,
      "ĠÐ¿ÐµÑĢÐµÐ»": 6347,
      "ĠÐľÐ¸ÑģÑĤÐµÑĢ": 6348,
      "ÐĲÑħ": 6349,
      "ĠÐĺÑģÐº": 6350,
      "ÑģÑĤÐ¸Ðº": 6351,
      "ĠÐĳÐ¸Ð»": 6352,
      "ÑĥÑİÑīÐ¸Ðµ": 6353,
      "Ð½Ð¸ÐºÐ°Ð¼": 6354,
      "ÐĵÐ¾ÑĢÐ¾Ð´": 6355,
      "ĠÐĽÐ¾Ð½Ð´": 6356,
      "ĠÑĦÐ¾Ð½Ð°": 6357,
      "ĠÑĦÑĥÐ½Ðº": 6358,
      "ĠÑĦÐ¾ÑĤÐ¾Ð³ÑĢÐ°ÑĦ": 6359,
      "ĠÐŃÑĤÐ°": 6360,
      "ĠÐŃÐ¹ÑĦ": 6361,
      "Ð²Ð¾ÑģÑĤÐ°": 6362,
      "ĠÐ´ÑĢÑĥÐ³Ð°Ñı": 6363,
      "ĠÑĨÐ¸Ð²Ð¸Ð»Ð¸": 6364,
      "ĠÐ´ÐµÐ»Ñĥ": 6365,
      "ÑģÑĤÑĢÐµÐ±": 6366,
      "ĠÐ¿Ð¾Ð²ÐµÐ·Ð»Ð¾": 6367,
      "ĠÐ¥Ð°Ð³ÑĢÐ¸": 6368,
      "ĠÐ¿Ð¾Ð¿ÑĢÐ¾ÑģÐ¸Ð»": 6369,
      "ĠÐ¿ÑĢÐ°Ð²Ð¸Ð»": 6370,
      "ĠÐ¿ÑĢÐ°Ð²Ð¸Ð»Ð¾": 6371,
      "ĠÐ¿ÑĢÐ¾Ð¸Ð·Ð²": 6372,
      "ĠÐ½ÑĥÐ¶Ð½Ð¾Ð¼": 6373,
      "ĠÑĤÑĢÐµÑģ": 6374,
      "ĠÐ¸ÑģÐ¿Ð¾Ð»": 6375,
      "Ð²ÐµÑĢÑģ": 6376,
      "ĠÐ²Ð¿ÐµÑĢ": 6377,
      "ĠÐŀÑĢÑĤÐµÐ³Ð¾Ð¹": 6378,
      "Ð°Ð¶Ð´ÑĭÐ¹": 6379,
      "ĠÐļÐ°ÐºÐ¾Ð¹": 6380,
      "ĠÐ½ÐµÐ¼ÐµÑĨ": 6381,
      "ĠÐ¶ÐµÐ½Ð°": 6382,
      "ĠÐ¿ÑĢÐ¾Ð²Ð°Ð»": 6383,
      "ÐĽÑİ": 6384,
      "ĠÐ½Ð°ÑĪÑĥ": 6385,
      "ĠÐ½Ð°Ð¼ÐµÑĢ": 6386,
      "ĠÑĩÑĥÐ²ÑģÑĤÐ²ÑĥÑİ": 6387,
      "ĠÑģÑĤÐ¾ÑĢÐ¾Ð½": 6388,
      "ĠÑĥÐ»ÑĭÐ±ÐºÐ°": 6389,
      "ĠÐºÑĢÐ°ÑģÐ¸Ð²Ð¾": 6390,
      "ÐµÐ»ÑıÐ¼Ð¸": 6391,
      "ĠÐ¿Ð¾Ð²ÐµÑĢÐ¸ÑĤÑĮ": 6392,
      "Ð¾Ð¶Ð´ÐµÐ½Ð¸Ðµ": 6393,
      "ÑĳÐ½Ð½ÑĭÐµ": 6394,
      "ĠÑĢÐ°ÑģÐ¿ÑĢÐ°Ð²": 6395,
      "ĠÑĤÐµÐ»Ñĥ": 6396,
      "ĠÑĤÐµÐ»ÐµÐ²Ð¸Ð·": 6397,
      "ĠÐ¾ÑīÑĥÐ¿": 6398,
      "ĠÐ¿Ð¾ÐºÐ°Ð·Ð°Ð»": 6399,
      "ĠÐ±Ð¾Ð¸ÑĤÑģÑı": 6400,
      "ĠÐ¼Ð½Ð¾Ð³Ð¾ÑĩÐ¸ÑģÐ»": 6401,
      "ĠÐ·Ð°Ð³Ð°Ð´": 6402,
      "ĠÐ³Ð¾ÑĢÐ»Ð¾": 6403,
      "ĠÐ¾Ð±Ð¾Ð»Ð¾ÑĩÐµÐº": 6404,
      "ĠÐ¼ÑĥÐ¶ÑĩÐ¸Ð½Ñĭ": 6405,
      "ĠÐ±Ð¾Ð»ÑĮÑĪÑĥÑİ": 6406,
      "Ð½Ð¾ÑģÐ¸ÑĤ": 6407,
      "ĠÐ¿ÑĢÐ¸Ð²Ð¾Ð´": 6408,
      "ĠÐ´ÑĢÐ°Ð³Ð¾": 6409,
      "ĠÐ´Ð²ÐµÑĢÑĮÑİ": 6410,
      "ĠÐ¾ÑīÑĥÑīÐ°Ð»": 6411,
      "ĠÑĢÑĭÐ½": 6412,
      "ÑģÑĭÐ¿": 6413,
      "ĠÐ·Ð°ÑģÑĥ": 6414,
      "ĠÐ²Ð°ÑĪÐ°": 6415,
      "ĠÐŁÐ¾ÑĤÑĤÐµÑĢÐ°": 6416,
      "ĠÐ²ÑĭÑħÐ¾Ð´Ð°": 6417,
      "ĠÐºÐ»Ð¸Ð½Ð¸ÐºÐ¸": 6418,
      "ĠÑĪÐ°Ð³Ð½ÑĥÐ»": 6419,
      "ĠÐłÐ°Ð·ÑĥÐ¼ÐµÐµÑĤÑģÑı": 6420,
      "ĠÐ¥Ð¾Ð³ÑģÐ¼Ð¸": 6421,
      "ĠÑħÐ²Ð°ÑĤÐ°Ð»Ð¾": 6422,
      "ĠÑħÐ²Ð°ÑĤÐ¸Ð»Ð¾": 6423,
      "Ð²Ð¸Ð´ÐµÐ²": 6424,
      "ĠÐ½Ð¾Ð²Ð¾Ðµ": 6425,
      "ĠÐ°Ð´Ð¼Ð¸": 6426,
      "ĠÐ¾Ð¶Ð¸Ð²": 6427,
      "ĠÐ²Ð·Ð´Ð¾ÑħÐ½ÑĥÐ»Ð°": 6428,
      "Ð·Ð²Ð¸Ð½Ð¸": 6429,
      "ĠÐ¾ÑģÐ²Ð¾Ð±Ð¾Ð´": 6430,
      "ĠÑģÑĤÐµÐºÐ»Ð°": 6431,
      "ĠÑģÐµÐºÑĥÐ½Ð´Ñĭ": 6432,
      "ĠÑıÐ²Ð½Ð¾": 6433,
      "ĠÐ´Ð¾Ð±Ð°Ð²Ð»Ñİ": 6434,
      "ĠÑģÐ»ÑĥÑĩÐ°Ð¹Ð½Ð¾": 6435,
      "ÑĢÐ¾Ð³ÑĢÐ°Ð¼": 6436,
      "ĠÐ¾Ð±ÑģÑĥÐ´Ð¸ÑĤÑĮ": 6437,
      "ĠÐ¿ÑĢÐµÑģÑĤÐ¸Ð¶": 6438,
      "ĠÐ´Ð¾Ð³Ð°Ð´Ð°Ð»ÑģÑı": 6439,
      "ĠÐ¿ÐµÑĢÐµÐ²ÐµÑĢ": 6440,
      "ĠÐ¼ÐµÑĪÐ¾Ðº": 6441,
      "ĠÑģÐ¼ÑĥÑīÐ°ÐµÑĤ": 6442,
      "ĠÐ·Ð°Ð¿Ð¸ÑģÐ¸": 6443,
      "ĠÐ»Ð°Ð¼Ð¿Ñĭ": 6444,
      "ĠÐĽÐ¾ÑĢÐµÐ½Ñģ": 6445,
      "ĠÐºÐ¾Ð¼Ð°Ð½Ð´Ñĥ": 6446,
      "ĠÐ½ÐµÐºÐ¾ÑĤÐ¾ÑĢÑĭÐµ": 6447,
      "ĠÐ½Ð°ÐºÐ°Ð·Ð°Ð½Ð¸Ðµ": 6448,
      "ĠÑĢÐµÐ·ÑĥÐ»ÑĮÑĤÐ°ÑĤ": 6449,
      "ÑģÐºÐ¾ÑĢÐµ": 6450,
      "ĠÐ»ÑİÐ±Ð¾Ð²ÑĮ": 6451,
      "ĠÐ´ÑĥÑĪÐ¸": 6452,
      "Ð¥ÐµÐ½Ð´ÑĢÐ¸ÐºÑģÐ°": 6453,
      "ÐµÑĢÐ³ÐµÐ¹": 6454,
      "ĠÐ¿Ð¾Ð´Ð°ÑĢÐ¾Ðº": 6455,
      "ĠÐ¿Ð»Ð¾ÑĤÐ¸": 6456,
      "ÐĿÐµÐ¼ÐµÐºÑģ": 6457,
      "ĠÐ¾Ð±ÐµÑģÐ¿ÐµÑĩ": 6458,
      "ĠÐ¿Ð¾Ð¸ÑģÐºÐ°ÑĤÑĮ": 6459,
      "ĠÑĢÐµÑĦÐµÑĢÐ°ÑĤ": 6460,
      "ĠÐ¿ÑĢÐ¾Ð³ÑĢÐ°Ð¼Ð¼Ð¸ÑģÑĤ": 6461,
      "ĠÐ±Ð°Ð½Ð´Ð¸ÑĤÐ¾Ð²": 6462,
      "ĠÐ·Ð¾Ð²ÑĥÑĤ": 6463,
      "ĠÐ²Ð¾Ð·Ð´ÑĥÑĪ": 6464,
      "ĠÐ¿Ð¾Ð´Ð·ÐµÐ¼ÐµÐ»ÑĮÐµ": 6465,
      "ĠÐ´ÐµÑģÐ°Ð½ÑĤ": 6466,
      "ĠÐ´ÑĭÑħÐ°Ð½Ð¸Ðµ": 6467,
      "ĠÐ·Ð°Ð²Ð¸ÑģÐ¸ÑĤ": 6468,
      "ĠÐºÐ¾Ð»Ð¸ÑĩÐµÑģÑĤÐ²Ð¾": 6469,
      "ĠÐ¿Ð¾Ð¼Ð¾ÑĢÑīÐ¸Ð»ÑģÑı": 6470,
      "ÐĹÐ²ÑĥÑĩÐ¸ÑĤ": 6471,
      "ĠÐĳÐ°ÑĥÑĤÐ¸ÑģÑĤÐ°": 6472,
      "ĠÐ¾Ð¿ÑĢÐ°Ð²Ð´": 6473,
      "ÑģÑĤÑĢÐµÑĩÑĥ": 6474,
      "ĠÐ¿Ð¾Ð´ÑģÐºÐ°Ð¶Ð¸": 6475,
      "ĠÐ¿Ð¾Ð´ÑĤÐ²ÐµÑĢÐ´": 6476,
      "ĠÑĥÐ¼ÐµÐ½ÑĮÑĪ": 6477,
      "ĠÐ´ÑĢÐ°Ð³Ð¾ÑĨ": 6478,
      "!)": 6479,
      "!).": 6480,
      "Ġ6": 6481,
      "ĠV": 6482,
      "ÐµÑīÐµ": 6483,
      "ÑĤÑĭÐµ": 6484,
      "Ð¸ÑĦ": 6485,
      "Ð¸ÑģÑĤÐ¸": 6486,
      "Ð¸Ð½Ð°Ñı": 6487,
      "Ð¸ÑĨÐ¸Ñı": 6488,
      "ÑģÐµÐº": 6489,
      "ÑĢÐµÑģÑģ": 6490,
      "Ð½Ð°Ð´": 6491,
      "Ð»ÐµÐ·": 6492,
      "ÑĥÑīÐµ": 6493,
      "ĠÐ¿ÑĤÐ¸": 6494,
      "ĠÐ¿ÑĥÐ»": 6495,
      "ĠÐ½ÑĳÐ¼": 6496,
      "ĠÑģÑĥÐ´Ð°": 6497,
      "ĠÑģÑĨÐµÐ½": 6498,
      "ÑĩÐºÑĥ": 6499,
      "ÐºÑĢÐ°Ñģ": 6500,
      "ĠÐ²Ð¸": 6501,
      "ĠÐ²Ð¸Ð»": 6502,
      "ĠÐ²ÐµÐ½Ñĩ": 6503,
      "Ð²Ñģ": 6504,
      "Ð´ÐµÑĢ": 6505,
      "ĠÐ¾ÑĨÐµÐ½": 6506,
      "ÑģÑĤÑıÑħ": 6507,
      "ĠÐ¸ÑĤ": 6508,
      "ĠÐºÐ°": 6509,
      "ĠÐºÐ»Ð¾": 6510,
      "ĠÐºÑĥÐ·": 6511,
      "ÐµÐ½ÑĨÐ¸": 6512,
      "Ð¾Ð²Ñĭ": 6513,
      "ĠÐ´Ð°ÐµÑĤ": 6514,
      "ĠÐ´Ð¾Ð²Ð¾Ð»ÑĮ": 6515,
      "ĠÐ´ÐµÑĤÐ¸": 6516,
      "ĠÐ´Ð¸ÑĤÑı": 6517,
      "ĠÐ¼Ð¾Ðº": 6518,
      "ĠÐ¼Ð°ÑĦ": 6519,
      "ÑĢÐ¸Ñı": 6520,
      "Ð¾Ð»Ð¾Ð³": 6521,
      "ĠÐ±Ð¾ÑĤ": 6522,
      "ĠÐ±Ð¾ÑĢÑĤ": 6523,
      "ĠÐ±ÑĢÐ¾Ð½": 6524,
      "ÑĢÐ¾ÑĩÐµÐ¼": 6525,
      "ĠÐ·ÐµÐ²": 6526,
      "ĠÐ·Ð°Ð»Ð°": 6527,
      "ĠÑĥÐ»Ð¾Ð²": 6528,
      "Ð±ÐµÐ·": 6529,
      "ÐµÐ¼Ð°": 6530,
      "Ð»Ð¸ÑĤ": 6531,
      "Ð°Ð²Ñĭ": 6532,
      "ÑĨÐµÑĢ": 6533,
      "ÑĨÐ²ÐµÑĤ": 6534,
      "Ð¸ÑĤÑĥÑĤ": 6535,
      "ÐµÐ¹Ð»Ð°": 6536,
      "ĠÐ³ÐµÑĢ": 6537,
      "ĠÐ³ÑĥÐ´": 6538,
      "ĠÐ³ÑĢÐ°ÑĦ": 6539,
      "ĠÐ¾ÑĤÐ¾Ð±": 6540,
      "Ð¾Ð¶Ñĥ": 6541,
      "ĠÐ»Ð¾Ðº": 6542,
      "ĠÐ»ÐµÐ½Ð¸": 6543,
      "Ð°Ð´ÑĮ": 6544,
      "ĠÑįÐ»ÐµÐ¼": 6545,
      "ĠÐ¿ÑĢÐµÐ±": 6546,
      "Ð¸Ð²Ð°": 6547,
      "ĠÐĵÐ»Ð°Ð²": 6548,
      "ĠÐ¿ÑĢÐ¸ÑĩÐ¸Ð½": 6549,
      "ĠÐ¾Ð±ÑħÐ²Ð°ÑĤ": 6550,
      "ĠÐ¶Ð¸Ð´": 6551,
      "ĠÐ¶Ð¸Ð»Ð¸": 6552,
      "ÐºÐ¾ÑĪ": 6553,
      "ĠÐŁÐ¾Ð¶Ð°Ð»ÑĥÐ¹ÑģÑĤÐ°": 6554,
      "ĠÐĿÐ°Ñģ": 6555,
      "Ð¸Ð¼ÑĭÐ¼": 6556,
      "ĠÐ°ÑĢÐ¾Ð¼": 6557,
      "ÐĶÐ¾Ð»Ð³Ð¾": 6558,
      "ĠÐļÐ½Ñĥ": 6559,
      "ĠÐļÑĢÐ¾Ð¼Ðµ": 6560,
      "ĠÑģÐ²Ð°Ð»": 6561,
      "ĠÑĢÐ°Ð·Ð½Ð¾": 6562,
      "ĠÑĢÐ°Ð·ÑĬ": 6563,
      "ÐŁÐ¾Ð¿": 6564,
      "ÐŁÐ°Ð¿Ð°": 6565,
      "Ð°Ð½Ð¸ÐºÑĥ": 6566,
      "ĠÑģÐ¿Ð°Ð»Ð°": 6567,
      "ĠÑģÐ¿Ð°ÑģÑĤÐ¸": 6568,
      "ÑģÑĤÑĮÐµ": 6569,
      "ĠÐ½Ð¸Ð¶": 6570,
      "ĠÐ¿Ð¾Ð»ÑĥÐ¼": 6571,
      "ĠÐ¿ÐµÑĢÐµÐ³Ð¾": 6572,
      "ĠÑĪÐ²ÑĭÑĢ": 6573,
      "ĠÐĳÐµÐ´": 6574,
      "ĠÐĳÑĭÑĤÑĮ": 6575,
      "Ð¸ÑģÐºÐ¸": 6576,
      "ĠÐ³Ð¾Ð»ÑĥÐ±": 6577,
      "ĠÑģÐ°Ð¼Ð°Ñı": 6578,
      "ĠÐĽÐµÑģ": 6579,
      "ĠÑĦÐ°Ð¼": 6580,
      "ĠÑĦÐ¸ÑĢ": 6581,
      "ĠÑĦÐ°Ð½ÑĤ": 6582,
      "ÑĭÑĪÐºÐ°": 6583,
      "ÐľÐ¾Ð¹": 6584,
      "ĠÐ½Ð°Ð´ÐµÑİÑģÑĮ": 6585,
      "ĠÐ´ÑĢÑĥÐ³ÑĥÑİ": 6586,
      "ĠÐ·Ð°ÐºÑĢÐµÐ¿": 6587,
      "ÑģÑĤÑĢÐµÐ»": 6588,
      "ĠÐ²ÑĢÐµÐ¼ÐµÐ½Ð°": 6589,
      "ÐµÑĨÐµÐ¿": 6590,
      "ÐĹÐ°ÑĩÐµÐ¼": 6591,
      "Ð¾ÑĢÐ¾ÑĪÐ°Ñı": 6592,
      "ĠÐ½Ð°ÑĩÐ°Ð»ÑĮ": 6593,
      "ĠÑĥÑĩÐ¸Ð»Ð¸": 6594,
      "ĠÐ²Ð¿ÑĢÐ¾ÑĩÐµÐ¼": 6595,
      "ÑģÑĤÐ²ÐµÐ½Ð½ÑĭÐµ": 6596,
      "ĠÑģÐ»ÑĥÑĩÐ¸Ð²": 6597,
      "ĠÐ¿ÑĢÐ¾Ð²ÐµÐ»": 6598,
      "ÐĽÐ°Ð´Ð½Ð¾": 6599,
      "ÐĽÑĥÑĩÑĪÐµ": 6600,
      "ĠÐºÐ¾Ð»Ð¾Ð½Ð¸": 6601,
      "ĠÐ½Ð°Ð²ÑģÑĤÑĢÐµÑĩÑĥ": 6602,
      "ÑģÐºÐ¸Ð¼Ð¸": 6603,
      "ĠÑĩÑĥÐ²ÑģÑĤÐ²ÑĥÑı": 6604,
      "ĠÐ¿ÑĢÐ¾ÑĪÐ»Ð°": 6605,
      "ĠÑģÐ»ÐµÐ´Ð¾Ð²": 6606,
      "Ð°Ð½ÑĤÐ¸Ð¼ÐµÑĤ": 6607,
      "ĠÐ¼ÐµÑĤÑĢÐ°Ñħ": 6608,
      "ĠÐ±ÐµÑģÑĪ": 6609,
      "ĠÐ¿ÑĢÐ¾Ð´Ð¾Ð»Ð¶Ð°ÑĤÑĮ": 6610,
      "ĠÐ¿Ð¾Ð³Ð¾Ð´Ð°": 6611,
      "ĠÑģÐ¸Ð´ÐµÑĤÑĮ": 6612,
      "ĠÐ´Ð¾ÑĢÐ¾Ð¶": 6613,
      "Ð³Ð¸Ð±": 6614,
      "ÑĳÐ½Ð½ÑĭÐ¹": 6615,
      "ÑĳÐ½Ð½ÑĭÑħ": 6616,
      "ĠÐ·Ð°Ð³Ð¾Ð²Ð¾ÑĢÐ¸Ð»": 6617,
      "ĠÑģÑĤÑĢÐµÐ»": 6618,
      "ĠÑģÑĤÑĢÐ°Ð½Ð¸": 6619,
      "ĠÑģÑĤÑĢÐ¾Ð³Ð¸Ð¹": 6620,
      "ĠÐĲÐ»Ð°Ð´Ð´Ð¸Ð½Ñĥ": 6621,
      "ĠÑĥÐ´Ð¸Ð²Ð»ÐµÐ½Ð¸Ðµ": 6622,
      "ĠÑįÐºÐ¾Ð½Ð¾Ð¼": 6623,
      "ĠÐ¿ÑĢÐ¾ÑĤÐ¸Ð²Ð½Ð¸ÐºÐ°": 6624,
      "ĠÐ¶ÐµÐ»Ð°Ð½Ð¸Ðµ": 6625,
      "ĠÐ¿ÑĢÐ¸Ð²ÑıÐ·": 6626,
      "ĠÐ´Ð°Ð»ÑĮÐ½ÐµÐ¹": 6627,
      "ĠÐºÐ°Ð¿Ð¸ÑĤÐ°Ð½Ð°": 6628,
      "ĠÑĥÑĢÐ¾ÐºÐ°": 6629,
      "ÐĴÑĭÑģ": 6630,
      "ony": 6631,
      "ĠÑĤÐ¾ÑĢÐ¶Ðµ": 6632,
      "ĠÐ¾Ð³ÑĢÐ°Ð¶Ð´": 6633,
      "ĠÐ´Ð¾ÑĢÐ¾Ð³Ðµ": 6634,
      "ĠÐ¿Ð¾ÑģÑĤÐµÐ»ÑĮ": 6635,
      "Ġ15": 6636,
      "ĠÐ»ÐµÐ¶Ð¸ÑĤ": 6637,
      "ĠÐ»ÐµÐ¶Ð°Ð»Ð¸": 6638,
      "ĠÐ»ÐµÐ¶Ð°Ñī": 6639,
      "ĠÐ°Ð½Ð°Ð»Ð¸": 6640,
      "ĠÑģÐ¾Ð³Ð»Ð°ÑģÐ½Ð¾": 6641,
      "ĠÐ¿Ð¾Ð¿ÑĭÑĤÐ°Ð»Ð°ÑģÑĮ": 6642,
      "ĠÐ±ÐµÐ´Ð½Ñı": 6643,
      "ÑĢÐ¾ÑĪÑĥ": 6644,
      "ĠÑĢÐ°Ð·Ð´Ð°Ð»ÑģÑı": 6645,
      "ĠÐ¿ÑĥÑģÑĤÐ¾Ð¹": 6646,
      "ĠÐ¿ÑıÑĤÐ½Ð¸ÑĨÑĭ": 6647,
      "ĠÐ¿ÑıÑĤÐ¸Ð´ÐµÑģÑıÑĤÐ¸": 6648,
      "ĠÐ²Ð¾Ð»Ð¾ÑģÐ°Ð¼Ð¸": 6649,
      "ĠÐ¾ÑĤÐ¿ÑĢÐ°Ð²Ð¸Ð»ÑģÑı": 6650,
      "ĠÐ¾Ð¿ÑĢÐµÐ´ÐµÐ»Ð¸ÑĤÑĮ": 6651,
      "ĠÐ¼Ð°Ð»ÐµÐ½ÑĮÐºÐ¾Ð³Ð¾": 6652,
      "ĠÐ´Ð²Ð¸Ð¶ÐµÐ½Ð¸ÐµÐ¼": 6653,
      "ĠÐ²Ð·Ð³Ð»ÑıÐ½ÑĥÐ»Ð°": 6654,
      "ĠÐ³ÑĢÐ°Ð½Ð¸": 6655,
      "ĠÐ¿Ð¾Ð½ÑıÑĤÐ¸Ñı": 6656,
      "ĠÐ¿Ð¾Ð´Ð½ÑıÐ»Ð¸ÑģÑĮ": 6657,
      "ĠÑģÐºÐ°Ð¶ÐµÑĤ": 6658,
      "ĠÐ¿ÑĢÐµÐ´Ð»Ð¾Ð¶Ð¸Ð»Ð°": 6659,
      "ĠÐ¾ÑģÐ²Ð¾Ð±": 6660,
      "ĠÑģÐ¾ÑģÑĤÐ¾ÑıÐ½Ð¸Ðµ": 6661,
      "ĠÑħÐ¾ÑĢÐ¾ÑĪÐµÐ³Ð¾": 6662,
      "ĠÐ¿Ð¾ÑħÐ¾Ð¶ÐµÐµ": 6663,
      "ĠÐ±Ð»Ð¸Ð·ÐºÐ¾": 6664,
      "ÑĤÐ¾ÑĩÐºÑĥ": 6665,
      "ĠÐ³Ð¾Ð´Ñĭ": 6666,
      "ĠÐ³Ð»ÑĥÐ¿Ð¾": 6667,
      "ĠÑģÑĢÐ¾ÐºÐ°Ð¼": 6668,
      "ĠÐ²Ð½ÐµÐ·Ð°Ð¿Ð½Ð¾": 6669,
      "ĠÐ¿ÑĢÐ¸Ð³Ð»Ð°ÑĪ": 6670,
      "ĠÑģÐ¼Ð¾ÑĤÑĢÐ¸ÑĤ": 6671,
      "ĠÑĢÐ°ÑģÑģÑĥÐ´": 6672,
      "Ð°ÑİÑīÐµÐ³Ð¾ÑģÑı": 6673,
      "ĠÐ²ÐµÑĤÐµÑĢ": 6674,
      "ĠÑģÐ´ÐµÐ»Ð°": 6675,
      "ĠÐ±Ð°Ð·Ñĭ": 6676,
      "Ð¥Ð¾ÑĢÐ¾ÑĪÐµÐµ": 6677,
      "ĠÐ»Ð¸ÑĪÐ½ÐµÐµ": 6678,
      "ĠÐ·Ð°Ð²ÐµÐ´ÐµÐ½Ð¸Ðµ": 6679,
      "ĠÐ¿ÐµÑĢÐµÐ¿ÑĢÐ°Ð²": 6680,
      "ĠÑģÐ¾ÑĤÑĢÑĥÐ´": 6681,
      "ĠÐ¼Ð¸Ð³ÑĢ": 6682,
      "ĠÐ¿Ð¾ÑģÐ¿ÐµÑĪÐ½Ð¾": 6683,
      "ĠÑĥÑĩÐµÐ½Ð¸ÐºÐ¾Ð²": 6684,
      "ĠÑĢÐ°ÑģÑģÐ¼ÐµÑıÐ»ÑģÑı": 6685,
      "ĠÐ·Ð´Ð°Ð½Ð¸Ñı": 6686,
      "ĠÑģÑĤÐ°Ð½Ð¾Ð²Ð¸ÑĤÑģÑı": 6687,
      "ĠÐ½Ð°Ð·Ð²Ð°ÑĤÑĮ": 6688,
      "ĠÑģÑĤÑĢÐ°Ð´Ð°Ð½Ð¸Ñı": 6689,
      "ĠÐ¿Ð¸ÑģÑĮÐ¼Ð¾": 6690,
      "ĠÑĤÐµÐ¿Ð»": 6691,
      "ĠÑģÐ¸Ð³Ð°ÑĢÐµÑĤ": 6692,
      "ĠÑģÐ½Ð°ÑĢÑıÐ´": 6693,
      "ĠÐ½ÐµÐ³ÑĢÐ¾Ð¼": 6694,
      "ĠÑģÐ°Ð¼Ð¾ÑĥÐ±Ð¸Ð¹": 6695,
      "Ð¥ÐµÐ½Ð´ÑĢÐ¸ÐºÑģ": 6696,
      "ĠÐ¿ÑĢÐ¾ÑĪÐµÐ¿ÑĤÐ°Ð»Ð°": 6697,
      "ĠÐ°ÑĢÑħÐ¸ÑĤ": 6698,
      "ĠÐ½ÐµÐ¾Ð±ÑħÐ¾Ð´Ð¸Ð¼Ð¾ÑģÑĤÐ¸": 6699,
      "ĠÐ·Ð»Ð¾ÑģÑĤÐ¸": 6700,
      "ĠÐ¼ÑĥÑģÐ¾ÑĢ": 6701,
      "ĠÑĢÐµÐ±ÑıÑĤÐ°": 6702,
      "ĠÐĵÑĢÐ¸ÑĦÑĦÐ¸Ð½Ð´Ð¾ÑĢÐ°": 6703,
      "ĠÐ³ÑĥÐ»ÑıÑĤÑĮ": 6704,
      "ĠÑģÐ¼ÑĭÑģÐ»Ðµ": 6705,
      "ĠÐºÐ°ÑĢÑĤÐ¸Ð½Ñĭ": 6706,
      "ĠÐĹÐ°Ð¿Ð°Ð´": 6707,
      "ĠÑĢÐ°ÑģÑĤÐµÑĢÑıÐ½Ð½Ð¾": 6708,
      "ĠÐ¿Ð°ÑĩÐºÑĥ": 6709,
      "ĠÐ´Ð¸Ð·Ð°Ð¹Ð½": 6710,
      "ĠÑĥÐ»Ð¾Ð¶Ð¸ÑĤÑĮÑģÑı": 6711,
      "ĠÑģÑĥÐ´Ð¾ÑĢÐ¾Ð¶Ð½Ð¾": 6712,
      "ÑĤÐµÐ¹Ð½ÐµÑĢ": 6713,
      "ĠÐ´ÑĥÑĢÐ°ÑĨ": 6714,
      "ĠÐ±ÑĢÐ¾Ð²Ð¸": 6715,
      "ĠÐ±Ð»Ð°ÑģÑĤÐµÑĢÐ°": 6716,
      "ĠÐ½ÐµÐ¾Ð¿ÑĢÐµÐ´ÐµÐ»": 6717,
      "ĠÐ¿Ð¾Ð´Ð±Ð¾ÑĢÐ¾Ð´Ð¾Ðº": 6718,
      "ĠNike": 6719,
      "ĠÐ¼Ð°ÑģÑģÐ¸Ð²": 6720,
      "ĠÐŁÑĢÐ¾ÑĤÐµÐºÑĤÐ¾ÑĢ": 6721,
      "ĠÐ²Ð¿ÐµÑĢÑĳÐ´": 6722,
      "ÑĢÐ¾Ð³ÑĢÐ°Ð¼Ð¼Ð¸": 6723,
      "ĠÐ»ÐµÐ½Ð¸Ð²Ð¾": 6724,
      "ma": 6725,
      "Ð°ÑĩÐ¸": 6726,
      "Ð¸ÐºÑĥ": 6727,
      "Ð¸ÑģÐ»": 6728,
      "Ð¸ÑģÐ¿": 6729,
      "ÑģÐ¾": 6730,
      "ÑģÑĥÐ»": 6731,
      "ÑĢÐ»": 6732,
      "ĠÐ¿Ð¾Ð»ÑĮÐ·": 6733,
      "ĠÑģÑĢÐ¾ÑĩÐ½Ð¾": 6734,
      "ÑĩÐ°Ð»Ð¸": 6735,
      "ÑĩÐ¸Ñģ": 6736,
      "ÑĩÐ°Ð»ÑģÑı": 6737,
      "ÐºÐ°Ð»": 6738,
      "ÐºÐ¾Ð³": 6739,
      "Ð²Ð°ÑĢÐ¸": 6740,
      "Ð¼Ð¸Ð»": 6741,
      "ĠÐ¾ÑĢÐ¸": 6742,
      "ĠÐ¾ÑĨÐ¸ÑĦÑĢÐ¾Ð²": 6743,
      "Ð°Ð»ÑİÑĤ": 6744,
      "ÑģÑĤÐ¸ÑĤÑĮ": 6745,
      "ĠÐºÐ¾Ð±": 6746,
      "ĠÐºÐ»Ñİ": 6747,
      "ĠÐºÐ°ÑĤÐ¾": 6748,
      "ÐµÐ½Ð´Ñĥ": 6749,
      "ĠÐ¼Ð¸Ð½Ð¸ÑģÑĤÐµÑĢ": 6750,
      "ÑĢÐ¸ÐºÐ°": 6751,
      "ÑĢÐ¸Ð»Ð°": 6752,
      "ÐµÑĤÑĥÑİ": 6753,
      "ÐµÑĤÐ¸Ð¹": 6754,
      "ĠÑĤÐµÐ½": 6755,
      "ĠÑĤÑĳ": 6756,
      "ĠÑĤÐµÐº": 6757,
      "ĠÑĤÑĥÐ¿": 6758,
      "ĠÑĤÑĳÐ¼": 6759,
      "ĠÑĤÑĥÑģÐº": 6760,
      "ĠÐ±Ð¾Ð´": 6761,
      "ĠÐ·Ð°Ð±Ð¾ÑĤ": 6762,
      "ĠÑĥÐ³Ð¾": 6763,
      "ĠÑĩÐ¸Ñħ": 6764,
      "ĠÑĩÐµÑģÑĤÑĮ": 6765,
      "ĠÑĩÑĤÐ¾Ð±": 6766,
      "Ð°Ð½Ñı": 6767,
      "Ð°Ð½ÐµÐµ": 6768,
      "Ð¾Ð´Ð¾Ð²": 6769,
      "ĠÐ½ÐµÑĥÐ¶ÐµÐ»Ð¸": 6770,
      "ĠÐ½ÐµÑĥÐ²ÐµÑĢ": 6771,
      "ĠÐ¿Ð¾Ð¸Ð½ÑĤÐµÑĢÐµÑģ": 6772,
      "ĠÐ¿Ð¾ÑģÑĤÑĢÐ°Ð´": 6773,
      "ÑīÐ¸ÑĤÐµ": 6774,
      "Ð°Ð¼ÐµÐ½ÑĤ": 6775,
      "Ð°Ð²ÑĤÐ¾Ð¼": 6776,
      "Ð½Ð¸ÑĪÑĮ": 6777,
      "Ð¾ÑĢÑıÐ´": 6778,
      "ÐµÐ´Ð»Ð¸Ð²Ð¾": 6779,
      "ĠÐ³ÑĥÑģÑĤ": 6780,
      "ÑĳÑĤÐ°": 6781,
      "ĠÐ¾ÑĤÑĢÑĥÐ±": 6782,
      "Ð¾Ð¶Ð´Ð°": 6783,
      "ĠÐ»Ð¾Ð¼": 6784,
      "ĠÐ»Ð°Ð±": 6785,
      "ĠÐ»ÐµÐ´Ñı": 6786,
      "ÐµÑģÐµÐ´": 6787,
      "Ð¸Ð²Ð°Ð½Ð¸Ðµ": 6788,
      "ĠÐ¿ÑĢÐ¾ÑħÐ¾Ð´Ð¸ÑĤ": 6789,
      "ĠÐĵÐ°Ð»": 6790,
      "ĠÐ²ÑĭÑĢÐ°Ð¶ÐµÐ½Ð¸Ðµ": 6791,
      "ĠÐ²ÑĭÑģÐ»ÑĥÑĪ": 6792,
      "ÐµÐ²Ð°Ð»": 6793,
      "ÐµÐ²ÑĪÐ¸Ð¹": 6794,
      "Ð¸Ð½ÐºÐ°": 6795,
      "ÐµÐ±ÐµÐ´ÑĮ": 6796,
      "ĠÐ¶ÑĥÑĤ": 6797,
      "ĠÐ¶Ð´Ñĥ": 6798,
      "ĠÑģÑĤÑĥÐ´": 6799,
      "ĠÐ¿Ð¾Ð´Ð´": 6800,
      "ĠÐ¿Ð¾Ð´ÑĩÐ¸Ð½": 6801,
      "ĠÐ¿Ð¾Ð´Ð°Ð»ÑĮÑĪÐµ": 6802,
      "ĠÐĿÐŀ": 6803,
      "ĠÐĿÐ°ÑģÐºÐ¾Ð»ÑĮÐºÐ¾": 6804,
      "ÐµÐºÐµ": 6805,
      "ĠÑħÐ°Ð»Ð°ÑĤ": 6806,
      "Ð¾Ð·Ñĭ": 6807,
      "ĠÐĴÐ¼": 6808,
      "Ð»Ð¾Ðµ": 6809,
      "ÐĶÐ¾": 6810,
      "ÐµÑĩÐºÐ¾": 6811,
      "Ð°Ð±ÐµÐ»ÑĮ": 6812,
      "ÑĢÐ°ÑĩÐ½Ð¾": 6813,
      "ĠÐ¡Ð»Ð¸": 6814,
      "ĠÐ¡Ð¸Ð¼": 6815,
      "ĠÐ¡Ð»Ð¸Ð·": 6816,
      "ĠÐ¡Ð¾ÑĤÐ¾": 6817,
      "ĠÐ·Ð°Ð¸Ð½ÑĤÐµÑĢÐµÑģ": 6818,
      "ĠÑģÐ»Ñİ": 6819,
      "ĠÑģÐ»ÐµÐ²Ð°": 6820,
      "ÑĢÑĭÐ²Ð°": 6821,
      "ÑĥÐ´Ñĥ": 6822,
      "ÐļÐ¾Ð¿ÐµÑĢ": 6823,
      "ĠÑĢÐ°Ð·Ñĥ": 6824,
      "ĠÑĢÐ°Ð·Ð¶": 6825,
      "ĠÑģÐ¿Ð¸Ð½Ðµ": 6826,
      "Ð¢ÐµÐ¿ÐµÑĢÑĮ": 6827,
      "ĠÐ¿Ð¾Ð»Ðµ": 6828,
      "ĠÐ¿Ð¾Ð»Ð½Ð¾": 6829,
      "ĠÐ¿Ð¾Ð»Ð¾ÑĤ": 6830,
      "ĠÐĲÐ²": 6831,
      "ĠÐľÐ°Ð³": 6832,
      "ĠÐľÐ¸ÑģÑģ": 6833,
      "ÐµÐ¶Ð°Ð»Ð¸": 6834,
      "ÑīÐ¸ÐºÐ¸": 6835,
      "ÑĭÐ²Ð°Ð»Ð¾": 6836,
      "ÐĴÐ¾Ð·": 6837,
      "ÐĴÐµÑĩ": 6838,
      "ÐĴÐºÑĥÑģ": 6839,
      "ĠÑĪÐ»Ð¸": 6840,
      "ĠÑĪÐ»Ñİ": 6841,
      "ĠÑĪÐ°Ñħ": 6842,
      "ĠÑĪÐ»ÐµÐ¼": 6843,
      "ÑĢÐ°Ð²Ð¸Ð»ÑĮÐ½Ð¾": 6844,
      "ĠÐĳÐ¾Ð»ÑĮÑĪÐµ": 6845,
      "ĠÐ´Ð²Ð¸": 6846,
      "ÑĤÐ¾ÑĢÐµ": 6847,
      "ĠÑĢÐ°ÑģÑĪÐ¸": 6848,
      "ĠÑĢÑĥÐ³": 6849,
      "ĠÐ¾Ð´Ð¾Ð±": 6850,
      "ĠÐ¾Ð´Ð½Ð°Ð¶Ð´Ñĭ": 6851,
      "ĠÐ³Ð¾ÑĤ": 6852,
      "ĠÐ²Ð¾Ð·ÑĢÐ°Ð¶": 6853,
      "ĠÐ²Ð¾Ð·ÑĢÐ°ÑģÑĤ": 6854,
      "ÐĵÐ¾ÑģÐ¿Ð¾Ð´": 6855,
      "ÐĵÐ¾Ð²Ð¾ÑĢÐ¸ÑĤ": 6856,
      "ĠÐ¼Ð¾ÐµÐ¼": 6857,
      "ĠÐ²Ð¸Ð´Ð¸ÑĤ": 6858,
      "ĠÐ¿ÑĢÐµÐ´Ð¾": 6859,
      "ĠÐºÐ¾Ð½ÐµÑĨ": 6860,
      "ĠÐºÐ¾Ð½ÑĤÐµÐ¹Ð½ÐµÑĢ": 6861,
      "Ð¸ÑĤÐµÐ»ÑĮÐ½Ð¾Ð³Ð¾": 6862,
      "ĠÐ¸Ð¼Ð¿": 6863,
      "ĠÐ´ÑĢÑĥÐ³Ð¸Ð¼Ð¸": 6864,
      "ĠÐ¸Ð½ÑĤÐµÐ»": 6865,
      "ÑĥÐ±Ð»Ð¸": 6866,
      "ĠÐ£Ð²Ð¸Ð´ÐµÐ²": 6867,
      "ĠÐ½Ð°Ð¿ÑĥÐ³": 6868,
      "Ð¸ÑģÑĤÐ°Ð½": 6869,
      "ĠÐ²ÐµÑĢÐ½ÐµÐµ": 6870,
      "ĠÐ¾ÐºÐ¾Ð½": 6871,
      "Ð°ÑĢÐ¸ÑĤÑĮ": 6872,
      "ĠÐ²Ð¾Ð»Ð¸": 6873,
      "ĠÐ½Ð°ÑģÑĩÐµÑĤ": 6874,
      "ĠÐ½Ð°ÑĩÐ°Ð»Ð¾": 6875,
      "Ð°ÑĤÐµÐ»ÑĮÐ½Ð¾Ð¹": 6876,
      "Ð°ÑĤÐµÐ»ÑĮÐ½ÑĭÐµ": 6877,
      "Ð»ÑĭÐ¼Ð¸": 6878,
      "Ð°ÑĪÐ°": 6879,
      "ĠÐ·Ð°Ð²Ð°Ð»": 6880,
      "ÐĳÐ»Ð°Ð³Ð¾Ð´Ð°ÑĢ": 6881,
      "ĠÐ½ÐµÐ¿ÑĢÐ¾": 6882,
      "ĠÑģÐ»ÑĥÑĩÐ°Ñı": 6883,
      "ĠÑģÑĤÐ°ÑĢÐ¿Ð¾Ð¼": 6884,
      "ĠÐ¿ÑĢÐ¾Ð²ÐµÑģÑĤÐ¸": 6885,
      "ÐĽÑĥ": 6886,
      "ĠÐ¿ÑĥÐ·Ñĭ": 6887,
      "ĠÐºÐ°ÑĢÐ¼": 6888,
      "ĠÐ²Ð·Ð³Ð»ÑıÐ´Ñĭ": 6889,
      "ĠÐ·Ð°Ð½ÑıÑĤÑĮÑģÑı": 6890,
      "ĠÑĩÑĥÐ²ÑģÑĤÐ²Ð¸ÑĤÐµÐ»ÑĮÐ½Ð¾ÑģÑĤÑĮ": 6891,
      "ĠÑģÐ»ÐµÐ´ÑĥÐµÑĤ": 6892,
      "ĠÑģÑĤÐ¾ÑĢÐ¾Ð½Ð°Ð¼": 6893,
      "ĠÐ¼ÐµÑĤÐ°Ð»": 6894,
      "ĠÐ¼ÐµÑĤÑĢÐ°": 6895,
      "ĠÐ±ÐµÑģÑģÐ¼ÑĭÑģÐ»": 6896,
      "ĠÐ´Ð¾Ð±ÑĢÑĭÐ¹": 6897,
      "ĠÑģÐ»ÑĭÑĪÐ½Ð¾": 6898,
      "ĠÐ¿Ð¾ÐºÐ°Ð·Ð°Ð»Ð°": 6899,
      "ĠÐ¾ÑģÑĤÐ°Ð²Ð¸Ð²": 6900,
      "ĠÐ´ÐµÐ¹ÑģÑĤÐ²Ð¾Ð²Ð°ÑĤÑĮ": 6901,
      "ĠÐ¿ÑĭÑĤÐ°ÐµÑĤÑģÑı": 6902,
      "ĠÐ²Ð¾Ð»ÑĪÐµÐ±Ð½Ð¸Ðº": 6903,
      "ÐŀÑĤÐ´": 6904,
      "ÐŀÑĤÐ»Ð¸Ñĩ": 6905,
      "ĠÐ¿Ð¾ÑģÐµÑĤ": 6906,
      "Ð½ÑĥÑĤÑĭÐ¹": 6907,
      "ĠÑģÐ²ÐµÑĤÐ¾Ð¼": 6908,
      "ĠÐ¿Ð°Ð»Ð¾ÑĩÐºÑĥ": 6909,
      "ĠÐ¿Ð¾Ð¶Ð°Ð»ÑĥÐ¹": 6910,
      "ÐºÐ¾Ð»Ð¾": 6911,
      "ĠÐ´ÐµÑĢÐµÐ²Ð¾": 6912,
      "ĠÐ´ÐµÑĢÐµÐ²ÑıÐ½": 6913,
      "ĠÐ¿Ð¾Ð´Ð¾Ð±Ð½Ð¾Ðµ": 6914,
      "ĠÑĥÑĤÐµÑĪ": 6915,
      "ĠÑĥÑĤÐµÑħ": 6916,
      "ĠÐ²Ð°ÑĪÐµÐ¹": 6917,
      "ĠÑģÑĢÐµÐ´ÑģÑĤÐ²": 6918,
      "ĠÐ¿Ð¸ÑģÐ°ÑĤÑĮ": 6919,
      "ĠÑĤÐ¾Ð»ÑģÑĤ": 6920,
      "ĠÐ¿Ð¾Ð¼Ð¾Ð³Ð°ÑĤÑĮ": 6921,
      "ĠÐºÐ°Ð±Ð¸Ð½ÐµÑĤÐµ": 6922,
      "ĠÐ·Ð°Ð»Ðµ": 6923,
      "ĠÐ²ÑģÐµÐ¼Ð¸": 6924,
      "ĠÐºÐ¾ÑģÐ¼Ð¾Ñģ": 6925,
      "Ð°Ð¹ÑĤÐµÑģÑĮ": 6926,
      "ĠÐĺÐ½Ð½ÐµÐ½Ð¸": 6927,
      "ĠÐ´ÑĥÑĪÐ°": 6928,
      "ĠÐ±ÑĭÐ²Ð°ÑİÑĤ": 6929,
      "ĠÐ¸Ð³ÑĢÐ°ÑĤÑĮ": 6930,
      "ĠÐ¶Ð´ÐµÑĤ": 6931,
      "ĠÐ²ÑģÑĤÑĢÐµÑĤÐ¸ÑĤÑĮÑģÑı": 6932,
      "ĠÐ°Ð²ÑĤÐ¾Ð¼Ð¾Ð±": 6933,
      "ĠÑģÐ¶Ð¸Ð¼": 6934,
      "ĠÐ´Ð¾ÐºÐ°Ð·": 6935,
      "ĠÑĥÐ´Ð¾Ð²Ð¾Ð»ÑĮÑģÑĤÐ²Ð¸Ñı": 6936,
      "ĠÑģÐ¾Ð¾Ð±ÑīÐµÐ½Ð¸Ðµ": 6937,
      "ĠÐ¼Ð¾Ð·Ð³Ð°": 6938,
      "ĠÑħÐ¾Ð´Ð¸Ð»": 6939,
      "ĠÐ²Ð¸Ð½Ð¾Ð²": 6940,
      "ĠÐ´Ð¾Ð³Ð°Ð´Ð°Ð»Ð°ÑģÑĮ": 6941,
      "ĠÐ¿Ð¾ÑĢÑıÐ´Ð¾Ðº": 6942,
      "ĠÐ¿ÐµÑĢÐµÑģÐ¿": 6943,
      "ĠÐ²Ð¿ÐµÑĩÐ°ÑĤÐ»ÐµÐ½Ð¸Ðµ": 6944,
      "Ð¸ÑĪÑĥ": 6945,
      "ĠÐ¾Ð±ÐµÑĢÐ½ÑĥÐ»Ð°ÑģÑĮ": 6946,
      "ÑĤÐ°ÑīÐ¸Ð»": 6947,
      "ĠÐ¾Ð±Ð²Ð¸Ð½": 6948,
      "ĠÐºÑĥÑģÐ¾Ðº": 6949,
      "ĠÐĿÐ¸ÐºÑĤÐ¾": 6950,
      "ĠÐºÐ¾Ð¼Ð°Ð½Ð´Ð°": 6951,
      "ĠÐ±Ð¾ÐµÐ²Ð¾Ð¹": 6952,
      "ĠÐ¿Ð¸ÑĪÑĥ": 6953,
      "ĠÐĳÐ»ÐµÐºÐ°": 6954,
      "ĠÐ·Ð°ÐºÑĢÐ¸ÑĩÐ°Ð»Ð°": 6955,
      "ÑĢÑĥÑĤÐ¸Ð»": 6956,
      "ĠÐ¾ÑĤÐ½Ð¾ÑģÐ¸ÑĤÐµÐ»ÑĮÐ½Ð¾": 6957,
      "ĠÐ½Ð°ÑĩÐ¸Ð½Ð°ÐµÑĤ": 6958,
      "ĠÐ¾ÑĤÐºÑĢÐ¾Ð²": 6959,
      "ĠÐ¸Ð½ÑĤÐµÑĢÑĦÐµÐ¹": 6960,
      "ĠÐ¾ÑĩÐµÑĢÐµÐ´Ð½Ð¾Ð¹": 6961,
      "ĠÑģÐ¸Ð¼Ð¿": 6962,
      "ĠÐ¿ÑĢÐ¾ÑģÑĤÑĢÐ°Ð½ÑģÑĤÐ²Ð¾": 6963,
      "ĠÑĥÑĢÐ¾Ð²Ð½Ðµ": 6964,
      "ĠÑĢÐ°Ð·Ð³Ð¾Ð²Ð°ÑĢÐ¸Ð²Ð°ÑĤÑĮ": 6965,
      "ĠÑĢÐ°Ð±Ð¾Ñĩ": 6966,
      "ĠÐºÑĥÑĢÑĤÐºÑĥ": 6967,
      "ĠÐ½Ð°Ð½ÐµÑģ": 6968,
      "ĠÐłÐ°ÑģÑģÐºÐ°Ð·": 6969,
      "ĠÐ±Ð¾Ð»ÐµÐ·Ð½ÑĮ": 6970,
      "ĠÐ²ÑĭÑĤÐ°ÑīÐ¸Ð»": 6971,
      "ĠÐºÐ°ÑĩÐµÑģÑĤÐ²Ðµ": 6972,
      "ĠÐ¾ÐºÐ¾Ð½ÑĩÐ°ÑĤÐµÐ»ÑĮÐ½Ð¾": 6973,
      "ĠÐ¼Ð¾Ð»ÑĩÐ°Ð½Ð¸Ðµ": 6974,
      "ĠÐ¤Ð¸Ð»Ñĩ": 6975,
      "ĠÐ¿Ð»Ð°Ð½Ð¸ÑĢÑĥÐµÑĪÑĮ": 6976,
      "ĠÐ½Ð°Ð±Ð»ÑİÐ´Ð°Ð»": 6977,
      "ĠÑģÐ¾Ð±ÑĭÑĤÐ¸": 6978,
      "ÐĶÐ¾ÑĢÐ¾Ð³Ð¾Ð¹": 6979,
      "ĠÐ¿ÑĢÐµÑģÐ»ÐµÐ´": 6980,
      "ĠÐ¿Ð¾Ð¾Ð±ÐµÑīÐ°Ð»": 6981,
      "ĠÐŁÐµÑĤÑĥÐ½ÑĮÑı": 6982,
      "ĠÐĴÐ¸Ð´Ð°ÑĥÑĢÐ°": 6983,
      "Ð¡ÐºÐ¸Ð½ÑĮ": 6984,
      "ĠÐ´Ð¾ÐºÑĥÐ¼ÐµÐ½ÑĤ": 6985,
      "ĠÐ¼Ð»Ð°Ð´ÐµÐ½": 6986,
      "ĠÐĵÐ¾Ð¹Ð»": 6987,
      "ĠÐ°ÑĤÐ¼Ð¾Ñģ": 6988,
      "ĠÐ¿ÑĢÐµÐ¾Ð´Ð¾Ð»": 6989,
      "ĠÐ¿ÑĥÐ½ÐºÑĤÐ¾Ð²": 6990,
      "ÐĶÐ¶ÐµÐ¹Ð¼Ñģ": 6991,
      "ĠÐ°Ð±ÑģÐ¾Ð»ÑİÑĤÐ½Ð¾": 6992,
      "ĠÐºÐ°Ð¼Ð¸Ð½Ð°": 6993,
      "ÐĿÐ°Ð²ÐµÑĢÐ½Ð¾Ðµ": 6994,
      "ÐĲÐ»Ð°Ð´Ð´Ð¸Ð½": 6995,
      "ĠÐĳÑĢÐ¾Ð´ÑıÐ³Ð°": 6996,
      "ĠÑĦÐ°Ð¼Ð¸Ð»Ð¸": 6997,
      "ĠÑĦÐ°Ð½ÑĤÐ°Ð·": 6998,
      "ĠÐ¼Ð¸Ð³ÑĢÐµÐ½ÑĮ": 6999,
      "by": 7000,
      "le": 7001,
      "ok": 7002,
      "uma": 7003,
      "ÑĤÑĭÑħ": 7004,
      "ÑģÑĦ": 7005,
      "ÑĢÐ°Ð»Ð°ÑģÑĮ": 7006,
      "ÑĢÐ°Ð¶Ð´": 7007,
      "Ð½Ð¸Ð»ÑģÑı": 7008,
      "Ð½Ð³Ð°": 7009,
      "Ð½ÐµÐ·Ð°Ð¿Ð½Ð¾": 7010,
      "Ð»Ð°Ð¼Ð¸": 7011,
      "Ð»ÐµÑģÑĤ": 7012,
      "ÑıÑīÐ¸Ñħ": 7013,
      "ĠÐ¿Ð°Ð¿": 7014,
      "ĠÐ¿ÐµÑħ": 7015,
      "ĠÐ¿Ð°ÑģÑģ": 7016,
      "ĠÐ¿Ð»Ð¾ÑĤÑĮ": 7017,
      "ĠÑģÐ¸": 7018,
      "ĠÑģÐ³Ð¾": 7019,
      "ĠÑģÐ°Ð¹": 7020,
      "ĠÑģÐ»Ð¸Ð²": 7021,
      "ĠÑģÐ½ÑıÑĤÑĮ": 7022,
      "Ð²Ð¾Ðµ": 7023,
      "Ð´Ñı": 7024,
      "ĠÐ¾ÑĤÐ¾": 7025,
      "ĠÐ¾ÑĢÐ°Ð½": 7026,
      "Ð°Ð»Ð¾Ð¼": 7027,
      "ĠÐ¸Ñī": 7028,
      "ĠÐºÐ¸Ð¿": 7029,
      "ĠÐºÐ°Ð½Ð¸ÐºÑĥ": 7030,
      "ÐµÐ½ÐºÐ¾": 7031,
      "ÐµÑĢÑĭÐ²": 7032,
      "ĠÐ´Ð°Ð½Ð½ÑĭÐ¹": 7033,
      "ĠÐ´Ð¾ÑĩÑĮ": 7034,
      "ĠÐ¼Ð°ÑģÑĤ": 7035,
      "ĠÐ¼ÑĢÐ°ÑĩÐ½Ð¾": 7036,
      "Ð¿ÐµÐ´": 7037,
      "ĠÑĤÐºÐ½ÑĥÐ»": 7038,
      "ĠÑĤÐ²Ð°ÑĢ": 7039,
      "ĠÑĤÐºÐ°Ñĩ": 7040,
      "Ð¾Ð»ÑĩÐ°Ð»Ð°": 7041,
      "ĠÐ±ÑĢÑĭÐ·": 7042,
      "Ð°ÐºÑĥ": 7043,
      "Ð¸Ð»Ñı": 7044,
      "Ð¸Ð»Ð¸Ð½": 7045,
      "ÑĢÐ¾Ð½Ñĭ": 7046,
      "ĠÑĥÐ»Ð¸Ñĩ": 7047,
      "ĠÑĩÐ¾Ðº": 7048,
      "Ð±Ð°Ð½": 7049,
      "ĠÐ½Ð°ÑģÐº": 7050,
      "ĠÑĢÐµÐ¼": 7051,
      "ĠÑĢÐµÐ¿": 7052,
      "ÐµÐ¼ÐµÑĤ": 7053,
      "ĠÐ½ÐµÑĥÐ´Ð°": 7054,
      "Ð½Ð¸Ð¼Ð¸": 7055,
      "Ð¾ÑĢÐ°Ð´": 7056,
      "Ð¾ÑĢÑĤÑĥ": 7057,
      "Ð¾ÑĤÐ°ÑĢ": 7058,
      "Ð¾ÑĤÐ°Ð»Ð°": 7059,
      "ÐµÐ¹Ð»Ñĭ": 7060,
      "ĠÐ³Ð°Ð´Ð¾": 7061,
      "ĠÐ¾ÑĤÑĢÐµÐ·": 7062,
      "ĠÐ¾ÑĤÑĭÑģÐº": 7063,
      "ĠÐ¾ÑĤÑĢÐµÐ°Ð³": 7064,
      "ÐºÐ¸Ð½ÑĥÐ»": 7065,
      "ĠÐ»Ð¾Ð¿": 7066,
      "ĠÐ»Ð±Ñĥ": 7067,
      "ĠÐ»ÐµÑĤÐ¾": 7068,
      "ÑĢÑĥÐµÑĤ": 7069,
      "Ð¸Ð²Ð°Ð»Ð¸ÑģÑĮ": 7070,
      "ĠÐĵÐ¾ÑģÐ¿Ð¾Ð´": 7071,
      "ĠÐ¿ÑĢÐ¸Ð¾ÑĤ": 7072,
      "ĠÐ¿ÑĢÐ¸Ð´Ñĥ": 7073,
      "ĠÐ²ÑĭÐ¼": 7074,
      "ĠÐ²ÑĭÑĢÐ°ÑģÑĤ": 7075,
      "Ð¸Ð½ÑĤ": 7076,
      "Ð¸Ð½Ð°Ð»": 7077,
      "Ð¸Ð½Ð¾Ð¼": 7078,
      "ĠÐ¾Ð±Ð·": 7079,
      "ĠÐ¾Ð±Ð½Ð¸Ð¼": 7080,
      "Ð»ÑıÐ»Ð¸ÑģÑĮ": 7081,
      "ĠÐ¶ÐµÐ½Ð¸": 7082,
      "ĠÐ²ÑģÐºÐ¾Ñĩ": 7083,
      "ĠÐŁÐ¸Ð²": 7084,
      "ĠÐŁÐ°ÑĢÐ¸": 7085,
      "ĠÐĿÐ°ÑĤ": 7086,
      "Ð°Ð¶Ð½Ð¾": 7087,
      "ĠÑĤÐ°ÐºÑĤÐ¸": 7088,
      "ĠÐ¡Ð°ÑĢÐ°": 7089,
      "ÐļÐ¾Ð¼": 7090,
      "ÐļÐ°Ð¼": 7091,
      "ĠÑĢÐ°Ð·Ð¾Ñĩ": 7092,
      "ÑģÐ»ÐµÐ¿": 7093,
      "ÐµÐ½ÑĮÐµ": 7094,
      "ĠÐľÐ°Ð¹": 7095,
      "ĠÐľÐ¾Ð¶Ð½Ð¾": 7096,
      "Ð¡Ð°Ð»ÑİÑĤ": 7097,
      "ĠÐĺÐ´Ð¸": 7098,
      "ĠÐĺÑĤÐ°Ðº": 7099,
      "ĠÑĪÐµÑĦ": 7100,
      "ĠÑĪÐºÐ°ÑĦ": 7101,
      "ÑģÐ¿Ð¾Ð¼": 7102,
      "ÑģÐ¿Ð¾ÑĢÑĤ": 7103,
      "ĠÐĳÐµÐ»ÑĭÐ¹": 7104,
      "Ð¸Ð·Ð¼ÐµÐ½": 7105,
      "ĠÑģÑĤÐ¾Ð¸Ð»Ð¾": 7106,
      "ĠÐ¾Ð´Ð¸": 7107,
      "ĠÐ¾Ð´Ð½Ð¾Ðº": 7108,
      "ÑĢÑıÐ¶": 7109,
      "ÐĺÐ¼": 7110,
      "ĠÐĽÐ¸ÑĨÐ¾": 7111,
      "ÑĤÑĥÑĢ": 7112,
      "ĠÐ¿ÑĢÐµÐ´Ð¼ÐµÑĤ": 7113,
      "ÑįÑĤÐ¾Ð¼": 7114,
      "Ð¸ÑĤÐµÐ»ÑĮÐ½Ð¾Ð¹": 7115,
      "Ð¸ÑĤÐµÐ»ÑĮÐ½Ð°Ñı": 7116,
      "ÐµÑħÐ°ÑĤÑĮ": 7117,
      "ĠÐ¸Ð¼ÐµÐ½Ð¸": 7118,
      "ĠÐ·Ð½Ð°ÑİÑĤ": 7119,
      "ĠÐĹÐ°Ð±": 7120,
      "ĠÐºÐ¾Ð¼Ð¾Ðº": 7121,
      "ĠÐ£Ð±": 7122,
      "ĠÐķÑģÑĤÐµÑģÑĤÐ²ÐµÐ½Ð½Ð¾": 7123,
      "Ð¸ÑģÑĤÑĢÐ¸": 7124,
      "ĠÐ³Ð»Ð°Ð·Ð¾Ð¼": 7125,
      "ĠÐ¾ÑģÑĤÐ°Ð»ÑĮÐ½ÑĭÑħ": 7126,
      "ĠÐ»ÑİÐ±ÑıÑĤ": 7127,
      "ĠÑģÐ¾Ð±ÑģÑĤÐ²ÐµÐ½Ð½Ð¾": 7128,
      "ĠÐ·Ð°Ð¿Ð¾Ð¼": 7129,
      "ĠÐ·Ð°Ð¿Ð»Ð°ÑĤ": 7130,
      "Ð¾ÑħÐ²Ð°ÑĤ": 7131,
      "ĠÐ±ÐµÐ·Ð¶": 7132,
      "ĠÐ¾ÑĤÐ²ÐµÑĤÐ¸ÑĤÑĮ": 7133,
      "ĠÑĩÐµÑĢÑĤÑĭ": 7134,
      "ĠÐ¿ÑĢÐ°Ð²Ð¾Ð¹": 7135,
      "ÐĳÑĭ": 7136,
      "ĠÑĥÑĩÐ¸ÑĤÐµÐ»ÑĮ": 7137,
      "ĠÐ¿ÐµÑĢÐµÐ´Ð¾": 7138,
      "ĠÐ²Ð¾ÑģÐº": 7139,
      "ÐłÐ°Ð±Ð¾ÑĤ": 7140,
      "ĠÑģÑĤÐ°ÑĢÐ°Ð»ÑģÑı": 7141,
      "Ð»ÐµÐ½Ð½ÑĭÐµ": 7142,
      "Ð»ÐµÐ½Ð½ÑĭÐ¼": 7143,
      "ÐŃÐ¹": 7144,
      "ÐŃÑĤÐ¸": 7145,
      "ĠÐ¿ÑĢÐ¾Ð²Ð¾ÑĢ": 7146,
      "ĠÐºÐ¾ÑĢÐ¿ÑĥÑģÐ°": 7147,
      "ĠÐºÐ°ÑĢÑĮ": 7148,
      "ĠÐ½Ð°ÑĪÐµÐ¼": 7149,
      "ÐķÑģÑĤÑĮ": 7150,
      "ÐķÐł": 7151,
      "ĠÐ²Ð´Ð¾Ñħ": 7152,
      "ĠÐ¢Ð°ÐºÐµÑģÐ¸": 7153,
      "ĠÐ¿Ð¾ÑģÐ»ÐµÐ´Ð¾Ð²Ð°Ð»": 7154,
      "ĠÐ¿Ð¾Ð³ÑĢÑĥÐ¶": 7155,
      "ĠÐ½ÐµÐ²Ð¸Ð´Ð¸Ð¼": 7156,
      "ĠÐ´Ð¾ÑĢÐ¾Ð³Ð¸": 7157,
      "Ð³Ð¸Ð¿ÐµÑĢ": 7158,
      "ÑĳÐ½Ð½Ð¾": 7159,
      "ĠÑĢÐ°ÑģÐ¿Ð°Ñħ": 7160,
      "ĠÐ¾Ð±ÑĬÐµÐºÑĤ": 7161,
      "ĠÐ½ÐµÐ±ÐµÑģ": 7162,
      "ĠÐ·Ð²ÑĥÑĩ": 7163,
      "ĠÐ·Ð²ÑĥÐºÐ¸": 7164,
      "ĠÐ·Ð°Ð³Ð»ÑıÐ´": 7165,
      "ĠÐ¿ÑĭÑĤÐ°Ð»Ð°ÑģÑĮ": 7166,
      "ĠÑĥÑģÑĤÑĢÐµÐ¼": 7167,
      "ĠÐ²Ð¾Ð´Ð¾Ð¹": 7168,
      "ĠÑįÑĤÐ¸Ð¼Ð¸": 7169,
      "ĠÑĢÐ°Ð·Ð²ÐµÐ´": 7170,
      "ĠÐºÐ¾Ð¼Ð½Ð°ÑĤ": 7171,
      "ĠÐ½Ð°Ð±Ð¾Ðº": 7172,
      "ĠÐļÐ¾ÑĢÐ¿ÑĥÑģÐ°": 7173,
      "ĠÐ¸Ð½ÑĤÐµÑĢÐµÑģÐ½Ð¾Ðµ": 7174,
      "ÑĢÐµÐ·Ð³": 7175,
      "ĠÐ¾ÑĤÐ¿ÑĥÑģÐº": 7176,
      "ĠÐ¿Ð¾ÑģÐ¾Ð²ÐµÑĤ": 7177,
      "Ð¼ÐµÐ½ÑĤÐ°": 7178,
      "ĠÐ²ÑĭÐ±ÑĢÐ°ÑĤÑĮÑģÑı": 7179,
      "ĠÐ·Ð°ÑĢÐ°Ð±Ð¾ÑĤ": 7180,
      "ĠÐ·Ð°ÑĢÑıÐ¶": 7181,
      "ĠÐ³Ð¾ÑĢÐ¾Ð´Ðµ": 7182,
      "ÐµÑģÐºÐ¾Ð³Ð¾": 7183,
      "ĠÐ·ÐµÐ¼Ð»Ð¸": 7184,
      "ĠÑīÐ¸ÑĤ": 7185,
      "Ð¸ÑĢÐ°ÐµÑĤ": 7186,
      "ĠÐ½Ð¾Ð³Ð°Ñħ": 7187,
      "ĠÐ¿ÑĢÐ¸Ð·Ð½Ð°": 7188,
      "ĠÐ´Ð¾ÑĢÐ¾Ð³Ñĥ": 7189,
      "ĠÐ²Ð°ÑĪÐµÐ³Ð¾": 7190,
      "ĠÐ·Ð½Ð°ÐºÐ¾Ð¼Ð¾Ð³Ð¾": 7191,
      "ĠÐ²ÑĭÑħÐ¾Ð´Ñĥ": 7192,
      "ÑİÑīÐ°Ñı": 7193,
      "ĠÑĥÐ»Ð¸ÑĨÑĭ": 7194,
      "ÐĸÐ°Ð½ÑĢ": 7195,
      "ĠÐºÐ¾ÑĢÐ°Ð±Ð»ÐµÐ¹": 7196,
      "ĠÐ¿ÑıÑĤÐ½Ð°Ð´ÑĨÐ°ÑĤÑĮ": 7197,
      "ĠÐ¼Ð¾Ð»Ð¾Ð´Ð°Ñı": 7198,
      "ĠÐ¾ÑĤÐ´ÐµÐ»ÑĮ": 7199,
      "ĠÑĩÐ¸ÑĤÐ°ÐµÑĪÑĮ": 7200,
      "ĠÑĥÐ²ÐµÑĢÐµÐ½Ð½Ð¾": 7201,
      "ĠÐ¸Ð½ÑĦÐ¾ÑĢÐ¼Ð°ÑĨÐ¸Ñı": 7202,
      "ĠÐ¾Ð¶Ð¸Ð´Ð°": 7203,
      "ĠÐ¿Ð¾ÑĩÑĥÐ²ÑģÑĤÐ²Ð¾Ð²Ð°Ð»Ð°": 7204,
      "ĠÐ°ÑĢÐ¼ÐµÐ¹": 7205,
      "ÑģÑĤÐµÑĢÐ¾": 7206,
      "ĠÐ¸ÑģÐ¿ÑĥÐ³Ð°Ð»Ð°ÑģÑĮ": 7207,
      "ĠÐ¼Ð¸Ð»Ð»Ð¸": 7208,
      "ĠÑģÐ¿Ð¾ÑģÐ¾Ð±Ð¾Ð¼": 7209,
      "ĠÐĸÐ´Ñĥ": 7210,
      "ĠÑģÑĤÐ°Ð½ÑĨÐ¸Ð¸": 7211,
      "ĠÑģÐ²ÐµÑĢÑħÑĥ": 7212,
      "ĠÐ¾Ð³ÑĢÐ¾Ð¼Ð½ÑĭÐ¹": 7213,
      "ĠÑģÐºÐ°Ð¶ÐµÑĪÑĮ": 7214,
      "ĠÐ¾ÑĤÐ²ÐµÑĩÐ°Ð»": 7215,
      "ĠÐ¾ÑĤÑĩÐ°ÑıÐ½Ð½Ð¾": 7216,
      "ĠÐ¿Ð¾Ð»Ð¾Ð¶ÐµÐ½Ð¸Ðµ": 7217,
      "ÑħÐ¾Ð´ÑıÑīÐµÐµ": 7218,
      "Ð¾Ð¶Ð¸Ð´Ð°Ð½Ð½Ð¾": 7219,
      "ĠÐ±Ð»Ð°Ð³Ð¾Ð¿Ð¾Ð»": 7220,
      "ĠÑģÐ¾Ð¾Ð±ÑīÐ¸Ð»": 7221,
      "ĠÐłÐµÐ¼ÑĥÑģÐ°": 7222,
      "ĠÐ¼Ð°ÑħÐ½ÑĥÐ»Ð°": 7223,
      "ĠÑĥÑģÑĤÐ°Ð²Ð¸Ð²ÑĪÐ¸ÑģÑĮ": 7224,
      "ĠÐ·Ð°Ð´ÑĥÐ¼Ð°Ð»ÑģÑı": 7225,
      "ĠÐ¿Ð»Ð°Ñī": 7226,
      "ĠÐ»ÐµÑĩÐ¸Ð»ÑģÑı": 7227,
      "ĠÐ¿ÑĢÐ¾Ð¼ÑĭÑĪ": 7228,
      "ĠÐ¿ÑĢÐ¸Ð¶Ð¸Ð¼": 7229,
      "ĠÐºÐ¾ÑĪÐ¼Ð°ÑĢ": 7230,
      "ĠÐºÑĢÐµÑģÐ»Ð°": 7231,
      "ĠÐ¾ÑģÐ½Ð¾Ð²Ð½Ð¾Ð¼": 7232,
      "ĠÐºÐ¾Ð½ÑĤÑĢÐ¾Ð»Ñı": 7233,
      "ĠÐ³ÑĢÑıÐ·Ð½Ð¾ÐºÑĢÐ¾Ð²": 7234,
      "ĠÐļÑĢÐ°ÑģÐ¸Ð¼Ð¸": 7235,
      "ĠÐ´Ð²ÐµÑĢÐµÐ¹": 7236,
      "ĠÑģÐ¿Ð°Ð»ÑĮÐ½Ð¸": 7237,
      "ĠÐ¿ÑıÑĤÑĮÐ´ÐµÑģÑıÑĤ": 7238,
      "ÐºÐ¾Ð»ÑĮÐºÑĥ": 7239,
      "ĠÐ·Ð½Ð°ÑĩÐµÐ½Ð¸Ñı": 7240,
      "ĠÐ°Ð¿Ð¿Ð°ÑĢÐ°ÑĤ": 7241,
      "ĠÐĿÐ¸ÐºÐ¾Ð»": 7242,
      "ĠÐĿÐ¸ÐºÐ°Ðº": 7243,
      "ĠÐºÐ°ÑĤÐ°Ð»": 7244,
      "ĠÐĿÐ°Ð²ÐµÑĢÐ½ÑıÐºÐ°": 7245,
      "ĠÐ¸Ð½ÑģÑĤÐ¸Ð½": 7246,
      "ĠÐºÐ¾Ð¼Ð°Ð½Ð´Ñĭ": 7247,
      "ĠÐ¿ÑĢÐ¾ÑĩÑĮ": 7248,
      "ĠÑĢÐ°Ð·Ð³Ð»ÑıÐ´ÐµÑĤÑĮ": 7249,
      "ĠÑĤÐµÐ»ÐµÑĦÐ¾Ð½Ñĭ": 7250,
      "ĠÐ½ÐµÐºÐ¾ÑĤÐ¾ÑĢÐ¾Ðµ": 7251,
      "ĠÐ¿ÐµÑĢÐµÑħÐ¾Ð´": 7252,
      "ĠÐ¿ÑĢÐ¾Ð»ÐµÑĤ": 7253,
      "Ð¾Ð²ÐµÑĢÑħ": 7254,
      "ĠÐ¸Ð·Ð¼ÐµÐ½Ð¸Ð»Ð¾ÑģÑĮ": 7255,
      "ĠÐ¡ÐºÐ¾Ð»ÑĮÐºÐ¾": 7256,
      "Ġ50": 7257,
      "ĠRuby": 7258,
      "ĠÐ¿Ð¾Ð¹Ð¼Ð°Ð»": 7259,
      "ĠÐ´Ð¸Ð²Ð°Ð½": 7260,
      "ĠÐ´ÑĭÑĪÐ°ÑĤÑĮ": 7261,
      "Ð»Ð°Ð¹Ð½Ñĭ": 7262,
      "ĠÑģÑĢÐ°Ð²Ð½": 7263,
      "ĠÐ¾Ð±ÐµÑģÐ¿Ð¾ÐºÐ¾": 7264,
      "Ð¡ÐºÐ¾Ð»ÑĮÐºÐ¾": 7265,
      "ĠÐºÐ¾Ð¼Ð¿Ð»ÐµÐºÑģ": 7266,
      "ĠÐ´ÐµÐ´Ð»Ð°Ð¹Ð½Ñĭ": 7267,
      "ĠÑĢÐ°ÑģÑģÑĤÐ¾ÑıÐ½Ð¸Ðµ": 7268,
      "ĠÑģÐ»Ð°Ð±Ð¾ÑģÑĤÑĮ": 7269,
      "ĠÑĥÑģÑĤÑĢÐ¾Ð¹ÑģÑĤÐ²Ð¾": 7270,
      "ĠÐĿÐ°Ð¿ÑĢÐ¸Ð¼ÐµÑĢ": 7271,
      "ĠÐ½ÐµÐ¹ÑĢÐ¾ÑħÐ¸Ð¼Ð¸Ñı": 7272,
      "ĠÐ²Ð°ÑĪÐ¸Ñħ": 7273,
      "ĠÐ±Ð°ÑĤÐ¾Ð½ÑĩÐ¸Ðº": 7274,
      "Ð¸ÑĢÑĥÑĢÐ³Ð¸": 7275,
      "ÑģÐ»ÑĭÑĪÐ°Ð²": 7276,
      "ÐŁÐ¾Ð¼Ð¾Ð³": 7277,
      "ĠÐ¼Ð¾Ð½Ð³Ð¾Ð»": 7278,
      "ĠÐ£Ð¸Ð·Ð»Ð¸": 7279,
      "ĠÐĳÐ°ÑĢÑģ": 7280,
      "ĠÐĿÐ°Ð¹Ð¼Ð°Ð½": 7281,
      "ĠÑħÐ¼ÑĭÐºÐ½ÑĥÐ»": 7282,
      "ĠÐŀÑĢÐ´": 7283,
      "ÐŁÑĢÐµÑģÐºÐ¾ÑĤÑĤ": 7284,
      "ĠÐ²Ð¶Ð¸Ð²": 7285,
      "ĠÐ½ÐµÑģÐºÐ¾Ð»ÑĮÐºÐ¸Ñħ": 7286,
      "ĠÐ¿Ð¾Ð´ÑĢÐ¾ÑģÑĤÐºÐ¾Ð²": 7287,
      "ĠÑĪÑĤÐ°Ð½Ñĭ": 7288,
      "ĠÐ¼Ð¸Ð½Ð¸Ð¼": 7289,
      "ĠÐłÐ°Ð´Ð¸ÑģÐ»": 7290,
      "ĠÐºÑĢÐ¾ÑģÑģÐ¾Ð²ÐºÐ¸": 7291,
      "ĠÐ±Ð¸Ð»ÐµÑĤÑĭ": 7292,
      "ĠÑģÑĤÐµÑģÐ½Ñı": 7293,
      "ĠÑģÐ½Ð¸ÑĤÑĩ": 7294,
      "ĠÐ½Ð°ÑģÐ¼ÐµÑĪ": 7295,
      "ĠÐ¥Ð¾ÑĤÐµÐ»Ð°": 7296,
      "oyota": 7297,
      "ĠÑĨÐ¸Ð²Ð¸Ð»Ð¸Ð·Ð°": 7298,
      "ĠÐ¿ÑĢÐµÑģÑĤÐ¸Ð¶Ð½Ð°Ñı": 7299,
      "ĠÐ¾ÑĢÐ°Ð½Ð¶": 7300,
      "MW": 7301,
      "an": 7302,
      "ar": 7303,
      "ĠX": 7304,
      "ÑĤÐµÐ¼": 7305,
      "Ð¸ÑĢÐ¾ÑģÐ»": 7306,
      "Ð½ÐµÑĪÑĮ": 7307,
      "Ð»Ð¸Ð»": 7308,
      "ÑıÐº": 7309,
      "ÑĮÐµÐ¼": 7310,
      "ÑĮÐµÐ²": 7311,
      "ĠÐ¿Ð»Ñı": 7312,
      "ĠÐ¿Ð¸Ð¶": 7313,
      "ĠÑģÐ½Ðµ": 7314,
      "ĠÑģÐµÑĢÑĮ": 7315,
      "ÑĩÐ°Ð¹": 7316,
      "ÑĩÐ½Ð¾Ð³Ð¾": 7317,
      "ÐºÐ¾Ð½ÐµÑĩÐ½Ð¾": 7318,
      "ĠÐ²Ðº": 7319,
      "Ð´Ð¾Ð²": 7320,
      "Ð´Ð¸Ð²": 7321,
      "ĠÐ¾ÐºÐµ": 7322,
      "ĠÐ¾Ð³Ð»ÑĥÑĪ": 7323,
      "ĠÐºÐ¸Ñģ": 7324,
      "ĠÐºÑĥÐ±": 7325,
      "ĠÐºÐ¾ÑĢÐ¼": 7326,
      "ĠÐ´ÐµÐ¼": 7327,
      "ĠÐ´ÐµÐº": 7328,
      "ĠÐ´Ð°Ð»Ð¸": 7329,
      "ĠÐ´ÐµÑĢÑĮ": 7330,
      "ĠÐ´Ð¾Ð¼Ñĥ": 7331,
      "ĠÐ´Ð¸ÑģÑĤÐ°Ð½": 7332,
      "ĠÐ¼Ð°Ð½Ð¸": 7333,
      "Ð¿Ð¸Ð½": 7334,
      "Ð¿ÑĥÐ»Ñı": 7335,
      "ĠÑĤÑĢÐ°ÑĤ": 7336,
      "ĠÑĤÑĢÑıÑħ": 7337,
      "ĠÑĤÐ°ÑģÐºÐ¸": 7338,
      "ĠÑĤÐ¸ÑĪÐ¸Ð½Ð°": 7339,
      "ÑİÑīÐµÐµ": 7340,
      "ĠÐ±ÑĥÑħ": 7341,
      "ĠÐ±Ð°ÑĢÐ°": 7342,
      "ĠÐ±ÑĢÐ°ÑĤÑĮ": 7343,
      "ĠÐ±Ð¸Ð±": 7344,
      "ĠÐ±ÑĢÐµÐ·Ð³": 7345,
      "Ð°ÐºÐµ": 7346,
      "Ð°ÐºÐ¾Ð½": 7347,
      "ÑĢÐ¾Ñī": 7348,
      "ĠÐ·Ð°Ð³Ð¾": 7349,
      "ĠÑĥÐºÑĢÑĭ": 7350,
      "ĠÑĥÑĨÐµÐ»": 7351,
      "ĠÑĩÐµÐ»Ð½Ð¾Ðº": 7352,
      "Ð°Ð½ÑĤÐ¾Ð¼": 7353,
      "Ð°Ð½ÑĤÐ¾Ð²": 7354,
      "Ð±ÐµÑĢ": 7355,
      "Ð±ÐµÐ¶": 7356,
      "ĠÐ½Ð°ÑīÑĥÐ¿": 7357,
      "Ð¾Ð´Ð¾": 7358,
      "ĠÑĢÐµÑĩ": 7359,
      "ĠÑĢÐµÑĨÐµÐ¿": 7360,
      "ĠÐ¿Ð¾ÑĤÐ°": 7361,
      "Ð»Ð¸Ð¾ÑĤ": 7362,
      "Ð³Ð´Ðµ": 7363,
      "Ð½Ð¸ÑĢÐ¾Ð²": 7364,
      "Ð¾ÑĢÑıÐ¶": 7365,
      "ÐµÐ´Ð¸Ð½Ð¸": 7366,
      "Ð¸ÑĤÐ¾Ð³Ð¾": 7367,
      "ĠÐ¾ÑĤÑĪ": 7368,
      "Ð°ÑĤÐ°Ð½": 7369,
      "ĠÐ»Ð°Ð²": 7370,
      "ĠÐ»ÑĥÐ¶": 7371,
      "ÑĢÑĥÐ½": 7372,
      "ÑĢÑĥÑģÑĤ": 7373,
      "Ð¸Ð²Ð°ÑİÑĤ": 7374,
      "Ð¸Ð²Ð°ÐµÐ¼": 7375,
      "Ð¸Ð²ÑĪÐ¸ÐµÑģÑı": 7376,
      "ĠÐĵÐ»Ð°Ð·": 7377,
      "ĠÐ¿ÑĢÐ¸Ð²ÐµÑĤ": 7378,
      "ĠÐ¿ÑĢÐ¸Ð½ÑıÑĤÑĮ": 7379,
      "ĠÑģÑĤÐ¸Ñģ": 7380,
      "ÐºÐ¾ÑĢÐ¸Ð·": 7381,
      "ĠÐ¿Ð¾Ð´ÑĢÑĥÐ¶": 7382,
      "ĠÐ¿Ð¾Ð´Ð¾Ð¹ÑĤÐ¸": 7383,
      "ĠÐĿÐµÐ¼": 7384,
      "ĠÐĶÐ¸Ð¼": 7385,
      "ĠÐĶÐ²Ð°": 7386,
      "ĠÐ°ÑģÑĤÐµÑĢÐ¾": 7387,
      "ĠÑħÐ¸ÑĤ": 7388,
      "ĠÑħÐ¾Ñħ": 7389,
      "Ð¾ÑģÑĥÐ´": 7390,
      "ĠÐĴÐ°Ð»": 7391,
      "Ð°Ð¶Ð¸ÑĤÐµ": 7392,
      "Ð°Ð±Ð¸Ð»ÑĮ": 7393,
      "ĠÐŀÐº": 7394,
      "ĠÐ¡Ð¸": 7395,
      "ĠÐ¡Ð¾Ð²": 7396,
      "ĠÐ·Ð°ÑīÐ¸ÑĤÐµ": 7397,
      "ĠÑģÐ»Ð°Ð´Ð¾": 7398,
      "ÐĿÐ¸Ðº": 7399,
      "ÐŁÑĢÐµÐ´": 7400,
      "ÐŁÐµÑĢÐ²": 7401,
      "ĠÑģÐ¿ÑıÑĤ": 7402,
      "ÐµÐ¿ÐµÐ½Ð½Ð¾": 7403,
      "Ð¢ÑĢÐµÐ¿Ð¿": 7404,
      "Ð¢Ð¾ÑĩÐ½Ð¾": 7405,
      "Ð¾ÑĩÑĤÐ¸": 7406,
      "ĠÑģÐºÐ²Ð°Ð´": 7407,
      "ĠÐ¿Ð¾Ð»Ð½Ð¾Ð³Ð¾": 7408,
      "ĠÐ¿Ð¾Ð»ÑĩÐ°Ñģ": 7409,
      "ĠÐ¿ÐµÑĢÐµÑĪ": 7410,
      "ĠÐ¿ÐµÑĢÐµÑĩ": 7411,
      "ĠÐľÐµÑĢ": 7412,
      "ĠÐľÐ°Ð¼Ð°": 7413,
      "Ð¡ÑĢÐµÐ´": 7414,
      "Ð¡ÐµÐ³Ð¾Ð´Ð½Ñı": 7415,
      "Ð¡Ð»ÑĥÑĪ": 7416,
      "Ð¡Ð¼Ð¾ÑĤÑĢ": 7417,
      "Ð¸Ð»Ð¸Ð¹": 7418,
      "ĠÐĺÐ´": 7419,
      "ĠÑĪÐ¾Ðº": 7420,
      "ĠÑĪÐµÑģÑĤÐ¸": 7421,
      "ĠÐ»Ð¸Ñħ": 7422,
      "ÑĢÐ¾ÑģÐ¸Ð²": 7423,
      "ĠÐłÐ¾Ð¶Ð´Ðµ": 7424,
      "ĠÑģÐ¼Ðµ": 7425,
      "ĠÑģÐ¼ÐµÐ½": 7426,
      "ĠÐ²Ð·Ð¼Ð°Ñħ": 7427,
      "ÑĤÐ¾ÑĢÐ¾Ð¹": 7428,
      "ĠÑĢÐ°ÑģÑģÐ¿": 7429,
      "ĠÑģÑĤÐ¾ÑıÐ²": 7430,
      "ĠÐ¿Ð¾ÐºÐ°ÑĤ": 7431,
      "ÑĤÐ°ÑĢÐ¸Ðº": 7432,
      "ÑĩÐ¸ÑĪÑĮ": 7433,
      "ĠÐ»ÑİÐºÐ°": 7434,
      "ĠÐ¼Ð¾ÑĳÐ¼": 7435,
      "ĠÐŃÑĤÐ¸": 7436,
      "ĠÐ¿Ð»Ð°Ð²": 7437,
      "ĠÐ²Ð¸Ð´Ð½": 7438,
      "ĠÐ²Ð¸Ð´Ð¸ÑĪÑĮ": 7439,
      "ĠÐºÐ¾Ð½Ñģ": 7440,
      "Ð¸ÑĢÐ°ÑĤÑĮÑģÑı": 7441,
      "ĠÐ¿Ð¾Ð²ÑĭÑĪ": 7442,
      "ĠÑĥÐ´Ð°ÑĢÐ°": 7443,
      "ĠÐ¿Ð¾Ð¼Ð¾Ð¶ÐµÑĤ": 7444,
      "ĠÐ¿Ð¾Ð¼Ð½Ð¸Ð»": 7445,
      "ÑĥÑĢÐµ": 7446,
      "Ð´Ð¾ÑĢÐ¾Ð²": 7447,
      "Ð´Ð¾ÑĢÐ¾Ð²Ð¾": 7448,
      "ĠÐķÑīÐµ": 7449,
      "ĠÐ½Ð°Ð¿Ð¸ÑĤ": 7450,
      "ĠÐ²ÐµÑĢÐ½ÑĥÐ»Ð¸ÑģÑĮ": 7451,
      "ÑĩÐ¸ÑĤÑģÑı": 7452,
      "ĠÐ»ÑİÐ±Ð²Ð¸": 7453,
      "ĠÐ²Ð¾Ð»Ð½ÐµÐ½Ð¸Ñı": 7454,
      "ĠÐ·Ð°Ð¼ÑĥÐ¶": 7455,
      "ĠÐ·Ð°Ð¿ÐµÑĢ": 7456,
      "Ð¥Ð¾ÑĢÐ¾ÑĪÐ°Ñı": 7457,
      "Ð°ÑĤÐµÐ»ÑĮÐ½ÑĭÐ¼": 7458,
      "ĠÑĩÐµÑĢÐµÐ¿": 7459,
      "ĠÐ¿ÑĢÐ°Ð²ÑĥÑİ": 7460,
      "ĠÐ·Ð°Ð²ÐµÑĢ": 7461,
      "ĠÐ½Ð°Ð·ÑĭÐ²Ð°ÐµÑĤÑģÑı": 7462,
      "ĠÑĤÑĢÐµÑĤÐ¸Ð¹": 7463,
      "ĠÐ³ÑĢÑĥÑģÑĤ": 7464,
      "ĠÑģÐ»Ð¾Ð²Ð°Ð¼": 7465,
      "ĠÐ·Ð½Ð°Ðº": 7466,
      "ĠÐŀÑĢÑĤÐµÐ³Ðµ": 7467,
      "ĠÑĤÐµÐ¼Ð¿ÐµÑĢ": 7468,
      "ĠÐ´ÑĥÐ¼Ð°ÐµÑĤ": 7469,
      "ĠÐ·Ð°Ð±ÑĭÐ²": 7470,
      "Ð»ÐµÐ½Ð°": 7471,
      "Ð»ÐµÐ½Ð½Ð°Ñı": 7472,
      "ĠÐļÐ°ÐºÐ¾Ðµ": 7473,
      "ĠÐ¿ÑĢÐ¾Ð²ÐµÐ»Ð°": 7474,
      "ĠÐ½ÐµÐ´ÐµÐ»Ð¸": 7475,
      "ĠÐºÐ¾Ð»Ð¾Ð´": 7476,
      "ĠÐ¿ÑĥÐ³": 7477,
      "ĠÐ¿ÑĥÑģÐº": 7478,
      "ĠÐºÐ°ÑĢÑĤÑĥ": 7479,
      "Ð¸ÑĢÐ¾Ð²Ð°Ð½": 7480,
      "ĠÐ½Ð°ÐºÐ»Ð¾Ð½": 7481,
      "ĠÑĥÐ»ÑĭÐ±ÐºÑĥ": 7482,
      "ĠÐ°Ð²ÑĤÐ¾Ð±": 7483,
      "ĠÐ¿Ð¾Ð³Ð°Ñģ": 7484,
      "ĠÐ½ÐµÐ²Ñĭ": 7485,
      "ÑĳÐ½Ð½Ð°Ñı": 7486,
      "Ð³Ð»Ð°Ð²": 7487,
      "ÑĤÐ°ÐºÑģÐ¸": 7488,
      "ĠÐ¾Ð±ÑĬÑıÑĤÐ¸": 7489,
      "ĠÐ´ÐµÐ¹ÑģÑĤÐ²Ð¸Ðµ": 7490,
      "ĠÐ¿Ð¾Ð±ÐµÑĢÐµÐ¶": 7491,
      "ĠÐ¶Ð¸Ð²Ð¾Ð¹": 7492,
      "ĠÑĥÑģÑĤÑĢÐ°": 7493,
      "ĠÑĥÐ´Ð¸Ð²Ð¸Ð»Ð°ÑģÑĮ": 7494,
      "ĠÑĢÐµÐ°Ð³": 7495,
      "ĠÑĥÑģÐ»ÑĥÐ³": 7496,
      "Ð¾Ð´Ð½ÑıÐ²": 7497,
      "ĠÑįÐºÑģÐ¿ÐµÑĢÐ¸Ð¼": 7498,
      "ĠÐ²Ð¾Ð»ÑĪÐµÐ±Ð½Ð¸ÐºÐ¸": 7499,
      "ÑĩÐµÑģÑĤÐ²Ð°": 7500,
      "ĠÐºÐ°Ð±Ð¸Ð½Ñĭ": 7501,
      "ĠPuma": 7502,
      "ĠÐºÐ°Ð¼ÐµÐ½ÑĮ": 7503,
      "Ð½ÑĥÑĤÐ¾Ð¹": 7504,
      "ĠÐºÐ°Ð¿ÑģÑĥÐ»": 7505,
      "ĠÐ¿Ð¾Ð½Ð¸Ð¼Ð°ÐµÑĤÐµ": 7506,
      "ĠÑīÐµÐ´": 7507,
      "Ð¸ÑĢÐ°Ñİ": 7508,
      "ĠÐ¼Ð¾Ð»ÑĩÐ°Ð»": 7509,
      "ĠÐ´ÐµÑĢÐµÐ²Ð°": 7510,
      "ĠÐ¿Ð¾Ð´Ð¾Ð±Ð½ÑĭÑħ": 7511,
      "ĠÐ½Ð°Ð²ÐµÑĢÑħ": 7512,
      "ĠÑģÐ¿Ð¾ÐºÐ¾Ð¹Ð½ÐµÐµ": 7513,
      "ĠÑĤÐ¾Ð»ÐºÑĥ": 7514,
      "ĠÐĺÐ²Ð°Ð½Ð°": 7515,
      "ĠÐ·Ð°Ð½Ð¸Ð¼Ð°ÑĤÑĮÑģÑı": 7516,
      "ĠÐ·Ð°Ð½Ð¸Ð¼Ð°ÐµÑĤÑģÑı": 7517,
      "ĠÐ²ÑģÑıÐºÐ¸Ð¹": 7518,
      "ĠÐ»ÑİÐ´ÑĮÐ¼Ð¸": 7519,
      "ĠÐ¿ÑĥÑģÑĤÑĭÐ½": 7520,
      "ĠÐ²ÑĤÐ¾ÑĢÐ¾Ð³Ð¾": 7521,
      "ĠÑģÑĤÑĢÐ°ÑĪÐ½Ð¾Ð³Ð¾": 7522,
      "Ð»Ð¾Ð²Ð½Ð¾": 7523,
      "Ð¿Ð¾Ð´Ð½ÑıÐ»": 7524,
      "ĠÐ¿ÑĢÐ¸Ð²ÑĭÑĩÐºÑĥ": 7525,
      "ĠÐ¾Ð³Ð½ÐµÐ²": 7526,
      "ĠÑħÐ¾Ð»Ð¾Ð´Ð¸Ð»ÑĮ": 7527,
      "ĠÐ¸ÑģÐ¿ÑĥÐ³Ð°Ð»ÑģÑı": 7528,
      "ĠÐ¿Ð°ÑĨÐ¸": 7529,
      "ÐŁÐ¾ÑģÐ»ÐµÐ´": 7530,
      "ĠÐ´Ð²Ð¸Ð³Ð°ÑĤÑĮÑģÑı": 7531,
      "ĠÐ¿ÑĢÐµÐ´Ð»Ð¾Ð¶Ð¸ÑĤÑĮ": 7532,
      "ĠÐ²Ð¸ÑĢÑĤÑĥÐ°Ð»ÑĮÐ½Ð¾Ð³Ð¾": 7533,
      "ĠÐ²Ð¸ÑĢÑĤÑĥÐ°Ð»ÑĮÐ½ÑĭÑħ": 7534,
      "ĠÐºÐ¾ÑĢÐ¸Ð´Ð¾ÑĢÐµ": 7535,
      "ĠÑģÐ¶Ð°Ð»": 7536,
      "ĠÐ½ÐµÐ·Ð°Ð¼ÐµÑĤ": 7537,
      "ĠÐ¿Ð¾Ð»Ð¾Ð¶Ð¸Ð»": 7538,
      "ĠSony": 7539,
      "ĠÐ¸ÑģÑĤÐ¾Ñĩ": 7540,
      "ÐºÐ¾ÑĢÐµÐµ": 7541,
      "ĠÐ³Ð»ÑĥÐ¿ÑĭÐ¹": 7542,
      "ĠÑĤÐ¾ÑĩÐºÑĥ": 7543,
      "ĠÐĹÐµÐ¼Ð½Ð¾Ð¹": 7544,
      "ĠÐ¿ÑĢÐµÐ´ÑģÑĤÐ°Ð²Ð»ÑıÐµÑĪÑĮ": 7545,
      "ÑĭÑģÐ»Ð°": 7546,
      "ĠÐ¼Ð°ÑĢÐ¾Ð´": 7547,
      "ĠÑĤÐµÑĤÑı": 7548,
      "ĠÐ¸ÑģÐºÑĥÑģÑģÑĤÐ²": 7549,
      "ĠÑģÑĥÐ»ÑĤÐ°Ð½Ñĥ": 7550,
      "ĠÐ¾ÑģÑĤÐ¾ÑĢÐ¾Ð¶": 7551,
      "ĠÐ¸ÑģÐ¿ÑĭÑĤÑĭÐ²Ð°Ð»": 7552,
      "ĠÐ±ÑĭÑģÑĤÑĢÐµÐ½ÑĮÐºÐ¾": 7553,
      "ĠÑĥÑģÐ¿Ð¾ÐºÐ¾Ð¸ÑĤÑĮ": 7554,
      "ĠÐ²Ð¾Ð¹Ð½Ñĭ": 7555,
      "ĠÐŁÐ¾Ð»Ð°Ð³Ð°Ñİ": 7556,
      "ĠÐºÐ»Ð°ÑģÑģÐ½ÑĭÐ¹": 7557,
      "ĠÑĥÐºÐ»Ð°Ð´": 7558,
      "Ð¡Ð¾Ð²ÐµÑĤÑĥÑİ": 7559,
      "ĠÐ½ÐµÐ±Ð¾Ð»ÑĮÑĪÑĥÑİ": 7560,
      "ĠÐ½Ð°Ð±Ð»ÑİÐ´ÐµÐ½Ð¸Ñı": 7561,
      "ĠÐ´ÑĭÐ¼Ð°": 7562,
      "ĠÐ¾ÑĤÐºÑĢÑĭÐ²Ð°Ñı": 7563,
      "ĠÐ¿Ð¾Ð²ÐµÑĢÑħÐ½Ð¾ÑģÑĤÑĮ": 7564,
      "ĠÐ¿Ð¾ÑģÑĤÐ¾ÑıÐ½": 7565,
      "ĠÐ¿ÑĢÐµÐ¿Ð°ÑĢ": 7566,
      "ĠÐĽÐ¾ÑĢÐ´": 7567,
      "ĠÐ¿Ð¾Ð¼ÐµÑīÐµÐ½Ð¸Ðµ": 7568,
      "ĠÐ¾ÑĦÐ¸ÑĨÐ¸": 7569,
      "ĠÑīÐµÐºÐµ": 7570,
      "lay": 7571,
      "ĠÐ²Ð¸ÑģÐºÐ¸": 7572,
      "ĠÑĩÑĥÐ¶Ð¸Ðµ": 7573,
      "ĠÐ¾ÑĤÐ²ÐµÑĢÐ½ÑĥÐ»ÑģÑı": 7574,
      "ĠÑĦÐ¾ÑĢÐ¼Ñĭ": 7575,
      "ĠÐ¾Ð¿ÑĥÑģÑĤÐ¸Ð»ÑģÑı": 7576,
      "ĠÐ¶ÐµÐ½ÑīÐ¸Ð½Ðµ": 7577,
      "ĠÑģÐµÐ¼ÑĮÐ¸": 7578,
      "ĠÐ¸ÑģÑĤÐ¾ÑĢÐ¸Ð¸": 7579,
      "ĠÐ¸ÑģÑĤÐ¾ÑĢÐ¸Ñı": 7580,
      "ĠÐ±ÑĢÑİ": 7581,
      "ĠÑĥÐ±ÐµÐ¶Ð¸ÑīÐµ": 7582,
      "Ð°ÑİÑīÐ¸ÑħÑģÑı": 7583,
      "ĠÑģÐ¸Ð³Ð°ÑĢÐµÑĤÑĥ": 7584,
      "ĠÐ¿Ð¸ÑĤÐ°Ð½Ð¸Ðµ": 7585,
      "ĠÐ²ÑģÑĤÐ°ÑĤÑĮ": 7586,
      "Ð¾ÑĢÐ°ÑĩÐ¸Ð²Ð°ÑıÑģÑĮ": 7587,
      "ÑħÐ¾Ð¶Ñĥ": 7588,
      "ĠÑĤÐµÑĢÐ¿ÐµÑĤÑĮ": 7589,
      "ĠÐ¿Ð¾ÑģÑĤÐ°ÑĢÐ°Ð»ÑģÑı": 7590,
      "ĠÐ½ÐµÐ¶Ð½Ð¾": 7591,
      "ĠÐ²ÑĭÐ³Ð»ÑıÐ´Ð¸ÑĤ": 7592,
      "ĠÐ¿ÑĢÐ¾ÑĩÐ¸ÑĤÐ°ÑĤÑĮ": 7593,
      "ĠÐĺÐ¼ÐµÐ½Ð½Ð¾": 7594,
      "ĠÐ¾Ð¶Ð¸Ð´Ð°Ð»": 7595,
      "ĠÐ½Ð°Ð¿Ð¸ÑģÐ°Ð½Ð¾": 7596,
      "ĠÐ³Ð°ÑĢÐ¼Ð¾": 7597,
      "ĠÐ²Ð¾Ð·ÑĢÐ°Ð·Ð¸Ð»Ð°": 7598,
      "ĠÐ¿ÐµÑĩÐ°Ð»ÑĮÐ½Ð¾": 7599,
      "ĠÐ¼ÑĥÑģÐºÑĥ": 7600,
      "ĠÑĥÑģÐ¿ÐµÑħÐ¸": 7601,
      "ÐĿÐ°Ð´ÑĳÐ¶": 7602,
      "Ð°ÑİÑīÐ°ÑıÑģÑı": 7603,
      "ĠÐ·Ð°Ð³Ð»ÑıÐ½ÑĥÐ»": 7604,
      "ĠÐ·Ð°ÑħÐ¾ÑĤÐµÐ»Ð¾ÑģÑĮ": 7605,
      "ĠÐ¿Ð¾Ð´Ð¾Ð¶Ð´Ð°ÑĤÑĮ": 7606,
      "ÐĹÐ°ÐºÐ°ÑĤ": 7607,
      "ĠÑĤÐ¾ÑĢÐ¾Ð¿Ð»Ð¸Ð²Ð¾": 7608,
      "ĠÑģÐ¾Ð¾ÑĤÐ²ÐµÑĤÑģÑĤÐ²ÑĥÑİ": 7609,
      "ĠÐĹÐ°Ð²ÑĤÑĢÐ°": 7610,
      "ĠÐ¿Ð¾ÑģÐ¼Ð¾ÑĤÑĢÐ¸Ð¼": 7611,
      "ĠÐ»Ð°ÑģÐºÐ¾Ð²Ð¾": 7612,
      "ĠÑĥÐ·Ð½Ð°ÐµÑĤ": 7613,
      "ĠÐ»ÐµÐºÐ°ÑĢÑģÑĤÐ²Ð°": 7614,
      "ĠÐ²ÑģÐºÑĢÐ¸": 7615,
      "ĠÐ²ÐµÑĢÐ¾ÑıÑĤÐ½Ð¾": 7616,
      "ĠÐºÑĢÐ¾ÑĪÐµÑĩ": 7617,
      "ĠÐ·ÑĢÐµÐ½Ð¸Ñı": 7618,
      "ĠÐ¿Ð¾Ð¸ÑģÐºÐ°Ñħ": 7619,
      "ĠÐ±ÑĭÑģÑĤÑĢÑĭÐ¹": 7620,
      "ĠÐĿÑĮÑİÐ¿": 7621,
      "ĠÑĢÐ°ÑģÑģÑĤÐ°Ð²Ð»Ñİ": 7622,
      "ÑĢÐ¸ÑģÑĤÐ¸Ð½Ð°": 7623,
      "ĠÐ¶ÐµÑĢÑĤÐ²": 7624,
      "ĠÐŁÐµÑĤÑĥÐ½Ð¸Ñı": 7625,
      "ĠÐĺÑģÐºÐ¸Ð½": 7626,
      "ĠÐ½Ð°ÑģÑĤÐ¾ÑıÑīÐµÐµ": 7627,
      "ĠÐłÐµÐ·ÐµÑĢÑĦÐ¾ÑĢÐ´": 7628,
      "ĠÐ¾ÑĦÐ¾ÑĢÐ¼Ð»Ñİ": 7629,
      "ĠÐ²ÑĭÐ¹Ð´ÐµÑĤ": 7630,
      "ĠÐ°Ð¼ÑĥÐ»ÐµÑĤ": 7631,
      "ĠÑĥÐ´Ð¾Ð²Ð»ÐµÑĤÐ²Ð¾ÑĢ": 7632,
      "ĠÐ¤ÑĢÐ°Ð³Ð¼ÐµÐ½ÑĤ": 7633,
      "ĠÑĨÐµÐ½ÑĤÑĢÐ°": 7634,
      "ÐĳÑĥÐ´ÑĥÑīÐµÐµ": 7635,
      "ĠÐ²ÑĢÐ°ÑĩÐ°": 7636,
      "ĠÐ¾Ð³Ð»ÑıÐ´ÐµÐ»ÑģÑı": 7637,
      "ĠÐļÑĢÑĥÑĨÐ¸": 7638,
      "ĠÐºÐ°ÑĦÐµ": 7639,
      "ĠÐ¿Ð¾Ð»ÑĥÐ¼ÑĢÐ°Ðº": 7640,
      "ĠÐ¸Ð½ÑĤÐµÐ»Ð»ÐµÐº": 7641,
      "ÐĳÐ»Ð°Ð³Ð¾Ð´Ð°ÑĢÑİ": 7642,
      "ĠÐłÐ°ÑģÑģÐºÐ°Ð·ÑĭÐ²Ð°Ð¹": 7643,
      "ĠÑĤÐºÐ°ÑĩÐ¸ÑħÐ°": 7644,
      "ĠÐ±Ð»Ð°Ð³Ð¾Ð¿Ð¾Ð»ÑĥÑĩÐ½Ð¾": 7645,
      "ĠÐ±Ð¸Ð±Ð»Ð¸Ð¾ÑĤ": 7646,
      "++": 7647,
      "?..": 7648,
      "or": 7649,
      "un": 7650,
      "ĠI": 7651,
      "ĠÑīÑĳ": 7652,
      "ÐµÑĤÐ¾Ð½": 7653,
      "Ð¸ÑģÑĤÑĮ": 7654,
      "Ð¸ÐºÐ¾Ð¼": 7655,
      "ÑĢÐ°Ð±Ð°ÑĤ": 7656,
      "Ð»ÐµÐµ": 7657,
      "Ð»Ð°Ð½Ð°": 7658,
      "ÑĥÐºÐ¾Ð²": 7659,
      "ÑıÐµÐ¼": 7660,
      "ÑıÐ»Ð¸ÑģÑĮ": 7661,
      "ÑıÑīÐ¸Ðµ": 7662,
      "ĠÐ¿Ð°Ð¹": 7663,
      "ĠÐ¿ÑıÑĤÐ¸": 7664,
      "ĠÐ¿Ð°ÐºÐµÑĤ": 7665,
      "ĠÐ½ÐµÐ»": 7666,
      "ĠÐ½Ð°Ð»Ð¸": 7667,
      "ĠÐ½ÑĭÐ½": 7668,
      "ĠÑģÐ°Ð»": 7669,
      "ĠÑģÐµÑĤÑĮ": 7670,
      "ĠÑģÐµÑĤÐ¸": 7671,
      "ĠÑģÐ°Ð½ÑĤÐ¸Ð¼ÐµÑĤ": 7672,
      "ÑĩÑĥÐ²ÑģÑĤÐ²": 7673,
      "ÐºÐµÑĢ": 7674,
      "ÐºÐ°Ð»Ð°": 7675,
      "ĠÐ²ÑĢÐµÐ·": 7676,
      "Ð²Ð°Ð»Ð°": 7677,
      "Ð¼Ð¾Ð·": 7678,
      "ĠÐ¾ÑģÐºÐ¾ÑĢ": 7679,
      "Ð°Ð»Ð¾Ð²": 7680,
      "ÑģÑĤÐ¾Ð¼": 7681,
      "ÑĪÐ»Ð¾ÑģÑĮ": 7682,
      "ĠÐºÑĥÑģÑĤ": 7683,
      "ĠÐºÑĢÐ°Ñİ": 7684,
      "ÐµÐ½Ð½Ð¾Ð¼Ñĥ": 7685,
      "Ð¾Ð²Ð¸": 7686,
      "Ð¾Ð²Ð°ÐºÑģ": 7687,
      "ĠÐ´ÐµÐ¿": 7688,
      "ĠÐ´Ð¸Ñģ": 7689,
      "ĠÐ¼Ð¸ÑĢÐ¾Ð²": 7690,
      "ĠÐ¼ÑĢÐ°Ñĩ": 7691,
      "ÑĢÐ¸ÑĤÑĮ": 7692,
      "Ð¾Ð»Ð°": 7693,
      "Ð¾Ð»Ð¾Ð²": 7694,
      "ĠÐ±Ñĥ": 7695,
      "ĠÐ±Ð¸Ð·Ð½ÐµÑģ": 7696,
      "ÑĢÐ¾Ð¸Ð´Ð°": 7697,
      "ĠÑĥÑĪÐµÐ¹": 7698,
      "ĠÑĥÑĪÐ»Ð°": 7699,
      "ĠÑĩÐ¸ÑģÑĤÐ¾": 7700,
      "ĠÑĩÐ¸ÑģÐ»": 7701,
      "ĠÐ½Ð°ÑĩÐ¸": 7702,
      "ĠÑĢÑĤÐ°": 7703,
      "ĠÐ½ÐµÑģÑĥ": 7704,
      "ĠÐ¿Ð¾ÑĢÐ¾Ñģ": 7705,
      "ĠÐ¿Ð¾ÑĪÑĳÐ»": 7706,
      "Ð»Ð¸ÑĨÐ°": 7707,
      "Ð»Ð¸Ð²Ñĭ": 7708,
      "Ð»Ð¸ÑĩÐ¸Ðµ": 7709,
      "Ð³Ð¾Ð²Ð¾ÑĢ": 7710,
      "ĠÐµÑģÑĤÐµÑģÑĤÐ²ÐµÐ½Ð½Ð¾": 7711,
      "Ð¾ÑĢÐ¾Ðº": 7712,
      "Ð¾ÑĢÐ½Ð¾Ð¹": 7713,
      "Ð¸ÑĤÐ¾Ð¼": 7714,
      "Ð¸ÑĤÑĭÐ¹": 7715,
      "ĠÐ³ÑĢÑĭÐ·": 7716,
      "ĠÐ³ÑĢÐ¸Ð¿": 7717,
      "Ð°ÑģÑĭ": 7718,
      "ĠÐ¾ÑĤÐ´Ð°": 7719,
      "Ð¾Ð¶Ð°": 7720,
      "Ð¾ÐºÐ¾Ð½": 7721,
      "ĠÑįÑģÐº": 7722,
      "ĠÑįÑĢÐ¾ÑĤÐ¸": 7723,
      "ÐµÑģÐµÐ»": 7724,
      "Ð¸Ð²ÑĪÐ¸Ð¼ÑģÑı": 7725,
      "ĠÐ¿ÑĢÐ¾ÑĪÐ¸": 7726,
      "ĠÐĵÐ¾Ð²Ð¾ÑĢÑıÑĤ": 7727,
      "ĠÐ¿ÑĢÐ¸ÑĢÐ¾Ð´": 7728,
      "ĠÐ¿ÑĢÐ¸ÑĩÐµÐ¼": 7729,
      "ĠÐ¿ÑĢÐ¸ÑħÐ¾Ð´Ð¸ÑĤ": 7730,
      "ĠÐ¿ÑĢÐ¸ÐºÐ»ÑİÑĩ": 7731,
      "ĠÐ²ÑĭÑģÐºÐ°Ð·": 7732,
      "ĠÐ²ÑĭÐ·Ð¾Ð²": 7733,
      "ÐµÐ²ÑĪÐ¸ÑģÑĮ": 7734,
      "Ð¼Ð¸Ð½Ð°Ð»Ð¸": 7735,
      "ĠÐ¾Ð±Ð»": 7736,
      "ĠÐ¾Ð±Ð¾ÑĢÐ¾": 7737,
      "ĠÐ¾Ð±Ð½ÑıÐ»": 7738,
      "ĠÐ¾Ð±Ð»Ð¸Ð·": 7739,
      "ĠÐ¾Ð±ÑģÐ»ÑĥÐ¶": 7740,
      "Ð»ÑıÐ¿": 7741,
      "ĠÐ¿Ð¾Ð´ÑĥÑĪÐºÑĥ": 7742,
      "ĠÐŁÐ¸Ð½Ð³": 7743,
      "ĠÐĶÑĥÐ¼Ð°Ñİ": 7744,
      "ĠÐĶÐ¾Ð´Ð¾": 7745,
      "ÐµÐºÑĤÐ¾ÑĢÐ°": 7746,
      "ĠÐĴÑĢÐµÐ¼Ñı": 7747,
      "ÐµÑĪÐºÐ¸": 7748,
      "ĠÐ¸Ð·Ð´ÐµÐ²": 7749,
      "ĠÐŀÐ½Ð¾": 7750,
      "ĠÐŀÑģÑĤÐ°Ð²": 7751,
      "ĠÐ¡Ð¾Ð»Ð½": 7752,
      "ĠÐ¡Ð¾Ð·Ð´": 7753,
      "ĠÑģÐ²Ð¸ÑĤ": 7754,
      "ĠÑģÐ²Ð°Ð´ÑĮ": 7755,
      "ĠÑĢÐ°Ð·Ð³Ð»ÑıÐ´ÐµÐ»": 7756,
      "ÐĿÐ°Ñĩ": 7757,
      "ÐĿÐ°ÐºÐ¾Ð½ÐµÑĨ": 7758,
      "ÐŁÐ¾Ð·": 7759,
      "ÐŁÐ¾ÑĤÐ¾Ð¼": 7760,
      "ĠÑģÐ¿Ð¸ÑĤ": 7761,
      "ĠÑģÐ¿Ð¾ÑħÐ²Ð°ÑĤ": 7762,
      "Ð½ÑıÐ»Ð°": 7763,
      "ĠÐ¿ÐµÑĢÐ¸": 7764,
      "ĠÐĲÑĢ": 7765,
      "ÐŀÑģ": 7766,
      "ĠÐľÐ¾ÑģÐº": 7767,
      "ĠÐľÐ¾Ð¸": 7768,
      "ĠÐľÐ¸ÑĢÐ¾ÑģÐ»": 7769,
      "Ð¡Ð»ÐµÐ´": 7770,
      "Ð¡Ð»ÑĥÑĪÐ°Ð¹": 7771,
      "ÑĭÐ²Ð°Ð½Ð¸Ðµ": 7772,
      "ÑĭÐ²Ð°Ð»Ð°ÑģÑĮ": 7773,
      "ÐĴÐ¾Ð·Ð¼Ð¾Ð¶Ð½Ð¾": 7774,
      "ĠÑĪÐ°Ð½": 7775,
      "ÑģÐ¿Ð¾ÑĢ": 7776,
      "ĠÐłÐ¸Ð¼": 7777,
      "ÑĥÑİÑīÐ¸Ð¹": 7778,
      "ĠÐ´Ð²Ð¾": 7779,
      "ĠÑģÐ¼ÐµÑĪÐ½Ð¾": 7780,
      "ĠÐ²Ð·ÑĢÑĭÐ²Ð°": 7781,
      "ĠÑĢÐ°ÑģÑħÐ¾Ð´": 7782,
      "ĠÐ¿Ð¾ÐºÐ¾Ð»": 7783,
[...]
